#version: 0.2
d e
r a
d o
e s
n t
d a
c o
o s
a s
r i
r e
t a
e r
i s
o r
m a
ã o
a l
i n
e m
c a
e nt
q u
c i
r o
e n
a n
t i
e l
a r
s e
co m
t o
ç ão
qu e
d i
t e
n o
n a
p a
p o
l i
do s
e i
m ent
u l
n i
s i
t u
g u
o u
o n
v i
u m
r es
p or
s o
co n
1 9
v a
h a
de s
o l
u ma
da s
s u
f i
m o
ri a
l a
pa ra
t ra
m i
e x
u s
p ro
da de
õ es
nt e
g i
f o
p e
n ci
ment e
l o
a m
h o
d u
t er
ra m
2 0
a t
p el
l e
u n
com o
v e
ra n
g a
g o
m e
a nt
is t
v er
p os
s a
p ri
i a
) .
ç ões
f or
c e
p i
z a
t r
ment o
es ta
b i
c as
in a
c ul
ma is
fo i
E s
s ão
ri o
t os
h e
co nt
is ta
v o
p ar
é m
m u
nci a
ç a
al i
l u
m b
t or
e ra
a o
p res
p er
co s
tu ra
ei ro
ei ra
s er
1 8
nt es
f e
es t
m as
an do
t em
c u
r os
i m
í s
g ra
n e
co r
i l
su a
n ão
p re
a ção
a b
el e
ê ncia
P a
gu es
b ra
C o
r u
i nt
ent e
n s
c h
n os
) ,
si l
an o
ê s
a do
n do
ci o
t as
ti ca
for ma
on al
M a
se u
i o
E m
f a
A l
l í
v ol
b a
fi ca
R e
m in
v el
c es
j a
f re
ent re
ri ca
n as
p ul
en do
N o
c ri
pel a
ta l
ta mb
di a
re i
con s
tamb ém
po de
t ro
ci a
20 0
p en
se gu
do r
ci al
pri m
ci onal
m es
ca r
a g
a u
pel o
P or
ma n
i r
ma r
nt o
20 1
f u
b li
em b
á ri
c er
so b
c í
p es
á rio
en s
p l
A s
an os
ra s
qu i
u ni
U ni
o b
da des
c ent
j u
in o
d is
ri s
as s
t ó
ta r
N a
ti va
O s
p al
i de
ant o
ti co
tr u
t ri
g e
or te
po pul
t es
ta do
ci dade
ti tu
S e
b ol
er ra
C on
m os
par ti
c al
C a
gi a
de r
S ão
b o
19 9
a d
i or
mu i
u r
es te
g re
D e
c ha
ni o
t en
pa ís
B ra
pro du
tr os
fre gues
j e
v is
p r
l h
in i
f un
c re
p u
in s
a is
ç o
s é
ma ior
v al
m en
â ni
in ha
p an
g ran
int er
0 0
o ri
s em
con he
m é
po lí
b er
I I
is mo
1 7
sob re
g an
b e
v os
te bol
g os
v as
a da
ment os
ra l
ó s
1 5
re gi
c el
cont ra
i x
pres ent
cul o
bra sil
ali za
G u
cí pi
re la
x i
mu ni
pos i
J o
pe ra
A r
g em
ri or
at é
fu tebol
c lu
ist ó
de n
fo ram
ar es
gu a
ca da
j o
19 8
c l
Bra sil
in g
m er
an a
el a
por ta
ári os
a p
b as
b al
M ar
fregues ia
g al
M o
V i
al gu
conhe ci
fe re
par te
ve z
pri nci
ç as
h i
b ri
se us
ant i
en vol
P o
ra nte
in do
Es ta
nt i
g en
r á
u ro
p é
19 7
1 6
nt a
L i
I n
R o
ti vo
t á
a c
is te
fi l
m un
po is
c he
go ver
p as
si m
at ri
cio na
am e
in da
por tu
ú bli
re a
s endo
i as
S ant
b u
v es
p lo
19 6
C as
ist as
do res
cípi o
de ra
su b
li a
F ran
vi a
C ar
P e
ei ros
bi ta
v en
on de
1 4
ei to
m ina
t é
B a
l an
p úbli
co l
era l
b an
o na
ca m
or es
no me
ul o
h os
e t
futebol ista
z i
Por tu
gran de
Q u
f í
1 0
di o
tra s
ô ni
ou tros
19 4
sé culo
si dade
A n
f er
ti cas
po n
cul tura
es pe
za ção
va m
i ra
segu i
" ,
qu al
f in
re g
é s
h as
ent es
a os
ol o
19 5
s os
tra ns
" .
fi a
19 3
est á
g ar
ha bita
su as
popul ação
brasil eiro
g as
tu al
g n
nci as
na cional
d ro
a inda
prim eira
Co m
cor re
pr ó
S u
s t
o ra
muni cípio
ame rica
L u
qu ando
prim eiro
n ú
pes so
istó ria
vi mento
t re
mes mo
1 2
in clu
c en
vi da
C h
á s
in f
v ent
gre ja
es s
emb ro
des envol
b ro
F o
con si
regi ão
mi a
a tra
S o
re ce
n orte
fa z
t âni
é r
li ca
du rante
t í
ra ção
de m
m el
M i
f ran
mui to
ri n
ve is
h er
c ria
do is
es cri
Portu gal
esta do
á rea
j á
cons tru
cha ma
iste ma
pen as
P ar
qu anto
L e
l on
ó gi
c is
es ti
k m
mi l
r í
c k
si g
in e
tra bal
fun da
re m
in di
cu r
p la
princi pal
R io
is tra
1 3
bi li
ári as
ces so
mun do
ma io
si ca
pos su
habita ntes
i ta
de f
es tu
ti li
or gan
d ist
a penas
s í
m or
in d
de nt
el o
den se
ti cos
E x
gover no
co lo
li v
P ro
pel os
mi ca
to dos
g ru
ca n
a dos
l ei
l es
d é
m ei
p ra
di fere
e ram
de pen
im porta
al e
o do
ç os
ê ncias
ri to
vi do
com e
c la
co u
i nte
au to
gra fia
= "
19 2
ide nte
á ria
D i
ant es
n da
S en
d ência
tó rio
ro u
ci mento
D es
R i
ta ção
tem po
e di
m ul
pa is
ci e
des ta
ca pi
qu er
s istema
si do
ou tras
i ção
to u
an d
a v
consi dera
polí tico
I greja
cia is
di ver
esta du
l os
cer ca
in as
mi li
c ra
t inha
ist em
ali dade
portu gues
di re
nú mer
S a
ca do
de pois
C i
co la
í cio
u tili
es se
Esta dos
to n
an i
C am
ú l
f ei
V er
bri tâni
vol u
re li
os o
t h
re present
con cel
est ão
à s
h uma
G o
ó r
A nt
M u
reli gi
s ul
to do
ap ós
a present
per í
Sant a
ca ção
ex em
tr ês
en contra
an eiro
O u
nt er
p ass
2 1
in ho
tor es
s as
B ar
v és
â ncia
ce u
F re
Pa ra
des de
o f
v í
públi ca
J os
Jo ão
al em
en a
no u
ra c
parti r
B o
ent ão
mi lh
f al
ma l
úl ti
pesso as
ti vos
N os
D u
ali gn
min istra
e ta
el es
b em
Gu erra
ri g
ho ra
ni a
pas sa
m á
atri z
po u
ti vi
T o
ri as
me di
de z
du as
o bra
at or
pe ri
em ent
lo c
at ro
ciona is
as e
di al
cons titu
g eral
s on
pan h
F er
us a
posi ção
no va
concel ho
ri os
ul a
E uro
co no
em ente
cial mente
t ê
h t
cont in
ri e
N e
1 1
Pa ulo
ter ra
pode m
h á
an u
ó nio
O r
a pro
algu ns
si a
b ele
pu bli
bas e
á vel
l as
perí odo
á l
f am
D o
de ira
al mente
re n
u a
o fi
america no
ter ri
Se gu
estadu ni
atra vés
ni fica
Uni dos
2 5
al ém
eira s
ti vas
númer o
tru tura
v em
I m
G ran
n g
ra da
es tra
da dos
organ i
ra do
s al
n or
L a
Uni ver
h or
l in
Con s
m ú
is to
as sim
a cor
estaduni dense
19 0
ag em
re aliza
J u
tra di
ro ma
201 3
in ício
ta mente
olo gia
i u
su r
exem plo
C or
c res
ent a
ga do
18 9
ju nto
ar d
pa re
ma da
es trutura
T e
m on
po vo
F a
s ó
S ul
pres idente
sig nifica
er o
de u
ar qui
c ês
qu is
os a
so l
gu ês
á gua
se ja
pe qu
X I
C ent
m is
mi co
a tual
segu ndo
des te
f rica
res ul
a po
L o
2 4
ob je
e con
pl an
ho m
a ca
ti do
tu r
ta dos
fi r
ab ri
ta is
t endo
ser vi
ad ministra
f ro
portugues a
b el
ar t
lí n
z e
t ão
G e
Es tado
ex ter
P i
Jos é
inf lu
ri co
produ ção
an g
I nter
a nte
h istória
o cu
o grafia
ú ni
acor do
ã os
U m
esta bele
é po
maio ria
Fo i
3 0
F e
I s
rei ra
ta nto
E nt
P er
en quanto
di rei
vez es
polí tica
cont ro
ca rac
M un
men os
si co
país es
c ó
li o
E n
fran cês
R a
g rá
m í
princi pais
v ários
b re
í vel
ri bu
T ra
si tu
nt os
es sa
c é
Gran de
p ei
gu erra
te ve
pan ha
z ar
vis ão
M e
II I
popul a
Sen hora
es a
de nte
am bi
capi tal
do u
épo ca
D a
ci on
o corre
l ha
ga ções
n um
bili dade
pode r
na tura
di do
ria m
i dade
com uni
mui tos
T he
da r
ta da
terri tório
milh ões
F i
gran des
ser va
am b
Uni ão
c le
em pres
ci do
ba ix
r us
í do
se de
b ar
es pé
g ens
18 8
f ra
conheci do
ga da
e cono
s en
B i
di as
S anto
F or
é tica
tiva mente
ri m
te ra
X V
bo a
v árias
el i
í lia
algu mas
A le
ent anto
ul ho
fi m
fin al
201 1
cl as
r é
britâni co
ne ces
N orte
mei o
te ri
so cial
pé rio
Ma ria
H istória
i ro
tor nou
2 3
Fran ça
desenvol vimento
lo cal
fe ri
tê m
pe c
la do
pel as
Vi la
p ós
per mi
rei ro
utili za
forma ção
Re pública
dé cada
possu i
de no
da n
tor na
mo der
Na cional
Ro ma
p le
so ci
ori gem
ol ógi
c in
a co
de vido
vol ta
gru po
U ma
es pa
c li
â n
cor po
2 2
te rior
en o
í da
il ha
i t
in depen
Fre gues
c ente
f os
C ol
f eito
n u
pro je
fi co
Pe dro
ca nt
ou tro
lu gar
No va
lo gia
ru z
E le
h istó
M é
S al
ca pa
loc aliza
ve u
Ent re
lon go
x o
qu es
m ou
ç ou
n al
z o
ta nte
p ó
lo go
te c
portu guês
ca is
a qu
mui tas
h ou
ga ção
alem ão
ho je
18 6
un ho
def ini
N i
ex ist
com posi
pes ar
5 0
g ê
qu ais
ent i
cul ar
g in
is so
en e
li mi
Nos sa
e qui
qu ia
ocu pa
pró pri
c ho
to das
le va
cul os
di da
pos ta
u gu
importa nte
ú s
á r
principal mente
u so
cent ro
á tica
di ta
ex i
to tal
volu ção
18 7
f is
o ria
c ro
fica ção
di vi
re as
ci os
i ma
ita li
d ra
fregues ias
econ ô
trabal ho
me tros
o p
en er
o pera
el ement
Euro pa
de ve
ol a
v ista
el as
tu bro
on s
v ou
esta va
rig ht
j or
vi l
da do
v ar
P al
P res
cont a
Re ino
a ta
J aneiro
qu atro
qu í
b us
. .
pro cesso
f l
w a
el ei
ci es
M uni
cas a
ta ndo
Cas a
des co
en de
ta n
est as
t he
tem bro
L is
ci da
mili tar
deno mina
d in
gu e
ra r
exter nas
ci to
de ter
res pon
de ix
p í
c em
ci dades
ã es
no vo
difere ntes
tivi dade
v in
pres são
se qu
brasil eira
es panh
Univer sidade
ran do
C al
l er
gu as
sub s
t el
constru ção
l ar
ci ent
ran ça
S é
d ri
rela ção
c to
is e
XI X
ina do
anti ga
ti a
ôni a
m orte
d ão
emb ora
qual quer
gra ma
da ta
ha via
T a
A nti
H o
Jo h
t in
L ei
pass ou
e uro
Por to
emb ros
Im pério
H a
el ho
pro te
l he
v embro
C ris
A mé
tal ha
mo de
Li gações
di os
ís tica
Mun dial
T er
r ão
an ça
en ça
su per
P ra
P atri
ter mo
) ;
N or
D em
econo mia
í n
Lis boa
inclu indo
vi la
lín gua
B er
conheci da
ci pal
g er
a ções
C ul
per ten
Es te
g res
tor n
c us
di z
escri tor
to da
cas o
me ta
H en
po li
4 0
du zi
cípi os
00 0
inte gra
to ra
por te
mo vimento
t s
for ça
qu ase
ar te
dez embro
gover na
s ões
ti po
ô nio
a fir
Co mo
p li
de us
o este
qu ista
2 8
f é
ag os
ener gia
de ntes
ul ar
man ha
bi o
I ns
carac ter
p h
c un
P ol
co le
pos sí
ci dent
a tu
Al ém
a us
S il
ins titu
pos to
ris ta
ent al
ís ticas
x a
Ale manha
va da
201 0
W il
cie dade
com er
c ei
fre qu
k i
m embros
e vent
po nto
2 6
pal av
parti ci
Fran cis
maior es
uni ver
2 7
m ónio
In g
el ha
nt as
f on
va do
tem pera
20 21
ni ca
ú de
S i
G a
te ria
g era
ca na
den sidade
con junto
a das
el é
n uma
á reas
z es
composi tor
gi o
e cu
C ruz
dis so
k a
man da
ves ti
18 5
B e
ci r
T or
ci ência
l ista
ou ro
fam ília
ri que
A ma
pe rior
fer ência
A pós
C an
chama do
ha m
i to
g ent
F un
clas si
popula cional
pro pri
for mas
con di
s es
gru pos
ante rior
Du rante
ti on
tar de
en d
h ar
espé cies
es col
S er
Car los
C ab
est re
V al
de mo
fu nci
t elo
mar ca
pou co
en as
com ple
c lo
prim eiros
f lu
pi nt
l em
ado r
or g
se ria
segu nda
b ran
Po pul
Cent ro
â ne
t ria
dent ro
ul as
tí t
g ou
ist ro
pro b
lan ça
T erra
obra s
h eiro
r y
j ulho
n er
des a
ris mo
na ção
mes ma
j aneiro
at ó
â nti
istem as
X X
tó ria
regi ões
ma ra
N as
du cação
va ria
tr ó
pes quis
cé l
te oria
ar ti
Cul tura
em pre
18 3
g ol
200 0
Amé rica
á veis
lan d
S ol
com um
m ão
e vi
m em
mul her
ér cito
O ri
ri dade
sem pre
importa ntes
geral mente
apro xi
ve reiro
ex peri
cent er
De us
ca das
c rí
Ca pela
2 9
M as
fi cou
cur sos
cen so
E l
agos to
po l
rece be
b is
za do
vel mente
í a
com un
mé dia
Al gu
Ri b
se tembro
us ado
tu re
mi o
200 1
ju da
4 5
A o
ou tubro
p lica
mi cas
B u
mú sica
en se
m ol
de cla
se x
t ina
pa d
jor nal
ma ndo
cria ção
n ível
L ou
tempera tura
do min
ofi cial
ex ecu
sur gi
in os
Co nt
8 0
na cionais
ch i
ori gin
for ças
Francis co
cin co
el l
de ri
per ma
Ing la
Ingla terra
mar ço
s enti
I B
Ant ónio
no vembro
B an
fil ho
Fregues ias
fran ces
possí vel
qu ad
p ria
C ha
ra is
con quista
abri l
Ins titu
au ment
ban deira
j unho
is ti
Í n
est es
fro nt
ta m
en da
deter mina
A nos
C u
R u
ment al
jo ga
ou tra
cam po
6 0
cres cimento
cant or
e u
té c
com pu
l ógi
re al
g é
l ês
ar ma
por to
D ia
re f
faz er
natura l
m bi
ve ram
na da
Á frica
or de
de ral
ab er
ta mento
ca nto
s an
pera dor
at in
P rim
fi gu
7 0
arqui te
li dade
or ge
A t
es cre
i da
Ch ina
Patri mónio
por t
Segu ndo
s istemas
Es panha
J a
M in
ins ta
diver sos
qu anti
tivi dades
G ra
te x
h isto
ide nti
com pl
R ua
ta res
pró xi
itali ano
pos terior
produ zi
segui nte
z ona
pa rece
de ia
mas sa
diver sas
soci ação
M anu
Par tido
cur so
za da
ind us
come çou
S ou
popul ar
li ber
du ção
qu il
200 9
se para
fe z
fa to
c ine
con f
Re gi
200 8
própri o
6 5
ur b
al to
le g
di ca
se is
pos tos
su perior
contin u
T i
era is
re fere
is la
R ob
ing lês
Mu seu
mi cos
201 2
ri na
cri st
l á
199 0
rela ciona
chama da
ex ti
a z
H er
M on
200 7
t ário
ja pon
E mb
ob serva
pr é
C os
conheci mento
propri e
200 6
Inter nacional
pri n
val or
públi co
ca us
R ei
T amb
Joh n
st ria
tu do
S an
m ã
li to
es cra
mi gra
L on
M an
u ra
as so
f era
lo cais
organi zação
estu do
s ário
ú stria
Fer n
re de
í veis
3 9
F il
pro ces
S erra
mo nt
ens os
ini ci
direi to
so lu
produ tor
res ta
As s
at os
pa pel
t y
gu i
influ ência
produ z
al ta
mo do
ab a
pen sa
ús sia
de i
subs titu
desco ber
s or
v ão
ver dade
Tamb ém
do cu
po ns
ex plo
ti m
lin gu
america na
sé rie
come ça
to ma
ci dos
espa ço
considera do
t ele
ri cos
ci ma
fi ci
pe di
mode lo
cont ribu
ap lica
si va
aco nte
cident al
fo ra
200 5
j as
liv ro
Manu el
el eito
con ce
âni a
ess es
b ur
b á
I tá
ma tem
ent emente
b or
da ção
â mara
element os
c eira
vi o
hom ens
res pons
pro grama
os os
di co
ca usa
ter ras
li b
f ab
f t
ne g
V ale
f as
pl es
T em
C lu
B ri
E r
E di
os as
v ul
pl os
mel hor
qu em
por ém
pei a
9 0
canto ra
in vesti
Qu ando
perma ne
de l
ge o
18 4
tre ina
lh as
ani mais
ver no
e b
so ciedade
200 4
anti go
der ro
á tico
Muni cipal
tít ulo
i gu
i ções
Al ex
z ou
l inha
t enta
Sé culo
An d
um e
198 0
Itá lia
M or
por que
3 1
cient í
pro ví
for te
mu dan
colo ni
int a
T u
int en
A pesar
ture za
pre cis
min u
mos tra
en cont
a ma
Uni do
v ei
k e
N A
ex tre
g lo
A u
J e
P en
inter nacional
ix o
v an
d ê
úni co
re ia
F u
Sant os
f esta
t ent
l este
é tico
18 0
tó rios
il has
fer ro
apresent a
ban da
Segu nda
ga dos
ind ústria
Institu to
cultura l
us ão
i greja
sim ples
em in
fe vereiro
va ção
tinha m
ali dades
ér cio
in hos
di m
espanh ol
re forma
de sig
pe ti
fun ção
I S
espe cialmente
pre n
dist ribu
ina is
197 0
g ares
pres ença
pos si
fica do
c ensos
com ércio
As sim
C hi
195 0
c r
mun dial
cre to
atri bu
196 0
cl ás
produ tos
ul os
B ran
ma nt
dist rito
tec no
Emb ora
um o
a pare
inte rior
men or
ta das
ro m
Cas telo
mer cado
le y
p ia
d ó
fin an
cul as
represent a
A fon
200 3
c eiro
o fere
I r
últi mo
ca te
pa i
do mí
ter mos
servi ços
fi cas
im perador
partici pa
a frica
se ma
j us
Or dem
des se
exist ência
Rob er
con cent
vi ol
Pa ís
cent es
hom em
es co
ne t
c endo
ca no
pro mo
6 4
h on
espe ci
âni ca
a di
do mina
fei tos
or dem
ini cia
ca tó
Bi bli
ins tru
cre dita
afir ma
ca ndo
rin ha
mel ho
M al
Es cola
ex pan
5 5
s in
k o
ê n
199 1
ci l
H e
ag ri
ens ino
T ri
nú cle
P os
200 2
en gen
for ne
cél ulas
ten ha
indepen dência
es es
administra tiva
ra dos
forma r
pra tica
P re
ca min
ma ni
na tureza
d á
n ar
lh os
muni cípios
v endo
parti cular
Mo nte
f en
g ram
1 00
compl ex
ex istem
proje to
ent o
pró pria
s ar
fl or
religi ão
E d
ri al
x e
cos ta
du z
mada mente
resul tado
gres so
f ase
Pa ul
int ro
J es
b es
vent o
ís tico
J ap
t ela
liv re
Afon so
asso cia
aliza ção
E u
em i
Su a
Jap ão
w i
pro va
cor respon
c ina
p ção
ri da
ist ência
As sociação
caracter ísticas
ro n
ra z
. ,
atual mente
is mos
P es
ó so
ch in
contro le
Ou tros
B en
Sil va
so mente
c ção
mo vi
ver são
199 9
n en
par tes
N ão
ân dia
H á
a mento
con de
plan e
úni ca
lem as
ti l
port ância
fí cio
min istro
P r
v or
ti pos
a cesso
reg ista
| |
ca dos
201 4
apo io
ci mentos
pre en
Lu ís
me tro
é rio
ex ten
end ário
ar da
cent ral
3 5
T ran
tor no
Popul ação
pres ente
an da
t esta
si on
A d
al can
f ess
emb lei
lu z
m ó
ex ército
treina dor
Ba talha
gre go
segui ntes
G on
ju nta
pe ona
ex ce
fica r
tro no
palav ra
des cri
ex iste
8 5
i do
des en
tra n
tual mente
n em
im portância
histo ria
ca mente
mor re
rela ções
esta dos
Mo nt
ri t
M os
aproxi madamente
Pa ris
grá fica
C er
i z
du ra
re ali
á cio
b ia
po eta
G al
d ina
sa úde
G ru
euro pe
cu ra
condi ções
al ter
Cons titu
mili tares
no vas
li co
re uni
199 8
h ia
te i
ri do
si o
a pesar
t t
ca p
Dem ografia
j am
des sa
Cos ta
g ão
vi ética
sé culos
super fí
estra ng
fei ta
ti ma
teri al
an ex
cul a
w w
su cesso
R ússia
re feri
forma ções
possu em
C âmara
ar que
E S
lu gares
u al
da mente
ina ugu
pí rito
an ças
e d
vel o
senti do
tradi cional
193 0
trabal ha
po ntos
esti lo
con segui
téc ni
capa cidade
w s
so fre
inclu em
gu el
p õ
qu ar
n es
en os
no vos
20 19
le o
so ciais
Mar t
ti an
A gos
tradi ção
De pois
g ência
indus tri
ba te
cria da
le vou
Des de
estu da
a tividades
Algu ns
A ra
ou r
tera tura
sem elha
bas tante
organi za
mes es
f ol
ex tra
í gen
emblei a
titu de
polí ticas
t ino
í dos
ga ra
joga dor
Jes us
hi dro
ment ação
ado res
a mi
c eito
t ú
n ça
pequ ena
quanti dade
oso fia
prob lemas
ter min
ass um
primeira s
des tru
tado res
199 7
esta vam
vi z
a tividade
ri cas
Cons elho
me dia
tura s
de ci
ôni ca
i dência
j os
au mento
qu ele
C O
E ra
com b
s ta
ó ria
si cos
i mb
recebe u
3 6
des cre
M en
So cial
ta xa
te iro
ví du
I V
an al
Fe deral
ta ram
mulher es
mo mento
199 6
At l
201 5
% ;
es cola
z er
di u
vi am
mis são
R es
l y
z on
dis pu
C e
e ducação
Pol í
la go
t rica
ti o
ch u
re ti
ter o
wa re
201 7
empres as
inter pre
últi ma
A na
ã s
sequ ência
meta de
domí nio
A ugu
fil óso
indi vídu
² .
se rem
Hen rique
leg isla
ix a
fi cos
201 6
de cis
cate go
rin ho
z am
superfí cie
espe cial
direi tos
cine ma
Pres idente
a de
vi r
Ín dia
re mo
natura is
Mi guel
event os
ê mio
Par que
permi ti
agri cultura
ar tes
for me
fí sica
go ra
H i
s to
3 7
in fe
ce ram
vis i
at en
ba ir
f es
contin ua
influ en
insta la
M il
h um
p á
pro por
esta r
peona to
u do
su ces
du al
199 4
is a
in vas
atin gi
so li
a credita
con ceito
man eira
la mento
d ista
huma nos
V il
respons ável
al go
ex pres
on g
ha b
estu dos
fil me
is são
da l
elei ções
dire tor
jornal ista
B re
H u
de ram
al tura
un ca
empres a
ni dade
obje tivo
va dor
cli ma
199 5
nor mal
9 7
Clu be
A me
Fern ando
gi os
Pa pa
ber to
20 18
199 3
indi ca
era ção
Ma is
pr ática
escol as
li am
pro fis
n este
land ês
c ru
ta le
espe cí
ex er
ess as
clu be
jo go
po t
b os
f ru
in h
gu er
ona is
de si
te ca
l en
B as
ci vil
pi tal
li m
ma terial
fo nte
che ga
c rá
roma no
198 9
c á
d res
ing les
M er
cu ja
lí der
parti do
ac ei
tá ria
Cent ral
cria do
z ando
vis ita
a cima
carac teri
es cal
ál ise
( "
re cursos
Se u
ç ar
o ce
ci cl
conheci dos
Cris to
li cos
ela das
u su
gê nio
ag ens
no mes
et c
pla ntas
a ra
a to
considera da
un g
á ra
pl as
i tos
g ando
u e
nci pe
roma na
plan eta
199 2
rus so
â mica
Ant ônio
XV III
p ô
ina ção
grá fico
v ens
ar do
Qu inta
Re al
R os
le ma
4 4
porta nto
Ba hia
s am
Re volução
Li v
di minu
Fi li
ma ção
sí mb
lín guas
tr á
ag re
últi mos
l é
G eral
No vo
pesquis a
M es
n º
al o
ment a
che gou
ó logo
baix o
o li
ri gi
M el
B el
b un
li ga
i os
n unca
Regi ão
G r
ta dor
ca de
fi lhos
An g
Ne w
J á
v á
ís mo
Fregues ia
ti da
Ch ar
tro pas
Wil liam
J orge
P u
A us
tem pos
posterior mente
3 8
ria mente
4 9
p s
cas os
ânti co
def en
c ros
am es
P IB
ven ção
F l
de ndo
ambi ente
a juda
an as
dire ção
exti nta
A R
i zação
ar ca
man u
U S
ind ígen
S ch
Co pa
ton eladas
núcle o
S h
Anti gas
f á
20 20
Do min
J ú
ca be
4 6
na ve
fí sico
. "
se tor
p is
fos se
3 2
g ro
po vos
fica da
mú sico
p si
pequ eno
l is
ass ina
per to
ra di
mu si
regi me
anti gos
comuni dade
y s
Na ções
e qu
medi da
estrutura s
bi lh
econô mica
S ob
7 5
pro fess
| -
auto mo
L in
ment ais
gi as
Es sa
rela tivamente
ar gent
fí cios
britâni ca
P ri
d re
ve ge
ag rí
amb os
inter esse
17 9
194 0
4 8
si cas
portugues es
O S
y a
di visão
B al
ide ia
pesso a
ta man
na do
Or gan
se te
su s
L ista
da da
as pec
fun ções
Po nte
194 5
Ass embleia
6 8
li as
por tes
co ro
n ças
mul ti
aca dê
espé cie
ter rito
car go
So viética
com para
c ê
ma do
con serva
Prim eira
Alex and
fre nte
proví ncia
a gora
li dera
polí ticos
tá vel
regista da
po le
trans porte
cal endário
p t
cas as
198 5
â mbi
auto ri
torn ando
front eira
ca u
Cas tro
denomina da
d í
cos tu
A li
mo ra
ci as
dem ons
Ame rica
re ino
M edi
di plo
tu s
reg istra
situ ação
A N
O liv
vi ta
pri mi
m ês
vi d
poli ta
c um
) :
xi co
ar gu
ra el
19 20
ol í
rie dade
huma na
G ar
uni dade
gen eral
huma no
ju deus
M inas
Go verno
zon as
p eito
com peti
qu alidade
nu cle
V ol
vi das
Fer reira
ocupa ção
cri s
de di
frequ entemente
automo bi
pos tas
za dos
198 8
bri l
element o
mã e
Tra tado
á ticas
edi ção
res ol
m embro
so lo
Sal vador
cu jo
m ãos
com posta
si dades
res pec
v ando
su ge
le is
gua i
cont em
re vel
mont an
torn ar
E du
ta nt
di dos
pi cos
4 3
ei a
Is so
utiliza do
$ $
âmbi to
ma g
ti c
ab or
N U
forma do
pa tri
frances a
moder na
o cor
197 4
ho men
da ndo
com porta
cul dade
tu de
b ou
ex isti
ri ano
econ ó
í ram
em pen
ó is
va das
bis po
re cu
panh ia
ul ares
pode ria
té ria
cun d
clas se
próxi mo
su ce
Se bas
n esta
198 2
imb ra
dé cadas
k s
int o
vis to
fil osofia
/ /
Ci dade
dis ti
B N
g h
de les
con ver
Gru po
g ás
b um
uni dades
Ca ta
che fe
palav ras
rá s
on e
D ist
H ol
b y
Gu il
Lon dres
ri tos
fe dera
az ul
í nas
fo ntes
Oliv eira
H ar
e fe
ess en
i ca
me ados
vent os
Ex istem
un d
tr í
inter nacionais
ro l
di r
Ar gent
rá pi
í das
âni co
K a
figu ra
198 1
tro u
organ ismos
Tran s
4 7
z u
Ge ografia
T ur
ab ando
Portu gues
V as
man n
Mé dia
197 9
va dos
pro vo
di vis
pint or
5 8
G er
númer os
D en
pl ement
3 3
inclu i
I sa
nova mente
ft ware
a vi
r ó
g am
F in
sema na
quí mica
re ferência
di go
pa z
I ta
U r
ocorre u
institu ições
E cono
es quer
ha ria
ver de
car re
P S
o ito
de la
us ada
histó rico
pad rão
ces a
197 5
lin has
F A
ent en
Univer si
gram as
198 6
Agos to
w eb
F rei
dis se
encont ram
I dade
servi ço
C la
ta ções
japon ês
b res
cul ares
va ri
5 6
S im
M at
or o
li gação
A b
i migra
am pla
P la
con clu
au tor
: //
V I
in formação
ima gem
profis si
P as
Sa úde
econô mico
com posto
re ais
per ce
ht t
a fe
tu ais
posi ções
li teratura
O b
ra pi
bra s
indepen dente
e feito
re no
pl ano
g ina
j i
esta ção
ci clo
cam pos
funci ona
lingu agem
h ão
k y
vi os
ofi ciais
obje tos
ver sário
a parece
j ei
dei ras
ex porta
Rib eira
proces sos
taman ho
origin al
mi to
en vi
a com
f emin
o xi
IS BN
velo cidade
17 8
col as
XV I
M ou
d ências
h ores
segu rança
mé dico
v ê
cra cia
loc alidade
ofi cialmente
n ero
v on
á guas
proprie dade
filóso fo
â ncias
B ru
ex to
escri ta
s ou
na is
cultura is
a mente
li zação
Co imbra
ber t
ada p
Euro peia
cont r
T al
e ma
198 3
escre veu
bilh ões
ú n
industri al
l ares
p ros
ti ça
es pi
i co
Car val
comuni cação
C A
ti veram
des cen
at mos
S istema
a qui
f eira
ment ar
val ores
de le
por âne
Mé xico
bus ca
escra vos
C l
ca val
ma gn
normal mente
5 3
b lo
Es pírito
ide ias
ar dim
vi dos
mi da
segu ir
algu m
197 6
ra ções
par tí
Con gresso
re gra
Brasil eiro
tecno logia
V a
com preen
A inda
su e
V ar
ç ul
comun s
ológi co
raz ão
su st
pe ças
va i
inas tia
E ducação
ni co
Cultura l
çul ma
hou ve
do n
vi tória
passa do
arquite tura
tro n
junta mente
so na
tró leo
c ele
ter ceiro
G erais
b é
o cidental
ex clu
me tal
Argent ina
roma nos
Sebas ti
prova velmente
nci al
De z
Ar qui
Dem o
musi cal
públi cas
ei o
Es tá
se cre
Fo nte
gi ca
mb a
Mun do
di ce
an s
liv ros
forma l
e volução
S te
di mento
C és
s ele
pi co
198 4
terri tórios
ci dente
demons tra
S am
C ató
ing ton
fici ente
o cas
de vem
mb u
P C
fa vor
estra té
jo gos
ist ão
Gu i
esti val
administra ção
ra das
mi cro
mani festa
at ores
al ia
J ulho
per s
tica mente
po ten
Rober t
desco bri
Je an
automobi lista
B is
197 8
ia go
comer cial
an álise
no i
ide ntes
Ver de
gu eira
ológi ca
baix a
c y
e da
produ to
publi cado
g or
de mais
neces s
re c
qui al
ist ério
can dida
5 4
es pera
t z
Roma no
in formações
us ados
us tria
ins pi
.. .
U N
Ma io
198 7
W i
es cu
sobre vi
liber dade
197 3
ma nter
ô no
volu cion
religi osa
localiza do
ex pressão
europe us
Cés ar
3 4
ar á
car bo
Uni das
M atriz
w n
ar mas
ál bum
que i
pass ando
movi mentos
co re
re inado
ti mo
Jos e
ci li
ne o
Da vid
H it
des empen
mu çulma
per man
aba ixo
5 00
il us
Ro dri
funda mental
proprie dades
exten são
se jam
muni cipal
urb ana
ab ran
funda da
Bibli ografia
as h
19 00
estre las
ho ras
Ch ris
ba talha
ter res
Cata rina
de creto
a ram
ass in
dist in
I lha
J us
ist ros
tian ismo
A bril
f f
il l
dire tamente
un ha
Co reia
algu ma
h ol
ma das
bran co
expan são
6 7
ris tas
põ e
igu al
indi vi
Entre tanto
a ç
realiza do
p p
la ção
dia nte
Con de
equi pe
C ou
Á sia
c â
des tes
governa dor
V o
mudan ça
res er
fil ha
pequ enas
t res
car ta
her me
re conhe
má xi
ero porto
9 9
196 4
S í
an des
des ses
D is
as cen
cultura s
colo gia
povo ação
% ),
E les
Organ ização
cri se
Fu tebol
vi ce
men ores
def esa
alem ã
prin cípio
lu ta
val e
conf lito
G ol
cri ar
ori as
camin ho
men o
A ni
anti gas
permi te
Sou sa
Sebasti ão
ro man
fal ta
196 2
A z
i dos
re des
fa cto
Cam po
cri anças
car á
historia dor
envol vimento
Á ustria
al titude
% .
e du
li tos
196 9
Constitu ição
di to
rei to
contr ário
" )
pe tróleo
ob ri
pro testa
pe ão
am os
ori ent
realiza da
or k
trabal hos
Pra ia
ri c
vi as
faz em
T ho
Por ém
faz endo
e c
le tra
conheci das
Augu sto
R us
sol ar
descober ta
A tualmente
tex to
mé dio
G ré
d s
por tivo
J unho
catego ria
pre ci
constru ída
G re
í lias
S ab
pres er
pre para
J ames
re to
g es
Cam peonato
a re
tradi cionais
b ul
ro quial
ra mente
Es tes
A ç
ent rada
an e
est í
ne u
ir mão
ser á
ma téria
divi dido
I N
li ano
pri mento
có pi
opera ção
co res
ni mo
x as
ca op
res peito
fi cial
mé todo
15 0
5 7
” ,
tu rismo
ten ção
I l
de fin
sobre tudo
5 1
consegui u
te ma
res tri
ex plica
Guil herme
as su
D E
ma ta
ol os
V e
i ão
al deia
desta que
av an
196 7
Ou tubro
H uma
in é
so vi
us ando
funci on
esco lh
197 1
prob lema
is as
chama dos
Ri ch
tan ha
teria is
sem i
segui da
ca ções
com pon
Co muni
mudan ças
g ó
í ns
sub st
ôni co
Ge orge
gra fo
A g
na mbu
ad qui
apo ia
al a
lon ga
fen ô
ber g
17 7
peri al
equi pa
tu ro
gre jas
XV II
Gré cia
J er
co mando
n íveis
Es se
semelha nte
su í
religi oso
Char les
f ór
ur ban
quil ô
O cidental
da m
re z
Atl ântico
Pe reira
pe cu
popul ares
ti dos
na ções
Portugues a
ab ora
se cund
di rigi
cana dense
á ticos
pro fun
i va
t ens
195 1
depen dência
E la
mo di
contin ente
Gon ç
g el
l ine
196 8
fil mes
En quanto
íns ula
A té
g í
” .
ar re
sa u
ele tr
194 4
T ro
dist ância
F lo
V is
capi ta
e feitos
do ra
constitu ição
obje to
rapi damente
D el
es for
cont exto
fica dos
fam ílias
escal a
ch as
Li ber
c ânica
qu ês
Gr ã
5 2
mi dade
event o
te in
ve ri
histó ricos
i des
ter r
defini ção
lógi ca
começa ram
cap tura
ele c
Ar te
é t
qu estão
li za
ver melho
197 7
esquer da
o posição
com pro
Le o
Cató lica
in has
ul tra
196 1
c tor
í ba
Vi cente
intro duzi
Hit ler
localiza da
sex u
ânti ca
agre gada
profess or
E gi
G il
lo gos
In d
u de
pla nt
crist ãos
participa ção
J ac
ca pela
ame a
Bran co
i media
e v
di cos
Fun dação
o teca
ni os
197 2
ab solu
193 6
mb o
ele vada
ven i
pensa mento
matem ático
contem porâne
é ticos
ta ria
bi do
pesso al
Polí tica
ser es
nome ado
193 9
ológi cos
fab e
argent ino
ma nti
su i
tele visão
4 2
tes e
196 3
Su b
Tor re
forma da
alem ães
siva mente
tra tado
mol é
un os
Na tura
mei os
difere nte
Sen hor
Ou tras
má tica
6 6
b ene
ca ça
196 5
Car ta
deix ou
o k
t indo
No bel
o d
li ter
invas ão
Econo mia
al tera
passa ram
indígen as
F eira
ta lidade
ma teriais
con cei
9 8
quí mico
Alexand re
a va
tra ta
no bre
li de
196 6
Tho mas
19 18
e volu
cont ém
b ens
í na
194 1
ne er
Brasil eira
bair ro
g ente
R A
cam panha
Ex ército
c lí
t ismo
cul to
ba c
C he
in se
in va
Pr êmio
ti r
di fí
dou tri
h al
l ândia
Vi tória
crí tica
di fi
ne ga
us ar
Ad ministra
fer ências
ra inha
parti da
brasil eiros
a ju
l d
w ard
si vo
tri z
País es
neces sidade
inter na
funda ção
com posição
so ftware
san gue
v ino
â ng
pequ enos
B or
Al mei
desta ca
E E
co ber
infe rior
C ri
N u
do l
neces sário
distribu ição
vi dade
me te
ba ra
a ria
di am
con fir
lo me
Con cei
m exi
re l
re le
ís ticos
194 8
aca bou
Dez embro
ga ro
té rias
lito ral
pe dra
pos a
sa gra
h u
est ões
ini cialmente
ci tos
nte rior
193 3
in corpo
com postos
ma nte
Es tra
fab rica
alter na
Bra ga
art istas
B eira
que da
c ruz
la tim
resul tados
comer ciais
K u
pra ta
mem ória
inici ou
indivídu os
símb olo
G E
T V
U A
pes ca
pou cos
flor esta
L at
dó lares
g ãos
195 8
B io
em o
corre nte
empres ário
i dio
técni cas
P an
c ál
s ant
Fer ro
Is rael
O x
gê nero
proces sa
quilô metros
N este
b en
Jo gos
mo no
ter ceira
ob ser
di das
present es
deter min
Fili pe
Egi to
% ,
at le
cer to
D ar
D ou
S ar
Algu mas
vei o
Al to
V ir
fo to
públi cos
í bli
ci das
194 6
Mi li
constru ído
morre u
Jo aqu
de iro
res posta
for d
uni dense
inf ra
t is
de se
A D
ri no
gra du
B ro
M c
en ças
la dos
Mu itos
d ãos
n é
en or
pr í
Se tembro
pó si
p in
ta ntes
Po li
194 3
H el
h el
des sas
res istência
ad vo
ma deira
di ção
escri to
extre ma
homen agem
cri ou
america nos
capa z
ri z
lí qui
torna ram
pol is
pro cu
So ciedade
encontra r
cele bra
20 22
dis co
195 9
pla nta
tenta tiva
s el
si ve
ten ista
B ur
19 11
nas cimento
nen hum
bun al
polita na
n esse
í b
pro v
forma ndo
jo vens
k er
tu a
au tores
esti ma
estadu al
ata que
ra ram
im pa
Des envolvimento
ex terior
dis pon
lan da
tro pi
cha do
194 2
pô s
G en
ó xi
va is
acom panha
te atro
est rela
ter mina
F esta
w e
desenvol veu
má qu
te d
comporta mento
4 1
H os
to po
ini cial
có digo
cabe ça
j ul
con ju
fi x
fil os
Cab o
V ene
se ca
pri ma
cel ular
apresent am
Popul ar
cicl ista
es pal
9 5
Es pa
ís si
b ru
re duzi
Ca pi
Le on
dra ma
C ant
194 7
aus tra
í lio
ne go
cons umo
Ju nta
mon ar
A C
. )
pro to
tri bu
gui tar
desi gn
8 8
A nto
P lan
forma m
jo vem
Pal ácio
u í
Á l
en fre
O ce
funda do
aus trí
ad á
surgi u
re alidade
casa mento
par tamento
atra ves
a ti
hi pó
L ar
I lhas
G i
K e
Ge o
c ú
tra tamento
im pres
Ci vil
te ó
fi z
fica ndo
compu tador
S ta
Pa ran
193 8
0 7
W ash
parti lha
gre ga
Is to
partí culas
te is
gu arda
aspec tos
es ca
produz ir
f usão
â nio
pro i
per sona
coloni al
ára be
w in
re ta
193 2
diver sidade
arma z
a pren
ali mentos
194 9
And ré
7 1
gu ar
va riedade
pos se
Sant iago
I P
I nt
ci pl
im pério
mon u
sol dados
Sol ar
frances es
a tiva
ri tual
é is
con forme
im plement
matem ática
influen ci
ó n
cent ros
Ba ix
co isas
Wash ington
i ás
que te
Al fre
nas ceu
segu e
tradi ções
Rich ard
h an
193 7
ro do
vi agem
cor te
Du que
trabalha dores
pa dro
ex tin
vo re
ur go
classi ficação
192 2
Fa culdade
dan ça
ani mal
A v
J or
ei x
ú r
fa ce
Ca da
E R
a ves
ex pli
mor tos
tran si
mel hores
ent os
si mb
cres cente
Ori ental
cientí fica
atmos fera
na val
bo ra
Bre tanha
Edu ardo
p lu
am pli
edi fício
% )
pro gramas
gan hou
Te atro
lança do
ww w
U ru
p us
un da
Es tas
La go
prin cípios
Isa bel
ria is
fu turo
ju di
constitu ído
Almei da
195 6
encontra dos
P in
d y
Can adá
r ões
ves se
cir cun
cons tante
arti go
gol pe
de res
al fabe
Lo c
moder no
termin ou
Dist rito
b at
in ci
pe u
W or
c ismo
mer o
pass ar
A cade
ó rio
regi onal
medi e
particular mente
le gal
193 4
gera ção
al te
19 14
ch os
cons um
cons iste
N esse
de las
base ada
f ale
am or
es posa
na vios
fe deral
fei tas
mis tura
exist entes
Ir landa
eli gi
' '
6 9
I D
P rí
ci vi
ch el
ri b
Qu e
v istas
é cia
in ú
ci ências
S A
k u
co nte
vo tos
ag e
elei ção
Concei ção
D ias
por tos
192 6
Cont udo
t ários
á u
cida dãos
pren sa
Mar co
Per nambu
J ardim
as te
con fi
192 5
anu al
diz er
pa pa
total mente
W al
ca ra
difere nças
continu ou
C olo
T h
utiliza da
col ógi
oce ano
con cor
mu seu
nen huma
recu pera
di g
con sequ
par ó
pre ten
qu estões
ver mel
Pe ter
190 1
elé trica
téc nica
K ar
t ista
di gi
Se cre
j es
ro ck
ga mento
dis cipl
á cido
de os
do este
co manda
or y
em er
religi osas
Cons tant
apo i
euro peia
m s
v inho
si mil
bi os
Ca val
nor deste
resta u
li te
ter á
Min istério
c ô
qu ela
aqu eles
fica ções
De vido
religi ões
Me tro
limi tes
S ha
p to
Es t
gan ha
própri os
19 17
ada mente
195 7
d ge
cl ass
Cruz eiro
acadê mico
respec tivamente
f lo
ca mada
pro ce
Com panhia
vol ume
parti dos
explo ração
n is
po lon
direi ta
Ori ente
engen heiro
R eligi
nci ou
car reira
cent emente
m ônio
inclu sive
f ins
ha viam
auto ridade
c ta
s ent
co ra
tro ca
mé todos
c ão
em ora
com primento
atu ais
compu tadores
] ,
ent rou
Pes so
v indo
Po vo
Joaqu im
A i
K o
re vista
Nor deste
ti onal
i tas
gra u
ass em
Fran k
ológi cas
ei xo
19 10
ex pul
pro cura
192 8
gan ça
Ar tes
192 9
M us
an ar
milh ares
í zes
tex tos
do enças
bi da
ad mi
temperatura s
Aç ores
C ro
ta va
G as
V ia
to p
no mia
fo go
( )
ni as
195 4
5 9
ci ano
bi bli
tri as
histó rica
po bre
ni zação
col or
Acade mia
S y
f atores
en sa
cul ação
considera dos
proje tos
institu ição
N ú
f erra
re nda
na z
encontra do
C li
K i
P úbli
i grejas
no ve
ch er
men sa
gi r
Es tu
che gar
3 00
I or
f inais
á to
nt ou
experi ência
D r
195 3
po lo
ru ral
fra g
Pres s
C ali
L am
x es
te orias
195 5
el im
ne y
cons ul
ob s
Pra ça
re volucion
193 5
el abora
docu mentos
L an
X XI
po nt
tá veis
F estival
pa t
tale za
ç am
di vul
trono mia
Mar ço
pe d
in ar
con ven
ver ão
hon ra
186 4
Paran á
for mou
cél ula
l â
é l
192 4
anterior es
x im
19 19
Lu z
I A
T r
ni cos
189 0
gara nt
htt p
B at
re volução
Su écia
M is
é gio
ad ul
tâni co
comuni dades
uni ão
té r
constru ir
prote ínas
quar to
aç ú
pi ra
sust ent
on da
des tas
Edi tora
S P
pro xi
urb ano
derro ta
estrang eiros
M A
m ista
x á
y er
tro ns
Bo a
equi val
organiza ções
est em
7 7
C el
ob ter
Bar cel
din heiro
do ença
âni cas
divis ões
in vent
ga das
16 0
mem bra
noi te
H istó
ch es
lí m
Mi cha
funda dor
D io
No vembro
Gu arda
trans feri
To m
estra da
as soci
ref le
Hos pital
Tra bal
manda to
ar ro
o re
ç ando
Fe dera
Cas tela
D ina
at rás
difere nça
situ ada
ni ano
espe c
192 7
comple tamente
imigra ntes
difí cil
com pra
ve ra
aca ba
situ a
possi bilidade
" ),
âni cos
de ias
pratica mente
s ho
Pa z
cam peão
Portu guês
t inho
re ação
ro tei
um in
Ou tro
clás sica
pro cla
un s
fin almente
193 1
ana to
té rio
Par lamento
Para íba
Inter net
Universi ty
g no
re pública
res idência
ha da
rei ros
pode res
D ani
T im
no logia
desta cam
grá ficas
G lo
espanh ola
edu ca
A c
M em
re do
re bel
des lo
ros a
proví ncias
domina nte
Carval ho
Jose ph
7 8
B ol
Li ma
195 2
popula ções
B us
g on
es ia
cl usão
Mi ran
significa do
P ó
co ração
fa ixa
í am
decis ão
re formas
mo da
anterior mente
regra s
Mili tar
D ouro
E N
E lei
passa gem
Hen ri
neg ó
cató licos
molé culas
f la
sa be
cor pos
religi osos
6 3
t ística
tri co
Joh an
concei tos
mar í
P ou
re dor
na u
m y
nor oeste
Ior que
O l
gi co
Cam pos
ór gãos
duz ir
n y
ima gens
is tia
bur go
Mart inho
e pi
ex pedi
ros o
milh ão
B ento
I C
mar gem
possi bili
m us
fi el
entre tanto
192 3
solu ção
Prí ncipe
al tas
ass inado
mer os
de o
res to
Co mun
clás sico
carbo no
amea ça
Pernambu co
k ing
er re
ria do
aliza da
To dos
g ht
y le
C D
P ena
Com issão
britâni cos
Vas co
prí ncipe
f ós
en das
con sequência
divi dida
Micha el
O este
t to
sa do
ba i
nci o
pr áticas
Muni cípio
agrí cola
1 20
le vando
rica mente
com emora
vi ária
pro pa
re com
pre domin
mei a
glo bal
cará ter
ab sor
açú car
lí deres
dent re
Ma ior
inf ant
ús trias
ri ta
em is
vi u
corre ntes
constitu i
1 º
M ário
p un
mas cul
denomina do
estí gios
terr âne
F ra
M ul
en cer
se riam
bo mb
Ci ências
Rib eiro
Z e
a fas
ele vado
Al berto
Des ambi
utiliza dos
Rober to
class es
B la
su ficiente
ens es
ôni as
so m
car ne
exem plos
constitu ída
aplica ção
E ventos
escri tos
deve ria
Baix os
per da
fica ram
estabele ceu
Prim eiro
a ces
mb ia
austrí aco
d inastia
che gada
lib era
6 2
O lím
z as
nu tri
a pa
u ras
reg ular
ór gão
am bas
ab oli
ap li
trans mi
poten cial
P ré
g y
des tina
int elec
192 1
En gen
bo m
empre go
B ras
h ei
tem ente
T A
r ência
ni cas
Es pe
ab s
mel hora
Constant ino
F ol
L ín
re cor
esta tu
cer tos
ven ida
base ado
povo ado
orde na
V elha
h ando
al unos
an ces
cu i
edi fícios
de pu
di men
si ona
S ac
pres ide
ac tual
concent ração
deus es
evi tar
reali zar
C ur
condi ção
sema nas
a é
sob era
Go mes
re publi
pe ça
at is
cul dades
cal or
má ticas
advo gado
t eles
caracter ística
ris co
medi das
fiz eram
re jei
ciona do
H ou
Es ses
ros so
Le ão
represent ação
des tino
for tes
im perial
P h
c ista
é ticas
Ma to
An gra
utili zação
conf litos
nucle ar
profissi onal
rotei rista
rá dio
reg ula
Ang ola
Den sidade
h es
Bra gança
ven ce
P el
complex o
S S
b ela
v ina
su doeste
Ba ir
mant ém
Aus trá
g estão
h ún
so ma
próxi ma
li da
mo ni
escri tora
fl ores
a gra
car ga
cer ta
espanh óis
F la
gu idade
exter na
chega ram
gre gos
dina mar
w ell
19 12
In f
Do m
vol tou
Uru guai
mo to
Pi co
prote ção
6 1
in ver
ti t
Na pole
Mar cel
Po de
qu in
for temente
tít ulos
Rodri gues
mul a
in cent
vo ra
gen era
frequ ência
crá tica
abor da
cer do
D esta
le u
ten ham
itali ana
mante ve
Austrá lia
e k
pro posta
Fa z
A ris
s á
al tos
te rem
IB GE
crist ã
co lh
Mart ins
S á
V an
Y ork
t her
com u
ir mã
ó nia
Ma rinha
conte ú
Esta dual
ingles a
H or
al u
ga dor
influen cia
preci pi
Lat ina
T re
n essa
y o
mo eda
fica m
sex ual
cris tianismo
descen dentes
neer landês
qu istas
ti zação
ha do
le tras
fica mente
lh es
assum iu
U E
est en
demo cracia
ató rio
8 9
tra to
ade qu
Es sas
Ma u
cl es
pei xes
indivídu o
compon entes
Re is
engen haria
h eiros
ôni cos
ind ústrias
art ista
Ale gre
domin i
S in
ent ais
ti me
ul ação
C P
za das
fa mili
7 9
re ci
ru a
N esta
dis posi
f ar
Pa roquial
chama das
usa das
Pal m
fica das
possu ía
Cor o
filos ó
as ta
pa do
ntes e
Ma ri
di vin
pé lago
respon sa
aber tura
sue co
de mi
re conhecimento
rece ber
mal l
plan í
Ban deira
0 9
fun do
P á
en so
aten ção
pode ndo
op ini
conta to
F am
M ú
b on
tr ôno
limi te
econô micas
Tri bunal
plane tas
as i
ant ro
sa da
Con cel
adqui ri
g elo
Fe vereiro
li cas
bran ca
ampla mente
ca i
Di reito
num er
ata ques
guer ras
a que
v ér
pi ter
ali ment
au xi
De f
ve í
E UA
O NU
j ar
er s
mu dou
cident ais
Bibli oteca
A ntes
A eroporto
a tivo
m ê
ro ta
Ser vi
pi ca
Ma ce
gen e
ren se
nt ar
des emb
Es có
vi lh
bi ologia
aliza do
O n
ra mento
re centemente
me cânica
Ber lim
permane ceu
correspon de
J an
vi gor
par lamento
Lu a
agrí colas
F á
con ec
ori ental
I ni
l ing
re for
li do
vi vos
ex posição
A nterior
o dos
re is
plane ja
Dina marca
vi nte
tra ção
consi der
contro la
óxi do
b in
no ta
doutri na
i re
z ant
con soli
fam oso
n ê
ci vis
di mentos
ob rig
rin g
capa zes
W e
os e
me can
comple ta
Er mida
s até
mo nte
determina do
chin ês
V elho
desenvol vido
integra do
decla rou
A mb
f estas
ado ra
In dependência
Ou tra
moder nos
semelha ntes
O uro
su deste
mi th
Sa ra
aber to
extin ção
ex ão
ser ra
aument ar
inaugu rado
indivi du
vo a
Mo der
Cas al
ví rus
costu ma
8 7
I ra
estabele cer
4 00
A p
pu ra
Esta ção
montan has
terres tre
impa cto
as trôno
com bus
situ ado
pecu ária
U F
s mall
Con vento
g eiros
te ira
realiza ram
afir mou
coro a
L í
ist os
gover nos
Ra inha
surgi mento
H on
res identes
Cam p
respons áveis
M S
Nor ue
mol e
w o
er u
ca bo
vi vem
pre feito
cí fico
ini mi
Au to
Escó cia
te u
para l
tem plo
Li ga
ôni mo
Per u
fos sem
escra vi
muçulma nos
19 16
ele tro
min as
simples mente
Gui mar
" ).
di ram
fa nte
mode los
enor me
pa ul
federa ção
8 4
I nte
19 15
Al ente
fei tura
H ung
a cer
esta ções
per son
est ende
gra ças
ju rí
Di e
espa cial
ger m
P elo
permiti u
nt emente
al ves
pes o
tó rias
Gu a
íb rio
O li
R ela
Ca ra
Te oria
lib eral
Oce ano
Bras ília
pi lo
ín dice
F al
re cente
ru as
gua io
Te c
pad rões
segu indo
Pi erre
rique za
Lou is
Guimar ães
cion ar
s ing
v ores
ch al
inf ini
limi tado
ances tra
W a
g inas
ul ado
Es cri
vel as
Hung ria
le gi
Ma ia
fal a
europe u
x ad
vi ário
ban das
fi ciência
val ia
Bo m
pesquis as
competi ção
Gonç alves
A bra
Jú piter
Elei ções
ci am
mi r
car tas
univer sal
dispu ta
transi ção
P E
mil ho
sí ntese
aqu ele
din âmica
arquite to
rit mo
com pa
bas es
segui do
bel ga
própri as
Sob re
ma rin
pro veni
faz ia
crí tico
L au
a cel
us am
at ô
fer os
joga dores
africa nos
C ine
c tos
re dução
ex o
ba ti
flor estas
ria dos
ru p
trabal har
Ex em
origin almente
Ban co
v estígios
de ns
tra z
me tria
perí odos
189 5
cient istas
produzi do
America na
Pe qu
publi cou
lança mento
sofre u
extrema mente
B R
da quele
dis cu
Fi gu
Ho je
drama tur
pode mos
cientí fico
alcan ça
suí ço
gí p
P l
ncia is
consi de
univer sidades
exti nto
instru mentos
paró quia
is ol
en car
se g
19 13
exist ente
comer ci
Mos teiro
en zi
sa ber
mé s
bi l
dis mo
A venida
clu bes
Ju an
cre nça
desenvol ver
190 8
qu istão
va nt
par la
ces são
Sant ana
localiza ção
Ani versário
medie val
8 6
P R
P rin
e pis
com bate
W indo
a ri
im prensa
publi cação
F í
S au
es cul
ens ina
este ve
inter no
u d
ra i
mo ral
cent ra
Su í
deci diu
xim os
historia dores
Norue ga
S ó
y n
pre ende
hi te
dist ritos
tur no
ocorre m
8 3
á cidos
vi ria
ga is
Vi da
S mith
ê m
ro co
mu sica
Al deia
nome adamente
rus sa
põ em
U R
h ard
re volta
so f
ce rim
lan çou
cine asta
coloni zação
es as
u x
es to
re na
dire ta
univer sidade
estuda ntes
bair ros
Ma deira
baix as
opera ções
s anto
17 0
9 6
B íbli
Ma ran
Re ci
% ).
Po nta
medi cina
189 8
Fun da
docu mento
F I
esta ndo
forma to
realiza ção
ç ambi
im pul
hipó tese
7 2
S ér
comple to
Concel ho
D NA
T ol
c eiros
fi ch
Re cre
ac um
190 6
cole ção
me d
front eiras
jus ti
regi onais
subs ta
escre ver
neg ro
B r
sa cerdo
tem as
rei v
Sil v
H al
ent ra
pro funda
int ra
For taleza
W o
do més
Ma c
Para guai
Pol ônia
rápi do
Co mi
flu xo
Cu ba
aconte ce
Federa ção
H isto
Ma x
P A
f atos
ci tar
ci pais
Pro grama
av ança
hidro gênio
ára bes
A ta
ri das
re t
ma triz
H an
T an
a pel
si vas
ag ru
desig nação
autori dades
roman ce
pe da
ve re
Alente jo
S D
significa tiva
Napole ão
d g
lógi co
ra dor
en via
vo to
Ter ceira
Ce ará
9 2
du ras
Lou ren
Fam ília
est ro
tí vel
protesta ntes
tropi cal
B A
e quil
re centes
ha bi
me tá
cont udo
int eli
Wor ld
B on
ment as
arqui pélago
Comuni dade
ra dio
va ções
Ma ta
elei tos
Anti ga
manu tenção
F estas
d ú
vi ver
gi u
cont ras
fa cili
zu ela
monar quia
associ ado
G P
v inha
pres idência
eira mente
espa ços
Louren ço
C las
Pa cífico
Domin gos
in co
Al ves
tent ou
Mes mo
b le
no tas
era r
ór dia
estra das
Lo pes
neg ros
igu almente
viz inhos
U n
di ale
mo bili
ris to
Ju li
188 9
aument ou
rele vo
S em
co bre
in verno
organ ismo
Nas cimentos
Cer ca
ingles es
musica is
F é
l ou
es por
conteú do
b ado
ar ran
dios os
Chi le
L A
car do
corre r
Hen ry
L en
ra mo
re cei
qu ente
ou rinho
gi ga
Gu iné
190 5
Windo ws
ta xas
ci ário
For ças
japon esa
lide rança
o g
re leva
ti mas
trans formação
Jú lio
Dani el
de tec
ci ente
com partilha
du que
m m
al tamente
le var
im pe
Lu iz
ner os
n ós
tal vez
passa geiros
defini do
pint ura
R en
S tal
u ru
ó i
mar x
quí micos
usu ários
âng ulo
Anto nio
e gíp
ri l
Su perior
7 3
G ali
G rosso
é lio
an der
gu al
últi mas
Segu rança
identi dade
A frica
se tores
no tí
ver sões
gen ética
ôni cas
relaciona dos
interpre tação
Pó voa
si ta
pri são
Tr ês
8 2
tim ologia
referi r
Fl or
indepen dentes
Vene zuela
ru r
190 7
Suí ça
v ali
ca deia
pro gres
mb lé
rei ras
190 9
figu ras
aplica ções
E i
m últi
Fran cesa
pra ia
povo amento
j eito
ti cal
li os
mi os
ter na
Ba ixo
deix ando
execu tivo
surgi ram
Tu rismo
viol ência
ba ta
Mu itas
art ística
Z ona
es que
as segu
re inos
ta li
bac térias
equil íbrio
as tro
or din
ter reno
pi o
im plant
et ários
lon ge
constitu em
verdade ira
Kar l
B olí
c ali
con du
realiza das
tem os
ab aste
cri ando
nta de
apro vei
Metro politana
E qu
T P
ur l
Pro je
cres ceu
Bíbli a
o portu
as sociação
re fu
ci mo
ten dência
inter esses
reg res
pró ximos
nor ue
Pen ínsula
F rie
U l
si as
mor f
and ês
represent am
b rica
ori gens
Está dio
proi bi
G us
G ale
vo o
Se us
A la
g ista
n ista
w an
arqui vo
leva ram
L este
re r
pos sa
Al gar
187 8
Fil ho
ri di
per segui
Mar ga
lar ga
descober to
mexi cano
a ce
eta no
separa ção
ocas i
fe cha
resta ntes
Liv ro
B á
on das
cons el
Miran da
me ras
ass enta
ins cri
perten ce
atingi u
G or
re organização
res i
ass assina
Mar x
Histó rico
li gações
cri tica
evi dências
M E
bi g
ac res
pas so
col ônia
ban deiras
cató lica
fenô meno
ra ízes
quis tou
fro ta
ca ta
vis ível
tá r
lei te
190 4
cus são
ph y
indus tria
Coro a
d t
Mo vimento
ân cer
perman ente
g entes
u na
Na tal
ár vores
Reci fe
T ele
cent o
vis mo
es pírito
tra duzi
polon ês
7 4
9 4
M ira
h in
mes mos
pers pec
S tu
a f
b ano
re cus
et ário
Ri cardo
Ci ência
dri ch
símb olos
x emb
tri cas
Mar tin
So ci
Tor res
Paul ista
C orte
g l
ri tuais
lo gias
im postos
bol a
resul tou
pei as
X III
em as
no tável
ens ões
fun dou
bas quete
reali zou
Mú sica
Su pre
Comun ista
7 6
E con
ti ons
li cen
sí tio
determina da
extre mo
Arqui te
gu ia
Ar t
represent antes
dei ros
patri mónio
Jer us
Estra da
ri ti
al vo
mu da
sim ul
zi p
encontra das
cus to
africa na
I ndo
M ol
T E
f ér
ti das
pot ência
vege tação
1 F
tra dução
est res
Pe d
ambi ental
C E
F orte
g r
u ção
cent enas
tri bos
Im perador
univer so
guitar rista
ces e
dia is
Bar ra
permi tindo
Ger m
Maran hão
industria is
li p
us os
inter essa
cé u
tei ros
con quistou
produ tores
orde ns
radi ação
pode riam
forne ce
Bair ro
ab unda
cí lio
Ga ma
africa no
funciona mento
assu ntos
altera ções
negó cios
fi lo
sa ída
mar gens
dis po
capi tão
mon arca
quanti dades
exce ção
territo rio
mora dores
ilus tra
idio ma
C ria
j an
ha ver
ve ja
ob teve
trans missão
sin al
clí nio
a ch
de dica
po nte
pl ás
represent ado
contin ental
Á gua
ú lio
ent rar
liv res
ín dios
docu ment
intro dução
Ai res
A m
a x
a er
o cidentais
us ou
defini da
execu ção
Pos sui
dg territorio
as se
ri ch
au t
cen a
2013 _
estabele cimento
deri va
caop _
si te
fol has
D an
X II
na quele
ter ro
pel e
compl ement
s inais
is ó
bra l
Fran co
190 3
bar ra
técni co
profissi onais
estatu to
T O
a cha
m estre
de al
cons ciência
cel ulares
qu esa
ti mos
ist ente
der ru
auto nomia
mó veis
9 3
a ço
a fro
f ê
i mi
pi on
Cab e
arti gos
austra liano
L á
P ass
ca madas
vi vo
mo tivo
ver na
come ço
constitu cional
art ístico
associa dos
máxi mo
Jerus além
M y
c s
ar co
se xo
fi as
apresent ou
pou cas
B él
V II
qu en
per deu
Gu er
xi as
Tur quia
Av eiro
des er
vo ntade
ór bita
grá ficos
programa ção
desig nada
Bél gica
i ti
considera das
fis i
possí veis
conserva ção
b ó
qu ali
ram os
im pedi
st yle
M P
P ia
j ão
Pe dra
desig na
Jus tiça
E ns
es la
li gados
tu ristas
cas tel
subst âncias
re o
to mou
est rei
inter venção
Vi ena
So ares
anu ncia
Cor po
zo nte
domin go
compu tação
Men des
equipa mentos
terrâne o
dramatur go
B lo
to mar
destru ição
crá tico
P at
l um
ri zação
pro tes
pres a
ir mãos
auxi li
G et
mas sas
dis sol
Cam bri
ami go
Pri nci
territo rial
B ár
F el
qu inta
parti d
perten cente
comb ina
suge ri
i ano
k h
ca nos
dis curso
Vi et
deix ar
ama re
essen cialmente
mito logia
8 1
ce ria
ide al
che gando
gas es
publi cada
estabele cido
minu tos
possi velmente
s atis
t estem
cer tas
Mi chel
sen hor
denomina ção
produzi dos
W ar
e tas
á n
fi la
ciona da
estu diosos
huma nidade
apresent ar
vil le
aus ência
esfor ços
Cali fór
D in
O pera
da í
al ma
li gada
ho ri
Ma chado
cia ções
rec ém
subst ância
áto mos
responsa bilidade
cre nças
bran cos
secund ário
gra do
min erais
Car l
trans ferência
associa da
h ã
el ândia
na vio
con fro
ce a
Ver melho
crí ticas
te cidos
ei rão
cor rida
Califór nia
di cas
te us
ex cel
un es
brasil eiras
Lo go
Mé dio
superior es
máqu ina
A dol
de ver
ru rais
vermel ha
t ti
cu jos
bra são
bri lha
183 6
sele ção
Lago a
" |
R E
j ou
ch il
ba cia
funda mentais
Wi ki
Ind us
ma mí
dos o
De creto
A mi
que bra
na cion
on es
pi ração
ís ta
col ônias
Fo ram
Par á
185 5
atingi r
z inho
bi ó
tor re
Col égio
inicia tiva
compara ção
incent i
veí culos
C ra
z z
Re forma
Po mb
Le g
anu almente
aspec to
equival ente
el h
pre ocupa
ix as
elé trons
Mon u
R enas
s ores
es fera
quis ição
XI V
produzi u
necess ária
consider ável
ran os
líqui do
dispon íveis
F ór
de clínio
Ma ra
deix a
expedi ção
R osa
re nos
diver si
anu nciou
gera is
argu ment
alia dos
c ções
ô mbia
ca ram
se di
im pera
muni cipais
Regi onal
precis a
núcle os
chin esa
ric órdia
at es
cí dio
189 6
fra cas
Roma na
Col ômbia
jor nais
usu ário
P ela
P hi
P into
a valia
f el
á lia
re conhecido
li gado
pre to
sur ge
189 1
Ag ri
infra estrutura
domini cal
K en
i ros
ta tiva
ôni mos
Ta i
escol ha
C ir
e do
nci ar
at as
par ta
ali ança
depen de
utili zando
B ul
Á rea
ser ve
pl anos
Do is
Ni cola
agru pa
" ;
A ir
su porte
gan da
Mar y
Olím picos
o fer
que ira
cre di
segui u
mor to
apresent ação
realiza dos
Ama z
civi lização
ma tando
pro vis
ru pção
qui as
ge re
bili dades
mí dia
c âncer
d ônia
l or
do ce
cont í
ça da
Re g
cam peonato
toma no
reuni ão
fenô menos
pobre za
9 1
p hi
ca iu
me da
par que
An dra
sovi ético
simil ar
co bri
me tais
titu des
gal á
cir cu
Medi cina
espi ritual
ev ang
M ur
m istas
20 23
pre ce
dire to
ang lo
dim ensões
Bran ca
. :
L inha
qui cas
Ro ck
ine te
encontra da
187 0
ende re
promo ver
Stal in
D B
f ator
z el
ã e
on os
Pa ço
lan desa
189 7
próxi mas
Gen eral
S ur
pa ção
vel ho
pais agem
limi tada
geo gráfica
sobrevi v
a risto
p so
re peti
er ro
Mi cros
188 8
Min istro
A ten
to logia
ou s
bi ts
im plica
int it
Ca ri
envol ve
histó rias
crí ticos
ri es
A dri
p per
con vo
pri vada
ch en
fa ti
Re de
H ori
te cido
Lu is
euro peias
máxi ma
Ira que
M ao
S to
a í
com pe
po bres
pre ços
Ar á
Ex iste
fam osa
âne a
imedia tamente
Lar go
membra na
epis ó
F eli
G abri
b endo
r culo
Mo çambi
obje tivos
Ber nar
integra ção
ferra mentas
to lome
fo ral
econó mica
Aris tó
dispo ni
6 00
com pi
si vos
Con go
ven da
ven ceu
fer tili
tí veis
influ ências
histó ricas
d istas
ol hos
la tino
observa ção
descri ção
femin ino
T eix
l us
co isa
com panhia
on ha
por tiva
gi do
pe dido
Ar th
desenvol ve
Alfre do
Pel ourinho
F is
c âmara
ma ri
te za
cul tivo
Te jo
cató lico
prov ável
B elo
E v
f an
l s
n el
ent ro
qu io
po esia
du rou
nas cido
gen o
gé nio
Pes quis
alfabe to
hún garo
comu mente
< /
C unha
y e
aconte ceu
precipi tação
Indus tri
I X
u ário
ca rio
no n
para m
ch an
loc alidades
Ge org
relaciona das
M elo
m ulo
do ze
ta ne
De partamento
che co
Mu si
190 2
ocorre r
composi tora
Ama zonas
Pu bli
Pesso a
D entre
S E
in gu
aliza dos
gua ções
esti los
utili zar
Fern andes
G reg
M ãe
O ficial
P P
P elé
W ol
t ã
re ver
com preende
tri go
fí sicos
vent ude
descre ve
sexu ais
M ise
f rá
re nt
Mar te
Li teratura
comuni cações
New ton
sus pen
formal mente
Desambi guações
I bé
li ana
fo tos
ant as
cont endo
min al
gen es
Ro y
ac tividade
pass am
atle ta
R am
re tra
ca fé
reg istro
difere ncia
sol ini
dita dura
Pin heiro
no táveis
Ca rac
Esta tística
espe ciais
econô micos
emi gra
189 4
neces sidades
Social ista
disti ntas
rápi da
candida to
Mus solini
de usa
es cas
econo mista
utiliza das
Estu dos
Andra de
ôni bus
bor do
exce to
S co
á dio
de manda
to rial
sa cri
Al ta
represent ando
demo cra
Var gas
Moçambi que
u cra
na to
pro pósi
per fei
rela tiva
aju dar
l enda
ê nio
su pera
cional mente
Qu i
Su as
varia ção
ofere ce
indígen a
dinamar quês
opini ão
de gra
li g
la u
Pa dre
can ções
Clu b
ami gos
Fl ores
E ng
T ex
g s
j un
mé dicos
quar ta
anal is
D é
u almente
as tero
for tale
mar cada
portugues as
desa pare
descobri u
Natura is
Engen haria
Fí sica
Bár bara
P inh
fa cil
permi tem
pad re
sta tus
espal ha
re za
di e
na tivos
sa is
cu jas
pen ínsula
tri cidade
inter net
ori xá
zi am
Ver ão
189 9
determin ar
B org
F ar
b ana
se pul
vi veu
res tante
Go iás
Lei ria
fici entes
instru mento
Ed ward
acredita va
P lu
p ão
â metro
de tal
ni to
pla ta
For ça
quí micas
cient ista
desen ho
facil mente
ca mento
dis per
escri tores
significa tivo
C ó
T ar
du ração
parti culares
social ismo
cir culação
suces sor
vita mina
mamí feros
ca ri
pro emin
vel a
qui lo
cie dades
represent ar
To da
180 1
ascen são
arro z
R an
o t
x ás
di rig
prim ária
ciona dos
permane ce
indivi dual
o te
itali anos
reser va
Gus ta
tor y
tâni ca
encont rou
equ ação
cum pri
b r
al deias
Sant ar
trans porta
estu dar
resul tando
abri ga
tú r
Aristó teles
A mbi
I ma
bi r
ori g
capital ismo
Leg isla
por tar
cha ve
desenvol vidos
ren u
Sal a
decla ra
verdade iro
assu nto
conju ntos
D inastia
re produção
no bres
con duzi
Le tras
urb anos
difi culdades
Arth ur
N essa
g ni
in ária
ho mos
ça mento
cla ro
inten ção
tolome u
T on
ti vesse
to mada
comun istas
mê nia
Mise ricórdia
du to
Pro ví
refere m
conce pção
carre ga
manifesta ções
Natura l
Get úlio
8 00
h ino
ent ado
vi ve
su jei
fi le
ter renos
reg istros
Pi e
Ber n
Ir ã
B ap
in er
cas ou
Qu í
Lu xemb
produz em
propor ção
Vil ar
fós seis
i ria
fi c
gi l
social ista
astrôno mo
acer vo
acres cent
Ens ino
A L
E timologia
co di
gu ra
mé r
má tico
estraté gia
dimen são
di dade
cont am
ne gra
mui ta
sal a
nor ma
K im
k in
í cios
en contro
ti os
Vi eira
can al
mí ni
posterior es
visita ntes
é rios
vi ano
au tár
rea ções
Lu tero
depen dente
Cine ma
t ta
res pei
ba ck
Sen ado
188 0
nar ra
esfor ço
persona gem
V III
can ção
apo nt
Mor tes
oxi gênio
Ma dri
ôni os
opera cional
perten cia
aber ta
descober tas
Bis po
C at
de rico
nt ismo
vi ra
ag lome
A é
en ce
va riam
ag ro
of t
comb inação
permiti r
htt ps
S I
ali mentação
mar cado
bele za
desa fi
mag ni
ocas ião
preside ncial
R O
g rou
la bora
Ci ma
Pos terior
escu do
Jac ques
c ên
con vida
ad ver
enti dades
legisla tivo
funcion ários
p ano
de bate
do wn
li e
individu ais
S tan
es porte
bi zant
As su
Ro do
185 3
Teix eira
Industri al
al ar
po dia
car ros
fí sicas
189 2
Cris tó
orient ação
b g
ra ios
ten são
vis ões
Sa int
pou ca
tin os
L ob
pé s
Qu anto
pun k
ci rur
so ciedades
mi la
tri cos
lia dos
huma nas
experi ências
investi gação
M I
T ó
a eroporto
h en
h ães
n ismo
s ando
re almente
ta bela
Mar quês
caus as
w al
pa tro
Li b
Euro peu
Lin ux
exporta ção
dese jo
infant il
C ru
ci osa
comun ista
jus tiça
bg color
j ado
u ais
or todo
to pos
ch t
desenvol vida
esti mul
nor mas
anex ada
inaugu rada
instala ção
O cidente
t te
t árias
ci ta
en fati
to ns
mo tivos
la gos
ga dores
Co mér
tâni a
raz ões
exclu sivamente
Comér cio
O P
x os
ter s
inten sa
Cli ma
Barcel os
Luxemb urgo
que ima
188 6
Pre to
comanda nte
Cambri dge
Posterior mente
d indo
ó tica
ra cional
to pó
inte ração
torna m
Anti go
ner vos
Frie drich
o m
s ess
arqui vos
188 5
Bu enos
L es
z ero
forma ram
cons elho
Con si
cl ó
Ro cha
servi u
Á r
com i
gal e
consi deram
arqui tec
Col e
trou xe
Ev ang
y es
Al bert
vel ha
col onos
cen ário
rece p
peri ó
univer si
decis ões
especí fico
Bel ém
distin gu
Micros oft
C í
a ero
co man
di ana
mi dades
mi cr
nos so
ag res
lei tura
magn ético
Lín gua
fê me
li zada
vo z
Se tú
pint uras
S endo
x ia
y r
co ol
sem elh
Mar s
existi r
Setú bal
e cos
h r
po lu
segui dores
mú sicas
exporta ções
Mou ra
Leo pol
R ol
a flu
o per
ç u
so los
ist ory
pri sion
pei xe
Mos cou
gara nti
persona gens
Bolí via
S ho
n d
ag entes
fu r
Fran ço
gê neros
migra ção
reser vas
expli car
Secre taria
garant ir
Pomb al
C ana
Z elândia
ma d
in de
va ro
tra tados
ch ar
As so
ju ris
lan des
catego rias
Dar win
cú rio
consum i
inú meras
Santar ém
( ),
L ú
S t
W eb
W alter
gi camente
Ma cau
def ende
envi ou
aborda gem
contí nu
E ri
N um
a pos
po ndo
pro mul
men go
wa y
atin ge
contribu ição
essen cial
cópi o
wo od
m ens
w er
is rael
qu eles
res tos
pi an
lá u
substitu ído
complex os
di á
per gu
ag an
Ar ti
esti mada
descre ver
Johan n
emis fé
Ará bia
U cr
a cent
b la
c t
e das
da nos
ri ana
is ola
um i
pri mo
Mar cos
pot ências
defin ir
escravi dão
Figu ei
Ucr ânia
2 º
ú mi
qu esti
si onal
Es panh
prim ário
fal ar
quad rados
investi mentos
core ano
li túr
au tó
ing s
Bar ros
legisla tivas
plas ma
UN ES
n ã
re conhecida
re torno
is lâ
or d
res idente
cri min
au di
colo mbi
Di re
Cris tianismo
instala ções
diplo mata
Sí ria
ó rias
ü r
so no
am plo
vol um
pra ias
Du arte
Ho mem
costu mes
Jac k
Ap ple
D ra
re fl
er va
Ca etano
Fo ntes
arma das
Agos tinho
gradu ação
ati vista
Jor nal
Henri ques
og le
uru guaio
Y ou
c tares
t ulo
an desa
di ces
ex istia
pre ço
In fra
Ci dades
189 3
popula ridade
partici pou
especi ficamente
lidera da
Hori zonte
A ze
p ando
es go
em baix
ha t
la te
bi das
mes mas
den sa
Mar k
Ne ves
moder nas
Nor man
fi cção
inf ância
cur to
chin eses
armaz en
cles iás
Ibé rica
co a
as t
pa da
vi dades
emb ri
ge u
13 0
estabele ceram
188 7
fá cil
disposi tivos
Pl ano
Arquite tura
B ill
D on
em pa
an ga
pro gresso
ce bispo
mor tes
auto ria
estabele cida
ise u
quad ro
crist ão
chu vas
Bla ck
R el
for mul
Co me
mos trou
está vel
188 2
lem bra
R on
he ctares
Di rei
Inter na
e o
ro tação
ver t
tr ás
Al em
No ta
cri ança
polí cia
Su per
cola bo
significa tivamente
partici par
A fe
u el
​ ​
con cre
cha mou
rela tório
Fa ro
Cab ral
Mas sa
juda ica
tens ões
com ent
te riam
ni z
est ú
gra vita
inter medi
ac eito
divi de
sobera nia
Viet nã
A no
observa ções
alcan çar
nobre za
discipl ina
D al
T á
su ra
gi da
nos sa
Ma gal
ir á
cola pso
eletr ônica
D ona
S intra
o pe
car vão
acei ta
compreen são
v s
cons ta
segu em
val ori
Po der
ór gia
mis sões
dispon ível
Algar ve
ve do
cul tiva
Ma g
min istros
pas se
To mé
Ne gro
tent ar
secre tário
digi tal
Bat ista
E ti
V ista
ti ficação
pos sam
pri vado
cí nio
psi cologia
máqu inas
Religi ão
S ei
í cia
de vo
ent idade
Par ti
aument a
liga das
fabrica ção
cos tas
cur ta
estadu ais
defin e
Palm eiras
su pre
Es tre
gra tu
Os car
dent emente
Per son
aqu ela
Fili p
armaz ena
perspec tiva
Cristó vão
B os
B ou
c tion
di ano
vi eram
pri vadas
mer cados
Ter esa
fas es
acredita m
vege tais
econó mico
Clas si
C láu
T ab
g ências
É vora
qu ântica
pa ro
mi cros
tri nta
sub me
pra zo
Go ogle
tenta tivas
paul ista
O rig
b elo
v ares
ma res
rece bido
bur g
Gabri el
ro chas
ab re
car ro
reg ulares
son da
mis sion
isti u
finan ceira
avan ço
cál culo
i me
pesso ais
rig or
conta va
japon eses
B D
t ém
ni ana
Mo ntes
mor ta
atu ação
forne cer
Magal hães
D os
descri to
Fin lândia
né sia
Alfre d
J un
du pla
par cialmente
gra us
rela tos
sub sequ
hos pital
To das
Alex ander
Pr ússia
manu el
Rodri go
simb oli
riti ba
ci ado
la m
cas telo
int u
Por tanto
utili zam
apro vação
mó vel
lidera do
ore ma
H ero
T rin
em e
mo dera
at l
Mo reira
america nas
Le e
Fi gueira
186 8
terres tres
Bá sica
autár quicas
V el
h y
i ntes
re nova
al gas
vi al
vi agens
ver sos
indi ano
186 7
varia ções
magni tude
W est
con exão
ina da
vo cê
ne uro
cia mento
mun diais
10 4
está dio
Gra ça
glo ba
Trans portes
Gonç alo
J aco
to li
res ide
va por
ba tal
Mo ra
cria dos
possu ir
Ex cel
fra se
Ín dice
referi do
mole cular
. ).
Z a
t ões
ó logos
da das
cas al
vis ual
hi d
colo cado
Fe riados
Cal endário
lar gura
frances as
montan hos
ema nci
V ários
í deos
pa ci
li zado
pres o
18 50
au x
mar cou
pr êmio
organi zado
resul ta
viz inhas
ma rinha
ti u
li dos
bi dos
ali zar
Re present
188 3
end ários
lib erais
Bernar do
ri an
com panh
di âmetro
por ção
mi tos
Re vista
Con ferência
Gu ara
188 1
186 5
ocupa da
suce dido
escolh ido
Administra tiva
Franço is
S ele
ô mica
in vés
pro pôs
gra fias
pen sar
tur co
ató ria
Gal es
expres sa
Medi terrâneo
bomb ar
F on
in cl
ar s
vi viam
va gem
cio nou
cha mar
Tec nologia
7 00
ven e
investi mento
atribu ído
Liv re
emisfé rio
M ei
M atos
ó polis
ci ar
pa roquial
por tado
ser ão
cri to
constru ções
nucle ares
A dam
L os
re duzir
tra zi
sob e
fer o
Ge órgia
188 4
ses são
desempen ho
Est rela
a des
bu dismo
ban co
depen dendo
especí fica
especí ficos
T é
w hite
qu el
ul e
tra je
onal d
inter val
hi as
tá ce
Qu int
dez enas
grego riano
tradicional mente
imigra ção
G ou
ex a
un do
fe u
ele tricidade
vel t
ir landês
cria das
lon gi
perten centes
distin ção
consequ ências
amare lo
ri dos
il um
bra dos
ass ume
186 0
Sco tt
{ {
pan has
Ro ose
Com pu
estabele ce
Wil hel
decla ração
mascul ino
z ão
pen e
bo tânico
Bar b
sam ba
defen der
Ob serva
Rela ções
Germ ânico
C H
F ro
F ale
G io
G ene
mu dar
Na tional
ár vore
184 8
c m
h ista
ro cos
en ca
no ção
fi ciais
ex pec
Ant ár
mí nimo
leva nta
pré dio
mant endo
chu va
suces são
íssi mo
H y
} }
in ou
ant emente
Bar tolomeu
organi zada
Lon don
dedi cada
urban as
re ferências
mi rante
gra ve
envol vendo
relaciona do
mostra m
resol ução
Roose velt
A qui
E ins
an el
vir tude
Ros ário
jes uí
pian ista
F ria
n dos
ra iz
in cên
esta bilidade
pode rá
En er
lança da
processa mento
FI FA
o vos
es portivo
si nte
pi camente
forma dos
cer âmica
tes es
concel hos
Cor reia
cion ário
orde nou
profess ores
assassina to
M ani
ali mentar
ado tou
Ma ur
ini ciais
mon d
filóso fos
especí ficas
Mel hor
alterna tiva
gradu almente
Exem plos
Tó quio
- -
O bras
gan har
Su deste
And re
domí nios
existi am
absolu ta
Leon ardo
e p
ti ve
ti vismo
par es
ral mente
cana is
P si
R esta
f ó
p tos
Pa i
hi po
constru iu
ambi entais
estrang eiro
Inte gra
xad rez
F B
M inho
p ur
t ter
si nt
fo me
lu na
cor rupção
ns ul
cis são
mica mente
Go verna
Domin go
planeja mento
Quí mica
Madri d
C y
at h
me u
sa i
Pa is
fa ixas
algu ém
situ ações
ambi entes
Ha rol
Nú mero
intelec tual
hori zo
a i
mu seus
Mo z
14 0
187 1
Sé rie
resta ura
contemporâne a
melhora r
inteli gência
mo edas
ga b
he rança
ali mento
ju ntos
Ca ted
Mar ques
An der
apresent ando
Is l
bre ve
din â
Fil osofia
descre veu
sovi éticos
pilo to
escul tor
Amaz ônia
k ins
z io
de pósi
en cial
con fun
gra fos
ur ão
14 3
cam pon
rin hos
considera r
encontra va
Hol anda
Demo crática
obser var
ofer ta
S r
a par
e clesiás
ra io
que ria
pro ba
sa x
ás tica
25 0
rom pi
cando mblé
andes es
Ze us
cui dados
Ph il
topó nimo
po diam
pre feitura
Co ri
Al co
Qu ei
pra tos
servi r
Nu no
F D
S port
tu m
vi to
pe ões
lo ad
conhe ce
pesquis adores
experi ment
Mes o
monu mentos
Def esa
A ca
e va
ó pia
gu m
ça do
fun gos
desenvol veram
defini tivamente
inú meros
ped ras
nutri entes
castel h
Afe gan
Wilhel m
B au
a tivos
ô ma
do na
ti as
so viética
cons tel
ani versário
eli te
divi didos
prote ger
ín ua
leg í
Afegan istão
B C
Á ra
re ú
con clusão
represent ada
Ja ime
inici ado
lago as
radi cal
Din is
A gui
H ei
S el
f res
ó p
es p
co ron
is l
vi las
San cho
Administra ção
planí cie
hin du
Nicola u
Eti ópia
A cor
H um
H ans
i mento
ex plos
té rios
ér citos
legisla ção
Ál varo
f rio
g ma
an dro
con figu
cont ínua
Re cor
Des portivo
son s
num eração
leva do
Ara gão
dens es
M ano
es ter
me ga
gia dos
capi tais
Bo mb
estabele cimentos
187 9
Cont in
Ti b
preser vação
confi ança
predomin antemente
vant agem
contras te
Guer ras
s ali
z inha
po eira
Car doso
igu ais
vege tal
EE E
Cated ral
constel ação
V en
z ia
ci nt
di tos
po des
Pa quistão
mar co
fam osos
prin cesa
pedi u
Vil la
Ox ford
enzi mas
3 º
T en
de seja
ma i
con seguir
gi ram
gi cos
ab o
fa una
mor talidade
Fre nte
Fre derico
classi ficado
vê m
famili ar
Monu mento
A f
C á
n í
w or
» ,
Ú l
es pí
po la
con vi
con so
la v
par ceria
pal co
mé dica
Pro fess
assum ir
soli ci
Aze vedo
i i
Al ca
tri pul
proveni entes
F erra
ma dos
ma tri
ab und
ele vação
ado tada
Al bu
ide ologia
183 4
saté lite
person alidade
t ch
fi li
fi xa
fo co
fo nia
ga ma
vol tar
pu desse
ban cos
pare des
bar ão
localiza dos
exer cí
necess ários
Flo ren
aut ôno
co operação
co luna
ex ílio
pro vas
esta t
Pa ços
exem pl
cus tos
aconte cimentos
íssi ma
A P
L y
P é
n us
os sos
na mi
olí tico
blo que
( ,
C ho
H istory
O N
h eira
p esta
per dendo
cal endários
ins tal
ing res
her deiro
constru ídos
integra da
reti rada
Mul her
c ência
h ões
i camente
ta bul
mi as
he re
ba ter
ora go
Go d
dedi cado
compon ente
recupera ção
M orte
R ena
e cológi
á sia
is o
qu into
qu are
el or
pl ena
Fo z
chi ve
ên fase
idio mas
apren di
Caval eiros
Constantino pla
abaste cimento
propósi to
toli cismo
V ou
b ando
s ens
esta tal
cla ra
Cons tru
plan alto
administra tivas
contro lar
Tem plo
diminu ição
Marcel o
UNES CO
Direi tos
Trin dade
con sagra
hi erar
apo nta
tera is
neces sa
Anti guidade
finan ceiro
disti ntos
ascen dência
Cari be
abund ância
A po
B et
L é
j ardim
s um
te o
ver sa
Ca pital
contra to
aliza das
sim pli
187 5
fru tos
caracteri za
psi cológi
ocor rência
apoi ar
Gali leu
down load
Eins tein
F ur
N el
R ádio
g li
i ras
de cre
lo vá
Al va
ori gina
gn ós
colo ca
Du as
fra que
bá sico
liter ário
ID H
flo ra
Faz enda
Comi tê
detal hes
acent u
necessa riamente
H am
S pe
c inas
n eiro
ma rido
gra vado
et y
social istas
diz em
elé trico
clás sicos
correspon dente
consegui ram
mete or
mensa gem
adul tos
' ,
per u
18 30
car gos
Con serva
In fante
hos pi
K ing
O T
R amos
a ci
g ri
y u
er ros
te ólogo
ru ínas
cí cli
In ício
inclu ía
fal antes
contro vér
187 6
explo rador
arque ológicos
liter ária
rib eira
orig inais
is se
pa co
Es p
Di visão
rus sos
deri vados
caus ar
contribu ições
Tom ás
M estre
M alta
S us
V la
h em
ho mo
ga to
pi cas
car deal
ur t
depen dentes
ár qui
cro mos
org ânica
continua ram
e ficiente
f estival
t le
do mi
ni e
Ma ca
sex to
relaciona da
cientí ficas
Gar cia
vari ável
Chris tian
cál cio
Sac ro
Aten as
Proví ncia
l enta
í odo
re que
ta re
com põem
pa cta
18 40
sé r
org ânicos
He in
Pla tão
Bern ard
Person alidades
V í
Y u
ma na
for mes
cul inária
vo ca
Car mo
má r
Ra fa
deve riam
gol s
fru to
Dio go
parta mentos
lová quia
1 10
A credita
S C
int eiro
arquite t
contribu iu
Públi ca
giga ntes
G ro
G ab
O R
V iseu
ro meno
pro postas
fa ziam
pra ça
tur nê
Patri mônio
classi ficados
lógi cos
alcan çou
nave gação
Capi ta
Glo bo
norue guês
M eio
S ci
ó lica
ca bal
qu entes
se co
la zer
ex ces
ga va
cha da
Mo inhos
diz endo
patri mônio
vari áveis
sinte ti
H is
l un
v istos
des anex
Cha ves
metro politana
registra da
Sam uel
A fro
Z o
de pressão
el os
fi xo
gra vidade
emb ran
ide ais
Se te
conhe cer
ac tividades
def ens
187 2
plica ção
cr ó
algo dão
Liber dade
ét nicos
proxi midade
Barb osa
O f
P is
T inha
d ô
es portes
re ma
se t
bo li
ck er
ál cool
organi zar
baix os
187 7
wi d
Geo gráfico
Renas cimento
C rí
P T
h í
in for
di fun
cal cul
Da í
inicia da
remo nta
depu tados
N et
vi e
ex ércitos
Fre ud
apro pria
equi pes
escol ar
tane amente
I na
h n
pa mento
ei te
tem plos
bo as
Ar cos
Fran ces
fran co
Ent ão
ocupa do
tecno logias
Polí cia
blo co
nego ciações
mecan ismo
A tra
de partamento
um as
est ina
ior u
tê x
ocorre ram
sen so
Ru i
184 9
Hu go
gro und
diplo máticas
enten der
abran ge
Gol fo
profun didade
recom enda
Supre mo
L ag
por tas
un has
cer teza
vas ta
servi dor
monu mento
Equ ador
C re
S hi
a cerca
ê mios
en i
pri ori
pres os
ne to
fa vo
Re publi
dis cussão
ur ânio
ves sem
inte ra
Ra y
tera pia
elei tores
Muni cípios
Pra ta
conquista r
mani pul
Va tica
neu tra
Fla mengo
T esta
g indo
pro pria
Es to
nú ncia
indi cam
base ados
classi ficada
NA SA
Ali ança
Mau ri
volum es
s ter
² ,
se a
pro ta
Pro te
volu nt
há bi
funci onal
refere ndo
isó topos
J ung
a gi
p uni
ç al
com ida
ment ares
nas ce
bri cas
Po m
apro vada
governa nte
Bio grafia
E qui
li tes
un e
vo tação
vol tas
ju rista
nome ou
km 2
cir cular
quad ra
produzi da
media nte
cober tura
Carac ter
P ale
s h
ra ça
ca ba
man hã
Ch an
tempo rada
fal ado
24 5
Fe riado
Col le
revolucion ário
Marga rida
i am
z im
po ema
me ridi
fe ria
cer co
tó grafo
ix ão
Ex ecu
Ama ro
caus ou
substitu ição
resol ver
design ar
bata ta
Cláu dio
e man
i ana
di ções
si nto
tra du
pre feri
fa vore
Im perial
mú sicos
bibli oteca
Bus h
Soci ety
O C
g mun
p ente
to tali
po p
ei l
am á
emb ar
ocu par
isti r
atraves sa
propa ganda
ensina mentos
k ha
di óxido
Con federação
inclu ir
perten cem
insta lado
cientí ficos
artes anato
recus ou
Aé rea
M embros
O tomano
b íbli
ti picamente
mo mentos
tem por
im possível
dis cos
be u
determina ção
Bri tânico
afirma m
associa das
quin ze
famili ares
aer ona
Roy al
Rafa el
d ing
da va
re nte
ent ar
qu art
pos t
peri gos
mú s
vul c
ocor rido
PS D
cober ta
bru to
influenci ado
cô nsul
naz ista
Moder na
f le
» .
ó leo
re duz
ma estro
te brados
par ques
pla cas
britâni cas
Gran des
arti ficial
continu am
Atl ético
atmos fé
line ar
recei tas
frá gio
Interna tional
ades ão
B ab
M ana
P io
re pu
ti la
com issão
na tal
si to
ha ja
mo tiva
tra tar
ter ço
le ve
ce re
ncia do
Pa y
Ma rie
bo ca
pera nte
edi tor
Cu ritiba
identi ficar
Barcel ona
mecan ismos
s ários
w is
í ne
de mia
ar chive
Ar madas
ac usa
represent ante
úni or
186 9
deri vado
dirigi do
Pré mio
antro po
Sele ção
tare fa
A qu
a cidente
p ina
ent erra
vi tórias
ex posições
le gais
mu ral
ass istência
cla ramente
Te o
tur ístico
caracter es
gera ções
mando u
quil ó
Demo cra
Ál vares
Servi ço
F C
M ár
v é
tra ços
pres i
conheci mentos
Ba ía
evi dência
precis o
cru za
equ ato
explica ção
astero ides
A gu
B SD
E t
M á
c ter
c ré
l ho
or bita
pa u
Al f
cam panhas
of en
cé le
força do
ys tem
suge re
hei m
armazena mento
g na
am ino
bro n
sí tios
apresent ado
187 4
45 8
instala da
rec usa
Sau dita
episó dio
wid th
T our
s pan
ca tal
Al b
Mar rocos
anti guidade
Ro que
inspi ração
depu tado
releva nte
Mao mé
Capita nia
F ou
L ula
i b
n ção
p sico
da quela
to grafia
pro nu
ran ja
cul tores
ini dade
Ro ger
tá culos
espe rança
dro gas
ck e
Pro to
rou ca
anu ais
aument ando
eu ros
desig nado
Constitu cional
referi da
dal ena
Ste ph
planí cies
horizo nt
A polo
b ons
cul min
per cent
ado tado
cí lia
ac tualmente
Cas cais
compe t
g ros
o ita
p ista
í so
re per
ha vendo
mes a
ge ografia
Vi ctor
apresent ador
mis sa
bur gues
tér mica
litúr gico
C inco
P D
b í
No gueira
cri mes
mel o
má ticos
sex ta
97 8
econó micas
ilus tres
restau ração
A ba
T ais
re posi
fica va
ciona mento
cé re
escre ve
Sou to
associa ções
adap tação
T y
pro fe
18 21
min o
mé dias
gen i
dio cese
Ch ur
Cam inho
Ban da
lógi cas
extra ção
Gui ana
Rus so
simil ares
divin dade
0 1
k an
p ções
os ci
qu ina
pa gar
vo cal
min eral
cia dos
Par ó
edi ções
fal ada
pare de
Sou za
Edi fício
Pá gina
Proje to
des emprego
mo tor
forma das
dis sem
integra r
185 7
wi g
Luz ia
plata forma
d d
re curso
su jeito
ter no
za de
tor res
Ma teus
No vas
ass assinado
For mos
vou r
bis pos
tropi cais
numer osos
Mano el
S he
co b
no ma
vi de
la ços
per dido
ir ão
cent rais
dis põe
cópi as
Pia uí
. ),
0 2
A x
O L
n ela
nas cente
So ftware
and ra
resul tante
bar ro
Joh ns
mostra r
dista nte
desi gual
I u
S on
re tornou
re chal
ti ra
na quela
pri va
lu a
fe go
Ma ci
fa ma
Lu d
Ni k
lar go
bá sicos
inten sidade
rit mos
guer ri
tic ismo
PC P
aju dou
intelec tuais
Sér gio
H us
c tivo
n an
se dia
caus ando
Pesso as
fiel d
recor de
aque cimento
A liados
g ária
s y
an á
li x
la titude
Co elho
ado les
cons ciente
pen a
man es
ob tido
pon í
possu íam
vin dos
Be ja
Bru no
profunda mente
protes tos
late ral
B ase
i dê
p ê
es perma
or gi
to talidade
ha u
ex ões
le t
Ma y
cí rculo
mos teiro
Amé ricas
bá sica
Ob s
sust enta
mensa gens
Floren ça
idê nti
A ri
M eta
h emisfério
Á guas
co ca
ri ções
to rado
on ze
con quistas
un as
col span
fin alidade
186 3
integra l
ferro viária
pá ginas
efe tu
aparece u
Bru x
contemporâne os
proto colo
implement ação
Nel son
Testa mento
B our
c ór
ra ma
fi éis
cont os
mar cas
Ca rol
Mo inho
ven das
Ba ixa
trans formou
bre u
torna do
186 1
186 6
prote ína
Wil son
tema la
apli cada
cerim ônia
notí cias
Flor esta
Indo nésia
abunda nte
Vatica no
3 C
S istemas
ro cha
Ou teiro
enfre nta
Secre tário
Pou co
brilha nte
Bap tista
Gio van
9 65
B em
J im
c rus
i dades
n ce
de ca
de vas
ra ramente
in vo
en ário
po nta
mi lí
cont er
Pa redes
man us
bas icamente
só lido
ár ze
183 5
quad rado
identi ficação
America n
saté lites
Gua temala
Tai wan
Caracter ísticas
O tto
de lo
Re volta
cons enso
ju iz
Ar que
trans portes
povo ações
185 2
empre en
participa ntes
Sim on
sexu alidade
Mace do
fich eiro
landes es
israel ense
d ões
is sem
int eiramente
ass embleia
val es
Ne gra
cion ismo
event ualmente
continu ar
precis ão
caracteri zada
hol andeses
Hero ísmo
6 36
C is
G l
G rão
L et
P ás
d um
t ulos
ti v
te ísmo
con for
18 22
cor tes
Da ta
Si tu
Fun do
partí cula
Públi co
implant ação
Có digo
Assu nção
estú dio
Resta u
A penas
E volução
O ta
d ável
f ado
n ó
li dades
pro lon
Es tê
pre dominante
ele vadas
ag ente
conhe ceu
pla ca
roma nas
recebe ram
inaugu ração
cinema to
expres sões
dí vida
acom panh
ote cas
Norman dia
J únior
R NA
t su
t istas
co inci
co ordena
qu o
se ctor
lo g
Fer não
Per ten
Per íodo
exi bi
governa mentais
clo re
IB M
determina das
fich eiros
dú vida
cícli cos
Estê vão
j ó
me ra
sa iu
pres as
tem pesta
Des portiva
Pi res
deri vada
tei ras
Hi dro
inimi gos
reiv indi
Opera ção
coron el
F F
H ong
a reia
i d
p seu
r um
é gios
re quis
pa rou
pi g
car gas
tri un
Jo ana
Tra ta
cris tal
inse tos
Fá tima
i vo
ar mó
bi ografia
gre gação
significa tivas
cli ente
186 2
cadas tro
45 7
exten sa
Lín guas
Ini cialmente
ginas ta
Gale ria
simul taneamente
0 6
G ri
í g
es lo
el s
pri vil
pre judi
ju í
produ tora
té is
Cam ões
Fa i
soci ologia
histo ricamente
relaciona mento
liza ções
A mo
G ö
N unes
P olo
di fusão
na dos
po emas
constitu ir
quais quer
nave gador
essen ciais
Gre en
Sin ga
Pesquis a
Fon seca
B ei
F ora
H olo
p unha
re lógi
pal ácio
12 71
Par k
Sa turno
Ci ent
Univer sal
senti mento
apare cem
fá brica
Frei re
Colo mbo
Brux elas
C lar
V A
v emente
ra pper
do ras
ni dades
Ca xias
De cla
fin landês
desta car
Bar ão
cion ista
crist ãs
N E
P ér
c te
v ô
re colh
ma ci
ci tado
ga ram
me c
tes te
propri etários
morre ram
Mont eiro
jul gamento
Bul gária
A bel
I M
a vent
s ell
ri val
Es cu
per der
ob tenção
inter nas
Qu atro
183 9
lingu agens
estrang eiras
perce pção
Inf ant
Funda ções
Tib ério
t estes
ce p
bi co
pres identes
ab u
Co nta
pul a
come çam
governa ntes
185 9
san du
reali zam
trá fego
envi ado
sant os
invent or
D D
D er
R é
V árias
p se
an ha
on line
um bo
pe reg
Ca i
fun dos
posi tiva
Sant uário
tí pica
base adas
pare ntes
localiza das
necess árias
vence dor
Ener gia
cére bro
A cre
I GP
J ul
X ang
b am
d ulo
e fica
ci ou
fi ce
pe dia
sa cra
ví timas
úni cos
inado ra
Can al
Cont ra
afirma ção
Har ry
Pas sa
" :
y d
de talha
ver des
lu tas
tiva is
Gu ia
está gio
tí gio
escri tas
frequ entes
execu tado
az eite
pá gina
caracteri zado
argu mento
enten dimento
top ônimos
comerci antes
colombi ano
1 16
N an
i das
as si
re nas
on d
for o
min ha
cons tant
pan hias
pare cem
ref as
Fil mes
solu ções
ko v
descri ta
teó rico
oportu nidade
B ona
D ur
b ula
k g
co ti
ca nta
ro da
tr ô
pre ta
pre ocupação
man eiras
Ar tur
aproxi ma
observa do
tele fon
viz inha
Mer cado
assina tura
Cl emente
difi culdade
alte ração
Filip inas
Vou ga
hospi tais
T í
f ina
ma no
he u
Al ber
cri mina
fu ga
inter face
sem entes
rece bem
bá sicas
apare ntemente
Gru pos
oce anos
zu el
Cou to
sho ws
Chur ch
0 5
D as
O eiras
T el
te ologia
ei as
vi era
pri vi
este ja
cen as
considera va
aqu elas
liber tação
promo ção
bun s
68 4
estima tivas
nê u
Silv eira
Agri cultura
exa tamente
> {{
I nterior
J r
í du
ú til
ca tolicismo
qu estra
so mb
ce do
Es trutura
Al len
Di ário
alem ãs
Cor tes
cres cer
cle o
ata ca
denomina ções
lá via
Hel ena
diale tos
Greg ório
Ina ugu
G iu
K h
T ru
d ney
i gno
n ing
á cia
ra y
con segue
lo jas
cor das
Ra ul
determina dos
eleito ral
suge rem
vilh ão
}} </
D or
F M
G aliza
R em
z en
qu int
des membra
le gado
emb arca
corre u
constru ídas
orde nação
restri ções
rodo vias
fale ceu
anar quistas
Tex as
Té c
B ir
D entro
S tar
W ei
h is
nt hi
re cru
or çamento
ul ada
des per
for ti
za dores
cri me
pé dia
ven cer
hos pe
Di vino
desta cando
derro tado
hol andês
circun st
gab inete
Agui ar
a deri
v ana
es e
fi tas
mi ra
lu tador
ado ção
Por tela
ten dem
ori al
ard ins
abri u
úni cas
Rei ch
substitu ir
movi ment
caval o
igual dade
fór mula
Mace dônia
desemb ar
Adol f
B ob
ca ma
pa tina
gu n
des as
entre vista
cent ista
ciona das
Fran z
her ói
Di fere
dan ças
continu idade
acesso data
avan ços
reduzi do
gravita cional
. ;
H il
a preci
s indi
te or
esta ria
ch á
ch ão
cons tantes
segu ndos
envol vidos
Li tu
tá s
inf lação
deix aram
Anti gos
afir mando
comun ismo
Ass is
cau da
AD N
Recre ativa
ucra niano
vene zuel
Xang ô
Z u
er os
ma to
gu ação
ver tical
cont ou
Ma dalena
cri ção
Com pl
acor dos
183 1
separa dos
separa das
geo gráficas
Ara ú
provo cou
IN E
Fór mula
es pes
ma la
gu eiras
18 15
Re d
rei as
bas eia
estrutura l
Fa j
indepen dentemente
vei a
finan ceiros
complex idade
nes e
Geral mente
introduzi u
conside rando
UR SS
ax io
Ken ne
M endo
N ar
T av
f fer
s istem
er mida
ent u
res sal
mo re
pro cissão
sa que
Re ferências
cer veja
nti vo
colo car
Univer so
fá bricas
olí m
candida tos
profun do
E C
P int
c eiras
ma tas
so mos
me do
cont ando
Ca cho
apare nte
desen hos
core ana
quiló metros
1 14
R ou
a jus
b uro
ô mico
di gos
para do
il ândia
vis íveis
gas tos
vin cul
ama rela
camin hos
visi tar
cicl os
manifesta ção
perman entes
sacerdo te
ingu ém
Jaco b
constant emente
D A
w it
al tar
ar cebispo
to no
pa gamento
per curso
nos sos
mé trica
cion ando
sen ado
produz indo
Liber tadores
Hal l
P rado
e z
v alidade
do ação
is m
is es
go dos
rece bendo
má lia
defini das
bran cas
san gu
Vol ta
parla mentar
Phi lip
circu ito
Singa pura
ra ti
to ca
con se
gi ão
min eração
Ca mar
ori un
ógi ca
gera r
cará cter
ét nica
naz istas
Anterior es
depósi tos
Pás coa
L agos
z á
í tica
ri dades
re u
ei ri
des carrega
posi tivo
come diante
Mu se
187 3
lingu ística
mercado rias
adi cional
evang é
propria mente
T endo
o cul
in al
vi via
con curso
des sem
pe des
ac to
pas ta
Cas tel
funda dores
pó lio
Sh el
introduzi do
exercí cio
c ti
e pacta
t ância
v ância
es cultura
te orema
ni ta
Uni dade
gé ria
sofre r
assin ou
procu rou
disponi bili
hierar quia
Giovan ni
1 15
A os
B ang
L ó
k et
u t
or dina
si bilidade
con ser
la terais
at ing
sa ção
cont êm
Pe tro
lon gos
ví deo
peri dade
publi cados
Pal estina
183 2
url morta
táce os
Cori nthi
Araú jo
A vis
C ass
C ór
S ula
en ho
ar y
ni tro
ol ho
cel a
passa dos
peri go
arqui vour
Is lândia
Ta ça
reuni ões
pot â
trá fico
avi ões
bene fícios
áto mo
republi cano
arquivo data
persegui ção
campon eses
Vla di
arquivour l
I R
n ele
ca pí
ro tas
ha das
ce is
Con venção
Car naval
183 7
fru tas
quei ros
eletr ônicos
0 3
B 0
B il
G ên
S ir
W at
a reas
in venção
ent as
con versão
Es tima
cor ro
Se cund
ten de
be ta
rela to
apro vado
sen hores
Ter ras
Rib eirão
produzi das
concent ra
sta tic
revel ou
federa is
avi ão
Cla ra
CA OP
reiv indica
Plu tão
Infra estrutura
Pay sandu
A si
B AD
K ong
Z é
c tores
e gal
e tária
esta bili
mer ca
et z
segui ram
Fre e
Ni géria
185 4
Cont em
atribu ída
compreen der
bene fici
âng ulos
Hou ve
sobreviv ência
intit ulado
4 d
A present
R eno
c istas
â nt
ca ro
fo z
per de
Pa ula
parti das
inter nos
cel er
ess ência
integra ntes
equ ações
educa cional
notí cia
ocasi ões
polu ição
5 A
B T
S un
V ide
_ b
c ário
e ar
g las
i cas
v ém
di vina
te atra
on el
on go
15 00
Ro mênia
An na
cria ram
trabal hou
rou pas
exter no
técni cos
orient ais
1 12
5 E
9 104
B 8
B rás
H 2
T os
i te
é rica
ta refas
to ral
vi mentos
pre via
vas to
dispu tas
labora tório
Maur ício
proba bilidade
1 000
9 b
B 3C
K ö
S tra
X avi
y an
or na
pres sões
gra ves
cri térios
gan ês
cl oro
lon gas
funda ment
possu indo
Sa x
Ci clo
ger ou
complex a
49 46
femin ina
Vene za
Moz art
965 7
Corinthi ans
4 AC
4 FB
B 458
C 56
F 684
G NU
S ex
U C
e 9b
t checo
ma ç
qu enta
com panhias
Al go
car b
ir ri
Con forme
bo mba
ac la
Sen na
considera velmente
cra tes
eta pa
divi didas
80 e9b
70 23
39 C56
conce dido
44 F
43 EEE
homen age
Fin almente
54 fe
51 1271
Vir gí
consequ entemente
combus tível
1F 3
1F 5
chil eno
DB 4AC
Espanh ola
BD 39C56
Fale cimentos
FD 1F3
Acor do
245 80e9b
armó nica
B0 B8
BAD F684
4d 21
5E 5A
B3C 55
4FB 9
43EEE 1F5
511271 f
DB4AC 44F
BD39C56 FD1F3
24580e9b 7023
BADF684 B3C55
M ü
ô s
ro ch
su pe
pro vin
fre gmun
ten dências
Qu ad
corre m
dist caop
2013 120
cem i
diz ia
juda ísmo
90 636
distribu ídos
pros peridade
Vis conde
mexi cana
guitar ra
07 143
padro eiro
divin dades
2013_ 0
2013_ 2
caop_ download
caop_ 2013_0
juris dição
reposi tory
457 _b
areas fregmun
Xavi er
distcaop 2013_2
2013120 90636
07143 457_b
areasfregmun distcaop2013_2
201312090636 45
07143457_b 511271f
2 ª
f ria
v ente
pe tro
pi or
tre m
faz enda
sí vel
sol ares
Tra ves
nica mente
cir cul
conce deu
Sub divisões
divul gação
confro nto
1 ª
L us
S cho
k ar
do no
er ó
te cla
me todo
ver so
pri vados
cont ar
cont inha
per sa
uni forme
colo cou
Ri ca
apro vou
Cal das
torn eio
front eiri
Chi ca
invas ões
Alexand ria
Bro wn
alfabe tização
acaba ram
Tim es
rebel des
marí tima
acel era
apar ência
A pare
F ri
T iago
o toma
ma cro
des portivo
Ba ch
dio ca
está tua
sal as
sur gem
ân sito
ín dices
evi de
Ín dias
William s
Domin i
Gas tronomia
Espe rança
paral elo
nacion alidade
colabo ração
bombar de
J i
T S
f eli
s k
ma u
se y
so cio
fi o
mé nia
Cas as
habita ção
cria dor
nda r
publi cações
Col um
especial istas
fes to
Mil ão
territo riais
argu menta
foto grafia
interval o
1 13
F as
vo os
18 20
18 00
che fes
Ba viera
tí picos
.. ..
primi tiva
UN I
frag mentos
Trabal ha
Desambi guação
Lib eral
tabul eiro
bron ze
R ita
U mb
f ini
de te
re construção
ta vam
cons ist
ori xás
hi per
ac ção
ál ises
denomina dos
demo gráfica
experi mentos
tex t
Bri tânica
geo metria
industri alização
US P
câ m
compro mis
Pan amá
aboli ção
N uma
d ram
g ame
ó nias
re manes
di te
sa ir
pi ão
ja mento
cí lios
of f
ál dica
Ra mal
adi cionais
obser vou
reduzi da
sobera no
domés ticos
expec tativa
Governa dor
A to
D ru
a gu
b úl
d ânia
e ri
s ch
ra dores
en xad
tu no
on ista
Car neiro
quer que
fal ha
For mação
empre gados
inici ando
precis amente
ade ptos
refu giados
semelh ança
prision eiros
configu ração
en fer
na tiva
ran king
mar é
dis posição
che gam
olo gista
atra ção
apresent adora
ze re
ofere cer
protesta nte
capita nia
íb ano
umin ense
influencia da
Feli pe
sess ões
árze a
A quil
ma ca
18 10
bra do
Ma xi
influ ente
feri dos
deno min
afir mar
185 8
resta bele
Universi tário
alia do
Del gada
ensa io
Amb os
Hein rich
A M
A breu
E pi
P y
R J
ma pa
pa ga
cri tos
In verno
Lu cas
gé nero
africa nas
seg mentos
míni ma
a titude
í nio
ú ria
ro de
com enda
con cili
bi ológica
est ética
ne ve
onal mente
au ge
passa va
pou so
bel as
atu alidade
adi ção
agri cultores
manu fa
conclu iu
padro eira
úr bios
Nú cleo
numer osas
cló rico
eman já
I de
L íbano
P ant
T ou
T anto
c tu
h é
or den
li gando
tra l
im pressão
Ca ça
tí pico
neces si
185 6
pp ing
sho w
Pena fiel
P ene
e de
o ks
co opera
qu é
qu ismo
li gas
vi dro
Es colas
ís tas
ad ja
sub dividido
cam pus
és cimo
colo cação
come tas
Pres idência
Nor mal
experi mental
remo to
magn ética
manti do
atle tas
disposi tivo
avalia ção
Musi c
Fro nt
restaura ntes
Rena to
A ns
c ca
re du
ex ista
am er
prim or
sub je
Com pan
Des sa
Ri co
edi ficado
torna ria
vin hos
Ta ilândia
tin ga
180 8
batal has
Decla ração
b ulo
en ha
su porta
gi dos
ho me
ina dos
he bra
18 28
Vi ana
gen da
ven ções
defini dos
ima gin
exer cer
efe tivamente
favor ável
absolu to
Inf ância
Figuei redo
L P
f esti
s ina
de limi
se ram
ter nidade
ve te
18 14
est el
Co va
man dioca
cí pul
Na zar
bo ok
De pu
gen ético
fei jão
Or todo
gado ra
estrang eira
acei tar
existi u
infini to
proveni ente
releva ntes
I o
n ór
p lí
ta ba
ei os
res ídu
go ras
pres tígio
ch umbo
car naval
Gu ar
olo gy
For d
desa parece
acadê micos
Frei tas
Huma no
Espa da
proxi midades
Pass os
emanci pação
Lud wig
A pol
D am
J en
a mar
e amento
i legal
re y
al inha
ent raram
ti ro
que iro
us ões
cor da
nome ação
flu ido
matem áticos
desen cade
Bas to
Lin gu
Isa ac
urban ização
civi lizações
aé rea
incên dio
0 8
I emanjá
J ones
M ina
re vesti
pa to
cu rios
pode roso
fu tura
dis si
desenvol vidas
Bi ologia
ata car
plica ções
caus to
Pre feitura
blo cos
Trabal ho
absor ção
seg mento
múlti plos
Lú cio
poní mia
C C
H IV
b ulos
n ho
or região
ex am
ter os
im ó
ba da
min oria
Ca pelas
ten ente
nu vens
Mon ar
reconhe cer
apoia do
compro me
combus tíveis
acel eração
deser to
a credi
p ent
ma j
va ga
ele vados
Vi ce
bu distas
administra tivo
estabele cendo
mí nio
ân d
cus sões
aproxi mação
execu tar
caus ada
Mal ásia
tron co
Servi ços
Sér via
nervos o
coca ína
patina dor
A gência
C ô
q ü
em issão
le vam
ser vem
Co ração
cer tamente
pl eno
popul oso
In ácio
nome ados
reg ente
trans formar
So mente
diminu ir
montan ha
prima vera
Restau ração
Chica go
M onde
N am
l l
t ris
as ca
ri ne
re cre
ca ir
el hos
ni anos
18 24
cons piração
pode ros
Car lo
Lu gares
To cant
sur rei
propri etário
fol ha
oxi dação
Die go
egíp cio
OT AN
B ron
s ky
co gni
as a
en globa
que tebol
des t
su bi
za ções
18 25
No vos
ju ventude
Con cílio
vis ando
jo gar
Ex plo
apresent ada
Ne to
publi ca
Me da
cli entes
Nas cimento
real ismo
orde nado
Chi co
instru ções
alcan ce
Mat em
Ob je
tribu nais
espec tro
ancestra l
jun ção
úmi do
- ,
G em
ó grafo
com bater
pa m
tu des
Al an
17 58
gos lávia
auto móveis
Col ônia
El vas
ên us
pat inadora
conside rou
excel ente
L ança
k en
mo dos
para dig
gi das
Es porte
he ta
fa riz
vis a
pr és
In di
Cam bo
mou ros
cole ta
pol ê
permane cer
lidera dos
inferior es
Int ro
bibli otecas
licen ça
Atra vés
Mana us
o vá
p ás
en carre
to mb
ist rou
Ch ã
faz endas
varia das
varia ntes
mant inha
Ben edi
Cla ude
reconhe ce
Cria ção
fertili dade
contínu o
anga i
E va
O M
V ênus
re visão
en fraque
bi t
Es portes
gra da
ab ra
ad versário
produ ções
av ista
dez esse
pare cer
ocu pando
bar ões
Ha y
popular mente
Chi pre
termin al
Shel ley
A vi
G an
í ons
ha bilidade
des car
fi lhas
fi bras
habita t
Mi cro
épo cas
natura lista
competi ções
Sim ão
sant a
Dou glas
gere ncia
gnós tico
embarca ções
E ixo
H ill
X angai
re pressão
la ranja
pos tamente
cas ar
gra vação
mes o
elé tron
contribu íram
aplica do
len das
Che fe
Hou se
sobe ranos
A nta
B ál
B ell
E D
a ulas
v ass
es pont
en cora
con fe
des por
mo nta
ba ch
cia da
Con des
parti u
Mo rais
Des porto
Ant hon
La jes
Be atriz
Cont ro
separa do
permane ceram
apare cimento
suce dida
lite ralmente
dever á
Harol do
N ag
m ór
al mirante
des pes
pre da
pre fere
cl ero
inclu iu
Fo nt
popula ri
Rib eiras
atin ga
Fil óso
184 2
fes tivais
provo ca
funcion ar
sui cídio
Lí bia
inimi go
eme yer
Vladi mir
A ndo
C ando
T odo
e y
m ist
p pe
as tronomia
ri tas
di tas
pa tia
des tinos
mo nia
pro mes
pe z
pi lha
tri bunal
ge rando
cre do
Par te
colo ração
perten cer
185 1
Be at
origin ou
184 6
chu vos
aten der
Sam pa
irmã s
0 4
D ados
S pi
ra no
co marca
con fis
gi cas
fo gos
dis cípul
Con dado
organi zou
Ni emeyer
varia nte
tró pole
inici ar
ferro viário
complex as
conde nado
Gre go
Br un
Consi dera
câm bio
A juda
V az
g la
h l
ma il
ar mada
na das
con ferência
pas tor
está veis
Ju liano
só dio
natural mente
Er n
184 4
fen ó
Ben jam
estraté gias
nau ta
gr ãos
questi ona
cint urão
amino ácidos
Litu ânia
( ).
S or
b eira
f eiras
o ral
de vol
co so
ma térias
ca usado
mu ra
tor ce
popul osa
cola bora
ál buns
cin quenta
ima mente
opera cionais
Muni que
integra nte
cade ias
nega tiva
Frank lin
Fé lix
reú ne
Compl exo
Anthon y
T â
g endo
l ise
es ma
in ando
res pe
res ga
mo a
bi tas
im posto
Re do
tro ng
Se pul
De u
pass os
Ter ri
governa mental
evi dente
visi on
rebel ião
Georg es
bizant ino
Faj ã
T hom
T ito
i mu
es quele
al um
an éis
di ário
mo rais
ce reais
ja mais
tri bo
via ja
trans forma
estu dou
Ser gi
Ori gem
glo b
polita no
profun das
plu ral
Hor ta
liberal ismo
traduzi do
S teve
o nt
ri oso
ta lo
in ista
in forma
ro po
vi et
so ra
par cial
mb urgo
Po nt
rá ria
Ba k
Ver mel
encontra ram
Ne tuno
varia dos
183 3
umo nt
austra liana
moda lidade
Ota viano
Traves sa
M ó
T I
j al
n istas
ta ri
or no
al fa
gi e
for mais
esta tística
pre mi
ja zz
qui ta
dis to
be bidas
Li fe
col os
cen ça
importa ções
espa ciais
op ção
atu a
Je ová
Pri ma
cê nt
Ind ústria
acompanha do
impera dores
jesuí tas
A lagoas
C é
m ismo
n áu
su postamente
Al mada
Con he
hi p
Fre deri
tur cos
cant il
viol enta
sus pei
Rus sell
atô mico
Ren é
N O
P ira
T au
T che
W er
de tri
ra pa
da nia
da tada
re mos
po les
18 45
Pa io
mar ro
Na z
bri n
tent ando
decis iva
acei tação
conclu ída
mete u
recupera r
ecos sistemas
Tocant ins
S ystem
u ncia
se ção
tu ber
pal eo
be th
her o
Bar ca
eta pas
ante ce
cro ata
Si cília
ânti cos
empre gado
descen dente
medie vais
Gas par
assegu rar
gl ând
impedi r
sugeri u
degra dação
lig eiramente
sinto mas
Johns on
Benjam in
A mor
E ul
E mi
I grejas
S O
T un
V era
Y a
p ha
p pen
ma li
ma ne
entre gue
cl os
habita da
colo cada
av ô
ren dimento
defini ções
Ha via
183 8
decla rado
descober tos
184 7
inten so
precis am
Ed gar
ws ki
teó ricos
ancestra is
marx ismo
Nazar é
E is
N º
n inguém
ma ras
di lh
bi ca
18 23
nas cidos
gos to
envol vido
Ant on
Ju di
bio diversidade
substitu ída
toma ram
internacional mente
viz inho
tic s
Az ul
hal l
prov ém
influenci ou
aé reo
Hon ra
Gusta vo
aceito u
surrei ção
E B
M T
r ê
la da
at ende
cons orte
der me
has te
Le wis
Di on
escra va
estraté gica
Vir gem
ches ter
cui dado
obrig atório
F ei
o posi
re cla
ca mentos
vi ão
va rie
tra do
Pa cto
ba ía
Uni x
tá culo
esti mado
dé cimo
come çando
constitu indo
ang ular
capital ista
fis cal
cida dania
acadê mica
obri gado
estima tiva
enfre ntou
Pequ im
cea e
Classi ficação
Execu tivo
Democra ta
C ham
D ei
e ficiência
r ós
z ela
es cla
re tornar
ma chos
se io
pa mentos
vi va
va nte
la t
tra gem
nci pes
bra ço
ju deu
17 55
Ar co
nacional ista
Mé rito
respon deu
reuni u
Gr êmio
registra dos
Vas concel
Ur ban
adquiri u
back ground
nêu trons
A vel
B elas
G ram
P ós
R I
T ira
f ras
h élio
i gn
da tado
re públicas
or bi
ca res
la tina
lu ção
tor cida
Co mba
ns t
bol ismo
ocu pou
manda tos
Bu da
Tem po
Res erva
radi cais
caval os
molé cula
fême as
Colle ge
Steph en
circunst âncias
Aquil es
A rouca
B rito
P il
ra cha
do bra
co berto
al co
ul t
ali zão
uni ficação
pu ro
Car re
cen o
Go i
Do cu
Ju ventude
denomina das
Cris tina
compu ta
abando nar
envia dos
isl âmica
C emi
E ric
O pen
V D
a quisição
g ul
l ó
ñ a
em prés
en ci
se gre
com é
per das
Pa d
vis uais
trans formações
Lu gar
ren ce
sal ários
separa da
revel a
roman cista
impul siona
diale to
Alco ba
Albu querque
controvér sia
Tav ares
C anu
H ino
J our
c ton
h umo
da ntes
ei rinha
ul ados
cont agem
Pa u
ns es
Re ce
ris cos
Pe ar
indi ana
inte rações
Mu ito
sen ho
vin os
observa dor
treina mento
And r
extra ordin
178 9
Espa ço
discipl inas
marx ista
Toda via
ioru bá
conse cu
C le
K ant
M G
f arma
i e
er to
to car
ga ú
ga ria
ch ou
vas os
cl é
tre ze
trabal hando
estaduni denses
Cris tã
Mont ene
Augu st
Liv ros
registra do
desempen ha
negó cio
Abra ão
proemin ente
isola mento
Afro dite
potâ mia
? ).
P am
j ano
ar bi
com parti
con feri
su plement
Es pi
Gu an
apresent ações
outro ra
Ta y
Pra ga
Ama ral
inten si
Pen sa
Mont em
dre lé
sue ca
antro pó
Alb ânia
9 00
; "|
S tre
U tili
p ta
s ú
v inas
z antes
è re
de posi
em isso
di ária
sil v
segu ro
che fi
La w
The o
bar cos
cida dão
identi fica
179 2
emer gência
marin hos
Exem plo
quare nta
Sampa io
Montene gro
T it
a ve
c ci
t rio
in dis
qu im
si e
va co
ex cesso
le al
cont as
per forma
der s
influ entes
surgi r
Gra ciosa
cap tu
inspi rado
gó tico
pat ente
costuma m
vant agens
hard ware
aux ílio
ilum inação
A ves
E liza
L av
g ali
w ork
ó quei
de libera
ra d
ma ia
se z
to la
vi er
para si
para guaio
lu cra
ch or
ba cias
tá goras
Le al
fal am
Val ongo
insta bilidade
Atl ântica
mag istra
disti nta
aqui lo
Sí mb
Capi tão
Sha k
preside nciais
jurí dica
Gene bra
Meso potâmia
sindi cal
Compan y
f ação
k el
é ria
de ficiência
de partamentos
re nascimento
se cos
di vino
cos teira
Co vilh
ori enta
Li e
che vi
ang ol
Ra im
dita dor
estre ia
Ban das
Ja va
domina da
reno v
Rus sa
norue gues
dirig ente
Sala zar
aero portos
Leopol do
fur t
intu ito
Holo causto
cemi tério
D J
P ei
R as
b ei
z os
ei ga
con duz
per tur
pre cur
int imamente
Ma da
Re volucion
Na var
Con quista
produ tividade
Ro man
Qu ar
dro mo
represent ações
sal ário
pré dios
Er nst
184 3
tenta ram
Pes ca
organiza dos
oxi génio
Len in
emigra ção
exempl ares
céle bre
ó pera
ó nimo
ma cia
gra nito
ele y
ch im
envol vem
Pro testa
Cent er
tur ísticos
cole tivo
ferro via
tale gre
muçulma na
rele vância
proce dimentos
sá bado
Escri tores
pereg ri
Monde go
( ...
B lu
E las
L as
R S
re vistas
ta il
tu bo
des porto
lu tar
ser vindo
fa chada
depen dem
dan ha
composi tores
subs istência
data m
Lei te
coloni ais
propor cional
Mer cúrio
secund ária
Gil berto
bene fi
Int el
longi tude
Covilh ã
K ir
W hite
í lica
di eta
lo ga
Es pé
ali zam
No me
Por talegre
pr êmios
gas tronomia
odo ro
moder nismo
frequ ente
extre midade
compara do
Hol ly
Glo bal
interessa nte
cirur gia
repu tação
[ ...
s is
ro t
ser vida
fe chado
Ma gno
mar cha
dis cre
ac usado
rin has
Tor n
Fil armónica
Tu do
reti rar
argent ina
Plan alto
elabora ção
regular mente
sing ular
Filóso fos
L E
O i
S um
an álises
no minal
li an
si mo
za ram
cos mo
18 11
cam p
et no
10 1
Tra di
econo mias
cient emente
ise bol
quad ros
Min istros
reconhe ceu
Dio cese
We ber
auxili ar
peru ano
infor mática
efica z
sangu íne
Cemi tério
N au
P M
T ir
f ú
v ário
z il
ra mi
to mia
di oso
con creto
va ca
pu seram
Gu ada
gua ia
gover nar
Mu seus
Me ca
Ho tel
Ga ia
demo crática
mant êm
destru ída
diminu iu
pesca dores
Espa cial
Leon or
Mem ória
Johan nes
assenta mentos
sacri fício
Borg onha
Pie dade
ofen siva
crus táceos
Church ill
resídu os
Q a
g atos
r ra
co pia
is tido
mo ntes
pal est
pu ri
corre ta
tre cho
sí veis
flu vial
domina ção
bate rista
Sab u
prepara ção
escolh er
inscri ção
C res
E us
G ália
V in
b l
al titudes
po ra
vi lha
ol as
lo como
Na tureza
pé is
In formação
Pro pri
abri r
Ama rante
Her bert
atribu tos
contemporâne o
ferra menta
múlti plas
Ambi ental
Mulher es
Bona parte
Sergi pe
A ward
O k
d ul
as tron
cor ridas
Co men
Ca io
rela tividade
Ro w
mor tal
respon de
Cal heta
frequ ent
psi có
argu mentos
descobri r
marí timo
Def ini
alcança do
privil égios
V ed
a quando
g rão
p ino
da queles
re vo
ci lidade
ab as
cons istente
Ar ms
Ch in
xo fre
oportu nidades
Alcoba ça
C anto
C eu
D escri
J on
l ú
ê xi
da d
se i
se cular
um idade
tr ânsito
18 26
fe cun
car tes
qui rições
gia da
sub ordina
trans formado
primeira mente
Lu anda
Go ul
composi ções
expan diu
nes to
ami zade
favor áveis
Cro w
refle te
[... ]
M L
j ardins
l istas
s che
es culturas
to na
du ro
ga ta
ob tidos
Ar gé
Mi la
publi camente
mon s
exter nos
Bi zant
Ha iti
Val ent
eleito rais
invas ores
costu me
imedia to
Loc aliza
apel ido
quart el
Argé lia
H T
O lim
S oro
g by
re mont
ta x
li dar
ho tel
ran ge
bra ços
ju ízes
Mar ta
reg istrou
tre ia
mor tais
Bar roso
perten ceu
Ins tru
flu tu
mostra ndo
Sí tio
arre dores
Sar tre
destina da
assenta mento
Wol f
Vermel ha
B ac
R ia
V é
m ís
re go
ma m
em os
con vento
ex ame
he tero
ba teria
hi re
Cas o
Qu ase
fam osas
significa ndo
finan ceiras
CO N
bé ria
assin ar
apoi ou
Camp inas
Asso cia
Gou veia
esperma to
Gl ória
A h
v inda
de co
re nome
ma tar
com postas
por co
tra zer
min ério
fu gir
Na ve
ge orgi
Mo niz
col unas
Bar ro
Te ve
administra do
Pol ónia
elé tricos
pratica ntes
peona tos
Mil ton
Vil as
demonstra r
person alidades
jurí dico
Tec no
Só crates
Borg es
Ambi ente
Psi cologia
lun ar
Pom peu
Paró quia
N en
V árzea
i cos
é sia
se ve
to m
la h
za gem
Re y
15 14
Para íso
La pa
có digos
bus car
identi ficado
finan ciamento
inicia ram
Ka f
doutri nas
difi cul
Cri se
enfre ntar
bat es
estrei ta
vert ente
Alem ão
humo rista
Ceu ta
H im
e co
g nos
an ia
pa péis
gi ra
18 17
cia nte
Uni dades
cl or
Ra dio
cion istas
substitu iu
explo rar
184 1
morre r
Mel lo
cy clo
inva diu
nega tivo
alte rado
fér teis
document ário
escas sez
si os
tu ng
con cessão
va gens
uma n
mi m
Al deias
mar és
An álise
inf la
consi go
tí picas
considera ção
Ant ão
correspon dência
permiti ram
coro ado
dedi cou
manti veram
filosó fica
vere adores
desanex ados
Vasconcel os
B ela
j ando
m emente
á sio
ó ticas
de cai
ca deira
com par
us si
pro posto
tos a
Re agan
mé trico
nacional istas
come çar
contin entes
administra tivos
Can ada
El ement
Cha fariz
propor ções
Ang eles
Ur bano
candida tura
Chris top
lide rou
possibili dades
impul so
galá xias
Lob o
dest inado
Cambo ja
D onald
J ane
m ás
p sica
de correr
ra ras
re quer
re torna
al th
so fis
le ão
18 12
pu dessem
gan hando
be isebol
Ar mas
mer cantil
In vas
Ba y
reg istem
mul os
pare cia
aca bar
demo gráfico
migra ntes
Pen ha
infe c
bril ho
Demo cracia
moda lidades
opini ões
plás tico
catal is
C us
L abora
T estem
ni ge
ho mi
cont o
fe riado
vel hos
trans cen
significa tivos
Ber k
Mal a
Organ i
Pas cal
Cou tinho
Mem orial
Camp ina
giga nte
esque ma
endere ço
Phil oso
M ame
m embran
s te
í sa
ci cle
ar gi
ter ciário
Con junto
mun d
pon ente
nacional ismo
indi car
cur va
pra zer
Para na
Cor onel
elei ta
meta no
arti cul
senti dos
dista ntes
Edu ca
hipó teses
Sy dney
Tim or
Fol clórico
consel hos
fracas so
perfei ço
Ára be
Eliza beth
A bu
G and
L ame
U D
f fe
j eira
l ando
r umo
es o
re conquista
er gu
na tivas
po ntes
po etas
li zar
pro le
ver tebrados
he ma
ali zou
ju ntou
inter rompi
cen se
bro u
Ex terior
Di z
Pi tágoras
estabele cidos
estabele cidas
có pia
hum or
Demo crático
Bis sau
Dis co
preser var
Cel ori
Africa na
devo ção
Bomb eiros
Normal mente
Beat les
Arms trong
F ru
R ous
t ing
í tico
es con
da tas
os so
ri r
po ente
vi ú
ha us
su pri
cos teiras
fa go
man dade
men ciona
hi ma
Li mi
rac ão
cion alidade
cli máticas
Cal vino
força da
substitu indo
defen deu
cê u
Loc alidades
adequ ada
proibi ção
Princi pais
simboli za
relógi o
% "
A da
W it
f uma
ri ga
ca ixa
ti es
ol e
su frágio
la ia
18 19
pes te
ves es
lha ria
Ni lo
Pres identes
bur y
permane cem
caval eiros
espera do
fale cido
ped indo
facili tar
morf ologia
Stan ley
Antár tida
explos ão
torce dores
3 50
co zinha
re conhecidos
ta o
al ban
em pí
en rique
pa cí
ei bol
su primi
fi dal
fi cá
pro var
fo tógrafo
ran ga
cas tre
ça das
per o
mé tica
Cas tan
usa vam
publi cadas
contro lo
permi tido
ki en
Ín dico
bor da
fas cismo
mostra ram
wi th
organiza das
propor ciona
esquer do
idos os
eletr ônico
celebra ção
parla mentares
disponi bilidade
Profess or
Secund ária
Cando mblé
Celori co
A T
A rena
G C
H abs
P ab
de cor
des conhecido
su ficientes
la va
mi lo
ter reiro
per ou
inter ess
mé tricas
be bida
pla tina
Ex tre
colo cando
Do ze
ofi ci
Gran ja
estrutura is
Lo mba
servi dores
defini u
Fun chal
comple tar
aber tas
derro tou
visi tou
vari ar
expul são
enzi ma
Adri ano
sujei tos
Rodo via
Espé cies
D y
M ende
O 2
Y e
b ê
ri mento
di ários
vi ram
res postas
for taleza
ce d
gra v
il le
fa cilidade
vol tada
min orias
rela tivo
Jo vem
espe are
Go gh
obje ctivo
disso lução
marca ndo
Her mann
linha gem
ofere cem
sacerdo tes
galá xia
Jack son
acusa ções
viet nami
Shak espeare
(... )
E P
M am
t sal
no w
res pira
me ral
cu o
car d
bu ra
col mo
cra ft
tur ística
capa ci
exist encial
senti mentos
envi ar
modi ficações
judi cial
adequ ado
Recre ativo
pion eiro
distingu ir
Eri treia
Mora es
paco tes
F en
f antas
m estres
qu alidades
di ri
vi ola
me re
pi e
bi am
mb er
Brasil eiros
Ch ão
So bral
Mi kha
cla ve
ór bitas
cin ética
exist indo
Gra nada
pensa dores
vor os
acredita vam
sagra do
Contem porâne
Bizant ino
1 17
A gro
g ã
g ela
do uro
es cura
re eleito
ma cho
in cidente
gu en
vi ais
so ja
us inas
ser vido
Pa dro
Co operação
cri pto
ju nt
dis cussões
sé c
gua çu
ven der
et he
ár bi
demo crático
Ru dol
Er nesto
bilh ão
primi tivo
roman ces
Espe cial
sér vio
Trabalha dores
Meda lha
G in
I F
W is
n ando
com is
no tar
le genda
sa ções
per missão
cos lováquia
Al unos
ju ntar
ten imento
Ro m
col is
cam isa
Ci ty
medi r
Ne u
Bi elor
deix ado
forne cem
ganha ram
Frank furt
transferi da
Tol kien
narra tiva
diá logo
ating indo
Kaf ka
C IA
H era
g ne
o posto
s orte
nt on
da nifica
co e
com pri
to ler
fi to
ce ra
pi do
gra ça
Mar tí
lan çar
Di gi
classi ficadas
restri n
umin ismo
deslo camento
Histo ria
partid ários
cabal a
varie dades
êxi to
Gand hi
a pre
y nes
in clusão
se cas
na co
li tu
mo tores
cas ado
il la
ab al
Ar no
In quisição
Fran ce
Ba ra
represent ados
significa dos
Me tal
proje cto
neo zel
fix ação
preten dia
assem elha
cumpri r
Evang elho
hindu ísmo
enxad rista
alum ínio
Comen da
% );
A gru
D umont
F au
T eles
a perfeiço
qu ê
to mando
di es
pa dos
ou t
con exões
ha dos
sa ram
sa bor
pi ano
pi nta
tr ía
cos ul
sob rinho
ins ular
cen sura
colo cados
En cyclo
exten so
vir tual
Mer cosul
pô de
Tro ia
inva diram
filosó fico
Ran cho
espí ritos
Iu goslávia
Goi ânia
Tay lor
B ós
N ação
s indica
z inco
{ |
ma ica
in cur
en xofre
ar cos
con e
ria to
para r
esta tais
bi ológicos
lu sita
fa ra
tó rica
tó nico
Se ri
ad vento
men a
che gado
Su dão
inclu ído
Di ver
sul tão
sequ ências
flu ência
promo vido
promo veu
melho ria
digi tais
Mis sões
abunda ntes
Fór um
Ern est
D OS
O H
t ler
ma pas
in fante
ni zado
ou tono
con gresso
para ção
bi ólogo
gra vi
Ma rio
Por tal
Ar ma
16 40
col ar
atra ir
Di cionário
pais agens
Ne o
Sal o
Nor th
Mor ro
representa va
profis são
Trans porte
difí ceis
ocasi onalmente
Legisla tiva
gratu ita
prota gon
sofis tica
Pab lo
4 º
A ms
U T
c ães
g ria
m ler
v re
z y
ta i
me trópole
ch y
Qu al
Ch u
nor mais
Ju nto
cres cendo
az u
espanhol as
cabe ças
Har ris
Arqui vo
altera r
alterna tivas
esla vos
defens ores
Holly wood
E M
L ine
h indus
in ismo
an dar
vi tal
la vou
pro me
lo w
Pa iva
entre ga
Por ta
Ro ra
grande za
mil ton
dire cção
fos fato
hou se
execu tados
aconte cimento
ofere ceu
Fl uminense
equipa mento
estat ísticas
esquele to
' .
M et
g is
co ligação
al er
li tor
vi vendo
cont ing
Al cá
tro cas
car dí
gan g
olo gias
indi re
hor ário
bel os
proje tado
Ha bita
har monia
Prim eiros
Pen al
sto ne
expul sos
revolucion ários
atô mica
barra gem
lenta mente
primor dial
Jour nal
Berk eley
C enso
R al
d rico
o vo
â metros
te at
pa ti
po lar
ul ou
du quesa
ter ói
ve ria
per nambu
ch tens
Al l
nas cer
pode rosa
ins on
Mo is
An glo
desta cou
ví tima
fro m
soci ólogo
defini tiva
interpre tações
aten dimento
processa dor
genera lizada
aliment ares
Prin cesa
recei ta
Parti ci
feu dal
oriun dos
Depu tados
maj ori
D ol
F ac
T am
a cam
a tivas
f us
l emb
ra ro
re tro
te to
on ça
ob ede
cel tas
pé rios
can dina
th an
Fa ria
sol ú
dou rada
Ni terói
ocupa m
meta bolismo
escra vo
fera s
estuda nte
Var zim
bac teri
Peter s
Fel gueiras
apont am
meridi onal
mús culos
antropo logia
Ló pez
nitro gênio
5 º
A y
U rano
n esses
s ino
ri vais
res ist
con fere
mo inhos
ag ência
ras se
ob tida
conhe cem
gen ia
cres ce
Bri tan
testa mento
cros ta
Cl ás
Comuni cação
mobili ário
Andre w
aerona ves
despes as
Mame de
N á
b lin
d ã
al á
en g
pa pas
gu s
vi co
ne a
min i
car reg
pes ados
ens is
Bra são
pr ós
men cla
Mar tim
Po ço
Li toral
col inas
trabal ham
Des cobri
só via
econo micamente
leva da
gue z
Fun dão
Ori xás
Var sóvia
dirigi da
alte rada
preten de
colh ei
legi ti
Ton y
islâ mico
pene tra
Símb olos
( ;
B I
D VD
F lu
M ali
W el
c ém
e cologia
m pa
m ões
ca cau
di um
nci almente
am p
le a
per fil
Co ok
vel has
cons istia
cí dios
tri zes
Jo an
pé r
reg ulação
represent ou
encontra vam
cole gas
Wil de
contribu i
Gon za
câ maras
inver nos
cré dito
subi u
Raim undo
Him mler
B un
D un
O ra
W right
ra zo
re primi
ro la
pa ta
tu pi
ha is
esta l
Ca tal
hi er
pró tons
Pro fis
oso vo
vil la
Ha milton
apresenta va
lago a
Anto ine
impres siona
Loc alização
levanta mento
hábi tos
chtens tein
H ume
V ent
g lico
da nte
as co
ri quen
com bo
mi ro
cu b
gran do
bu dista
Ba i
zi os
funda ram
sí n
av ali
Go ethe
ante ci
it ens
gue da
correspon dem
Bru to
Carval hal
amos tra
espal hou
ganha dor
alu no
encar nação
embaix ador
Sci ence
entu sias
Testem unhas
Lame go
B ag
t ini
â ns
é rico
ma ias
est reito
im or
gra dual
dis on
vis u
bal l
nta ra
ven il
hos o
ora ção
inclu íam
desenvol vendo
povo ada
divi dir
classi ficou
arti ficiais
bor racha
fas cista
termin ando
lis h
automobi l
abando no
Ve ja
judi ciário
educa dor
justi fica
protes to
Legisla tivo
exibi ção
compromis so
Ortodo xa
mura lhas
Mikha il
ra ra
ca ju
po los
fi cientemente
tra tos
par á
mar ciais
Car reira
corre ndo
desenvol vem
indi anos
indi cação
governo u
th y
Cor re
osa mente
bel s
aconte cer
vul gar
Bran dão
domina do
fol clore
elim inar
marí timas
Fá brica
consoli dação
testem un
aflu entes
paci entes
here di
têx til
Carol ina
Torn eio
H ob
n essas
de cora
co ta
ca va
el mo
el la
gu eiro
mo ver
pi r
pres ti
per me
Ma fra
entre tenimento
pen s
Se tor
cou to
Para da
Du cado
Do mi
poli ticamente
Val de
clo reto
Pos to
caval aria
Jose f
evolu iu
republi canos
controla da
obrig atória
Juli ão
aprendi zagem
tás sio
C B
R N
S algu
o cidente
ma rino
ca deiras
ent ados
va ra
ve y
ver s
int eiros
pl ân
sé timo
pon entes
ck s
Ex peri
mal ha
Vila rinho
ató rios
histo rio
separa r
docu mentação
Tran coso
mole culares
Tan credo
circu itos
Bour bon
estel ar
A do
A ber
S T
V ul
a k
o ni
é dios
í sia
de bates
ra dial
re núncia
ti vessem
li gar
con veni
des h
cul mina
Al ma
dia gnóstico
ag ências
For ma
poli ciais
cole ções
empre ga
El eito
Ti pos
Mou ros
Huma nos
alterna tivo
consul ta
expedi ções
Econ ômica
fér til
Ams ter
D este
H z
T es
c rio
â mi
de tém
da ram
ta tivas
en costa
ha bilidades
me trô
cont ex
tor tura
fe riados
ado tar
olo gicamente
Lu ísa
inclu ída
Le is
dist âncias
Ri ba
Sa ca
fal has
usa va
publi cidade
art ísticas
permi tia
gin al
divi dem
meta bó
elé tricas
pint ada
aument aram
nada dor
Gra ças
derro tar
instru ção
exce p
líqui dos
traz endo
Econ ó
desigual dade
Tâ mega
S es
h eli
l ento
í sio
ri ção
re voltas
er on
ci tados
tu na
vi deo
des pre
ver ões
cent í
Ba cia
reg ul
esti veram
ani mação
Bar roco
medi ção
ren das
corpo ral
perten ciam
cole tiva
end ê
toma das
apare lho
pô r
respec tivos
ID S
mus cular
Tol edo
consumi dores
taba co
H ard
L G
V inho
s uma
x is
á via
de posto
ri zado
re volu
ci ón
to lo
no lo
na ria
des ma
du rado
ba dos
min g
cer o
pl in
este jam
bri ga
faz ende
auto ma
peri fé
apro va
Im prensa
só lidos
Da y
Mé di
Ori xá
180 9
apare cer
inicia tivas
Liber tação
simb ó
Via gem
obs tante
sepul tado
homos sexualidade
Mars hall
coordena das
vô lei
Bang la
capí tulo
Rora ima
A dão
I van
g ética
fi lip
nci ando
du n
ba is
ces se
mar ck
cent enário
mei as
Ju iz
sur preen
fra ca
exi ge
coloni zadores
assum indo
defen dia
Cla u
abran gente
planta ções
Mul ti
Pequ eno
Histo ricamente
Supre ma
argument ou
subsequ ente
legí timo
A th
C T
C ás
H ora
O cu
b las
k ho
ra va
al on
in am
na m
si li
tu alidade
ho téis
ter ços
cas tan
ab e
dia riamente
prim árias
dis crimina
col ónias
Bo ok
super vis
gera do
toma do
reti rou
continua mente
Dou tor
enor mes
fix os
Sac ramento
astrôno mos
sing le
embri ão
supre mo
orbi tal
Agru pamento
G au
J am
P eixo
r ússia
da e
da ria
in ga
lo ja
bi m
ne ca
pre vale
tas se
ad je
gre gas
bas quetebol
envol veu
ven didos
tempo ral
Ant io
tur ca
bar roco
Bi g
op ções
arque ológico
atingi do
179 3
provo car
perce ber
Ol inda
adquiri r
astro nauta
aristo cracia
aci dentes
Esto colmo
Rem édios
Bielor rússia
O corre
i vos
r s
t ney
y i
na gem
si tes
tra gé
bi ológicas
ça dos
Se de
cola te
En contra
Sal ão
decla rada
conquista do
arquite tos
identi ficados
observa da
Au tó
reuni r
hidro gráfica
vá cuo
Ali ce
America no
ff el
imedia ta
teó rica
muda ram
universi tário
Teo dó
venezuel ano
Montem or
M ant
R onald
b our
f ul
h ua
de ga
de vida
re ban
pa pal
tu barões
para da
us cos
za va
mb ar
pres su
ser ras
vol tado
segu ia
men cionado
Jo e
Fran ca
escri tório
medi camentos
Im pera
roma rias
aco lh
gê nese
Pen i
tent ri
atribu ídos
descri ções
Bas ílica
demons trou
azul e
abando nou
Portugues es
procu rar
proemin entes
fême a
Orig in
traje tória
Christop her
Rous se
( …
F ul
I RA
N í
p son
da no
co alizão
ri go
in cre
ca ris
ti zada
he rine
18 16
fa velas
cons tela
Se is
aliza ções
Ar rai
ves tido
Pe tró
Mi tologia
funda mentos
ale gando
Cam panha
Fa us
baix ista
funci onais
âne o
empre gos
surgi do
Bri an
vul cânica
registra das
vari ando
demonstra ção
Sab o
cál culos
proce dimento
paul istas
mari nos
Tir so
Crow ley
árbi tro
Peixo to
constela ções
; "
D ão
E A
E ar
X i
ó ni
de cl
co zi
ta rismo
ca tá
ar ras
ter n
un in
ran h
18 18
car ma
Com mon
funda mento
Pro b
Pro duto
av y
Go eb
Euro pe
ang elo
âne as
lib eração
180 7
fol k
lim pe
defen dem
caval eiro
PC C
muçulma no
manti da
ampli ação
compra r
Miran dela
consumi dor
Mois és
F ide
H as
S pa
a vis
f ista
f ácio
po tássio
li ção
vi ment
vi vas
cas ti
ab di
Co marca
Vi riato
rí cola
Des se
governa do
atu ar
Mon gó
Edi ção
180 4
esco cês
captura do
anar quismo
revolucion ária
Dé cada
Cana veses
dinâ mico
deca dência
escla re
farma cêu
toler ância
Teodó sio
Goeb bels
Mongó lia
E T
I lí
M ir
g á
Á gueda
ri bal
re ne
to l
des fru
fi ta
nci am
per feita
ne ur
cal endas
ven ça
trans formando
So fia
th on
huma nista
fra co
subs trato
antiga mente
Ho ward
Ter reiro
decla raram
Lou res
especi alizados
expan dir
Hi pó
secre ta
secund árias
garant ia
adul ta
destina dos
sof rimento
burgues ia
privi le
Apol lo
A ve
G é
K osovo
T CP
a cident
d us
t ha
ra cionais
la nt
le z
ina ções
nas ceram
Se mana
che v
sub terrâne
Car men
indi cado
ind ul
milh as
popula cionais
Lou sada
pedi r
deci diram
Res ende
179 9
efe tiva
obri gados
177 6
Ol eiros
apa ix
isó topo
Row ling
limpe za
K er
L L
L and
d inho
ra cio
pa cho
bi ológico
lu as
lu so
pre ferência
Co mer
fa culdades
In clu
In vesti
et nia
et nias
habita ções
ocorre ndo
ocupa dos
ener gias
bus cando
mem órias
Ti me
Lon g
encont rando
hon or
mó dulo
crá ticos
diminu i
escolh ida
veri fica
germ ânica
Michel angelo
You ng
arquitet ônico
Equi pamentos
Tí tulos
Scho ol
tentri onal
B ene
D il
O di
e pí
f ração
re jeito
ma tou
ca pelas
en co
an fi
su ficientemente
pe de
ter ão
lu cros
ab rig
Pa vilhão
Em presa
fa ces
car água
pl ana
ob tém
rece u
chama va
Pro dução
come ta
ór cio
Cor u
sen adores
Ni carágua
Patri ck
tempera do
tró i
Ja pon
japon esas
180 6
ES P
Aus tra
contem pla
abando nado
sovi éticas
paró quias
ensa ios
pont u
larga mente
simul t
Musi cal
Mendo nça
F ir
F lá
H é
K al
d ras
p teis
s âns
de via
ri anos
ni tas
tu as
tu ma
tu ba
18 13
ces sor
No tas
pl er
dis cursos
mé dios
Ro mão
faz ê
passa gens
usa ram
sol dado
Lo cal
situ adas
din al
torn eios
180 3
rom pe
Cer co
algo ritmo
Fin al
Ag rícola
Ferro viária
sent ença
conven cional
sustent ável
preocupa ções
coman dos
valori zação
vie w
pronu ncia
Nik ola
Gên ero
remanes centes
mencla tura
. °
B lum
K ris
O bra
b s
d inas
k is
y in
do ria
co co
pa nte
vi árias
para das
pro f
at esta
sa bia
za ro
Es pera
vo gais
tri ângulo
An al
inclu ídos
Sen egal
constitu cionais
Do ce
povo ados
ocu param
corpo ra
respon der
Ter es
arma do
pratica do
rit z
descen dência
introduzi da
esca par
consequ ente
tér mino
espec tadores
jan elas
telefon e
Terri tório
Petró polis
3 ª
A ço
A IDS
F land
I T
K urt
O range
P ina
a gir
f ãs
i c
m ônios
s cri
w ar
qu ant
an ismo
con certos
pro pi
gi am
fo no
du bla
pos tura
pi ro
mar ket
Na val
15 21
mer cúrio
via jou
Cor vo
leva nt
org ânicas
aber tos
Min eiro
conf usão
pá roco
suce deu
aç u
câ nda
neu tro
dirigi u
cober tas
proto colos
transferi do
apli car
Palm ela
Cabe ço
compi la
renova ção
atmosfé rica
manus critos
Fai al
Ando rra
Contemporâne a
Gonza ga
G estão
o tomano
p H
p y
â ncio
com enta
des cont
des conhecida
cas ais
18 27
ch eia
cons pira
ass í
tico u
constru íram
chama m
funda r
estu dado
Bar reto
Fer din
Amé rico
governa dores
flu idos
tele fonia
Pos t
visi tas
aparece ram
ét nico
austrí aca
sent ir
Artes anato
Sara iva
pilo tos
Corpo ra
Consi de
Constru ção
Apare cida
dete rio
festi vidades
f rios
u z
ó tico
ra cial
co li
ca vidade
ca poeira
ar ra
nte gra
ran ças
pri mas
cul tu
ju ntas
bo ard
cel este
tre ns
pra ças
ani ma
estra n
aca dé
administra dor
situ am
super ficial
poli cial
Ja maica
descri tos
guer reiros
cópi os
Estra ng
determin ou
exterior es
Hon duras
marin has
isol ado
metá lico
Mira douro
chan celer
aglome rado
Come ça
Gab inete
Kenne dy
Prima vera
Antio quia
A re
C ân
E p
F S
s ani
v eira
á cios
an fí
vi g
mo z
ram e
lu cro
gra fa
min has
Por t
bol chevi
ur y
val ência
17 97
her óis
má cia
fir me
contro lado
moder nização
Ni etz
ph ia
IS O
distribu ídas
Eu cli
wi ck
infe cção
exer ceu
conserva dores
dimen sional
veí culo
eru pção
Pinh el
homos sexuais
marro qu
Tun ísia
membran as
Digi tal
azu is
Nietz sche
A di
Y o
Z ê
w ares
ê mia
re pe
ro e
ti mes
no tação
li das
mi zação
du plo
per deram
18 29
est ri
ele geu
Al asca
cri tério
tri color
pu reza
her deiros
Pro vis
mili ano
mon ges
Da mi
Col lor
divi diu
partici param
aba ra
começa do
Clu bes
sofre ram
funciona m
Flo rian
sel vagem
inci dência
Sy l
desemb arque
Abra ntes
inscri ções
resi dências
Ami gos
espalha dos
convida do
castelh ano
ib ne
horizont al
quint as
Umb anda
Redo ndo
Frederi ck
fras es
comé dia
P ros
S ong
e rigi
j ana
k es
u nt
ê ncio
or ou
ca vel
ti ços
po et
gu ias
la ce
ex ag
Al câ
Al encar
contra ção
Esta bele
Ro d
Cas ais
cam peonatos
10 5
Lu i
indi cando
dist or
gado uro
resul tantes
aqu áticos
Ga vião
domin antes
mont agem
finan ças
gram ática
suces sivas
Vol ume
comporta mentos
conclu ído
hol andesa
caça dores
Cria da
endere ços
semelh anças
Situ ada
ear ch
carb one
Matem ática
Britan nica
rejeito u
A yr
A plicações
N em
U P
b era
e a
z ola
qu a
ci ação
ni zada
ina das
he ad
par âmetros
im provis
ne w
pre visto
ele va
ces es
ag rária
man dos
pr ussi
Gu e
Ar ro
Ar mando
Mar ía
reg istos
mel an
rin ária
Ex pres
To mar
Fi el
feri r
Ga ribal
Ru ral
Jú lia
bul ário
177 7
mono pólio
adul to
constitui ntes
vér ti
Stu art
Barra gem
aflu ente
sono ra
Cacho eira
Descri ção
Fland res
C N
P ê
n á
v ões
v ard
í rem
de bol
or questra
ci ca
no to
li ce
li xo
ni al
vi bra
por tadores
pro tec
at í
go no
fu tu
et te
Le a
pais ag
Sa ara
ama nte
pratica da
Geral do
RA M
úr gica
anato mia
Ph y
fotos síntese
His p
Et no
invo cação
previa mente
Lie chtenstein
Rudol f
Zê zere
A ero
F im
K at
T ris
b ár
ma t
ca nti
en ga
se ppe
li bra
tu b
cent os
Con sul
Ca pa
Ca milo
ço naria
Mo gadouro
ví n
publi car
Te ch
mon ge
Fe z
Ama pá
comun hão
clás sicas
especi alizadas
deci dir
comb ates
exer cido
assina ram
restri ta
amea ças
asi ático
domés tico
sess enta
culmin ou
Pér sia
búl garo
Propri e
nige riano
Alcâ ntara
Garibal di
S agan
W in
W hi
w ei
í no
de cr
er gui
ci tamente
com põe
pa cto
vi gente
con des
con dado
va gas
du a
min era
man ganês
val do
17 50
Esta tu
pra to
constitu iu
rios a
abri go
sen ador
espa da
fl ex
cito plasma
ts ch
Ga za
concent rações
Monte vi
sion ismo
fol cló
descre vem
interpre tado
suces sos
veri ficar
discu tir
cte a
Giu seppe
Guan abara
Bós nia
Ayr ton
B lan
F emin
N eil
Z i
Z am
a tivamente
d uma
e f
h im
p ên
ö r
ú bio
ا ل
in du
com pensa
te tra
vi ários
pro longa
ja z
rela ta
esti vesse
estrutura ção
fir ma
Is land
Pal av
Si te
contribu indo
termin ar
trou x
avi ador
escu ro
processa dores
Est reito
moto ciclista
complement ar
renu nciou
intes tino
Úl timos
R ab
a rit
h óquei
w en
y ne
is tou
or to
qu elas
te ras
per nas
Al eixo
pes ado
can cel
rou pa
ór dios
cios as
casa mentos
Cal vário
fé u
contribu em
melho rias
referi ndo
velo cidades
AR N
conserva dor
rol l
Ox um
foto grafias
prima tas
apren der
concor dou
Mem órias
sabe doria
Hum berto
espermato zo
decai mento
T rí
a pe
e cli
n estas
s ki
do m
re porta
ma rechal
ni c
por cent
me tas
mu se
per pe
per feito
pre juí
tica is
regi mes
rece pção
Go tt
Bo oks
medi terr
tan ça
cun ha
pesquis ador
dica mente
exti ntos
Edi torial
extre mos
correspon dentes
descri tas
Res ol
178 3
quei jo
obri gações
prí ncipes
we alth
Lam pião
transmi tir
moni al
bati zado
regres so
aglome rados
recep tor
instal ou
Formos o
cinemato gráfica
promes sa
Bak unin
Médi ci
K on
M ass
O la
À s
ç á
es candina
co bra
ci tadas
en ne
que riam
no ti
li gam
ou tor
tra ição
pe rio
par cela
pre domina
ag er
gre di
cel ino
zi g
capi t
fal sa
roma ntismo
For nos
Roma nos
eno men
continu ação
isla mismo
Men or
respec tivas
tens as
áu tica
concor rência
meda lhas
Sho pping
boli viano
vocal ista
Pear l
Sabu gal
teat ros
Bangla desh
Flá vio
A k
I no
P ho
R ele
V es
r culos
s ismo
do ou
co uro
re conhecidas
ar u
po ntas
ga z
fa rinha
Con f
ban ana
espe táculos
segui dos
está gios
gar ra
tre chos
estu dioso
ale gre
utili zou
pare nte
abri gar
feri do
quia is
Nor oeste
Bri zola
tran d
destru ir
Res earch
exer ce
plas tos
conclu ir
neer landesa
influenci ar
mascul ina
Clas se
egíp cios
dedica dos
Dan úbio
empa te
Ander son
Isl ã
requis itos
paradig ma
glând ulas
Qa eda
Vé nus
decr éscimo
D O
M exi
e ólica
de mar
ri us
ci tada
na vais
con cílio
mu tação
17 90
envol vidas
ac r
ré pteis
moder nidade
Cal deira
Cruz es
Bu arque
ref ú
tele comunicações
net ismo
promo ve
anex a
remo ção
179 4
provo cando
sobrevi ver
captura r
Leo a
floresta is
fisi ologia
Cí rculo
wor th
aprendi zado
tiv eiro
preda dores
dilh eira
B eli
g ões
n das
u f
ca ras
que t
pa ciente
fo gue
vo cá
ado taram
prim os
ino vação
cal cular
gan ho
15 80
Jo na
gal a
Mo re
Fran cês
té s
col égio
ira qui
Le gião
Ex pedi
Pro cesso
edi tora
Go a
Ne gó
bar ris
Ho mo
pli ce
ató rias
consegui do
remo tos
suces sores
ingles as
usu almente
divis a
alia das
abran gendo
Vo y
bene fício
evolu tiva
floresta l
dança rina
aé reas
sobreviv entes
analis ar
recep tores
Bron ze
Naz ista
viú va
A bo
c alização
n elas
é bio
es bo
re trato
al ber
el li
te ia
mb os
per sas
cor ros
fa ria
Al en
ten berg
fer mentação
ás tico
cur tas
dé u
Du blin
To po
Lo ren
bar co
ener gé
integra dos
atu am
gol fo
Cu ia
sofre m
exporta dor
descobri ram
ét nicas
cruz eiro
sant uário
líqui da
sel vagens
emis sões
substa ncial
ilustra dor
Lá ctea
arquitec tura
mission ários
incl inação
Ára bes
domi cílios
performa nce
Seri dó
E ram
O h
S ri
d ino
f ri
f rie
s ti
t ô
u to
í m
— ,
os hi
ca bana
ci enti
li zados
pe cado
ga ço
cul tos
im ensa
im périos
gra vações
cor rigi
ch mann
ado p
ing estão
bal ne
Po dem
Ba den
col ónia
perí metro
resul taram
sen hora
Ing lês
marca nte
deri vadas
ofere cendo
adi cionado
Mal vinas
anex ação
algo ritmos
179 1
desempen hou
Muse um
Asi ático
teatra l
adja centes
Mila gres
Ná poles
market ing
4 50
A zer
J as
J ong
g ridade
p ton
w art
â micas
ca re
ent ram
pro põe
at entado
cos m
tó lica
lh ão
sé ries
cl ã
Vi e
trans crição
atra iu
utili dade
The ory
ré is
Ni colas
cios os
escol heu
marca dos
pad res
conce dida
livre mente
destru ído
179 5
multi dão
Gol d
Huma nidade
bat ismo
anar quista
Cro ácia
bibli o
procla mou
prece dentes
Asso ciações
dona tário
Profess ores
Fou nda
pseu do
Alber garia
Soro caba
D ele
E cologia
F an
M ér
c ós
e clo
ú teis
es is
co pa
re pel
ta ng
ti zado
li tros
un indo
ant issem
ver y
im pli
ab ó
min ori
rei os
cí rculos
tá tica
corre to
So mália
Ne ws
Tra dução
tada mente
fis são
perten cendo
Mont anha
tú mulo
Sh an
Dist ribu
arre cada
termina is
Gi b
confro ntos
Ima gem
promul gada
Republi cano
tempesta des
Protesta nte
I pa
M O
i anos
re v
in consciente
an mar
to le
vi v
so ft
con seguem
mi t
ba bil
cri ses
ári do
cí a
Ca cém
men ino
hi drelé
sub sí
Pro du
Sa xe
Ci vi
sal vação
econo mistas
it ismo
Lou rin
isti ram
pensa mentos
engen heiros
protesta ntismo
prepara r
pecu li
Oce ania
Jor dânia
rib eiras
Est ônia
Lam as
fós sil
apa rição
Pode mos
Aris ti
germ ânicos
episó dios
ecos sistema
islâ micos
vert entes
Contin ental
Peters burgo
plân cton
E tel
K an
g g
de so
de tent
re vis
li fera
va re
des centra
mo d
ran d
Es ti
cont or
pre co
Al fa
dor sal
Se ver
bol o
17 70
An jos
atra ções
Mi ke
mor rem
Cam peão
Bo ca
dez oito
limi ta
tan ques
rique zas
empre gada
sin ônimo
chin esas
Constitu inte
CO 2
autori zação
teles cópio
brilha ntes
fel d
Conserva ção
otoma nos
B y
C r
L ist
L ad
O bá
Z imb
os idade
ma x
ma go
res son
fi de
ve au
Es lo
he gem
est ôma
cu bano
gra ficamente
nas se
Ar mada
ing en
ac us
Ch á
So m
considera vam
dire c
dado ra
aus tría
ell y
refere ntes
investi gações
viol eta
Gon do
explica ções
filosó ficas
fecha da
Cabe ça
lembra r
sistem ática
poderos os
Sabo ia
Common wealth
apaix ona
Blum en
Montevi déu
Cuia bá
Azer bai
C in
E van
G os
J uni
U L
c ária
p inh
de qu
as as
re produ
pa ri
fo rem
bi cos
bi elor
Ma ç
Con gregação
cal vin
cal hau
gre ve
esti al
mor tas
Te ó
só cio
opera r
gera da
Cha plin
Man da
ama z
rom ântico
forne cimento
preen chi
arque ológicas
178 8
assin al
Jus celino
edu cado
incorpo rada
design er
Fra des
ancestra lidade
esto niano
companh eiros
OC DE
reduz indo
Virgí nia
Colum bia
Front eira
acredi tar
Eus ébio
B ada
C hom
G S
M ene
c ãs
g nação
o ver
Â ng
ra ros
do dô
er vas
en x
li ban
ol har
esta dista
vo tar
Pa checo
Ma rechal
Em er
fa gos
ir regular
fu giu
Vi ol
significa va
Inter esse
cin za
institu iu
Ing les
lança ram
arti culação
juda ico
insta nt
180 2
ofere cido
cum primento
espera va
confir mou
rodo via
reci pi
asi áticos
perfei tamente
perió dica
mens al
têx teis
fundament almente
dezesse is
segre do
antropó logo
Florian ópolis
A be
G ana
J ar
N ero
c roma
d ulos
v ing
é sio
do se
qu inho
mi c
ga rante
sa b
fa culdade
cri sta
cer da
ass entos
tó xi
Mo ore
Mo delo
In ês
An da
reg isto
La ran
tur n
cli mática
Ter ceiro
governa da
Ori entais
Je ffer
atribu i
sin cro
sar os
expres sar
envi ada
liter árias
clí nica
vermel has
Sac ra
progres sivamente
Ei ffel
designa dos
diferencia ção
questi on
subsequ entes
Spe ars
hebra ico
emprés timos
Negó cios
B S
E ma
E li
a pri
g onal
o nou
p ho
r or
t ônio
x odo
co pal
ca tiveiro
ti vista
li bras
res um
us s
me des
pre visão
nas cida
fu so
lh ar
ins atis
men ção
den u
ing er
Ba bil
ira niano
dé cima
Di versos
tempo ra
loc alizam
ren dição
mon g
Per s
volta ram
arti lharia
geo gráfico
visi tado
abando na
Va ria
amos tras
celebra do
elabora do
esten deu
germ ânicas
sof rido
cerim ônias
Phi li
Sto ne
Pinh al
Cat herine
esgo to
mission ário
Of fice
Mauri ce
Sax ônia
Eul ália
decor rência
Lourin hã
' )
C R
H A
l ã
l eito
p ício
es pel
re tórica
is s
ma nto
em pur
no ne
con venção
ha vido
ve em
cont acto
pu ramente
gos a
ér pre
cro no
ka i
org ânico
experi mento
orde nada
Sou th
glo bo
ulos e
participa m
jus tamente
afirma va
Ben fica
Gil bert
enfre nt
'' ,
propa gação
Abra ham
Comi té
Max well
apel i
geno ma
óp tica
árqui co
cromos somos
neutra lidade
Dur k
Ans elmo
exista m
sindica tos
Odi velas
sâns crito
Azerbai jão
Chom sky
G A
G O
J obs
K le
e us
z eta
es cânda
da ma
ma te
ma gem
in cen
en berg
se creto
tu oso
gu á
va í
mo ve
ter remoto
me t
ver bo
for no
cul pa
Co opera
Ma i
min eiro
ja da
Ca ro
15 19
posi tivos
Ar mênia
gen erais
habita vam
Fo ral
ógi co
th ei
Bo êmia
pint ores
Bu cares
toma m
180 5
anal fab
diminu indo
taman hos
obri gação
acompanha da
Adol fo
comi tê
Esp inho
hí bri
Eucli des
Bucares te
G y
K la
L ord
V inhos
a mo
f rus
ó ticos
do mes
re mode
in ge
vi ć
mo bilidade
ex t
cas tanha
Co mb
vel he
erra do
cam peões
rin ge
esti ver
sig la
Ver dade
sal va
La cerda
administra da
Me teor
Cal íg
classi ficar
decla rações
san eamento
At las
observa dos
Man n
mundial mente
cate d
movi mentação
deci de
inse rido
confir ma
ampli tude
procla mação
garanti u
bla ck
eclesiás tica
tripul ação
Fur nas
tempesta de
Cór do
renov áveis
Arno ld
Fide l
refú gio
Calíg ula
. ”
H amb
O p
W ag
f ino
f este
n estes
ro teiro
se cção
pa tr
ul ha
tu ário
tu bos
con es
tra duz
pro fes
Es co
cont esta
ali anças
Re centemente
au tos
Os wal
pal m
bol sa
Pe ri
nome ar
reg istou
Com posição
12 5
passa da
Gran d
Me ridi
feri ndo
Sal va
capa cidades
cei a
arma dos
refere ncial
Her áldica
aplica tivos
vul ner
jus ta
exce ções
compara da
Mat hema
prepara do
Il ê
incorpo rado
king s
terro rista
Pesquis as
patro cina
coment ários
manufa tura
silv ânia
centí metros
(… )
racio cínio
Durk heim
I guaçu
a diante
í fico
de coração
al gé
ca nas
qu inh
ti j
ti ano
se man
to los
la gem
tra ves
ex ata
pe ras
lo bo
Ma rin
vol eibol
rela tivas
bal an
Li ceu
via jar
An ne
reg ência
pesso almente
12 58
Par na
funda dos
fal adas
ren ho
meta física
Be au
Cab anas
lança dos
liber dades
Ros s
ocor rida
encontram os
dirigi r
bai ano
nutri ção
habi tado
arran jo
pion eiros
adver sários
Lob os
hábi to
enterra do
metodo logia
Fau na
Valde vez
dubla dor
poet isa
2 20
A pos
A reias
C lo
C our
E nci
n ôma
è ne
co urt
en ch
an ú
an ne
to riais
ment ado
vi rada
su portar
le ves
ce deu
pi ta
lu te
nas centes
ens as
ino vações
Ro ta
ven dido
olo g
zo ários
limi tações
itali anas
ts ky
institu ída
aument ado
bor ou
tecno lógico
anal o
179 8
espi rituais
trata va
Trabal hista
rejei ção
impe riais
plata formas
refl exão
bloque io
Navar ra
troux eram
. /
C reta
D C
L or
M ós
S k
v y
ó ide
ra ças
do ente
es tras
or regiões
ma gia
en quad
ol ismo
pro núncia
ter ça
ia do
Es lováquia
par ceiro
tó nia
Ca fé
ber ço
cl usões
ven deu
hos tili
corre tamente
Bo ta
contin entais
Lo ve
situ ados
caracter ístico
Ir mandade
especi alizada
anex ado
mag netismo
magn éticos
monar cas
Cur so
Oli vais
Ata laia
Bolí var
Ul tra
Renas cença
astero ide
globa is
percent agem
gerencia mento
leal dade
avali ar
C ry
M í
S N
a titudes
p istas
t l
y ang
co te
re col
or á
al mo
al ga
in cor
in capaz
in gredi
en vio
ti que
ar bus
que z
di v
na tivo
na talidade
ha ra
ina dequ
rio ridade
ne gação
cel ta
Po nti
gen éticas
cur tos
cla ves
terra moto
ân dega
Ele c
Ho mero
aproxi mar
domin ar
tele f
permane cendo
And rea
intro duz
Pes o
arque ólogo
noi tes
espera r
core anos
inva dir
Bor ba
Ox alá
dese jos
aborda gens
rua mentos
Prin ce
condu tores
Pass ou
meda lha
Exterior es
tempora riamente
a pelo
f abri
p ne
ó citos
ca os
no tur
tu barão
ex posto
mu ros
tem is
ele tró
int érpre
tas e
ba há
ja zi
prim órdios
pan i
17 63
rela tivos
Po vos
rá u
Li ve
fer no
Pro ces
ale gria
Cam pus
Bo hr
Ju da
capital istas
neces sita
local mente
fis cais
wa it
cun hado
Ban deiras
fas cistas
rom per
Ana tomia
nega tivos
atle tismo
aste cas
epi demi
aliment am
On de
Ei chmann
anuncia do
excel ência
desafi os
reivindica ções
tecla do
Peni che
Jona than
6 º
I b
M W
O ur
P sy
p tica
de porta
re cessão
re pouso
in el
ci oso
se des
ou vir
vi ch
con fia
esta nho
im por
Ma j
lí tio
No bre
ge ram
17 57
Ar ménia
jo gadora
et ismo
An si
inte gridade
Des cartes
tê nti
jornal istas
inici ação
mostra do
NA TO
van guarda
wi c
hidro carbone
comb at
Hu b
recu perou
Ab dul
Vis i
sagra da
infra estruturas
rodo viário
bomb as
republi cana
dú vidas
diversi ficada
Sei xas
Matos inhos
Recor d
már more
cró pole
tradu ções
Proto colo
despor tivas
remont am
Founda tion
D ado
E ras
F rio
S eix
W ell
ó bio
ma terna
ca pri
ca tor
en cen
an im
ex ames
un ge
ran gue
vo cais
ser tão
ros s
mar t
uni r
ass ass
Se ul
Jo vens
Ar gan
Ar chi
pas to
et í
Qu em
Ch er
difere m
Go ver
Ne pal
significa r
24 0
bar os
sen ão
ple bis
leva dos
Ho t
Si tua
massa cre
Man chester
tent am
atribu ição
viol ação
destru iu
Mil l
Mes quita
Vol unt
Il us
circun ferência
Ac tualmente
Fol ha
vence dores
bió ticos
Observa tório
gravado ra
somb ra
parasi tas
angol ano
Ferdin and
Hisp ânia
estôma go
Jeffer son
Enci clo
P I
T ha
e tim
u p
ma pe
in es
com por
di árias
con certo
ne ta
sil ício
Se ca
sé rio
Mar c
An des
habita ts
Ch il
estu fa
Bar reiro
son ho
lin es
só lida
pó lo
gê me
cho que
Ta vira
prote gidas
atu ando
ka ra
Ser tão
quad ri
Cu rie
Regi ões
encont ros
indica dores
apoia da
sau dita
discipl inar
comanda da
compa tível
Silv estre
Figuei ró
autó noma
volunt ários
Formos a
axio mas
IR C
frie d
A gora
G es
S at
U so
f lan
s son
Ã O
â nda
ri on
al cal
ci nto
se tentrional
ul u
ul é
si er
por tal
con den
la y
la mo
int eira
min istério
No ite
man das
tado ra
Bra d
Bra va
ins tância
ela mente
nome ada
En car
Col ec
Ser tã
El is
cr ânio
adap tações
pros a
ocas io
177 4
capita nias
liter ários
confir mada
nego ciar
guar ni
Loc alizada
comemora ção
avança da
Gor don
perspec tivas
acha dos
Ron dônia
montanhos as
mís seis
supervis io
porcent agem
H O
K el
L im
M AR
O gum
a mentos
k as
ó bi
de g
ri lo
in duzi
ent ende
des portos
su ng
sa em
for mi
ce ri
ne as
Co vas
segu ra
ir landesa
ge bra
In c
An n
Su rina
lei tos
difere ncial
edi ência
edi ficação
sen sação
Institu te
escre vendo
derro tados
Mor ris
wi ch
remo ver
artes ãos
visi bilidade
crá ticas
diplo ma
perman entemente
incorpo ração
equival entes
critica do
fila nt
agro pecuária
abre vi
Adam s
oita vo
provin cial
Domini cana
Monar quia
Saca vém
Cân dido
C un
F L
S pen
S and
a col
e to
n ess
p ru
ra ria
al ca
se dimentos
pa ixão
con ve
me de
par ceiros
per dida
ado ta
Re cursos
min ster
gre co
mé tricos
Vi cto
fil tra
trans mis
vent ura
cra teras
xo nomia
cho colate
Ho mens
Lei tura
real ista
conce de
causa das
Gon zá
comb inado
interpre tar
Gar y
avi ação
Frei xo
tz mann
Il uminismo
Ku i
recom pensa
influencia dos
reci cla
legi ões
impera triz
cario ca
democra tas
Ton ga
sujei ta
atl ântica
milí metros
Perten ceu
Hidro grafia
Defini ção
azule jos
Parna íba
7 50
A nte
D ante
E L
S eia
a pu
b lu
z mente
í talo
ma tu
ti res
ar gel
na dadora
con ces
ha veria
pre venção
pre vê
Ma cei
min eira
cons elha
ob tendo
val ente
Mo i
Mo no
In dependente
et h
Ri e
La je
tur ísticas
cé us
dou rado
Da w
culos e
gres s
experi mentais
juda icas
ferro vias
Pr óxi
sio nou
Bru ce
procu rando
impa ctos
cô n
ensa ísta
tit ânio
Amb as
rup tura
Marga ret
esfera s
disper são
polê mica
discrimina ção
Blumen au
A proxi
M C
Z en
a teus
e re
l la
n ell
p ór
u ta
do ces
ri er
ri tal
so le
bi teri
par dos
car tila
pal estras
hos a
rí culo
13 85
Ex posição
Sa moa
To p
sur presa
Da vis
vin das
Sil ves
Ama do
exti ntas
substitu i
apare lhos
conde nação
sofre ndo
Gar cía
compreen dido
Nu cle
Ku wait
Bol tzmann
CD S
experiment ou
discípul os
paleo nt
chefi ado
Pei xe
ficá cia
Qual quer
Ipa tinga
2 30
C rom
O var
R TP
i us
o nto
ê ni
de corre
de composição
er gue
en ciclo
ar rai
to que
mo na
ga nte
pri o
cas ca
Es pos
ali zando
cu ida
ne tos
Pa ral
Re guen
entre gou
cons istem
As cen
pal ha
tri lha
pr ático
lh eiro
ori ente
16 00
sub si
rí gido
bili tação
Cam inha
ren deu
ofi cinas
ener gética
Pal mira
ata cou
força dos
Ama dora
escol ares
decla rar
eu cario
observa das
del ta
sion ista
Cer es
tt le
Augu sta
ajuda ram
equ ador
exclu siva
restri to
pin yin
Ke mal
implement ar
sustent ar
Wo od
peda ços
conduzi u
autó no
Prote ção
equato riano
eslo ven
renas centista
pasta gens
futu ros
domes tica
1 18
3 60
A lo
G am
G rou
O demi
a go
b ás
s elo
w res
Ó s
â mbia
co ordenação
al usão
ti dão
di ga
pa viment
so zinho
ga ntes
Es ca
Es pí
pres tação
gra vada
Co mando
Al mas
ja dos
man dado
ap ên
gal o
Mo ham
bu na
ven ir
está tuas
gar os
Lu so
cria m
mil ênio
Di ck
dire tas
Fre d
sal to
Cons el
it enta
deix am
termo dinâmica
escol he
bis sexto
decla rando
superfí cies
Hu gh
assina da
179 6
Hol andesa
enten dido
perce be
Sab e
Ke ynes
Desta ca
condu ta
intit ulada
supera r
mús culo
adoles centes
homi cídios
pací fica
soft wares
E F
K ra
O do
T hor
] .
j é
de cli
ri zada
re tt
se ções
no vela
na tação
li be
ei dade
ni k
ou ri
on so
vi dência
pe ã
lo cu
ve tor
me ca
ist érios
popul osas
está dios
dro ga
Fa ce
abri ndo
sen o
ki e
Fern anda
precis ava
instru ment
metro polita
desen hada
zer es
dispu tada
Augu ste
178 7
dele gados
demonstra do
perman ência
assin am
captura dos
manti dos
Vir gin
Plan e
Colo nial
polon eses
educa cionais
rita riamente
aprovei tamento
consel heiro
auxili ares
suspen são
Bap t
ortodo xos
companh eiro
Bau ru
instal ar
defens or
pig mentos
petro lí
Wolf gang
compar ável
neozel andês
B BC
N ei
N at
V eiga
n álise
t hi
ê nia
ó b
de mas
ra ni
or um
en dos
an he
res piração
la ti
sa das
gra phi
ab aca
fu turas
cent rada
Ca tar
gos o
15 34
cel ulose
Ar cebispo
Car ra
col ina
trans formada
cen ários
av ó
apresent ados
To ponímia
constitu ídos
Ne olítico
vem os
comuni ca
eli tes
defini tivo
dri na
Ru y
aber tamente
interior es
Hi gh
primi tivos
resol veu
femin ista
sobrevi veu
Vis ão
impres so
restau rar
elim inação
procla mado
mascul inos
dinamar ques
dirig entes
defende ndo
exempl ar
Frances co
Wei mar
desas tre
eros ão
pás saros
Hay ek
Surina me
Gonzá lez
Odemi ra
: #
C es
C ale
C esa
G ê
L inh
M ons
N ó
S ky
b ant
b ós
e go
g ulho
i ões
í de
ü h
re os
re fei
ta riamente
in unda
com p
te au
ex plí
za dor
cas ada
Es cra
vo cação
As h
tes i
ins ti
inter ferência
17 00
gen eração
maio ritariamente
estu dados
peri feria
cres cido
Fa fe
tur bul
nal do
Ter minal
Ber trand
Si g
conquista da
concent rada
nave gadores
disti nto
conver te
abando nada
Ve te
177 8
liza das
veni das
Gi an
IP v
Religi ões
obs cu
elabora r
conec tados
combus tão
teu to
egíp cia
Soci ologia
derru bar
gil ância
convida dos
crimin alidade
Alem ã
sens ível
Bernard ino
Ví tor
Crí tica
Jim my
imó veis
imu no
orienta ções
Profis sional
? "
D ores
P O
c ár
o mi
p pers
í as
ri te
in je
in ville
ca ia
qu ântico
si onais
sa bem
for os
bi an
ch eio
lí quen
mar car
dis cor
Na quele
pal ácios
Gu y
Mo ta
In quirições
Car ter
Qu in
fí gado
Fo ot
tí deos
apresent adas
sal ão
contro versa
poder ão
proje ção
mol uscos
refere nte
caus am
cru cial
poten ciais
Vo cê
modi ficação
jul gado
ght s
aces sível
filosó ficos
Africa no
argument am
Compu tação
equato rial
Ax é
guerri lha
triun fo
Brun ei
Tira dentes
indis pens
Rousse au
Teres ina
Macei ó
A gual
P ente
d áveis
j ador
t ten
ô micas
re pres
ci ber
en velhe
pa trono
si vidade
vi ral
pro posição
pro vou
pro lifera
Co manda
man ual
De ve
17 80
15 27
ven de
atra i
fran cos
lei tor
mili tantes
dez as
Cha ma
resta uro
dó lar
reali zando
exclu sivo
Az em
Fá bio
germ ânico
vinha m
án dez
ep istem
Recor ds
paco te
Kö ppen
Lança mento
computa cional
Stre et
Element os
Castan heira
Alcá cer
desma tamento
Conside rando
Alen quer
A B
F os
H esse
K ara
S ra
V enda
Z ico
a du
f ant
g inação
l ê
z elo
Á vila
ó dio
ri validade
al mas
in certeza
an or
no meia
li pí
con dessa
su este
su bir
mi e
gi ado
ter reiros
un der
ne z
pen di
man chas
tri ch
De pressão
contra partida
16 48
ven dida
desenvol vimentos
So ciais
sig nos
importa ção
Des ign
mul as
Fer mi
Inter no
Per cy
mou r
exi giu
exi gências
fé rias
classi fica
Val ença
caus ados
Man cha
conce pções
rit ismo
deci dido
Men eses
Fl ó
carbo nato
estí mulo
Carta xo
nota velmente
peda go
Cra to
compi lação
espalha das
Cru zada
Massa cre
manipul ação
agi tação
Ramal ho
Bál tico
Law rence
precur sor
Estatu to
Gondo mar
mong óis
Encar nação
E mil
L ab
M FA
O ne
c árias
e terna
i ram
k ra
l és
s pam
al l
ti rar
pa go
gu r
vi ável
mo lib
ran g
ce as
mu r
mu tações
ser via
ch eias
Ma gn
fa ctos
Al ess
ba u
min ús
Uni ted
ob o
ass istente
lh eiros
ós sea
xi al
Ar ru
Po t
Po esia
Ba con
Qu eiro
10 3
12 8
Pro va
plan altos
administra r
Fi lo
hou vesse
Val ência
Her n
extre midades
sin cre
anda mento
desen hista
estuda nt
dispu tado
adap tado
imedia ções
Mari ana
Bon fim
audi ência
embri on
vs ki
Estre moz
Bos ton
Inaugu ração
Cass ini
orden ar
arit mética
fide lidade
3 65
A ção
C au
D re
D ança
P G
S ina
T iro
a te
j ú
l ler
o ca
co ral
is h
is ter
ma dura
na me
con junta
du re
esta rem
ch é
min ar
min imi
mar cos
pes ada
ge ologia
17 59
bal e
Po nto
ves tuário
corre dor
Ch al
volu tion
Lo cke
Per es
equi vale
Pal ace
arte fatos
cole c
desa tiva
observa dores
soli da
vá lido
vá lidos
cê ncio
inspi rou
fabrica ntes
garant indo
Oli ver
Air lines
retra tos
mai ús
osci la
Lus í
tragé dia
Origin almente
acus ação
Kui per
Azem éis
A baixo
F lea
R ap
a ro
l inf
es pon
ma z
en glo
an ais
an has
ti er
ar mê
pa ridade
ni óbio
gu ei
vi veram
so pra
va zio
ex il
for çou
bi cicle
im in
Ma rinho
fa cções
lí nio
Re bel
pul mões
No tí
Na cionais
lh ões
pu deram
men cionada
rela tórios
bal ança
inclu ídas
colo cadas
ços a
Nos so
rada y
sal inidade
exi gia
Nas sau
evi tando
conquista ndo
Institu ições
contribu ir
conde nados
visi godos
cris tais
Ur bana
Mat the
Bis marck
Cant anhe
expli citamente
'' .
pun ham
Olím pico
consider áveis
terro ristas
sedi ou
agrupa mento
provis ório
Harol d
ní quel
convi te
Olim pí
argi la
legiti midade
fazende iros
Agual va
A gra
E ça
F ritz
K or
K am
M ouro
P era
e ficácia
í lios
re baix
re concili
ma xi
di ges
no ris
con clusões
va cina
des titu
go to
za nte
per fu
nos sas
Al mirante
car tu
au tênti
sé tima
Ar ri
Ba tal
espe cul
dem issão
Pro f
dire tora
huma ni
Bo ni
Fa raday
Me deiros
bar reira
sen si
var á
Tor rão
junta ram
Pu b
dre nagem
iné is
suí ça
nega tivas
confir mado
jul ga
legal mente
fós foro
detec tar
plás ticos
Carac teri
Lú cia
reper tório
escrava tura
psicó logo
Espos ende
C ras
I an
J aca
L I
O telo
c unho
f rac
o mb
í nti
í dio
ο ς
ta ru
ma rinho
in formal
qu inha
en camin
to xi
to wn
si metria
ex tensas
pro í
me ramente
lu xo
per corre
fe bre
cí nios
uni dos
17 68
cel li
den so
gen os
gen éticos
Li bra
bu a
Car deal
edi tado
Ant as
Ant unes
enta mento
Fa rol
Me dina
Ber g
tró podes
Regi mento
del la
derro tam
representa vam
esco amento
pá tria
atingi ram
Bal a
perce beu
Tal vez
distin gui
Cant or
Mus ta
Cro nologia
procla ma
refor mul
Pat rí
desafi o
Arti go
Vel oso
West minster
tradu tor
espes sura
Volunt ários
H MS
P ur
P ero
R emo
U sina
V incent
b ares
j antes
u i
í ra
ô micos
de as
is sa
ca atinga
to ras
por os
ex cre
pro tó
at ina
Es cre
pre ver
ch eiro
Ma h
ac tiva
Car na
Ba ião
escri tórios
Ri bate
lin k
Lo rena
art ísticos
desco bre
sequ entemente
Lei b
Ha i
bio química
26 0
Cha gas
Cu rios
aconte cem
dispu tar
expres so
Bas il
178 1
178 2
secund ários
evolu íram
hei mer
detec ção
Econ ômico
partid ária
pergu nta
trazi dos
homo gê
compet ência
Camar ões
tuber culose
Domi ciano
historio grafia
Cantanhe de
A ces
G ul
H art
J in
L ang
L orde
M ori
N ir
a vam
f fa
k al
r ô
t che
u k
do bro
re lo
re construída
ti bilidade
el le
mi zar
le gu
me to
sa grou
tem ática
ru gada
cri ticou
ur st
cha ves
cl andes
Su doeste
atra indo
Bo i
passa das
medi tação
sal vo
dou torado
Fi ca
nu vem
Cal çada
Nor onha
univer sais
Fun dada
Ser reta
gol ês
conquista ram
tecno lógica
cano ísta
especi alizado
afirma ções
|| ||
trabalha va
quar tos
Har vard
magn éticas
adqui rido
Plan ck
polon esa
pira tas
planeja da
marin heiros
terro rismo
castel os
PP D
Ár temis
agres são
Cá vado
cama ron
Philip pe
merca dores
Ide nti
Associa tion
Invas ão
Habs burgo
Beli ze
Aristi des
resson ância
A ur
A TP
E gas
K no
K han
T ribu
Y el
e timologia
g ô
v ó
w at
Ó r
co teca
as teca
ma ria
ent ou
se quer
li t
vi quin
des can
us as
sa íram
ja mai
pen ha
uni camente
inha is
gan hos
Vi to
Po well
Cas til
sub ju
dro me
st ênio
mor fos
Ex u
Pro ença
apro var
nor mandos
mon gol
mis ticismo
Fi la
feri das
cho v
Cal isto
tel la
prob lem
Cha de
John ny
vul cão
geo gráficos
vei as
viol entos
pratica r
Medi e
revel am
distin gue
celebra da
isol ados
impe de
prision eiro
voca bulário
pente cos
acompanh ar
Jul es
Contro le
Award s
N ou
S emi
c c
v ine
í ris
í drico
ó ides
do ações
da vam
al ho
in un
pa tos
po ética
li gen
dos a
at re
ali en
ros e
ass assin
tri na
bo tânica
cel as
Jo bim
Mo nti
envol ver
Ba tu
Ant ropo
Or questra
En sa
moder nista
Roma rias
limi tados
exi lado
comer ciante
matem áticas
Bri tâni
Ana dia
cru zados
inspi rada
Lan ka
comemora ções
hún gara
bral tar
geno cídio
isola das
armazen ar
Guara ni
incên dios
sax ões
cromos so
encarre gado
Ved ras
tung stênio
estri tamente
Mene zes
Linh ares
Fló rida
A reia
A mália
O cidentais
b ard
f em
g esti
é us
de x
re encarnação
ta belas
or ça
en redo
an es
ti e
ti var
el enco
ar térias
mo çambi
la titudes
ex istido
pro nta
ran ha
ga wa
pi lares
lu r
lu pe
mas tro
Re conquista
parti ção
bo i
fun eral
vas cular
Mo tor
bri ck
nti vos
Ba há
Fo go
Du quesa
obje tiva
có p
Me u
Ni ch
Ga ú
Val ada
lingu ista
rom peu
He y
forne cendo
sion ar
tú nel
reti rado
musi c
suge rido
sou be
Ste ven
veri ficou
ultra violeta
tis h
cú pula
restau rante
aut enti
democra ta
már tir
Aqu ino
cruza mento
profe ta
ressal tar
Dru so
fenó meno
Judi ciário
Goul art
Ós car
D ada
H ún
I t
P ru
S ali
p zig
ra to
po lin
ment ada
pro ve
me tragem
tr us
bi ra
cas so
No te
cons istência
pes co
ass istir
bol as
Con st
bo vino
17 40
15 36
mer gul
Portu cal
Lu ciano
Fo x
son das
25 5
Ju lio
mon etária
mis sas
Lo ulé
Me cânica
sen sibilidade
Lei pzig
ts in
Bri tish
duz entos
ed s
anal ítica
Hi p
empresa rial
dí vidas
efe tivo
sobrevi veram
manti das
inse rida
rel l
citos e
atraves sada
proi bido
Cel so
infant aria
eletro magnética
avança do
combina ções
labora tórios
formul ação
montanhos a
Ray mond
puni ção
sedia da
pedes tres
noruegues a
Guada lupe
tax on
contex tos
austría cos
Wag ner
Próxi mo
E re
E ther
E ast
E manuel
F abri
P atro
a como
i bé
x í
z zi
re nses
in ser
ei am
tu n
ex os
esta de
cul ada
ali menta
Pa ta
ru gby
pul são
rei tor
cia das
17 75
té lio
espe cula
espe táculo
sig ni
Sa grado
Col l
ocupa das
aproxi mada
Mas ca
execu tadas
atin gem
inicia dos
forne ceu
continua va
NU TS
Jer ônimo
urban i
Flo ra
hel en
pat rio
escravi zados
isol ada
Prin cípios
Blo co
lum inos
Gusta v
oper ários
priori dade
Bem posta
evangé licos
alco ó
incur sões
Comer cial
marroqu ino
hidrocarbone tos
K as
R at
h emo
o liv
s tri
t elas
v ulo
ô metro
do entes
es qui
co de
in comum
en ven
com pôs
sa tura
vo du
ís se
gal hos
che z
sub continente
trans portar
funda das
lei tores
represent adas
tê nis
Or le
ren dimentos
cres cem
significa nte
situ ava
For no
ene u
jornal ismo
Lou vre
cató licas
Mos sor
Mil ler
indica ções
econó micos
conver tido
compro u
trata mentos
rodo viária
encer rando
estende ndo
quali ficação
Cí cero
Represent antes
Ander sen
pê u
forti ficações
oposi tores
Theo dor
lavou ra
Eleito ral
LG BT
Argan il
Ribate jo
B ouro
P le
a venidas
è s
re ntes
em pi
ca ntos
ent rando
tu o
vi vido
con front
des vio
Es cal
mu dando
Al can
tro fes
prim ários
ag enda
ge ógrafo
inter médio
17 56
be te
jo gada
Vi vo
ac tuais
che te
Pe ppers
ven cendo
So corro
Le vante
ind ícios
mou th
atu alização
cir cula
Val or
marca das
empre ende
Ru anda
Ru bens
arma mento
Pos su
emblei as
instala dos
escolh idos
Dar k
naz ismo
possibili tando
bai ana
destina das
Germ ânia
Lá zaro
partid ário
renu ncia
micr organismos
tempor ária
Clar k
Zu rique
Cô a
hero ína
ergu ida
Provis ório
subsí dios
Queiro z
A ga
B ry
H op
L lo
g rosso
u va
v u
í bia
ł a
al vos
ent radas
ro mena
le ões
tr é
cu t
Pa ixão
ado ração
Al lan
fica vam
fre y
ob sole
tri n
ge t
Ca te
envol vida
Po ntos
ac tu
10 6
escri turas
Ri os
Pi casso
bre ga
enti mento
leva das
divi dindo
toda via
tora mento
fon e
estre ou
varia da
bis pado
Tem pl
del ine
Pen ela
conver teu
poten ci
plant io
taria do
tribu to
Gi braltar
plu vio
elim inado
predomin am
jurí dicas
med ula
Tan z
espor os
desapare cimento
apont ado
pano rama
Ár tico
set ts
Alf ândega
maci ço
Thom pson
vietnami ta
indire tamente
Proprie dades
Ino cêncio
Voy ager
analo gia
blu es
Crom well
Bapt iste
Leib niz
Nir vana
camaron ês
A de
A que
K ei
L enda
O de
W ins
b ú
g ável
k ia
u tens
ta ntos
al tares
in qui
ci entes
di lu
no tadamente
po ços
ha iti
gra phy
ag en
qui mia
pan ema
15 20
sub úrbios
cam peã
Sa y
ator ze
Te orema
aca bam
ze da
contro lados
Fi tz
cant ores
instala ram
desempen har
bac téria
reduzi u
fale cimento
frag mentação
conven cionais
Die trich
Prin cípio
espor tivos
MP LA
propósi tos
Orig ens
interval os
Sport ing
controvér sias
aerona ve
feli cidade
fara ó
profes sora
Seix al
Arru da
Mossor ó
3 20
C él
F P
J K
K y
L ap
L yn
a teísmo
d inha
i ologia
m ânia
o nia
í ticos
ñ o
re produzir
ci prio
en costas
to mo
po ca
ei rismo
por ções
con dados
for çando
ce vada
mu ro
cu ri
Pa nte
ch us
Al pes
ces sar
tó picos
inter venções
ac usados
mun dos
ck et
estu ário
dé fici
publi ci
La ma
jor nada
prote gida
univer s
Can árias
pol ares
aument am
Gra ham
pedi dos
atribu ídas
ron camento
Ben im
arque ologia
suces sivamente
afe ta
gó tica
sagra dos
Caval eiro
restau rada
Lan gu
influencia ram
refor çar
ari ana
envia das
compartilha m
ordin al
gr unge
testem unho
cea rense
Wol l
sacri fícios
Tá vora
ope ram
Gö del
Apresent a
Nam íbia
Benedi to
emisso ras
riquen ho
automa ticamente
Autó noma
Corpora tion
Babil ônia
A nas
C ano
I danha
J ua
P N
P inho
V ento
W es
Z an
a conselha
b rando
d ância
i medi
o postos
s tal
z in
ri cal
re ina
re atores
ta ntas
ma ced
al orixá
pa inéis
ni zar
ni zados
ou vido
mi le
ex aus
pe to
du ais
sa dos
for tuna
pi as
pres tar
cor vo
fa mi
min is
ob tidas
Ca rio
De pen
ini bi
15 98
tá vio
ac ús
fil ólogo
Car u
14 92
habita m
So brado
depen der
cla mação
Ver sal
Ant u
fal o
resul tar
Pi quet
empres ários
tera pêu
dri cos
Cab inda
Rib eirinha
gé rio
Mon forte
inten ções
distribu ído
Tri nta
ly n
chu setts
Bel monte
Junta mente
esten dem
Wo ol
marx istas
Gali lei
estrei tas
incenti vo
renu nciar
negra s
Espanh ol
Massa chusetts
jesuí ta
ecológi co
H2 O
desaparece u
Salo mão
analfab etismo
solida riedade
C um
S chu
a fi
g eiro
h istas
i on
s pin
í feros
ri gos
ca mar
ci us
to ponímia
no menclatura
mo rar
us ina
gi m
gi cal
ia is
lu tou
nas cimentos
No ve
au tar
ens tein
ob tiveram
inter rup
inter câmbio
15 35
contra di
Jo go
hos peda
ás ticos
her áldica
ál v
ang lica
wa in
flu xos
toma te
aplica das
cr ônica
instru mental
til de
cura to
viz inh
Res ul
Mel gaço
Aus trí
multi pli
dí gi
vita minas
Ita liana
bul osa
fix ar
atraves sar
guar das
Art ístico
jan ela
testem unha
concre ti
vulc ões
Escu do
wit z
acla mado
consist indo
necessi tam
Emi rados
Canu to
Labora tório
Resol ução
ingredi entes
fabri co
Aproxi madamente
Versal hes
C en
D I
E nter
K m
b ino
es car
co ck
po da
vi riam
la g
tra que
ex ato
lo te
lo gista
du cado
me gal
ab sur
forma tos
fu tsal
cal cário
Mar í
Po tter
Ro gério
ves í
Ba ha
gas to
pla car
dist úrbios
auto rais
Cam peões
povo adores
Inter pre
Pra zeres
identi ficada
migra ções
bor o
Ir mãos
Ed mund
emi te
hum il
guer reiro
caracteri zam
mora lidade
dedi car
existi ram
Fin anças
177 3
procu ram
Pin us
dig nidade
Sy mbi
sustent am
Bol onha
verdadeira mente
agrupa dos
Dire tor
reque rem
Grego riano
peregri nação
Mende l
radial ista
Amster dã
Spen cer
Lusí adas
Woll stone
4 24
N il
O lo
R M
T rás
W u
l inho
o is
p he
v álv
ô mio
de pres
em pos
ro te
ro bus
en gan
ar ru
di f
si ma
con fu
des file
tra ço
mi ta
fo bia
pre vista
Co penha
ado ras
min érios
mes trado
car val
tó logo
ge ólogo
Ca rapi
ins tante
Po p
rá dios
10 2
trans portado
13 5
dire tos
ren has
hor mônios
Lo cais
bio tecnologia
execu tada
insta u
representa tiva
concent rar
especi alidades
dá via
interpre tada
fabrica nte
Ku brick
pin heiro
Poli técnica
Sta te
esca vações
judi ciais
elabora da
Lan hoso
procla mada
fila mentos
estimul ar
refl exo
cere bral
mural ha
confor midade
coti diano
Pene do
conting ente
Colec tividades
Consel heiro
Comanda nte
Wollstone craft
! "
( -
8 º
G B
G U
H élio
M ô
M TV
b ô
b ab
b ular
p pi
w ana
do ro
pa vilhão
on ários
con cer
con ferências
con seguindo
des tro
pro cario
pi lh
par tindo
mu das
per cursos
fa ça
lí tico
Re go
mes tiços
pes adas
17 54
Mo ral
14 2
10 9
Com ple
esti mou
rí n
auto móvel
ví deos
Or lando
Segu indo
Ju deus
Pi ment
ante passados
rus sas
bar reiras
23 8
volta ndo
proje tada
Val verde
At la
lidera das
conclu i
desempen ham
Ve ge
Estra té
Mc Car
recom en
acum ulação
rur gia
argument ando
compreende ndo
Quint as
eva cu
autôno ma
percent ual
dissem inação
fronteiri ças
evide ncia
arbi tr
fidal go
anfí bios
wres tler
dinamarques es
Ether net
7 º
A S
L ind
T ali
W esse
b até
l ão
de li
do g
re digi
ta in
or t
ti cidade
ou ra
vi ca
bi as
mu dado
pre tos
ele ger
Al vito
Al minhas
ba tida
As tro
ris mos
Ca p
15 17
15 16
contra tos
16 54
In diana
Sant íssimo
sub marinos
ven cido
rece bia
vido u
las h
Pi ran
ante cessor
Da ma
tera na
torna va
cant ar
Si béria
ka mi
El é
Ja cinto
verdade iros
Tu barão
distribu ída
promo vida
Gal vão
reuni ram
modi ficado
conven ções
IC Q
transmi tida
conteú dos
desemb arca
atô micas
Mur ray
entro pia
codi ficação
cirur gião
Ár vore
reú nem
fili ação
acentu ado
Intro dução
Pil ar
protagon ista
Japon esa
diges tivo
Wesse x
H P
L emos
M inha
P B
c ável
f r
o posta
í fica
es quadra
ri zados
al as
ca belos
qu arte
an de
ti lação
si us
des pe
des tin
fi cialmente
mi das
ex clusão
sa indo
for t
cas tro
gra s
Ma riano
cia rias
segu ros
man dí
tó lia
mos teiros
bo xe
ad rez
pan z
cel estes
rin ense
Le andro
Cam bra
nou veau
Bo ris
Do mínio
proje tou
Pal ma
institu tos
elé c
Be z
plica do
filho tes
quad rada
Dia nte
liber tar
sor t
dê nio
178 6
espera nto
Ve re
confir mação
emo ções
topo grafia
Povo ação
Bair ros
compa tíveis
acum ulado
avança dos
aprovei tando
sugeri ndo
narra tivas
contínu as
domi cili
fini to
detri mento
Pad rão
Tit ã
Wis cons
litu ano
cardí aco
Salgu eiro
bolchevi ques
hegem onia
escânda lo
conve cção
Symbi an
3 30
B es
D ul
G odo
H D
K os
K ol
L ao
P asso
S tri
X adrez
a h
a fo
a preen
i riam
es tou
ma deiras
al de
en ces
um bi
su al
am ist
gra vou
gra var
il umin
sua ve
Pa re
ch eira
sil êncio
Ma ck
Ma ring
tal ento
Se vilha
Con sequentemente
Ca za
Vi çosa
pon ível
gas tron
Su cesso
rece bida
Im porta
sur gindo
pó len
limi tadas
Ber na
atu ou
aus tro
institu ído
fon so
Man hat
explo rado
Sam ba
funcion ário
semi ótica
Jer ónimo
Del ta
introduzi das
contemporâne as
obser v
tribu tos
papa do
Colo nização
anar co
divul gado
tit ular
Lau ra
impedi u
universi tários
intermedi ário
totali zando
Arque ologia
reivindi cação
UNI TA
magistra do
Extre mo
antissem itismo
Virgin ia
lur gia
utens ílios
Maring á
Manhat tan
O c
P on
S por
S empre
V estígios
c tura
f és
f enomen
i muni
o fício
í bas
as pi
ta tivo
ca ridade
na ta
si de
res istente
bi le
vo zes
mu co
per didos
il hé
Co mu
pen sou
man dar
ju venil
Na zi
mos a
ins tável
17 62
17 61
gua ios
fil tração
cla ras
passa vam
medi ções
cin zas
exi be
gue tá
Ha w
frequ enta
comple tos
gol e
quad rinhos
san gre
Her ze
Lon drina
produz ia
concent ram
viol inista
dá ver
exce pção
vir tudes
Lin col
alia da
Ke vin
possibili tou
asi ática
On line
bata tas
condu tor
Fis cher
densa mente
dinâ micas
Albu feira
psicológi ca
culmin ando
geni tivo
Amo rim
Virgí lio
Rece beu
georgi ano
Enciclo pédia
Aless andro
B eiras
C AR
D ita
G ates
S pri
S IC
V inci
_ pos
f rias
i mobili
m ística
p úr
u vas
do ca
do nos
re d
al gar
ca belo
ti ram
pa ços
para lis
ex posta
fe to
ne os
Al vi
cer rado
ju ros
tar dio
15 55
tá cio
che k
tre z
def esas
Sen ho
ré gia
cin emas
tin guetá
prote ge
28 0
Ins ta
cole ga
xa ria
fon os
gé neros
substitu ídos
reforma dor
promo vendo
alcan çando
Men ino
reti ra
usu al
Sebas tian
Mat t
afe tar
ric ân
óxi dos
bru tal
Int eli
monu mental
cô nd
costuma va
Ped reira
fortale cer
Proví ncias
Guara tinguetá
expec tativas
Algo dres
game tas
litor ânea
majori tariamente
conhecem os
heli cóp
Juni or
guarni ção
Ascen são
pesco ço
Wiscons in
) )
4 ª
E co
I media
R y
p ânt
z ol
de baixo
es cor
os tenta
ci ária
no ções
gu in
ou ros
res istir
con densa
fi bra
ex postas
pro posições
lo v
ga vam
pos o
bi lhe
im er
pre mia
Ma rina
entre gar
endo r
ir landeses
mar quês
cer cada
ide ológica
Ca y
bo vina
bo vinos
cha pé
ini ano
vas culares
den ú
Com um
Fo nta
sig no
Ex tra
inte grando
edi ficada
fal ando
Ne uro
cres centes
arqui as
estabele cem
cion ária
fra ria
tin al
Ber lin
funci onou
At le
explo radores
causa ram
especi alidade
til eno
decis ivo
suce de
afe tam
orient ada
Gre at
sexu ada
ben gali
Int en
plu tônio
afas tado
inver tebrados
Pá tria
substa ncialmente
domés tica
consel heiros
cobri ndo
gale go
mad rugada
hid ró
enca ix
Isl ão
Quei rós
horizont ais
Téc nica
pir âmi
pontu ação
dras ticamente
Coopera tiva
Hamb urgo
Bota fogo
eneu ve
Mô naco
A bi
G ior
L t
M organ
M issão
N ós
f fi
f ões
x x
Ó bidos
ó cri
re tá
ma rina
in ó
se ctores
ni d
tu mul
gu na
con figura
va mos
su ficiência
tra is
tra tada
go vina
pos as
pres siona
per pé
cor dilheira
ba to
fre qü
fu giram
emb lem
cí vel
ins t
17 64
17 07
15 60
Ar naldo
Ro dol
Lu ci
fran cis
chama vam
ine vi
Ci da
fal so
mú tua
plan etário
aca demia
ocupa va
leva va
gres sos
quista n
classi ficações
Ser pa
identi ficadas
quil os
Cos me
Mor reu
tecno lógicos
net t
Pre feito
trabalha vam
infe cções
Ros e
pis o
revel ação
rápi das
Sim ões
178 4
adap tar
Ste wart
Cató licos
Wi cca
restri ção
avan çar
Huma n
Lat ino
acompanha mento
nego ciação
Baix ada
dig estão
sent iu
Bol sa
possibili ta
Amb ró
Sara h
comerci alização
centra lizado
phy ta
Tele visão
gl ória
Mol dávia
My anmar
enfati za
Leopol d
embaix ada
matri cul
apropria do
Alf ena
Cai có
irri gação
resga te
Wer ner
palest inos
acam pamento
Rie mann
inunda ções
Medie val
3 80
C I
T into
a ze
c ing
e bu
o ponente
p ing
s he
de dos
de mandas
es fé
da y
ta tivos
em enda
ro dada
el ista
com pre
pa das
po nti
po tável
des portiva
ex cur
ho ven
pi ranga
Al mo
fica dor
dia da
car dio
dis posições
tó pico
15 3
cel o
posi tivas
jo gado
16 30
sub tropical
inte rino
pare cido
tur gia
Pi ren
Tra dições
utiliza vam
Mé dico
Ni ck
leva ria
Tor nou
classi cismo
org ulho
mol des
aba de
verdade iras
Tri un
referi dos
Ara caju
tú rias
dispu tou
ajuda m
by tes
manifesta ntes
arre do
cober tos
prima riamente
simb ólica
confi ável
dinamar quesa
substa ntivo
metá licas
cobri r
SI L
perió dicos
Secretaria do
Maca é
prota go
Pér sico
telefon es
denomin ar
revesti mento
imó vel
colabora dores
Tau baté
emisso ra
lucra tivos
sanguíne os
psica nálise
alban ês
Ral ph
colhei ta
Dami ão
Ves pas
cator ze
plebis cito
proí be
Herze govina
F ab
G W
M uro
N y
S ino
a carre
e volucion
i g
o ke
de posição
de viam
ri ficação
er es
is landês
se da
to cando
vi gilância
su posta
mo ção
para na
tra vada
gi c
ros to
il y
pre tas
fre do
ens inar
uni ficado
tar taru
ten o
mé dicas
15 10
ix on
rela tou
Mo ita
Vi zela
Esta t
16 21
che fia
lia das
ora ções
can ga
edi ficações
dire ções
Bo e
Bo tel
En contro
quí deas
conquista dos
produzi ram
Her mes
Mal uf
Gal o
quar ks
legisla tura
legisla tiva
multi plicação
conver ter
Arqui tec
áu dio
Ki e
encer rou
aces síveis
Ped ras
fisi camente
hori zonte
Cole ção
ord inais
atl ântico
reside nciais
eslo vaco
avent u
teatra is
tomb ado
Catal unha
revolu ções
Prob lemas
Spa ce
protec ção
Aur élio
Ambró sio
C em
C ál
F rom
F MI
G R
J ânio
R osas
h inos
i f
s ton
x u
é u
ó l
es ias
da is
da tados
ca cho
ti ver
si nta
ol ina
la ma
la gar
para íso
tra tando
sa ro
Es tudo
cia ram
emb u
cer ti
As túrias
be c
sim pati
sub mer
sub divisões
Qu ênia
segui das
fran ca
Ri ver
dire tores
fal ou
Or de
Da ve
num érica
comuni car
quia vel
jor dânia
Cul inária
fé mia
ânti cas
ida e
lingu ístico
apresenta ram
fen ícios
anda res
cicl ismo
Den is
estraté gico
espera da
plant ação
sagra das
ben é
esten der
responsa bilidades
Recre io
aristo té
desenvolve dores
chan ce
míni mas
coman dado
vs ky
conso ante
decre tos
hospe deiro
aderi u
Tradi cionalmente
Hob bes
indul gências
descont entamento
incor por
molib dênio
Musta fa
assassin atos
Masca renhas
A pa
G len
L er
O per
Q ing
S cha
T eno
V on
b indo
f ana
k ell
n se
Á reas
ca ns
ent orno
ro das
se culares
li mí
con duzir
des vi
su gestão
su fixo
ex al
pro nto
fo na
am plas
il í
fa ctores
fica ria
tes ouro
Con dessa
De odoro
cel estial
anti qu
tá ticas
et ti
10 7
Le gado
rí vel
sí la
difere nciar
Cam inhos
exem pli
equi libra
exi gindo
op õ
op ôs
pli cada
explo ra
derro tas
intro duzir
inaugu rou
anal isa
Ana tólia
diplo mática
efe ctu
Ger man
perce p
femin inos
magn ésio
Bis co
sau dável
Tro pi
terr or
clí nicas
Ku bits
dese já
vermel hos
emer giu
restau rado
Pou cos
epi demia
encer ramento
inver sa
Sin es
Ala in
dever es
pene tração
eva po
árqui ca
privi legi
Maxi miliano
Canu dos
vig ário
Lea gue
Anda luz
apeli dado
Our ém
matu ridade
üh rer
Caru aru
arredo nda
Vespas iano
E pis
H S
H av
K DE
P línio
X P
r ências
á guia
de mburgo
do ada
ca dáver
ci tação
en com
ti vou
di d
di ente
me z
ver nas
tr y
vo ar
vo gal
est é
est ino
im pu
pre venir
ch ina
ado tadas
Ma tilde
nas cem
dia mante
dia gnos
cons entimento
emb lema
cent eio
tar do
tar co
der ra
pu x
men inas
inter cal
17 67
ós se
15 13
Mo de
In fe
espe ciarias
inclu íram
les ões
Ant ilhas
obje ctos
hom ônimo
Mé todo
fis io
lar vas
super visão
Nas cido
gol fe
Ti po
inici am
conce bido
And reas
Fu nci
ofere cidos
concent rados
Ed mundo
Pr êmios
especial ista
inh al
desi ntegra
argent inos
Cou ra
ane amente
Wal l
Metro politano
transferi r
transferi u
encer ra
ther n
eru dito
paral elos
plás ticas
racional ismo
pergu ntas
micros cópio
longi tu
Compu ter
Pé rez
vulc ânicas
Aba dia
acelera do
chim panz
resist entes
Estrang eiros
Etno gráfico
tub ér
cated ral
instrument ista
Tanz ânia
A conte
B in
C lí
E lias
L ógica
P ha
P ix
V agos
Y or
a ter
d man
e rem
l umin
o itenta
r ö
t ton
ra x
co va
ri ns
is i
ma tura
ma ntes
la to
tra çado
ex tensões
pro meteu
int rín
man ente
ir re
cent ri
ju ramento
dis posto
Se ja
17 48
17 66
15 40
den ha
Mo to
14 5
cres ceram
mon arquias
apo geu
servi ram
Ra di
ple be
exi gem
exi gir
fl exi
institu cional
event ual
Be et
Fil me
Afon já
Ir mã
emi tiu
tran ce
Mont alegre
Cer va
nucle o
Fin an
Ita i
VI D
pros titu
reto mada
defin em
gel os
Tro féu
celebra r
fla men
comemora do
arran jos
af ricân
excel entes
landes as
ür k
gratu ito
plena mente
favo rece
reper cussão
Paró quias
Pant anal
confe cção
discípul o
colis ão
Lui gi
Meridi onal
Kubits chek
( '
A zam
A dela
B ola
C â
G un
P rior
d son
e ter
j eiras
m l
m p
é pico
ó vulo
ri um
ma in
ro ws
en for
pa tria
on ês
des gas
su bli
ex postos
ce der
Es quer
min eiros
sob res
pal a
pal e
pu gi
men inos
sem ente
mé rito
gan a
Po wer
Ro ménia
Com ores
Mi k
ógi cos
mil é
can ismo
Sa grada
Bar bara
Im ó
Fa ixa
Per l
espé ci
ata cado
vin has
Cal du
sex os
tina ri
execu tivos
isti am
Gra du
continu ando
Mon etário
San fins
conce der
rom ântica
jus to
Ad vent
escal as
oce ânicas
AR A
Bal l
rápi dos
modi ficar
Ke pler
proi bida
extin gu
predomin ância
adequ adas
Anterior mente
Wa ters
Gor ba
satis fação
homos sexual
Dal í
Mauri tânia
oita va
avent ura
Kenne th
Gem inações
razo ável
dinas tias
prejuí zos
Daw kins
Plane jamento
Notí cias
1 zip
K elly
L O
L AN
R í
U z
V inici
z ur
ä n
es cada
co er
re vi
re ator
an na
ti guar
te cel
ou vi
va ram
des fil
ran as
me rece
lu to
im pre
ab uso
Ma quiavel
endo u
mar rom
pes os
uni u
ass istiu
bo x
Jo inville
gal inha
16 60
An el
Su e
Lu si
inte grou
cerca do
To tal
constitu ía
Fer mat
pare nt
só cios
apo ntou
ata caram
prote gido
Cris tiano
Wil l
Ser gio
âne os
origin ários
Ru ínas
ida l
Mon ção
Emb a
concent rado
Ben ito
reuni dos
fru ta
psi qui
Dis ponível
plu vios
www dgterritorio
comu na
bin ário
consoli dou
alcança ram
cerim ónia
inteli gente
progres sivo
regres sou
complement ares
diversi ficado
phi e
simpli cidade
Pale olítico
assi mi
supe rioridade
circul atório
maca cos
mist ício
peregri nos
solú vel
Ní ger
Palav ras
Chá vez
recipi ente
Moi menta
Templ ários
incorpor ou
Vinici us
wwwdgterritorio pt
A dor
C ele
G N
G ei
K ha
_ _
e g
l ex
r ce
| }
ú mulo
ma us
al ente
ca íram
ci tou
en ção
con fluência
su bida
pe cados
ter es
sa ra
ce ph
Es can
im postas
ch oro
Ma tias
pul monar
pen al
au rí
Por tinari
cent istas
fun er
gan ismo
ós si
Po etas
In formações
14 15
Lu sita
inf ães
rí gida
rí guez
passa ria
Or g
estra do
element ar
bus cou
super ficiais
Si mb
determina nte
explo rações
viol ento
alter ou
visita da
Ang lica
vá lida
Aus tro
micro bi
profun dos
Vis ita
sustent ação
Espe ci
estatu tos
acum ula
progres siva
proibi u
fortale cimento
MI T
apos entado
intermedi ários
Ferra ri
Apo io
Yu an
Py thon
Descobri mentos
Rod ríguez
Trí plice
Lincol n
Inteli gência
2 10
C infães
O mar
T hi
T ang
V elas
a venida
h na
i ê
m g
p æ
z eiro
á pi
es pólio
co es
ta rem
or la
ma ns
ma jor
ti mb
ar trópodes
se in
com pressão
pa gos
dos es
tu tela
con correntes
su pra
fi que
ex pon
pe er
tor nasse
ch s
Ma rino
No el
emb er
Se p
be ri
15 12
posi tivismo
Po i
rá vel
ban cário
Qu is
atra so
mul tina
Bar ba
sal var
exter mínio
Inter medi
bre vemente
cion ários
corpo rações
leva ntou
Ha vaí
frequ ências
gera dos
marca ram
Ja k
Fil hos
pensa va
aplica dos
Eu fémia
destru ídas
Copa cabana
Den nis
oxi da
quilô metro
Che coslováquia
emo cional
celebra ções
divul gar
Moder n
Oli vença
traz em
Art istas
Princi pado
incenti vos
montanhos o
solici tou
acentu ada
Camar go
Monar cas
anfi tri
mediterr ânico
Apos tólica
Llo yd
Caza quistão
Spri ng
Rodol fo
pæ dia
? )
B é
B and
B eta
D ista
G andra
L inda
S her
d mio
j in
s ka
í on
re força
in capazes
ci ú
ti ras
na mo
na ves
pa gãos
ni cho
su posto
pro vide
Es tónia
per pendi
cor tar
ab usos
fa ri
Al tares
Re inos
ja das
ir regulares
17 65
17 69
ral ha
Vi ta
princi pado
16 10
14 4
Com te
Lu do
12 20
chama ndo
difere ntemente
odo re
desta cado
religi osidade
realiza ções
Fa mali
Ra úl
cant ado
Pol y
institu to
Si d
Ama res
comple tas
ató mica
origin ando
san ções
Her dade
Au t
Pr ó
testa r
destru ídos
instala das
Hu nt
Sch mi
revel aram
patri arca
estí mulos
semi árido
adqui rida
apoia ram
modi ficada
incorpo ra
acompanha dos
esten dia
Fal cão
Algar ves
Pie tro
modera do
sint éticos
Af litos
melo dia
Hus ser
adoles cência
Let ônia
maç ã
compri mentos
Diver sas
Harris on
simbó lico
neur ônios
privile giada
Prince ton
esloven o
descan so
Piment el
Caldu ne
Gorba chev
Famali cão
D P
G I
G at
G ard
H aber
T in
U sen
Y ang
a y
b ram
e terno
m ístico
de fici
co ma
re ndo
ma terno
ti ros
se tenta
te cas
ni tos
ha bili
tra ça
pe p
ve t
pi c
vo dum
era do
ser pente
fe riam
Ma pa
Al cor
ju dica
17 60
contra dição
jo z
inf eli
mel os
organ ista
fei turas
Ju deu
fir mou
En cont
Tra van
Pal mas
Pres tes
din ávia
tel eno
Ter mina
comple tou
Bu dismo
Cha d
Ja y
Fil m
derro tando
Mor tos
Chi li
Tri ni
deci mal
exer cida
cá dmio
Ang el
ajuda ndo
America nos
mito cônd
CA D
descobri mento
abran gência
concei tu
Lar ry
teó ricas
ampli ar
cora gem
Mis sa
predomin antes
alcança da
habi tualmente
assassina dos
dissol vido
Cir cu
deseja va
estat ísticos
Cient ologia
curios idade
respe tivamente
Pensa mento
Jon as
clor ídrico
catá logo
Bada joz
traves sia
nôma des
Wins ton
pugi lista
pluvios idade
Escan dinávia
. ".
C M
C áu
L ac
L aos
O sa
S olo
c ume
s ten
ê nico
ma o
al ha
al quimia
in capacidade
in ícios
ca indo
ca rangue
an co
ti zados
no no
si ana
so la
su frag
tra tou
ve rem
ver bos
ce bola
he ter
lu taram
per so
im posta
Co burgo
ba ma
Por ti
men ina
17 14
Vi k
Pe da
habita nte
12 9
fran go
Le u
rí t
bili zação
sí rio
Ex tin
colo cam
auto ra
ví vio
To ba
constitu inte
sen egal
zo ólogo
Amé lia
Ter mo
comer cialmente
Ga fan
ell ner
Edi ções
atribu iu
emi tida
anex o
arque ológica
velo cista
assum ido
liga va
revel ar
carre gado
don de
demonstra m
Cant ão
dança rino
Dr um
aces sos
agra de
inver so
controla das
justi ficar
Wo o
apel ida
Juli us
espor tivas
vali osa
cata lo
traduzi da
interessa dos
lus ó
Fis iologia
patro cínio
Bill board
sali entar
Net work
compet ências
espont ânea
despor tivos
Andr és
HT TP
bura co
gela dos
Gin ásio
kho v
ranh uns
perpe tu
Loren zo
ext ensos
locu tor
Nó brega
défici t
Usen et
Cáu caso
A í
A tividades
D ía
H ua
J ur
V á
V or
f at
p sí
s ha
ó grafos
co gu
re feria
ma c
ma teri
in vi
em ira
ro ne
to tais
su co
du ction
ga te
ce dido
pi nto
ina mento
cor tada
tro car
ag r
ass ento
Ar can
Vi va
indo né
ac tos
via jantes
10 66
trans la
gas oso
Com muni
lon g
Mu ra
Ou rique
To ma
rado uro
resul tam
obje cto
contro verso
dou tor
Ga zeta
Ga ranhuns
lança mentos
Bu tão
pré mio
investi gar
distribu ir
finan ciar
He gel
emi tido
Mont anhas
CO I
atingi da
carre gados
afe c
Que en
Cali for
nau tas
afas tar
transmi tido
abs tra
paral elas
persegui ções
Fel ix
testem unhas
sedi ado
Assu ntos
Rel ação
intes tinal
sens íveis
exces siva
Crí ticas
cônsul es
cob rem
ont ologia
Gue des
List el
Grou p
toxi cidade
Britâni cas
Carapi to
Botel ho
5 50
C ia
K ent
S che
T rá
T onde
e ficientes
i legais
n era
s enten
u rina
É tica
in dução
ti nta
el u
se parou
que tas
no t
con gel
ho p
ver te
sa mo
ce go
Es tar
cont atos
par to
pre judica
pre feituras
ele vou
Em ílio
fa cção
Al do
emb al
Se at
pu a
fí cia
segui mento
habita das
13 83
Ri ck
Sa cerdo
vés pera
Fre qu
La zer
mon as
exi gência
cro nista
mode lagem
Val ores
Cont ribu
pensa dor
del l
And y
Au di
trabalha dor
extra ído
suces sivos
acei te
oce ânico
Char lie
Pla ta
Vo o
Ani mal
absolu tamente
Sar denha
reduzi dos
Geo gráfica
acaba ria
Desta cam
mobili zação
af inidade
quebra r
legí tima
priva tização
Clar os
moviment ado
Wat son
Quad ros
NO ME
locomo ção
acr éscimo
iraqui ano
peculi ar
Meteor ologia
metropolita nas
cartu nista
Boni fácio
Antropo logia
inser ção
9 º
A BC
F esti
G lau
M esa
N T
O 3
R is
V y
a partamentos
w on
de ais
ma trí
in certa
qu atorze
di ar
ment ou
si la
por tá
mo vem
lo t
un de
ve tores
ran e
for tificação
cas se
lu xemb
per cussão
im os
cor tado
Em manuel
dis cur
tar dia
ini zação
sem in
hi gi
Ro th
sub ja
et árias
Qu ir
An ar
Ch é
esti pul
indi cou
Di vina
Bar reira
Ge ologia
proje tar
Sal to
Ni col
cole tivamente
27 0
har moni
Prim ária
liber tado
Lon ga
ferro viárias
hon ras
sion istas
mó dulos
tran sações
Universi tária
Ani mais
obri gato
flo rent
aboli da
genera lizado
satis fazer
Monu mentos
perfei ção
orig inado
inde x
gravita cionais
hid ráu
eclesiás tico
ingres sou
Infant il
Carlo ta
Tche coslováquia
grav uras
glico se
Arrai olos
Has kell
vín culo
direc tamente
arrai al
Langu age
Cario ca
Bez erra
sinta xe
Teno ch
Tonde la
Seat tle
luxemb ur
A sa
H AN
K in
M B
P ul
c tivos
d ru
É mile
á polis
co ni
as tró
re in
re au
ci m
ti am
di cionário
con seguinte
la d
cul es
im planta
im enso
Ma gos
vol tados
fre ntes
cons pi
ju doca
bo is
be ber
bal eia
Ro ad
ven didas
An í
gas se
12 3
cis ão
depen dências
mal te
Cor né
Fi re
rus h
utiliza va
zo a
Muni cipais
Cal vin
meta lurgia
caracter ísticos
real istas
linha gens
rom ânicas
correspon dendo
metro politano
hidro gráficas
vid ências
disse ram
Pla y
Gol pe
Cant u
ordena dos
Ini cia
consoli dar
Cara íbas
Pequ ena
parla menta
fecha das
Ped ró
ucra niana
supre macia
Hei tor
Esto ril
perigos o
céle bres
mec ânico
recla ma
fantas ia
combo ios
óni ma
pita gó
apên dices
Basil eia
Beet hoven
rows pan
Uz be
Tenoch tit
A del
C S
E ur
G iro
L umi
O ld
S ado
p ses
u er
y ev
de correntes
as sado
re me
re cense
or quídeas
ma nos
an ão
ar os
di an
di anos
li anos
si mila
con gre
ol d
du o
tos os
mb ria
ser tane
il es
Ma jor
Re aliza
ras sem
uni ram
vis ava
ins ul
sé s
17 51
15 50
15 72
Li béria
fil as
fil oso
Pe reiro
10 8
". ..
Par do
cur vas
lei turas
cla do
Des coberta
considera ções
acor de
sur f
Tra dição
Me dia
Da vi
cle ciano
aco pla
Sal es
limi tar
ima ginação
Dem ons
relaciona mentos
contribu ído
Edi mburgo
Tu pi
ama dor
rom ânica
especi alização
Polí ticos
propor cionar
cru el
cá dia
ya hu
primi tivas
abor ou
conver tidos
Sim one
poten cialmente
funcion ando
Comuni cações
177 9
line ares
Ox óssi
transferi dos
agra dável
Sara mago
regres sar
Amaz ônica
implica ções
convo cou
gale ria
arquitec tónico
ope rando
trazi do
recusa ram
barro ca
mec ânicas
Sex ta
dezesse te
Cé u
Dion ísio
enci ana
Quar ta
Ilí ada
vérti ces
Distribu ição
bielor russo
jamai cano
Día z
Pedró gão
L T
M AC
N ela
O pus
O MS
P rá
S aba
T ró
a pi
c ários
c inais
t ônica
í ola
co rais
as u
ri el
re vere
ma cros
in sur
ci tando
en rai
tu nis
on is
ha i
mi tri
ex e
gi ou
fo ras
sa bendo
esta mos
par tem
per mas
Ma ch
ba calhau
No buna
dis pensa
tó nica
tri lhões
Ca vaco
val u
sem estre
17 13
15 15
ban hada
Lu c
ás ticas
rece bidos
her bí
ck el
mor ros
diver gências
dire trizes
sul a
constitu íam
sur to
Cor reios
Per sona
Lis a
Ho me
Ter mas
Ga to
marca ntes
chi co
eu cari
investi r
Bran demburgo
ofere ndas
Jes uí
Ame a
Geral d
ilus tre
neer landeses
Bro ad
proto zoários
reta ng
consum ida
consul ado
espec tros
afas tamento
moni ais
Escri tório
habi tual
radio ativo
Mara can
Ram ón
conduzi do
fic tí
universi tária
Tá cito
sax of
Aba de
provin ciais
feli z
Explo rer
chuvos o
Revolucion ária
Blu e
Philoso phy
prole tariado
diri ge
viola ções
entusias mo
Ath le
Cás sio
Ocu pa
Esquer da
Aní bal
1 200
D F
G ó
G óis
G NOME
M ing
W ind
c ino
e cl
f ano
v est
y ou
í fice
de veu
co al
co pi
re vita
re eleição
re pent
ta ca
al vará
te ch
um p
con juntamente
con federação
des trói
la bo
ver ticais
ce gos
vo eiro
cor ta
pre fixo
Ma uro
ba in
min ho
cent en
Ca mil
Ar gu
conheci am
16 41
Ba ek
An jo
vent a
ér pia
mor ro
dé l
ani midade
son hos
las er
rada r
La ra
quis i
Is lâ
volta das
aqu ático
ima gina
prote gidos
bio químico
Val paços
Min eira
refere ncia
substitu to
começa va
melhor ou
apresenta vam
arque ólogos
hidro génio
descre vendo
caracteri zados
usu fru
defen diam
VI H
afe tada
Mou rão
máxi mas
apoia dos
Jer sey
fór mulas
reduzi das
simb olismo
consum ido
160 9
Engen heiro
bin ários
obrig ou
jurí dicos
escul pi
Ram inho
emigra ntes
supera do
transporta dos
ortodo xo
estú dios
reside ncial
Mani festo
psicológi co
cinemato gráfico
relógi os
Bil ly
nór dica
Nen hum
supri mentos
tóxi cos
Prova velmente
Azam bu
Nobuna ga
1 19
D ro
D ora
E cológi
H off
I bra
O mã
k or
n chez
x into
as tas
re mun
en cia
ti vistas
ti beta
no l
na h
ni mos
ex tras
du nas
at ria
le ra
pos sessões
sa c
for ró
ina wa
im pôs
ba d
dia mantes
ge ológica
ad ro
ten se
17 30
17 85
15 90
ix ões
Gu adi
Mo ha
envol vente
16 6
Pe tróleo
14 53
pró ton
indi fere
indi anas
Pro clamação
Des pacho
Ant í
fal ados
medi do
ula ções
11 1
sol ene
bel l
ntos h
Ter min
Cul to
Ser ver
Ser vice
desa bita
execu ta
Cu i
identi ficam
Edi tion
esco po
adi ciona
camin hões
artes anal
caracteri zou
Sh ang
coro ação
competi r
resol vido
adap tada
andes as
Az enha
150 3
incorpo rando
ker s
revolucion árias
rebel iões
infant a
Sá nchez
ME T
plás tica
Am paro
kh urst
gale rias
distingu em
Tab ua
subme tidos
Isl âmica
manus crito
pig mento
coti diana
capí tulos
enfer m
home o
glob alização
clé rigos
respira tório
cripto grafia
Shan non
Eras mo
recicla gem
Nei va
viquin gues
Valada res
Hún garo
Antu érpia
Husser l
( “
A mes
A gre
A cesso
D antas
H at
I DE
M embro
P isa
T as
T ant
T wain
a guarda
k os
l mente
p x
u ros
z za
é ricos
es qu
ri bos
re ja
re construir
ca riz
ro nda
en al
en fo
en chi
que rem
gu ine
fi os
pos ses
esta ndar
Es colar
tos o
par ência
im pedindo
cor tiça
pre domínio
ab el
tas sem
onal do
Ma in
fa c
pen sas
ass ist
Os asco
tri bais
cal ci
produ tivas
vis co
pr áticos
posi cionamento
bas ál
gen ação
Li ttle
Su i
12 6
indi cada
ale gou
auto biografia
Sa i
Pi t
Pi lo
23 9
respon dem
lar gas
cole tores
cir culares
esco ceses
afe tou
envi ando
sue cos
Arqui pélago
devem os
inspi rados
preser va
confir mar
Concei tos
Dou trina
conju ntivo
pat entes
invent ado
Dio cleciano
rebel de
regula mentação
eru dita
confro nta
Mars elha
diá logos
audi tório
Integra ção
Aca dé
Mü ller
Sepul tados
senho rio
gaú cho
precur sores
Ah med
interess antes
Line u
devida mente
bár baros
ergui do
Civi lização
Pers pec
feste jos
pinto ra
, "
2 25
D ir
N estes
R ó
S ide
S ad
a ula
a posta
a caso
c tiva
g ames
n ula
ra ca
ra dia
or ni
en comenda
ti g
que das
res umo
va nta
at entados
pi ores
esta riam
per dem
pre de
Ma tura
Re produção
Re inh
pode rem
uni for
uni celulares
uni formes
Se y
ad missão
ins ky
ber o
17 20
gos tava
vas o
cl á
Mo gi
Vi tal
fil eiras
pas tores
Ba iano
lan çando
ás pora
rece biam
13 3
Di rec
Des portos
desta cados
fal ava
Cor bu
Cent ros
tur b
servi am
23 5
leva ntar
Pal estra
decla ram
domin ou
identi ficou
separa damente
Regi me
precis as
atribu ir
participa do
hon du
engen hos
plane tária
Cer ro
estuda da
Ara guaia
oce ânica
multi plica
conserva dora
lidera r
Ste in
Ste fan
reconhe cem
interna mente
Mc La
atraves sam
eix os
metá licos
critica da
interessa do
aristo cra
escas sa
micr orregião
Dire ção
hid ros
táce o
Antár tica
depósi to
árqui cos
Chan celer
axio ma
dissi dentes
poderos as
tail andês
seve ramente
olog istas
argel ino
Monti jo
púr pura
diagnos tica
Ador no
Cantu ária
A tos
A demais
B rin
D eneuve
E rich
G ia
I lh
L ins
M ini
P NU
S emin
T U
W y
W ide
a guar
b ulas
h m
i v
p ter
u sur
í ticas
ü k
ra tos
do ado
ri nos
re ple
re plicação
re unindo
ca mbo
vi rou
vi kings
so cialmente
des anexada
tra r
pro vei
pre visões
Ma dre
ba cha
fre i
17 53
15 6
Ar ca
ona mento
fer es
Su cessão
mor rido
Pro cissão
pra gas
considera ram
Go o
Or ti
Cor tés
aca bando
fra des
cli mas
fos fo
hou ver
Ga ul
Her á
van as
Ben gala
movi dos
conde na
referi das
defen dida
dedi cadas
ocor rências
suce didos
perce bido
cópi ca
Cri meia
inci dentes
ID A
concor daram
equival ência
mus culares
cui dar
individu almente
GP L
fecha mento
Stu dies
Wiki concurso
fertili zação
Eng lish
disper sos
contam inação
RO M
úmi das
crimin oso
modera da
autôno mas
consagra do
Téc nico
vincul ado
supe rando
reban ho
incre mento
espermatozo ides
thei d
abaca xi
Alcor ão
Porti mão
Guadi ana
B O
H DD
P seu
P las
R yan
b ent
b anos
l man
o ti
é ter
re ra
ta nato
er guer
ma le
in suficiente
ca bos
ca vernas
qu ir
com prova
te re
pa quistan
po ol
li qui
gu eiros
con dução
pro l
pro mis
am ê
ho noris
pel ourinho
un animidade
pre feitos
int ensas
Ma ha
Al pha
fre vo
mar cial
As pec
Na quela
pal estra
cha dos
sé rios
15 42
gua rani
cl ei
bal eias
Po e
Po ten
tá x
hos til
ôni ma
habita cional
tre l
Di ana
dial ética
Ne ces
sal gada
equi pas
din os
prote tor
bio massa
flu viais
lança das
Lou reiro
ref rig
zona is
Ti mo
Fern ández
tele visi
bor der
investi dores
engen ho
tran qui
termin ologia
CO VID
defen dido
autori zou
dedi cação
espi ri
câ mera
reto mar
introduzi dos
Ind ígen
destaca ram
jul gar
ativa ção
Wal lace
Caval canti
conven cer
Fol clore
atô micos
acum ul
pion eira
combina dos
sedi ar
Publi c
Plu tarco
perió dico
Estre madura
Contin u
Úl tima
sum érios
origina ram
ioru bás
bíbli co
parentes co
vass al
Ok inawa
quant ia
indispens ável
Matthe w
Coll ins
ebu lição
perso nifica
Corbu sier
+ +
C ár
I v
I dio
M ia
O pô
P ir
c inado
o velhas
r un
s ist
s tein
re vol
ma çonaria
in u
ca bra
el aborou
ar ruamentos
se ira
to ria
vi ana
por tou
mo inho
ex comun
le vemente
ga i
pi menta
Co ral
Re view
tamb ul
ob ediência
dis postos
ass âni
parti cula
Ca ma
inter vir
17 46
sub marino
Ba h
Ex pan
inte gram
diver sa
volu nta
Mu ham
Cor rê
sol en
Is tambul
Fi ji
pó los
cole tivos
Ser ge
land s
Lou r
ke y
glo me
atribu ições
adi cionar
adi cionados
forne cido
pá tio
dal l
caracteri zação
NU T
patri ar
muçulma nas
Chris t
Dis curso
Pan khurst
Poli t
apoi ando
expul so
frag mento
160 3
deslo ca
marí timos
Engen ho
Cur ral
ret ângulo
implant ado
Equ ato
bió grafo
bizant inos
mila gre
Rol and
trazi da
fres co
espí ritas
motiva ção
Gên esis
dram ática
noruegues es
Revolucion ário
psica nal
Martí n
UT C
justifica tiva
Rele vo
Âng elo
anú ncio
Baha mas
Comu na
Kie dis
Lusi tânia
A 1
T ao
c tico
e clos
o z
s anti
t man
É di
es capa
nt ry
nt ura
as tri
in formou
in surreição
con federa
con vidou
fi tos
lo gicamente
du tos
ga ça
me us
ce to
esta rá
par os
im posição
pre vent
Al á
Al terna
min istérios
mes as
mar gin
Con so
17 47
be bê
15 26
15 54
Gu ido
rela do
Vi nte
16 8
ac ções
via mente
Car tas
Com postos
12 7
cria tividade
Pro gresso
dé sia
Di di
Sa vi
Cor deiro
estrutura da
Fa bi
dou ra
Pal at
prote torado
perten ça
tró ficos
gol fin
Bu ck
continu ado
inicia das
artes anais
cru ci
agre gados
funciona va
busca va
Hit ch
inse re
Mili tares
Jor dan
lâ mina
fla mengo
ther ford
Hon or
Funda mental
Tele comunicações
Cole tividades
Leopol dina
Come çou
subme tido
Moz illa
autôno mo
Maca bu
Maci eira
empreen dimento
mantinha m
Gram my
extraordin ária
consecu tivos
Nau ru
puri ficação
fecun didade
Encyclo pedia
gravi dez
solú veis
combo io
Capa rica
Ansi ães
Olimpí adas
legu mes
Fila dél
vodu ns
McLa ren
eclos ão
Filadél fia
4 80
6 50
A gen
D ao
D estes
F N
H au
H ad
K ni
N é
S la
Y ama
i tá
k on
w ing
x en
de sil
do tado
da tação
re paração
ta to
qu ânticos
ro y
en um
na us
li ch
on istas
con chas
va dores
des conhecidos
ve to
ran is
ce de
per cor
mas cote
Pa ro
forma vam
Em pre
lí tica
Re organização
Re união
ju bar
ge ológico
15 25
cl er
An dro
fin as
trans formaram
atra em
her dou
constru indo
organ elas
Te odoro
amb á
For mi
Sal danha
limi tação
ocupa vam
opera dores
aus ente
Cultura is
origin ário
Ru therford
mani festo
trabalha dora
estuda m
visita nte
Ang elo
cau dal
conver sa
dele gação
secre ção
gor dura
Carta go
mete ori
termina do
fix ado
impres sa
úr bio
comanda ntes
refle tir
bai la
bati zada
amare los
respei ta
bizant ina
coman dados
israel enses
traje to
Ly on
decre tou
idênti ca
detalha da
remanes cente
pás saro
cênt rica
Bac k
Parana ense
estal t
conveni ente
vocá bulo
Emer son
Victo ria
estudant il
Jak ob
Uzbe quistão
A bri
G el
H em
K ur
N ele
d na
h ang
i an
m ães
o vinos
t ürk
de do
es pl
as fal
re correr
ca fe
ro ga
ar bo
te ur
no v
pa tas
ni er
on as
mi x
pe re
le os
ce pção
mu tu
est ório
pre di
Al fabe
Re gina
ces sores
pen sam
car tão
ag reg
uni das
ass es
Se ria
Ca atinga
pan demia
17 5
15 32
15 57
gal ês
Po ntes
16 43
In vent
ac ro
14 7
té tica
hos t
An jou
espe culação
gas tro
gas olina
Su et
Le vi
Ex tensão
Ne g
mis turas
fir memente
cion alização
cant ão
Sal gado
cro nologia
dra tos
Casa mento
gue za
Ho hen
Ha ia
cole t
Be ck
Can as
Nas ceu
gol eiro
parece u
bor las
plane jado
permiti da
Vil ela
bos sa
Mer cês
lis tras
autori zado
mora dia
ks and
by te
Cl ement
produto ras
orient ado
preser vada
prepara dos
177 2
inva de
padro nização
expli cou
Colo rado
Cli nton
lâ minas
deslo car
Palm eira
designa das
Princi pal
preocupa do
coment ou
Úl timo
orbita is
pê nal
acompanh ou
mec ânicos
olím picos
olím pico
oriun das
Free BSD
bombarde io
Lingu agem
adje tivo
Tris tão
acol he
Yel tsin
Orle ães
Boe ing
Adela ide
Imó vel
Emba ix
Maracan ã
Corrê a
A queles
B E
D ela
E c
H ér
P ão
R onaldo
T era
T elha
T hat
Y an
a per
m istério
p emi
r ús
s ã
s ard
t ânt
ñ ez
de c
de ma
nt ologia
re tratado
ta ta
ta na
al í
in formado
ti ani
des liza
mo des
mi cs
fo li
ter dão
ga nta
mb e
per dão
ne gou
cor rup
pre cei
ru im
entre vistas
ino vado
este iros
vis conde
ais er
17 32
sobre nome
Jo y
bas ta
Mo on
16 44
habita cionais
st re
her dade
Sen a
fei xe
Bo x
To go
povo adas
Lei tão
quad ras
front al
Ru gby
tex tura
relaciona m
bur gos
vul nera
ofere cida
estuda das
Men sa
vir tu
aten dida
agre gação
alo gia
provo cado
Ita liano
carre gadas
ky o
espi ral
reconhe cendo
funcion alidade
Jer ry
Flo riano
veri ficação
Bio diversidade
han debol
Loc alizado
Th é
admi ração
obs táculos
Ac t
imperial ismo
regula ridade
sá bio
refor ço
compa tibilidade
espor tiva
morf ismo
persegui dos
fecha dos
document ada
Stan ford
wal d
PT C
Lag ar
dd le
Maci ntosh
integral mente
DD R
ndar d
Pau li
Pam pilh
captu ram
mber g
Faus to
Espera nto
pari si
Oswal do
Mí dia
conces sões
Paral elamente
Reguen go
Pente cos
Batal hão
luminos idade
Pante ão
Infe rior
clá us
Suet ônio
: "
D á
G ü
G ros
I só
O du
O ly
P isto
S era
a cre
z oro
ä r
ö l
re k
ta nta
ca meral
el í
te ado
no tou
pa g
pa tra
res se
res surreição
por cos
con golês
pel es
le c
pi m
bi e
fe char
ne bulosa
ch io
Ma d
ba ri
Se a
pan or
ori undo
conhe cia
ber punk
17 49
17 43
17 52
contra tado
jo gou
bas eiam
Vi mi
16 32
ac usou
Qu estão
corre ção
cria dores
funda ndo
importa dos
Di plo
Go od
Or dens
ál gebra
Cent rais
23 4
Sal les
zo ico
leva nte
bus cam
vin gança
condi cional
Ser nan
Ti bete
tecno lógicas
rom p
viol onista
pratica m
Eu gênio
Tran si
Gru ta
ES C
trabalha do
assum em
Bas tos
Mer ce
agre gado
Ka i
provo cada
Ita pemi
afe tado
exporta dos
ultra passa
Almei rim
Ferro via
Sar mento
procu rado
apren deu
Federa tiva
aces sar
UE FA
Auto ridade
Lau rent
derru bado
bió logos
repeti damente
Eng els
sepul turas
míni mos
Rol ling
renova do
vene zi
Aca dê
ecológi cos
tempor árias
Floresta l
Mü n
delimi tação
vete ranos
Comba te
mercantil ismo
Gott fried
fogue tes
insatis fação
orá culo
Maj estade
sincre tismo
Gaú cho
africân er
coes ão
Festi vidades
Lour des
Itapemi rim
4 30
B RA
E xi
G la
H ass
H and
L age
M AN
S AN
U ber
U sando
W ork
a para
c órdia
e je
g atório
s s
u ários
de votos
re age
in ess
ca tás
to v
di ficação
ul tima
si ficação
vi tais
vi rais
pro vado
ga ul
sa y
for nos
esta dia
era s
cor sários
il ho
ele ma
Re des
ag nós
ide ologias
tri lhos
cha das
ten ho
polí meros
Gu ide
Car ras
mina ção
ban ho
et ta
trans ver
Com peti
12 2
atra tivos
13 8
cra tera
La den
Fa mili
hom ónima
Ra j
Ni ceia
cro mo
Ho men
Hen dri
frequ entar
har m
demo lida
demo cráticas
pint ado
ner s
mara vilh
eu cali
Mon corvo
aba dia
geo graficamente
extre mas
cultural mente
participa ções
esco lhas
Tri color
emi tir
our ce
organiza ram
remo ta
acredita ndo
revel ado
lite ral
Cali fado
invent ou
160 5
libera do
gene al
bin ária
fala vam
Ata türk
Un der
licen ças
anuncia da
convo cado
presidencial ista
intermedi árias
intermedi ária
supre ma
dinâ micos
God win
Már tires
Hus sein
aná polis
Arque ológico
Perten ce
maci ça
ataca nte
desmembra do
Bob by
Vide o
Thom son
uman n
mere cem
gravi tação
Clás sica
reban hos
Salva terra
wic z
Libra ry
ła w
vizinh ança
dígi tos
Mode los
Extin ção
Matura na
8 50
E anes
F RE
N elas
P un
S we
a partamento
a consel
b one
c ões
c lica
l ino
ra p
es quem
co eficiente
ri za
ri zadas
re ca
re inou
or tografia
ca vidades
ca ule
to x
pa ganismo
si da
va zia
pro postos
pe jo
me tra
tr ões
il ar
ele vações
Co re
Ma cro
Al ba
vol á
Uni on
ide a
cha ft
cre ntes
pu t
17 23
15 78
posi tores
cl ãs
mer gulho
Mar cha
16 49
Li u
fil ma
eito u
An chi
Com plement
Mi t
def ei
sí ria
rac ismo
Bo avista
apro vados
ren al
hor ários
Cons tança
abri ram
Inter nacionais
Ra zão
Tra d
Me al
tera no
cli máticos
tan que
varia do
crí quete
separa tistas
substitu ídas
Tem pera
tent ado
Ed win
quar tas
tú mulos
escola ridade
trica m
propor cionando
coro as
autori tário
Tur ca
Den g
FA O
enten dida
compreen dida
demonstra ções
avan çou
captura da
hel io
guar di
implement ado
Caval o
sent ia
refle tem
ordena mento
Wa y
avança das
Len non
compartilha do
compartilha da
cali fa
esla vas
vira to
Estre las
castelh anos
presi dido
privil égio
Passa gem
his p
recru tamento
espes sa
cloro plastos
populari zou
chuvos a
captu rou
pante ão
contesta da
jazi das
combat entes
Hub ble
Wool f
Dita dura
inevi tável
Gei ger
Poi ares
Haber mas
Toba go
mutu amente
A gam
B ent
G im
G ini
H C
H in
I fá
N ixon
R PG
Y oshi
a cu
b ên
e ve
f ún
i cono
s hi
é e
ó podes
de vendo
ra t
ri gas
al es
al cunha
em é
to ta
di la
no do
na zi
po i
li mão
ment ário
ni l
des k
du b
go nia
sa zonais
pri sões
pre texto
int rin
lí rica
car reiras
Uni da
cent rado
dis postas
bol sas
Con rad
sem ântica
ber ger
17 41
15 4
15 30
In for
sub solo
Car ne
14 94
An uncia
chama ram
ale gações
auto mática
rou pilha
mili tante
Cam isa
Bar ém
ví dio
Or to
ren de
25 6
art el
Pi er
Per manente
Ra ma
Tra jano
bar ba
var íola
Ter ry
Can ção
execu ções
liber ta
dei am
ama dores
Fu tsal
atribu to
inaugu ral
remo tas
Lin na
Lin has
Ali jó
Dis ney
Ani ta
suí ços
Del gado
termina ram
Leon ard
Que to
concor dam
procura dor
Cro nos
ameaça das
rejei tado
rejei tada
Marcel lo
compartilha mento
ilustra ções
aer on
credi tado
fertili zantes
Publi ca
Evang elista
ii i
Bet h
gnós ticos
Már cio
Má xi
Cis jordânia
Inaugu rado
buro cracia
rode ado
rode ada
Obje tos
Bál cãs
atende ndo
sanguíne a
Padro eira
Corre io
Investi gação
comenta rista
Pho en
etí ope
prolifera ção
imedi atas
Estat ísticas
Azambu ja
Moha med
PNU D
Polit buro
Equato rial
3 D
4 40
B ad
C ã
F eiras
G ent
N er
N abu
O ito
R C
U ganda
Z hou
c zar
k ir
m isto
t ês
nt u
re trata
re estruturação
al turas
in quirições
en cabeça
ment ados
vi ões
vi gência
ha d
des mant
du rar
ter mais
le ais
bi la
he d
cont ido
vo rada
Em presas
Re gal
ag lu
fu racão
cer âmicas
dis far
ass isti
ass ala
tó nio
Ca pel
Ca pri
gre ves
De bian
Bra zil
produ tivo
ins cre
17 21
17 37
be t
vas tas
15 82
Jo el
gem inada
16 7
16 16
16 65
bu e
14 98
corre io
cen sea
Ch en
So vi
Mi chi
13 9
Des enho
cra ck
Sa mora
Bo ul
Du tra
11 00
Ju rema
Cor ti
Fe teira
dou ros
Ni ght
exi bido
conta bili
Ter rito
Nor ton
Ga y
cana denses
Her s
Pen silvânia
distribu ições
anex ou
hum ilha
pot ente
registra r
ocor ra
existi rem
ró tulo
compreen dem
sau ros
ben edi
dese jado
íssi mas
Que bec
bios e
refle tindo
aboli u
abs tração
chil ena
incenti var
Publi cações
sujei tas
intensa mente
arquitec to
Evang é
esp inhos
exces sivo
pseu d
monta nte
Deu ts
mane jo
Tecno lógico
catalis ador
eso té
interrompi da
existencial ismo
Penal va
Tes ouro
Econó mica
Ses imbra
Coru che
Pê ra
corros ão
amaz ônica
Ib n
Palace te
alcoó licas
Itai pu
Baek je
Pampilh osa
Oly m
A F
E dison
E IRA
I L
I ria
N ina
O távio
P atos
b ál
c cio
j ant
l ist
v ura
y en
ί α
re ale
re agentes
ca verna
ti rou
que tes
la tinos
ex u
pro gre
vo tou
ser vos
ne gar
Re fere
car nes
Uni camp
ge rir
cal ção
inter cep
inter faces
17 45
be ck
15 5
gen er
16 67
16 88
Sant íssima
gas osos
her esia
sig na
indi cados
13 6
importa dor
Des i
Des erto
constitu ídas
apro v
nor manda
mis tu
Is lam
feri u
exi lados
chi que
Rob inson
Her ó
mostra va
ama ntes
Au tor
Je ff
Fu ji
Fu turo
mant eiga
tran se
interpre ta
len ha
escal ar
Sch rö
Ali mentação
diplo macia
homen agens
escu ras
apoia dores
Tro fa
cruz eiros
determin am
impres sos
colonial ismo
emer gente
admi tido
reci nto
substa ntivos
fornece dores
direto ria
Ima gens
Ima culada
mila gres
Tá bua
cultiva dos
passe io
Fale ceu
ester n
Frances as
fle cha
PD F
desembar cou
agu da
OM C
prefere m
promes sas
hetero gê
junt am
Expedi ção
Evan s
recol ha
óbi tos
Vete rinária
Foot ball
imin ente
univers almente
ápi ce
Travan ca
Arcan jo
precei tos
Anchi eta
Meal hada
censea mentos
H es
K ro
N es
P L
P PE
R um
S ing
S elo
T R
V aca
f ônica
l lus
o postas
ê nios
ó pio
ô metros
co ordenar
in visível
el lo
se c
te ori
li zou
res tam
la c
tra i
ga ard
ant ag
ver dades
pri nt
cos tar
est ético
gra diente
sua ves
Pa olo
Pa pua
fa tal
Al jubar
No kia
tro ço
As sa
uni cameral
ge ológicos
Ca pí
pan am
17 4
gen érico
16 42
sim patia
14 6
Qu el
Qu eda
her s
13 2
13 7
Pro vin
dire tório
Ou t
Bar ry
Bo yle
loc alizar
organi zam
La guna
sol vente
estabele cia
Me to
Da ire
ler s
pli cou
Ga re
Gra y
Gra nt
San de
geo métrica
representa tivo
hon e
forne cida
Eu génio
cap tação
indica dor
len inismo
Ros sio
Char neca
Sh ell
conserva do
mora dias
diplo mático
respec tiva
femin inas
exclu indo
demonstra ndo
estraté gicos
incorpo rar
Poli técnico
atraves sado
atraves sando
expul sar
rejei ta
flores ceu
Escri turas
Ata íde
Len castre
progres s
Arquite tos
combina da
sugeri ram
Wiki pédia
Sto ck
perió dicas
úmi dos
sax ão
sér vios
desanex ação
Cre táceo
mala io
parado xo
Indi anápolis
mist érios
rapa zes
sú ditos
bura cos
coe rente
colhei tas
testemun hos
perme a
filip ino
escandina vos
energé tico
Mér tola
Ingles a
sabem os
protó tipo
morfos e
Nich olas
empos sado
SIL VA
Anglica na
Vik tor
Quir gu
Muham mad
Aljubar rota
4 20
A uro
A gn
F r
H E
I gor
J ó
a pres
f umo
j ães
y on
É dito
í lico
ö n
as ser
re don
ca fés
en cur
to cou
di vida
no na
na y
vi lhas
con je
am ônia
bi cas
he ra
he avy
par do
ali cer
era dos
pre pon
Pa v
ch ia
Ma rim
car tões
au ro
mar ginal
As tronomia
Ca ria
Ca usa
Bra sili
men cionados
17 12
Ar cha
Ar ts
jo ias
bal ão
Po pper
16 89
che t
14 93
Qu into
10 º
olo gie
Com is
12 1
Fo to
Mi ch
Des cen
edi tores
Go y
Bo tânico
medi cinais
ofi la
Fa culdades
mis ci
Lo ja
fir mado
administra das
fra gi
torna rem
it s
duzi do
Sil vio
derro taram
diminu ído
psi quia
respec tivo
Ste vens
150 2
emo ção
sant uários
Estu dantes
Histó rica
Pena cova
comemora r
aé reos
teles cópios
Pelo tas
frá gil
Far mácia
acrescent ou
oper ário
pergu ntou
Rel atório
fres cos
exercí cios
Gab ão
hí dricos
difun dido
intera gem
volunt ária
confor to
Infant aria
sacra mentos
desmembra mento
his pano
aderi r
desencade ou
palest ino
cardí aca
BI OS
acident ado
tuma mente
compensa ção
corrigi r
apri siona
Chil d
gême os
ceri monial
Moham med
fami lia
Resul tados
pejo ra
Linna eus
4 60
A zi
A eron
B l
C ão
H emisfério
I da
I RO
L un
M ino
N unca
R he
R ang
d f
f ismo
h us
l lo
o ponentes
p g
s pe
x ley
Á u
í feras
ú mida
da quelas
ri v
ta pe
ta ble
en u
que rer
te ísta
pa inel
vi cultura
des confiança
des tilação
mo vendo
am endo
ter nas
ser tação
im plí
pre valência
Al jus
min ia
No é
tro m
pal ma
Ca jaz
17 28
17 35
15 8
15 24
15 45
15 53
Mo reno
Mo eda
16 12
In divi
sub divisão
Car cavel
esti vessem
dent al
Pro pa
capi lares
fal hou
mal ária
roma ria
Te odo
Cent enário
fra cos
teri dade
op tou
Ta ra
Cris t
cole ciona
Francis ca
Sou re
conf ess
Her cul
San gue
aconte cendo
conce didos
Tu ring
concent rando
especi ficação
sin alização
CO M
sta dt
Hu y
cru zar
inh eira
Bas ti
arca ico
pis ca
Sob reira
Gar ça
ocor ridas
contr ários
preser vado
urban ismo
incorpo rados
Dar cy
espal har
bru ta
teó logos
IP HAN
ampli ado
ampli ada
rib eiro
Th elema
apoi am
Ki ev
hún garos
Lí via
Cara cas
infini ta
ari anos
astro logia
ax é
derru bada
estrei tos
comi das
cultiva das
feu dais
vito rioso
psicológi cos
bíbli cos
Situ ado
ctu res
premi ado
Carre gal
clé rigo
benefi cia
fecun dação
vietnami tas
colis ões
espel ho
intérpre te
envelhe cimento
armê nio
Dul ce
Andaluz ia
Persona gens
Islâ mico
Semin ário
ksand r
Uber lândia
2 21
3 40
A nci
D R
G h
I ri
J anu
O bal
O vídio
P ita
Q U
S tru
T hia
c ens
c ini
e vo
i vas
v ência
á cias
de irão
as pe
ri ça
re ns
in cont
in cum
ca em
en ciais
en zim
an ci
li tera
ul es
ni des
va cas
des pro
la de
tra ma
at s
le ga
go ga
pos tal
ém en
tor á
per correr
cu bana
Ma chico
fa ringe
Re belo
pul o
man ga
mar fin
qui ma
uni da
ris ca
tri c
ber es
17 44
15 56
Gu in
den uncia
jo gando
Mar cus
16 76
Li cen
atri to
Cas si
14 1
14 8
An ápolis
fin landesa
atra ídos
Mi tch
trabal histas
13 4
lei gos
Di ction
Sa vo
Bo w
Du ques
Do enças
Ge orgi
Ra il
comuni tário
ré gio
fis e
opera do
element ares
Pres biteri
ín dio
Wil lem
arti lheiro
gol pes
experi menta
domin am
Cha pada
bandeira ntes
eleito rado
atribu em
apare cendo
Bibli o
He festo
Tri ângulo
Eu gen
cru zada
acei tam
Pu erto
autori zados
Har vey
secre tamente
sele ções
ultra passou
Via ção
absor vido
esten dido
auxi lia
paral ela
Figu ras
proibi dos
Gor bat
satis f
edo m
Reg ula
Adri an
acrescent a
ortodo xa
anel ídeos
-- --
Pais agem
castelh ana
ecológi ca
quo ti
Amo reira
Ré gua
Pint ura
vincul ada
consist entes
desaparece ram
Tche khov
Urban ismo
emprés timo
Cle ó
pertur ba
seve ras
card ía
Comenda dor
pernambu cano
CB F
Nikola i
noto riedade
Córdo va
hostili dades
Nucle ar
Face book
gim nos
limí trofes
Hér cules
C lé
D ob
F E
F ala
G ellner
I vo
R in
S ent
l entes
m iste
v entes
z an
de a
do ng
es par
nt ado
ri ni
re mete
ca tas
ci tações
di ur
di zi
no venta
pa nt
li fe
con dri
va mento
des conhecidas
ex po
ex óticas
pe ga
ga ras
ga mia
pos tumamente
esta gnação
ali vi
im en
im provável
im ponente
ru di
Em ma
Al ban
ju liano
ass alto
Na da
tri bal
Ca ixa
bo ico
ur s
cre r
val entes
15 22
15 85
tá lamo
Car y
ven ceram
ban hos
An éis
An nan
fin os
Lu ta
Pro gress
depen dia
Di á
peri nt
mis éria
administra dos
administra dores
mí dias
tec nicamente
opera dor
demo cráticos
seria mente
chi e
Ru by
escre via
migra ram
lingu ísticas
derro tada
distribu i
cr ônicas
mani fes
nar rador
movi das
regista do
anex as
plas mática
Econo mic
femin ismo
Arqui diocese
defin indo
177 1
caça dor
inva dida
Plan eta
conven ceu
transmi tidos
Wa ter
traz ia
metá lica
regres sa
Gale gos
derru bou
Rodo viária
colombi ana
intu i
volunt ário
cob rança
Mada gas
infla ma
Arma mar
amp lia
Clau dio
assí rios
Phy si
ecli pse
Jas on
IPv 6
Patrí cia
McCar tney
inst âncias
cogu melos
Corné lio
Athle tico
reale za
aprov eitou
Carcavel os
. -
2 24
D oro
G av
H ell
P tolomeu
R ho
S lo
T aqu
V inha
Y ale
Z âmbia
f ão
j um
k at
p ins
s ingles
u se
z em
ê xodo
de corrente
ra lidade
ra cionalidade
do to
re cur
er ância
ca po
ti cultura
to re
so pa
des peito
ex á
pi lhas
za mento
cul tor
Es tão
tor ne
per sua
Pa ci
cons cientes
car dinal
man cha
dis punha
ris se
Na ture
parti ram
men cionar
17 15
15 65
15 59
Jo gador
Ar c
bas ti
bal to
Vi go
Po is
16 50
ac úmulo
rea dos
rea bilitação
sub conjunto
zi mb
grande zas
Par la
Di eta
tou ros
após tolos
rac y
fal sas
En rique
Me d
popula rização
cli vagem
gin ástica
tel ha
bio ma
ph on
Ama dor
empre gando
aproxi mado
Sou nd
desen hado
Mos tra
referi u
ami do
defen siva
Sh in
ocor ridos
conver tida
carre gada
Chris to
ascen deu
are na
are nos
IN MET
cópi cas
adqui re
suí nos
pecu lia
fix ou
apoi antes
Povo ado
procura ram
CD U
apa rições
precipi tações
refor ços
Camp bell
etano l
aer ó
deser tos
dissol ver
nacion alidades
Qui lo
micr ó
subme ter
reside m
eclesiás ticos
tabul eiros
bíbli ca
milí cias
empreen dimentos
Tru ffa
olím pica
Py ong
adja cente
Considera do
Cus tó
enciclo pédia
Rebel ião
Hey drich
oliv eira
haiti ano
Copenha gue
trez entos
parana ense
perpendi cular
Califor nia
Ché quia
retang ular
Cleó patra
Truffa ut
B est
C int
D eix
E mili
F 2
F ros
G rá
G erar
L em
O no
S L
V au
g â
h alo
y ana
í cone
ú na
de va
ta xonomia
ar mé
ar qué
com pensar
di vas
li turgia
si r
on í
res sus
des uso
tra tam
ex atas
am plos
for çar
ali ás
cu ru
ele g
Co pér
ch ner
io do
Por tel
cer es
ens inou
cent rí
Os ório
ide ncial
produ tiva
inha me
inter rupção
15 88
Jo gadores
Mar fim
anti bióticos
16 5
16 70
16 66
Cas cavel
14 00
13 1
dist rital
Di visões
Ci rurgia
Go t
comuni tária
eno ve
tan ge
cem ia
deus as
ki do
Cab ec
demo gráficos
flu i
Nas ce
conce bida
tenta va
concent rou
promo vem
Polí tico
vir tuais
Hu xley
exer cem
chega vam
Bel le
Lin us
primi r
abran gia
neu tri
concei tual
mono teísmo
obser vando
influenci am
bios fera
expul sou
Públi cas
infant is
abs trato
gene ticamente
UF SC
eletro magnéticas
epis copal
inscri tos
partid árias
agrupa das
democra tização
Mark et
trazi das
rompi mento
Lé on
Fur tado
embar cação
Son y
idênti cos
log ística
rum ores
Green wich
EB 1
haste ada
Dion iso
computa cionais
carreg ar
sín drome
Impera triz
Femin ino
Vie gas
Well ington
autóno mas
Pot ências
Ere chim
Interpre tação
Cál culo
desintegra ção
marfin ense
Madagas car
Copér nico
3 24
A boli
B am
E do
E lo
G eração
H ul
H Cl
L SD
O d
O EA
R ö
R ac
S Q
S pino
U tre
c ture
g ham
i ce
u ções
ó rios
ü ck
os fera
ri de
al quim
in interrup
ca ros
ca ído
ci ando
en fim
an ário
an sie
li on
ni tz
tu mba
con gregação
con vívio
ha k
uma r
us ca
fo nt
ter ceiros
ve torial
ce ta
ce rias
cont ista
ça ria
lu zes
pres tes
mas o
cu í
gra de
cor relação
il usão
Al onso
tamb or
dia grama
sob rinha
As tron
ras sol
ob têm
Ca is
Ca iro
De ad
17 11
17 36
15 68
16 25
ven ha
Ch ou
So lida
her deira
cria turas
esti lista
pla y
edi torial
Bar ran
Fre edom
nou tros
To bias
base ando
ren ga
Ju venil
ze do
num érico
ído los
moder nistas
cant ões
Ele tro
lar va
prote tora
empre gam
Deus es
Mas ter
bis co
Lou sã
lá n
Mon dim
proces sar
lingu ísticos
Tem pos
inten siva
tela ria
Tran ce
anex adas
estuda ndo
Ce cília
expres siva
expres sou
ys is
territo ri
femin istas
demonstra ram
explica do
apoia va
ultra passar
meios e
rel les
sel os
topo logia
fix ados
Religi osa
Histó rias
libera lização
moni to
Tre ze
longe vidade
traduzi u
diversi ficação
agrupa mentos
iner cial
Rodo viário
Eri k
islâ micas
coment ário
abre via
Represent a
pola co
recomenda ções
pronu nciado
Bir mânia
denomin ou
qué rito
cogni tiva
esma gadora
glând ula
renov ável
Organi zações
lusita nos
mpa das
impressiona nte
bour g
preco ce
Sever o
Lad y
vulner ável
tij olos
alca ide
cartila gem
minimi zar
Portucal ense
Intermedi ária
senegal ês
Phoen ix
Aljus trel
Huy gens
Thia go
3 000
G ame
H ur
I gu
I migração
I panema
K il
K ons
O ficiais
P ino
R yu
R FC
S har
S tella
W an
f ford
f field
g hi
g ène
h ares
j ós
n ei
o pressão
o fícios
s ena
Í lha
ó mica
re ga
re tar
re ge
re nomeado
re generação
an ã
an em
ti ce
ti zar
ni x
gu nato
con segu
con correr
su posição
la vagem
ex põe
ex poente
sa z
sa vana
pri or
mb as
cos mos
cor dões
Pa pel
Ma çonaria
Al ter
pul mão
cri p
cri pt
dia gonal
tro fe
pen sando
uni do
Se co
der rama
fun dido
sé ria
pan fle
17 29
gan ham
15 97
rela tado
16 45
16 85
In ferno
ac ho
fil tro
rea mento
14 99
ban ha
fer vor
trans lite
Com pa
mel ine
ck le
ale go
Bar th
ena mento
fal ência
To mbo
medi ação
ua iê
Cor pus
mon árquico
24 1
plan as
Ge re
Ent roncamento
bre cht
Col in
Mé todos
respon deram
respon dendo
Ta rouca
integra das
ts ki
fé ns
Ama relo
Fun ção
Ser g
experi mentação
comun as
Bu eno
origin ária
deri vam
docu mental
fici lmente
Itá lica
bor das
Er mes
ficas se
He re
pratica dos
destru indo
Social istas
Res istência
dispu tadas
Hu dson
chega va
lé guas
oli gar
Sh u
Edu ard
abor to
conver gência
Tal es
blo gs
sust ento
Huma ni
Dou rada
cú bicos
Que bra
emer gentes
proce dentes
Nú meros
tér mico
abs trata
agra ciado
domini cano
conec ta
Auto CAD
centra lização
sof ria
ach im
derru ba
quali ficados
War ren
Agri pa
ofer tas
evang eli
espalha ram
adver s
Arti gas
here dita
meteor ologia
difun dida
calcul ada
senso riais
idênti co
desas tres
otoma na
violenta mente
bl inda
Instru ção
Invas ões
Martí nez
cosm ologia
Zimb á
comp ras
Pru dente
pirâmi de
Gradu ação
Gard ner
Drum mond
apelida da
psí qui
higi ene
Quirgu istão
A bas
A mei
A pren
H ide
M M
M estres
N esses
O lhão
R embran
a onde
c inho
h ós
i tem
p ticas
q i
v g
v ães
ê u
ra tificação
do tada
da mas
co g
re po
al fab
in orgânicos
ci lín
an ab
ar mistício
di áspora
po ran
si ti
des cida
la i
tra jes
mi er
pro ver
20 9
ran go
sa ídas
sa biam
par ciais
mu dam
per na
pre conceito
Co pas
Co bain
sil en
ado tando
entre la
tamb ores
ag le
tó nicos
Na tividade
De an
vis am
inter ro
ori unda
17 10
cel he
Jo achim
16 1
16 18
et ê
olo gical
Com emora
cen su
So eiro
mel ó
ógi o
ine rente
pra g
edi tion
desta ques
constitu íram
apro xim
Univer sidades
hor mônio
Te d
Lo g
Per ry
có picos
dar d
amb í
ré plica
cus ta
partici pando
27 3
29 0
Ja zz
Lon go
mont ado
rom ânticos
ES A
extra ir
assum iram
trica mente
97 2
US S
pis cinas
|- ----
Dist ritos
rapi dez
ky u
Aç u
dirigi dos
altera dos
Bor da
incorpo radas
guitar ras
ampli ou
Th is
Ac tividades
reci fes
gene tic
eru pções
metá fora
morf ológicas
TE L
ach ment
acha va
Cambri ano
ingu inha
ucra nianos
desapare cer
esgo tamento
armazen ados
consta tou
cint ura
fixa ram
guerri lheiros
adoles cente
Kh rush
evangé licas
homenage ado
roch oso
amer índios
Urban ização
Goul d
excep cional
Inclu i
gaz ine
div órcio
Sig nifica
pronta mente
Pix inguinha
desfil es
Estar reja
tunis iano
colet ânea
tota liza
Infor mática
Heró doto
Ílha vo
Zimbá bue
Rembran dt
3 70
6 40
A w
B ia
H í
S andra
X ia
b b
d ula
f rí
g lia
l exi
o reto
p df
t ônico
u ch
y ama
z ir
de re
de capi
da qui
re féns
ma ti
al quei
ca chor
ci p
en velo
ti us
se ver
di ficilmente
na i
na pole
ment s
si der
va ras
su pressão
su primento
fo gueira
20 2
un di
go za
sa ariana
pi ens
Es mo
pres ta
pres tados
ros as
gra vemente
ch em
ano ma
vel op
ces to
pes cado
tri ângulos
ge ológicas
mos tras
ins pe
sobre natural
15 43
15 41
Gu tenberg
In flu
14 97
14 95
Su z
ér cia
tí culo
Mi le
indi reta
auto carros
Ri t
Ci rilo
Ver ger
Bo y
Bo as
má gico
Ne er
apro vadas
Te ologia
Lo y
24 7
dou ard
fra ude
23 3
cin z
22 7
aqu áticas
enti um
Sé culos
Patri arca
Tor onto
Val le
gé nese
Ja ir
Her man
Bri dge
precis os
cr ômio
concent radas
viol ão
camin ha
Ce a
expres sas
acei tos
visita ção
Pu tin
Bal eia
compara r
competi tiva
competi tividade
provo caram
adap tadas
escu dos
Sab rosa
reto mou
arre pen
absolu tismo
Nu re
mexi canos
Vir gens
impa c
Gen era
ER N
Wal ker
aces só
apli cou
tit ulo
conec tado
Inte grado
rup estres
peda g
Proje ct
Indo china
haver á
dissol vidos
combina das
War ner
sedi mentares
suspen so
Parti lha
lam pre
ingres sar
Prote gida
Alb ino
psico dé
efica zes
desas tros
estabili zação
compromis sos
alinha mento
sis si
discre ta
Chin ês
Nen huma
Clás sico
cozi do
Abo im
pinh eiros
seman al
balan ço
refei ções
tartaru gas
tecel agem
Circu ito
Gafan ha
herbí voros
hondu renho
Nabu co
Capí tulo
expo entes
3 25
5 ª
A lagoa
D N
D eli
D ji
F ré
H ast
L ina
P ob
V elo
V AL
W W
W ür
a postas
f ã
g anos
h man
h ren
x y
x ide
á ce
í cola
í cias
es h
re tas
qu inas
ar ri
di vor
te ístas
po ço
gu ns
su por
am érica
du r
ver gon
pri me
cas tas
mu t
lu tando
fe chou
pre tensões
Co hen
Ma terial
Em pi
pen são
mar fim
emb os
mos e
gal l
In forma
In fluência
lan çam
ban as
Le ça
rí lico
Bar bu
To ku
ula das
base ou
Segu e
estrutura do
Fa ir
24 4
Pi cos
The odore
lado ra
gê nica
limi tando
exi bida
Ta xa
Cul ture
gera dores
Tor á
lista dos
mem orial
domin gos
deri var
separa ndo
Edi tores
Mor re
Pen insular
finan ciado
ên quima
Eu gène
conde co
Gon z
Gal á
reuni ficação
termin am
Social ismo
reti rados
reti radas
Hi drelé
empresa riais
Bas ílio
multi celulares
acadê micas
mag ne
Mou nt
pros pera
compreen dia
sele cionados
ges to
introduzi ram
inva dem
Leon el
plu ri
fale cer
consul tas
ore mas
Comun s
encer rado
recor des
incent iva
Tre cho
legi tima
substa nciais
vere ador
condu tividade
estres se
evang elhos
Pinh eiros
enfati zou
sint ética
ecológi cas
favo rito
prolon gada
Kh ali
Cacho eiro
inal do
estabili zar
hebra ica
nór dicos
Navar ro
interrompi do
Fru tuoso
empí rica
vulgar mente
caris tia
simult âneo
enx er
Ema nci
borou gh
filant ropo
Mons anto
maiús culas
julga mentos
Wes ley
domicili ar
chimpanz és
amê ndo
Hercul ano
C im
C ross
D ori
D urão
F io
F ins
G las
I sido
J A
J ardins
N áu
S tur
T ia
T ana
T ess
T êm
W ang
a reias
b ã
c que
l le
p ture
s tu
u re
z ias
Ó pera
ra b
co que
as tros
re tal
re tornando
re forçada
ta u
al bu
in existência
ci gar
se ios
com em
to cado
pa ixões
ment es
ni or
tra duzir
ex pl
lo tes
du reza
le tão
un em
sa co
esta cionamento
cul ado
tor nos
tem ia
ne amente
sua is
pre fácio
ele ge
Co de
ch ando
vol s
cer das
cer dó
uni ficada
ju dia
ass embleias
Os lo
Os valdo
bol os
ins istiu
17 25
15 58
15 33
15 96
contra tou
ares ma
16 4
16 15
sub terrâneo
Fran cos
Ba ker
grande mente
reg endo
tre am
vent ral
faz erem
Mi rim
Sa ve
th or
Go ta
Para dela
Do wn
Cor n
feri mentos
corpo rais
ocupa ções
ugu eno
ata ba
wa ys
militar mente
Tor desil
Cab an
Val es
39 5
precis ar
forne cidos
Ed die
regista dos
reuni das
reti raram
dista ncia
Liv ramento
alo jamento
dí mio
revel ando
secre tários
neo clássico
pp m
reser vado
preser vados
Ve ri
apoia vam
Bor bo
íssi mos
Cada val
fisi ologista
auxili ado
detal he
alar gamento
wal l
micr orregiões
Dra gão
Mei relles
fó tons
kins on
confun dir
Ten ente
Ferra z
meridi ano
She ffield
efetu ar
enfrenta ram
acompanh ando
Cient ífica
Nan cy
benefici ar
fronteiri ços
Dam asco
confe c
suspei ta
detri tos
impulsiona do
fú ne
prós pera
automobil ismo
Arrai al
Hipó lito
flex ível
Eslo vê
educado ra
decli ve
moçambi cano
Atle tismo
Nicol ás
revol tosos
Savi mbi
Isó topos
Sernan celhe
Máxi mo
Hers chel
Auro ra
Gorbat chov
Pyong yang
Hast ings
A A
A ren
F res
I g
K is
O ro
P amplo
S M
S is
S eixo
Y i
l vora
n eles
r ú
x isto
x aba
z h
z um
z zo
Á guia
ó nica
de to
ri nas
ma co
ma dei
ca t
en has
ti mento
ar terial
se vera
pa usa
ni za
gu era
vi gé
su fo
fi xas
la ran
us h
pro posi
pro puseram
pe do
ter rível
ga y
pos sessão
pi ora
cont rária
cu na
im possibilidade
Ma ias
Ma gazine
ja ra
cri ta
car ní
au dio
cí pro
ras tre
dis por
Con fraria
este ira
fun go
ins íg
17 18
gos ta
15 49
xi do
bri and
16 9
16 80
16 37
[...]
