#version: 0.2
a n
a r
e n
e z
e r
e t
o u
o ù
e l
en n
r e
ez h
a l
o n
h a
u r
a d
d i
s t
a ñ
an t
e v
e g
z h
r i
e u
r o
i n
d a
s k
r a
v ez
l i
e m
o r
e d
g ant
a t
e k
u n
e o
a m
eu s
o l
i t
a v
ha g
i où
i z
o a
1 9
a s
o m
al l
w ar
b et
e s
en t
c h
y ezh
p e
ou r
enn où
l a
z o
i s
i l
d e
h e
ad ur
el l
s e
ev it
a o
a g
v o
i k
l e
an n
re i
l o
on t
m a
er i
e ur
ou t
i m
u d
A r
ev el
i v
sk ri
g w
b r
o b
0 0
p a
o c
d re
n e
k et
u m
o ar
i a
rei zh
a b
g er
A n
u s
i ezh
k a
an v
ou zh
t i
l l
vo e
g ou
ol l
b enn
S t
r ou
i vez
i st
ao z
ñ v
ou ri
) .
ad où
am m
skri v
i g
p enn
) ,
i r
ou ez
yezh où
k en
ezh on
s on
li j
re d
r en
ar n
U n
p lij
i ñ
e st
u l
s av
o g
em b
u z
er zh
B reizh
ro ll
a z
ra s
er ezh
et re
a ou
Y ezh
G w
e p
t re
a k
h oll
k ent
o t
o d
o li
d ro
v i
an d
o k
v ro
r et
ob er
m añ
di g
o f
l ev
im plij
h in
m et
ar zh
om z
o s
r an
oar e
1 8
A l
Yezh où
E n
re s
di war
h er
g all
le c
h i
s p
m ar
L i
sk ou
br ezhon
eri en
d oare
ezh ioù
u g
b l
i on
la ka
v er
h all
d eus
e c
an ezh
B ro
i c
S k
h ell
m en
i an
l enn
er n
iv er
un an
hin i
2 00
I n
g ra
ê r
r ann
b ro
o p
b ez
U r
h el
al c
d ud
d u
h an
v e
ag n
t a
l av
z er
o st
u i
p l
i d
s aoz
h en
ez el
zh er
k em
ou d
in g
m er
oa zh
añ s
kent añ
2 0
h oar
i el
um m
m eur
19 9
brezhon eg
a c
ou l
or n
d ou
di v
D i
t ro
st roll
z i
b ed
skou er
M ar
implij et
bez añ
e ch
f e
in t
n iver
oa z
Un an
d en
ouri ezh
di s
ev ez
k omz
d er
re iz
d an
k av
ad enn
L enn
. .
gra et
al i
st ag
li zher
h ar
da ou
bet ek
vez añ
b ras
d ezh
t ra
g al
lav ar
eg ezh
d enn
skriv añ
b arzh
m e
n eg
in a
i j
am zer
el et
m an
f or
v ar
ad el
la b
ñv el
o z
t ik
il h
s i
19 8
p er
b er
am ant
p ar
di ouzh
19 7
Li amm
ol og
eu z
sav et
o ri
t u
ev en
rei st
v et
he p
l u
v ed
he ñvel
i li
t ur
ra k
a ez
di n
emb ann
g en
n em
g et
v iz
19 4
re as
ar d
an g
v an
u b
T he
a p
r ez
e il
p ro
em añ
1 5
her vez
i ri
ob l
a et
m or
ad eg
u t
v el
k e
u di
ouri en
b i
ur t
vez e
19 6
E ur
b lo
ar z
k an
dig ezh
nem et
or zh
on iezh
E m
H er
an a
ch om
e sk
ant el
B r
p ezh
h ent
w el
of is
stroll ad
1 7
h ou
t r
al a
re g
oli tik
d reist
m ui
n a
t ud
sk i
m at
t er
E r
j e
al am
la sk
anv et
blo av
q u
r enn
k el
ou ezh
di az
saoz neg
se urt
ne b
komz et
w ezh
adur ioù
k o
gou de
e b
k ant
vo gal
M a
S ant
c k
i er
v ras
lizher enn
P a
d ra
t on
ad ennoù
en ez
pe p
om p
ofis iel
Eur o
1 6
L e
h o
1 0
G ou
av aez
ger ioù
emb re
diaz ez
g an
h ant
d eu
p ad
K er
d al
t al
di avaez
eu l
li es
neb eu
st umm
t e
Euro pa
a st
o ñ
k ev
i ch
I m
m m
k as
di a
ri où
1 4
st udi
k ar
l at
ra ok
di stag
ro et
h oazh
eu n
laka et
M eur
er c
ran k
ri st
Liamm où
bloav ezhioù
l ez
h ed
ha ñ
laka at
h ez
d oa
Unan et
adur ezh
D a
ou n
enn et
or t
d ez
pe ur
em p
d eg
dou ar
ra t
ist or
re mañ
a er
gall eg
euz e
d où
n evez
t eu
19 5
an eg
s er
u k
sk ol
00 0
1 3
M or
P ar
g ar
St adoù
ub li
kant ved
e bet
k rou
a u
i al
di sk
i et
E v
lat in
f on
skriv et
penn añ
deu et
ro m
p olitik
I I
k al
n euze
an k
g el
anezh o
st er
um un
u hez
iz i
g e
ver b
v or
eg et
N e
b ar
v r
kav et
c e
S ina
t he
ali es
g av
h w
Gw elet
el f
u hel
em er
i at
k lo
s even
ian eg
bro adel
ol o
f ra
g our
w ech
ur zh
D ou
K embre
st r
av at
1 2
G ant
p erzh
R oazh
k re
Roazh on
i zh
t amm
st ri
A b
s in
mar e
f ri
h et
ubli k
s evel
enn añ
anezh añ
lab our
I st
L a
v eur
y a
dis heñvel
t h
et u
ao e
orn ô
re st
b a
t ri
gou n
.. .
dezh añ
olog iezh
g ent
m ont
19 3
ñv er
din dan
ornô g
en ed
p ell
ev re
g o
w an
ik a
kem ent
i en
skriv agn
son erezh
hoar i
19 2
b ep
e iz
w erzh
en g
gant añ
D re
li amm
gw ir
S u
en eg
rou e
Ist or
p ala
r el
s u
i ek
di z
iv el
skri tur
tr on
k lask
l in
d alc
R ou
d arn
f ed
i e
on ed
at ion
hell er
F ran
a ch
al e
ski ant
h om
i ad
ro ck
bi han
F r
f er
re er
ha d
om un
vi je
l erc
ti on
f in
m iz
ev r
K an
bl oaz
b ev
k reiz
l as
at al
A m
G en
p o
w alc
on eg
eri on
embann et
1 1
lev r
" ,
ud et
di wezh
iz iv
lo d
br ezel
m ili
el ek
on i
ch e
P enn
ko zh
K em
t o
sk eu
at om
I S
l ed
ar ouez
En ez
kal z
n ig
ana vez
Fr añs
c ha
v oud
en ep
aou enn
J e
T re
an ed
ra eg
R oll
R ep
a j
f am
ch enn
St ad
ig n
lavar et
for c
Ev it
vogal enn
B i
ez on
gent añ
S aoz
S etu
i re
di sp
anv ioù
St roll
J o
a y
i di
alam our
nebeu d
’ )
Sk ol
krou et
l es
s ell
ve fe
" .
g re
u st
iz ik
d ar
N ot
v a
res is
B ri
T i
d our
s ant
rei ñ
lo denn
est r
Sk ri
D is
m on
lizherenn eg
re ol
ab aoe
fam ilh
P l
adur el
h ioù
ij in
ang u
vr ezhon
D aou
antel ezh
lev ezon
kas et
klo z
g lev
l oaz
m o
el ezh
gw iri
ter men
s a
di or
it ar
Al am
b out
k ont
L ec
S p
k êr
eri adur
hi enn
Rep ublik
N a
a at
p et
er e
A t
h or
m em
di forc
om m
la benn
ouzh penn
B ret
b od
h ir
ro man
ist an
son enn
R et
d on
k ad
ou ll
st ad
19 0
ke ñver
C h
l â
sk oli
o w
tra où
mili on
i o
vogal ennoù
v ioù
ao s
mui oc
vras añ
R en
r umm
z u
ro g
D u
K ar
W ar
e eun
g omz
z eu
em m
Y ann
b obl
par t
d ev
f f
k añ
t ost
al ek
st êr
sk et
brezhon ek
In dia
( "
A mer
K en
rann vro
= "
B a
V eur
p en
gw elet
tre uz
si labenn
3 0
P ro
r u
en o
ri z
emb raeg
kav er
( ‘
b u
b ezh
d ed
d es
t s
t ek
ou s
ri g
Je an
h iziv
k oul
v ont
av et
ti ek
ori n
rel ij
" )
at ur
dal vez
politik el
in e
son ennoù
H en
ê rioù
on g
ed où
doare où
lies añ
Im plij
f em
t enn
ab alamour
hep ken
Her vez
i digezh
ist em
arn amant
A z
S e
t ouez
v remañ
red er
18 9
h eul
ar m
li z
var v
rist en
i p
em ent
am p
de part
bro ioù
zi sk
dezh o
oñ j
i eg
t an
ra e
gav er
e as
f i
k at
m od
v ev
ab eg
u li
al arn
da m
Unan iezh
elek tron
depart amant
b ouez
v at
v loaz
ou eg
qu e
5 0
R o
R om
c a
k in
p at
st our
ev ar
lizher ennoù
lu sk
anavez et
lâ ret
B ed
O u
p ouez
ê ri
il e
br et
kent oc
hen goun
p h
s istem
il l
dig ezhioù
G all
di ñ
ri n
un van
uz ul
ta ol
Not ennoù
I liz
b o
n orzh
er ed
it al
lo g
pa c
oli k
mar c
fri ka
L o
N or
p eo
br udet
B rest
d o
g res
z el
ant où
zh et
eri ezh
skri d
benn ak
N evez
k u
k er
r y
u e
am añ
lo t
anezh i
nebeu t
Amer ika
M er
M eneg
f izik
Gw eng
skrivagn er
Stroll ad
mem es
skoli où
Implij et
M ont
e e
m p
t eg
en er
vez ont
ag e
ma ez
etre broadel
rann yezh
wech où
urzh iat
c o
2 2
I s
b ann
v uhez
w a
de iz
stroll adoù
h ornôg
t our
am er
le ur
Br ezel
B ez
g itar
kem er
omun our
h u
h eu
n atur
v ui
ell où
dan vez
H a
b erzh
p p
» ,
ou ek
di benn
aou eg
b e
s en
gou arnamant
pala eriezh
h n
er ioù
enn i
ri ñ
adeg où
fra z
Dou ar
Meneg er
B N
d ek
m as
p obl
ad a
gw el
vi j
ok ial
har z
omp ren
Gou de
Ti bet
Alam agn
B er
b el
l and
ad alek
st um
ra g
em glev
evre digezh
A d
h t
k s
s oñj
y n
ez et
ouri on
daou st
bras añ
Na oned
2 1
di f
ed el
ret er
hoar vez
vrezhon ek
O li
R ann
R us
b remañ
t ez
skou de
elf ennoù
L evr
r on
r ad
ar e
ar i
re k
aou ennoù
der où
skeu denn
R op
distag et
G an
T ro
h on
ug ale
stour m
Gweng olo
M o
er ez
Di wan
Em sav
kel tiek
Gen ver
gwiri on
D av
G ra
d r
g a
g êr
l et
m il
m ir
o is
ar c
di ab
eg el
em on
sp ered
hant er
gel aouenn
elf enn
s ina
er z
li ve
em sav
bret on
diab arzh
N orzh
b our
n ek
t it
y s
ou z
st an
lin enn
IS BN
H emon
P er
b ell
p al
z ouez
ar t
ro l
da ve
ra z
lev rioù
lab ou
diazez et
emer et
2 4
E l
L u
f rank
g ev
g iz
l angu
s o
ev eu
Az ia
R e
Y ou
b ia
g or
s ur
t red
ha s
ren k
ing u
emp red
D ont
h res
o zh
é e
gant i
iz el
is p
200 0
Her e
gan et
t est
ri k
ri zi
ober enn
gall oud
In t
Ker zu
uk le
seven adur
Ret er
H e
m in
z ont
| -
gant e
ik an
est er
lez enn
relij ion
Rop arz
G al
K el
V reizh
f ur
h ont
h og
s ik
s oud
ha t
de sk
aou ank
gar g
perzh ioù
werzh on
dior roet
G u
I tal
M iz
g as
en in
st ali
eo l
diwezh añ
pen aos
S a
S o
b ou
b uhez
v eg
da chenn
teu as
Par iz
Sp agn
b om
c on
n ukle
sk in
rou ed
ug ent
ern oz
tur k
pro du
Br ezhon
Kem per
Jo hn
E vel
O f
T ur
k or
n erzh
t or
ñ ch
dig or
ap an
gres ianeg
2 3
J ez
M e
b re
f r
g u
h evel
l êri
n i
s el
yezh oniezh
res s
mor fem
mm où
kre ñv
tek n
pat rom
urzhiat aer
vui añ
soud ard
2 7
L ou
b an
b ek
g in
m ell
m ouezh
p la
v al
v il
en d
on e
az i
Gou ere
Ne w
M ezh
P êr
p evar
s okial
vo d
le iz
vi edel
hall er
id ant
kel enn
peur liesañ
arm erzh
heu li
M al
n o
n ot
ez enn
li v
iz ili
lenn egezh
dar empred
hevel ep
D ist
G e
M an
U hel
a sk
b in
c ol
c om
f ar
g evredigezh
w e
y aouank
z iv
ik el
skri doù
dou e
Ma e
kev re
Brezhon eg
E us
P et
U l
m el
s it
il li
he c
ag ne
ren ket
div iz
ser vij
koul z
8 0
A frika
K reiz
T ad
V i
d eo
l am
s h
t oull
y r
ch er
ot op
mui añ
skrivagn erien
kloz adur
kat olik
Mezh even
2 9
B el
D e
g ann
g umun
l an
m ent
s eg
v ezh
y le
al ou
di r
is ial
gw ech
br el
dre men
ti ri
gou est
200 5
D en
G er
I zel
l ar
n eu
r us
u re
z e
ã o
ar ez
li ester
lavar out
ast ell
disp l
zisk ouez
T ud
j enn
n ij
t ab
v est
ol eg
ma b
eur op
uz uli
mar v
esk ob
hent añ
oun g
Rou antelezh
atom ek
ijin et
eveu reg
isp isial
D ia
E brel
T ri
e ñ
k aoz
p red
а р
ar ao
et rez
di k
sk o
ol ek
out añ
tre s
pl eu
mer ket
div yezh
der c
ber r
lu c
alam an
Meur zh
Dou e
ation al
disp ar
reol ennoù
bout in
Int ern
roued ad
' '
D iv
L es
M ao
S c
T ra
Y oung
g eriadur
h enn
k im
k rog
o ant
p emp
r al
t ak
on ia
di b
da stum
em a
it ivel
ka out
ren er
Gw alarn
18 7
198 0
hou arn
kin nig
Rus ia
2 5
8 8
B ar
E d
E il
E tre
V all
a w
d ennoù
i da
k umun
p rez
el ioù
enn e
añ v
it h
zo ken
iv a
rou antelezh
penn ad
var e
wel er
rumm ad
Ital ia
M et
P o
j a
n et
p in
st yle
at ivel
la er
aoz et
rann et
tro et
renn amzer
Im palaeriezh
Daou st
lusk ad
So viedel
D oare
H ar
g emer
h ev
k m
k embraeg
m i
n iv
s int
ezh omm
di an
di st
di bar
gant o
iz otop
ao t
ag et
gw ell
tre c
pl eg
Bret agne
kad arn
Ou zh
log iezh
fraz enn
3 1
C har
V ro
b en
d ont
m ant
la z
ann ez
im pala
me sk
gen sonenn
Fran ç
skiant où
At l
amer ikan
labou rat
K al
P obl
a i
b ri
k om
m enn
n olog
v on
ar g
at av
ol enn
iv e
kev atal
politik erezh
hengoun el
9 0
C o
D an
L od
P al
S al
T er
g war
h eg
s ez
z eg
or g
or k
as s
ren et
vi han
sp es
sp agn
anezh e
alam aneg
stri zh
liamm et
Tre uz
fi ñv
Jez uz
6 0
C ol
I werzhon
b ra
i f
j ik
p re
v ent
as et
our r
zo are
ik où
gw enn
aoz adur
and er
vro adel
196 0
hou de
diz alc
voud où
ku it
B o
B en
G eriadur
M in
O n
h al
h un
i enn
n ag
p r
s añ
z en
ant ouek
ro s
in k
gw all
tre men
lenn adur
hoar iva
dezh i
Le on
Gan e
Ouzh penn
Franç ois
B e
K ern
P eur
a es
b reizh
g lask
h où
k ou
m ez
et a
re ont
lo st
ken añ
holl ek
18 5
ug arez
Di sk
for zh
arz ourien
hant ernoz
ich en
II I
evr er
che ñch
B u
c es
g ad
k l
k risten
n es
et ik
el a
di rak
st at
eu sk
la zhet
sav as
lenn egel
200 1
Kan ada
Gra et
B reiz
H o
K umun
O ber
T e
T al
V er
i añ
l eun
n ez
n ac
v amm
z ek
ar eg
yezh adur
ag es
gall ek
Li zher
197 0
Pa ul
stumm où
seven adurel
gour en
levezon et
peo gwir
leur enn
gwirion ez
Tur k
Gane digezhioù
2 8
3 5
A ost
E R
E th
G rennamzer
K ent
K oul
K avet
P ont
d ad
d rou
f et
g ont
t in
w elet
al bom
at a
is h
ouri où
Sk i
200 6
In dez
sell et
Bret on
2 6
C ar
L ev
P ress
d el
k ichen
m ek
o e
p ri
t ed
sk ing
ed er
am bl
199 0
kav out
ori où
Em bann
deg emeret
Levr lennadur
You enn
Of is
E ost
L angu
T est
b eg
f enn
p el
on iel
in dez
or s
ao doù
le ñv
gou z
gou lenn
implij out
199 9
Di war
distag añ
ort ug
disk ouez
hor f
bour c
ingu ist
hog en
Eth nolog
F rank
K on
K omz
M ich
S i
f a
f orn
k ompren
t eo
u es
y m
er s
re v
sk oaz
lo s
reizh iad
dro ad
ok rat
men ez
ech u
niver enn
ber t
194 0
te ir
bobl añs
ip t
natur el
sint ezel
C on
C ha
J apan
P ier
W illi
b oud
k ornôg
n am
t ont
en eb
er ger
oa s
im iezh
gw an
og ra
rann yezhoù
199 4
199 8
bloav ezh
eb en
hw evrer
Skri v
stali et
darempred où
7 0
A ra
K o
R i
a is
b on
f il
k ro
ev ezh
sk ourr
arn od
Li ger
kem m
Mar vioù
reist eiz
194 5
Oli er
Atl antel
A dal
G o
K rou
K rist
S ing
d s
v ugale
al t
st il
em okrat
om in
St udi
Gw el
bl ant
200 3
ta pet
pl ant
dis pac
olitik erezh
Bi bl
zeu as
tred an
Ethnolog ue
4 0
A s
B on
M on
f ell
f eur
k ern
av el
lo c
eur t
ist r
Gw ened
200 2
197 7
kev renn
oni our
Dis pac
rizi enn
. :
N ep
P ol
S er
S am
X vet
b at
l y
n or
s ol
s es
u j
ar me
eg ile
sk ign
at oc
ol e
ren adenn
vro ioù
200 4
niver où
verb où
Am zer
Bi han
gre sk
bu an
kemer et
Vall ée
Willi am
D ar
R ober
b ur
j i
k omunour
n añ
t ennañ
v ouezh
z is
ar vest
ou e
sk ra
as ambl
dre uz
ti c
ig où
18 8
199 1
per son
silabenn eg
harz où
divyezh ek
ortug al
5 9
K omunour
M at
S I
X V
b ad
b ol
g lot
p ublik
t ou
u ilh
v es
v out
v iñ
an ek
ar all
en vez
vez out
am a
lo ened
ob eri
ic e
saoz nek
si fr
renn lavar
Ker ne
hw ec
Dav e
dr ugarez
sañ skri
Koul skoude
Komz et
Pier re
Adal ek
A c
M il
X I
c an
n ann
p orzh
s im
v en
à r
ar var
en roll
ou g
enn eg
añ ch
em dez
br ez
ober ennoù
18 6
ug ida
ost ez
198 1
gen où
douar où
istor el
Frañs ez
Lo eiz
tez e
Lou is
impala er
. ,
F añch
O R
P en
S ell
S avet
a eg
f t
g eo
i adoù
k eg
k las
l d
l enin
p eg
v re
en klask
ant ad
em at
le y
ann ad
benn a
ken sonenn
red ennoù
Un iver
dig envez
ic s
Sk os
Mar c
195 0
tion s
IS O
led an
Stroll adoù
kevrenn ek
Nep al
) ;
B re
L on
M ab
c i
f all
g eri
i sk
p os
r é
s ek
» .
а н
an da
st ank
ro as
in où
is s
hi er
unan enn
id eo
hoar ioù
199 7
qu es
uhel añ
skeu dennoù
turk ek
Skriv agn
asambl es
3 6
7 8
D ig
I l
J ak
K a
M enez
N o
T h
k os
l ad
m u
m ik
m estr
n er
r uz
ou er
ri s
gou l
ian ed
ali forn
ili z
nemet ken
reg iñ
Er wan
distag adur
disk wel
omun ouriezh
Douar oniezh
ga out
prez idant
spagn oleg
) :
B raz
O m
S un
T o
T im
U A
b antouek
c y
h emañ
k iri
p es
al in
di lenn
ra oueg
it e
es on
la ezh
ik i
sp ort
pl as
dezh e
studi añ
peur unvan
liamm où
Am eri
Bri eg
soudard ed
aliforn ia
E g
H u
J ac
K e
N am
P at
Y ork
b al
b eri
b ac
d orn
f ologiezh
g at
h em
w rizienn
x t
ê t
an s
st rat
vo rig
Ar vorig
hin g
bl ues
hen d
199 2
kan aouennoù
ski antel
Meur vor
fon em
rom ant
Bri t
sina at
displ eg
kinnig et
stat ud
sking omz
Test amant
benna ket
A ber
L ab
P olitikerezh
S on
T a
k i
k erzh
m amm
t ch
v ol
ü s
an dir
ar k
ro c
da zont
ao d
An v
St umm
ober erezh
199 3
199 6
embre ger
klask et
koul skoude
pouez us
pleu str
viñ s
8 4
B ras
D esk
F izik
K astell
V ret
V ic
f ol
h oc
h embraeg
o ad
p oz
p reder
t ad
v arn
w w
z et
enn o
st ra
li f
li t
em ren
es e
out e
ti sk
her n
hi et
197 5
chom et
gwech all
Peur liesañ
sañskri teg
Skrivagn erien
D ek
G re
H or
H iziv
L an
R oc
S ha
p as
p oli
s al
z ha
ar ab
ar benn
en kloz
et ek
di c
di gant
sk laer
An g
tre de
In izi
oul z
div ink
ap aneg
hent où
tal voud
lez ennoù
pell oc
Rou e
Penn adoù
Hen amzer
europ ek
3 3
7 5
G our
H oll
N i
P orzh
Q u
U E
f ran
h skeudenn
i us
k ed
l er
t ennet
y d
en dro
re vel
or ge
rou d
ken dalc
Al an
men eg
mer kañ
199 5
niver us
stag et
me iz
198 5
olog el
194 4
196 7
Ab aoe
veur iat
po ent
vrezhon eg
relij iel
Rom a
sen iñ
sik our
pla en
Ski antoù
Jak ez
Vret oned
' ,
A R
K evre
M el
P h
P on
T O
b arn
c is
g iezh
j ed
k oll
l ann
m es
p ont
z a
en s
en et
ha ñv
em z
or ld
un ander
ch ennoù
gw erzh
dre s
us han
18 4
unan at
Di ouzh
198 9
197 2
stad unanat
vev añ
danvez ioù
gor re
desk adurezh
mel estr
emokrat el
7 4
9 5
K atal
L inguist
Y ezhon
f un
k ra
m où
p ennoù
v arzh
an ag
an aou
ar abeg
en e
on neg
st ur
st êrioù
in s
ra el
ao tre
Ar m
pa ilh
ist o
skriv adur
Al ban
ian ek
hen sonennoù
ech edoù
fe iz
Lenn egezh
196 9
lizherenn et
Im bourc
Ev en
hw ez
po ell
kor f
Intern ational
Krou et
Univer sit
5 00
D eg
F in
O uz
P emp
R el
R ich
S even
a on
a erezh
d or
e w
f l
g rou
p our
s etu
t ol
v adenn
ez klozadur
re sk
re uz
di eu
di ern
or d
our el
se izh
le str
Gw il
hell fe
reiz hat
barzh oneg
lab ous
pro gra
Par is
fon etik
fra mm
kre sk
hom bod
Jo se
Rann vro
frank iz
bou ed
nukle üs
Bel g
dremen et
Char les
Rober t
A f
B ur
C O
G res
K ri
K alifornia
L at
O r
O ri
R on
Y ves
b it
g lo
h emm
k êrioù
p ol
p ao
u ma
u pl
” ,
ar divink
et r
ev er
it ek
la o
se blant
aoz er
penn adoù
sav adur
uz ev
ver k
200 8
mer k
añs et
har p
tra oñ
me di
ski pailh
dal v
kar g
deg ouezh
olo et
La ka
gwiri où
roman ek
Tad jik
Dia z
kim iek
tak ad
sifr où
anag ari
Ouz bek
" ).
' )
3 2
K lask
K uzul
L it
M ir
P evar
R umm
b ugale
e i
j et
j ust
j apaneg
m é
p ost
u de
v it
w iri
è re
re e
st eu
eg ezhioù
yezh adurel
la ou
is m
gw erz
ti bet
og lif
aou ed
od où
En o
hel enn
mer c
tro c
for d
for an
198 7
198 8
rak ger
hou lenn
enez enn
kev red
dia es
gel enn
nig lot
langu ages
Dist aget
Ge orge
ziv out
Vi êt
Doare où
Kal z
spes ad
pr antad
Turk ia
skoaz ell
pes eurt
Alban ia
1 00
3 4
A lies
D il
D ic
F on
H ag
K êr
M ag
N eil
P ep
S UA
U bu
V al
a frika
b ab
d ug
h uzul
j ont
l on
p ezhioù
t y
е н
an ia
on om
at i
br ud
son ioù
erzh ioù
ic a
ing al
Mar ie
tra mant
194 1
196 2
hent iñ
rank er
192 8
Fran ce
Ren k
Gall out
ee ee
ks ouriezh
test ennoù
garg añ
morfem où
toull ad
neu tron
uzuli añ
teo ri
Sing le
Om niglot
/ /
B ev
B ern
B OR
D in
D es
D ER
H O
P e
R ed
S an
T u
T ost
V iet
W as
a e
b iz
g red
h orn
h wezh
j in
n one
p ik
t p
t et
t am
z ig
é n
ü r
ar y
re où
ha m
di enn
ro az
sk ad
li g
li où
de sket
out i
Ar c
ñv eri
ken etrez
ul ennoù
ak t
lev renn
ran s
18 0
200 7
ta chenn
dan ev
194 6
ke it
stri v
Su is
fer enn
atom où
Saoz on
Rom aned
Ou est
peo tramant
sina eg
Belg ia
medi um
Tadjik istan
BOR DER
< /
B ou
B our
E S
E x
R ev
R am
S S
b oas
d arzh
d evez
g os
i es
k il
k annad
o eg
t at
u c
u el
di ja
st enn
st it
st and
li ñ
or y
un g
ch en
out o
im palaeriezh
ab ugida
aoz añ
Mar v
der ez
amzer ioù
198 6
197 3
197 6
197 8
196 8
tud ennoù
peur vuiañ
fon ologiezh
go zh
diwezh atoc
nebeut oc
fraz ennoù
pobl où
ht tp
lost ger
Lev rioù
Braz il
isto ire
Universit y
3 8
: //
C am
H eol
J am
P ri
P reder
a in
b reizhat
d ost
e ier
f ent
f red
g y
g ompren
h our
h ik
h evre
j u
k t
k ouezh
k leiz
m ou
m al
ez ed
di tions
st lenn
ri a
in di
in eg
da s
da olenn
ol a
av e
es s
pe dia
Ar z
St êr
vi cher
lev raoueg
met r
Bro adel
kem met
dis oc
din g
pro ses
ho ant
uk tur
ge ñver
broadel our
Ab alamour
Su afrika
Gen rouedad
Pl ou
ital ianeg
nebeut añ
hont rol
Mal où
Eus a
tiri ad
ral ia
pin vi
Aost ralia
Langu age
kern eveureg
hier oglif
Pon di
4 6
D ug
M L
M i
N at
P riz
T r
W orld
b ern
d rez
e f
e fed
f o
h ann
m ad
m un
n ed
t ar
v ag
y en
an z
en ek
re a
on et
li se
ch o
Un van
mar vet
mar teze
200 9
197 9
Em gann
lies seurt
Skri tur
tit ut
bell gargañ
armerzh el
bin vioù
alou b
aot rou
breizh veuriat
Kumun ioù
Lizher enneg
gouz out
Mich el
Eg ipt
TO P
Ouzbek istan
/ .
3 9
A C
A N
B uhez
C or
C la
L in
S av
T our
b le
e al
g l
i que
k ig
k renn
m ich
p an
q ui
t ao
t out
v ou
w ell
z ist
en vel
en klozadur
al ed
ri t
ri en
yezh el
vo c
lo en
ne p
ka er
ti zhet
ken sonennoù
sav adurioù
ok s
gall out
Bro ioù
20 11
hoar ier
198 3
per c
pro fed
mat eri
ast um
uk titut
krou iñ
elektron où
elektron ek
gev ret
Sa int
kevre digezh
arao g
Treuz lizherennet
eusk areg
menez ioù
fil m
lenin ouriezh
geri adurioù
onneg ed
Was hing
- ,
. ),
3 7
4 4
D eu
D am
F or
H y
H ant
I añ
L ang
N ic
S id
T hom
c u
d egezh
e x
e ien
f en
f ard
g az
g risten
k lev
k omp
k regiñ
s w
t en
t el
z itivel
an o
ri ez
in izi
da sp
sk oazh
li d
li stri
es h
ch ich
is ion
le izh
ud ennoù
Ar vor
gw alarn
ab il
ka fe
ak tour
ta chennoù
pl adennoù
oz adur
198 4
197 1
tu re
pro ton
196 5
Br udet
17 0
17 8
tal vez
studi et
195 9
disk lêri
str uktur
tamm ig
192 3
Dis heñvel
rig n
ener giezh
dif enn
desk iñ
tekn ikoù
krog as
ben veg
annez idi
Kern ev
klas el
Desk adurezh
fol k
poli s
gwerzh et
Washing ton
; "
C el
D ev
K az
L ez
M ad
R uz
V ol
Y a
b ec
b reder
l amant
n g
s c
s oc
s ak
v ad
v in
w enn
enn el
st e
eu t
da egezh
li on
em gann
un vez
av ar
19 00
as ant
ent ez
ag u
dre ñv
ti ez
ll ek
St alin
ouri st
ken werzh
ran zitivel
skou l
ion al
In stit
ve sk
198 2
194 3
chom as
17 9
ien ce
varv as
mod ern
dif ennet
Kent añ
arvest erien
ideo logiezh
Ameri can
Yezhon iezh
5 5
6 6
A D
B od
C ym
E st
H ent
I ran
K ev
K yr
M us
P ak
S ened
Z ap
a el
d le
d añs
e et
h eol
h reisteiz
i om
i adur
p riz
p emdez
w ezhioù
en ce
re m
st ok
at eg
ek aet
ch u
ik en
im o
anv adurezh
benn añ
hall aoued
20 10
20 13
har r
ij ion
var c
per ak
par rez
197 4
rak tres
194 8
kan er
ort h
deg aset
vr udet
alies oc
... )
led enez
dior ro
hor seg
Ba e
Is rael
bel i
bel eg
gev red
mouezh iet
Intern et
kos hañ
Ron an
Jam es
. )
5 4
A M
B U
C an
C om
C hi
D el
E ri
F er
G i
H el
K ant
K at
K am
L ezenn
M c
S ar
S im
T on
a zh
a fer
b ir
f alt
g aoz
h ol
h êr
h rog
i x
j ennoù
j ener
k on
k orn
n oz
é c
an ez
et enn
al ad
ad o
di l
di t
di ennoù
st ell
zh out
in i
in o
ra m
ra ek
em dro
ed o
it a
19 20
yezh oniel
il le
de c
de skrivañ
oar vat
ul enn
az z
holl ad
holl ouez
res ev
her e
ic o
men eget
hen c
ilh où
194 7
196 6
nemet i
mat emat
ton ennoù
te xt
195 1
skol aj
fon adur
fra mmoù
sin et
bev añ
Tre ger
Ch rist
Kar aez
ital ian
Mer vel
tez ennoù
nukle el
skin wel
gin nig
vil le
Pet ra
alou bet
tiri adoù
88 59
gwell añ
gwell oc
leñv ed
kiri llek
Hu on
Roc k
Rel ijion
Jose ph
Zap pa
6 4
A lask
C hom
D on
D im
G eo
G oul
G erioù
J im
K ol
M é
M as
N ob
P ouez
P red
S m
S ur
T rans
V an
X Xvet
b olitik
e y
f eul
g ol
h y
h os
i ennoù
i fi
j añ
k atal
l añs
m oull
p id
s amm
t is
ñ s
ü n
an at
ha zh
ha chich
ad al
da t
or et
ek onom
19 11
om bia
ch i
la gad
gw in
ti betek
rou ezh
skriv as
ul t
Al bert
div ouezh
Mar tin
si lab
pro viñs
esk op
diazez er
Fran cis
arouez enn
arouez ennoù
dar voudoù
estr adurezh
Skri vet
pet ra
dev anagari
treuz kas
tenn ad
breton ne
Lu c
not ennoù
Izel vroioù
dispar ti
spes adoù
gat olik
displeg añ
barzhoneg où
labous ed
neutron où
kenetrez e
tao lioù
Pak istan
Alask a
3 00
D o
F eur
H un
J os
K in
K ont
K imiezh
M ong
V ari
c lo
g las
k w
m eg
m ed
p op
s y
t é
t añ
v ia
y ek
enn adur
re c
al ign
ev n
eg où
le ft
gw ag
ger man
An ton
gou el
rou doù
ist ori
og n
ot ho
implij er
arzh et
os ferenn
hi li
ug el
hell e
men adur
rann añ
Ur zh
ta p
pl u
20 16
int er
stag añ
olog y
embann adur
ut e
arz où
dra ma
gan aouenn
hant ved
studi où
disk ar
werzh oneg
arouez ioù
cha s
Tre de
gwel out
mir et
produ iñ
digor et
izotop où
zeg as
mek an
indez europek
kro get
ortugal eg
Dave où
enroll et
brez eg
dilenn et
Ori ant
" ),
( <
( †
. -
A u
B remañ
C D
C ent
C orn
D iz
G a
G r
G ar
G eri
H T
I P
I jin
J an
K ozh
L enin
M ac
N eb
P ell
R os
S in
S ent
V 2
b y
b oaz
d y
g em
g reiz
g omp
g leiz
l ouz
m ann
m oarvat
p or
s em
t le
t esk
w i
w all
w eb
É ditions
ç ais
é s
ö r
а й
о н
ar vor
en a
ez iñ
al ioù
di ster
di tour
sk orn
at o
it i
om e
war d
pe c
la k
oc ol
An j
ist ri
est ren
emb raek
Gw ir
hi dro
bl ed
bl adenn
rann el
hen werzh
20 15
20 14
dis in
par tik
embann as
chom e
Gou el
oun d
ser riñ
vor fem
193 9
pell añ
ust um
termen et
bod et
dev oa
rannvro el
dalvez out
Se izh
amp re
urzhiat aerezh
sel aou
Pet er
displ eget
tab oul
arg uz
pre vez
Tal vezout
diskouez et
Gwel it
pos upl
arab ek
pao tr
gy z
Kyr gyz
hrog ad
Nob el
4 1
4 7
5 6
5 8
E u
H on
I V
J K
K ir
L ed
M ic
M ala
O ff
S oc
U R
V r
V ar
V in
b lij
b oul
h reiz
j azz
k ostez
l é
m y
p le
p iv
p eder
s an
s ed
s il
u p
v uzuliañ
y uzev
ç ão
í a
on a
on ek
ro adennoù
or din
war nañ
ma en
out h
gw az
br onneged
ger zh
ti egezh
ken derc
est ra
ret our
sp an
mer vent
20 18
20 20
20 22
hoar iet
skouer ioù
bras oc
euz ioù
15 0
obl añs
bi digezh
196 3
arz hañ
kan et
Em ren
hou n
kel ennet
Ma x
peur rest
rat ozh
politik our
str uj
193 6
mo ire
dior ren
rannvro ioù
silabenn ek
Ro sko
Gu y
col or
arao k
henn ezh
net ra
Kumun iezh
Ober ennoù
skign et
Vic i
stra ed
hern eveureg
fran çais
emz alc
anaou degezh
dieu b
ampre van
6 7
9 9
C al
D y
E mañ
H um
J er
K ad
K ornôg
L ann
R u
S w
U BU
W in
b ag
b red
b ut
f lam
g rog
h iz
h ig
l eg
l ennoù
l uz
m oul
p où
t omm
t ocol
v ab
v ir
y in
y ec
z ar
ó n
ar ch
er o
ou zer
di où
st adoù
li sh
la at
de stenn
ell e
ell ek
ag o
le x
ab er
gou izi
ul tur
ot ek
sp is
laka as
ver n
hell ont
Di or
par a
ved enn
194 2
esk ement
Ma ur
dra mmoù
ast enn
oñ ienn
dez rannel
195 7
skol veur
kal on
ster ed
seven iñ
Kar l
Nor veg
brudet añ
hoarvez et
langu age
fur m
turk eg
dastum et
leñv edoù
sol ut
Dar voudoù
arbenn ik
enkloz et
meiz ad
koll et
Linguist ics
aotre et
Laka et
Diaz ezet
mé moire
diorro adur
" |
( *
. ).
4 3
5 3
A odoù
A ozadur
B rez
C E
C he
D emokratel
G on
G ev
H i
J a
L uk
N n
N iver
R ag
S okial
T ab
V o
W iki
b riñ
d ent
f al
f rom
f rouezh
g ed
h eson
h oulz
i werzhoneg
j apan
k am
l eu
m ǝ
p hi
s and
t ech
v é
z ez
z ou
z ro
z il
en dalc
enn iñ
re get
al d
di e
añ j
ri enn
eo ded
it ch
19 10
19 14
war ni
is i
ud enn
gw ezh
An vet
skriv er
ig ht
ren kañ
Gw en
oli a
ok o
of f
res pont
gall aoueg
Sk eu
In a
zi wezh
niver el
me dia
lab ourioù
nemet añ
esk emm
Br un
17 90
reg ezh
enez eg
oñ s
deg emer
195 5
au x
kre olek
sin où
goun ez
193 4
bihan oc
Saoz neg
idi k
Not enn
mon c
familh où
190 7
Pro tocol
ine a
dam ez
Nor zha
be aj
land eg
Gan et
mil ourel
tit l
He ñvel
Gal ia
produ et
Ge org
Ger darzh
rus ianeg
europ at
pred enek
geriadur our
ema int
dist ro
Co op
Dan iel
Aost ria
pri m
eneb our
Ko rea
Brit ann
embreger ezh
gorre ad
Rich ard
Pondi vi
Thom as
Cel tic
falt azi
silab ennoù
partik ulennoù
Vici ous
4 8
A et
A mañ
A lex
B ag
B ot
D er
D our
E z
H in
H ab
K re
K ra
K im
L é
L am
M en
N ational
P rez
R ez
S ez
T ch
V og
Z im
b ig
c al
d ri
f iz
f iel
g r
g ro
g om
h êrioù
h skeudennoù
k red
m ag
n av
p i
p sik
s at
s ub
t reiñ
x ha
y e
z out
er ru
ou enn
enn ad
al ennoù
ha fe
ad or
di ba
ant erezh
em penn
or el
or gan
ek aat
it y
it é
it our
pe sk
vo jenn
im p
pa kañ
An dre
us añ
iezh ioù
sp ont
hall ek
hall oud
ic k
ic al
Sk ou
id ent
kem pl
20 12
dou g
Mar k
uhel oc
kre diñ
sin ifi
goun ezet
193 0
ation s
had our
chenn aoueg
vogalenn ek
Alam aned
dev er
departamant où
êri adenn
Nor man
mp ek
hu al
soñj al
dave ennoù
Kel tiek
urzhiataer ioù
heuli ad
servij où
dastum ad
menn ozh
Be at
mez i
cheñch et
Ho xha
Ver b
drou g
erger zh
oberi ant
Sell et
Lon drez
mik ro
cy clo
ww w
revel ezh
Ph il
ushan ed
Seven adur
progra mm
wiri on
proses or
pinvi dik
hieroglif où
mich er
Deu et
ste in
jener al
matemat ik
Sm ith
HT ML
taboul inoù
Vr ezhon
1 000
7 7
G el
G inea
H og
H eb
K as
M ec
N even
O rin
P ap
P erzhioù
S ek
T or
b g
b az
b ugel
d t
h out
h anvadurezh
i ent
i werzhon
j ar
j où
k où
m ao
m oc
m agn
o x
p u
r ont
s ent
u an
v is
v ak
w erz
y eas
z enn
á n
í n
и н
ar le
ou ell
el ec
enn ek
re di
ha stell
ad oz
zh un
zh ier
da far
vez er
at h
at aet
ek ologiezh
av al
19 19
om b
la in
ma ouez
ne c
An vioù
St at
St ep
son er
az ia
Gw ech
ot t
hi añ
bl as
du c
pl om
den el
for m
amant où
aez et
Eur op
dra où
eul zi
ort oz
douar oniezh
krou idigezh
hw it
192 5
Kem ent
anavez out
aned enn
gre un
don ez
=" #
Ba arle
abeg où
bo ent
fizik our
riñ s
Ber lin
mir out
min istr
Gal iz
sokial our
heuli añ
tak adoù
laz hañ
bri d
Te ir
person el
Pen aos
peg en
Lon don
goul où
beri a
Lab our
Ta olenn
poz itivel
steu ñv
Unvan iezh
Kol ombia
Pred en
eskop ti
Mong olia
Kyrgyz stan
flam en
Skou erioù
bg color
. "
4 00
6 5
8 5
9 7
A p
B et
B as
B arzh
B ang
E s
F ri
F lo
G ushaned
H ou
H om
H istoire
K av
K rennlavar
L evez
N orth
P C
R A
R ad
R ak
R eun
S ch
S antel
b or
b il
b emdez
e izh
g han
h umun
k ir
l amm
n ev
p ortugaleg
s ou
s ac
t es
t ennoù
t ag
t ret
u x
v our
w er
w eg
y ou
z esk
а л
enn es
al ese
on es
di je
di eeun
ant ez
ri ad
ri ch
in uktitut
vez et
ek tenn
it s
it ed
iz et
all et
ch et
yezh oniour
our n
se c
rei er
eri ñ
Ar k
ne pell
An a
An gel
ka z
son aozer
aou iñ
tre vadenn
ak ed
ot a
ot el
vi lion
dig emm
mar k
skou arn
kem penn
20 17
ac o
komz er
har bon
194 9
Br ud
Ma y
dra mm
tal vezout
195 6
gar ia
klo k
192 9
Kem ener
arouez iet
mon d
mon g
190 1
Ren é
Ren ket
Se in
pobl añs
gwel ed
Dav ies
emsav adeg
He in
relijion où
fur nez
stali añ
skin où
col span
diviz où
dib ab
hev er
Kern ow
Disk lêri
kompren et
William s
sim bol
Jac ques
melestr adurel
Deg emeret
hik o
Hant ernoz
klev et
Kaz ak
breder ouriezh
sak r
katal aneg
Kir giz
Norzha mer
Vog alennoù
fiel d
Beat les
4 5
9 78
B B
E T
E van
E izh
F il
G ri
I vet
J uli
K or
K aset
K CO
L avar
M oul
M ouezh
M iss
N omin
P la
R es
R ec
R ay
S per
U S
c hañ
f est
f arz
g ostez
h omp
i de
k od
o re
p t
p ed
p eri
p ren
r ent
r ud
s ion
s ão
t t
t ourist
v ann
y eg
z iz
z ia
é p
ο ς
б и
у р
ы р
ar re
re ed
di vro
di leur
st abil
eg in
da mm
un e
ol s
ent in
is lam
de br
eri a
pa k
pa ket
reizh el
ka zi
ti zhout
ist a
ist ère
arn enez
kent elioù
vi et
ober où
Al fred
bl eu
ver kañ
hini ennel
In dian
dud enn
ta iek
kem mesk
20 21
Mar i
Mar ksouriezh
man ac
si zhun
diouzh tu
Em glev
Her ri
hent enn
Pa ol
hant ina
kar get
lez et
oun dek
195 4
Mor diern
gav as
fra m
ba e
193 5
193 7
elek tro
IS KCO
ign on
Pl ant
kloz adurioù
kont rol
Gall eg
bo ok
mp ouezh
Rann et
rad io
tit our
Lu skad
hres ian
test ant
galloud où
deo rienn
gouest let
pred eneg
etrez o
aw enet
hev andir
Pal est
ogra f
Studi es
Pol onia
skign añ
skra mm
XI Xvet
Stumm où
Ang us
Katal onia
ew id
Gwil en
Rumm ad
ñveri añ
danev ell
gaz etenn
Cym ru
afer ioù
hollouez iadur
feul ster
plu enn
mekan ik
Brez oneg
gounez erezh
Prez idant
Neven oe
Step hen
Norzhamer ika
ISKCO N
/ ,
8 3
A li
B lo
B ill
B etek
C op
C omm
D enez
E N
E t
E in
F ur
G or
G reg
H ir
J ul
L and
L ama
M ez
M alc
P lo
P ortugal
R ob
V 4
V is
W e
W il
W est
W ened
a q
b la
b ak
b orzh
c el
d ur
d reiñ
d emokratel
f az
f azi
g am
g ron
g laou
g udenn
h l
h r
h las
i ar
i ou
k g
k reisteiz
l ü
l eusk
m eul
n u
o et
t em
t om
v as
v ao
v lo
w y
w in
w int
z an
» )
Ó g
é m
ы з
en i
et s
ou izi
ha b
ev e
eg or
ro p
in dian
am in
am bia
ol d
ch al
de izi
he b
ell out
eur o
gw ez
gw ask
um e
ab adenn
ti f
ti eg
rou lez
son erien
ren ad
sav e
sav idigezh
roll où
od ek
En cyclo
her ioù
Li eskement
ug anda
unan et
mer de
oul oueg
har lu
me disin
euz et
hep mu
embann er
196 1
196 4
kan añ
tr y
Er n
ko ad
16 0
195 3
Par lamant
193 1
dar voud
kont elezh
mem estra
gomz erion
Hen ri
dam heñvel
gres ian
fizik el
wa zh
emsav er
Per ou
kelenn er
heuli et
far ouell
dik tat
pleu st
Sc ience
kumun ioù
gemer as
bra v
pel ec
fell e
mestr c
embreger ezhioù
meneg iñ
Arm erzh
Fin istère
lao sk
harp añ
Mir di
ude ur
bab we
eeee ee
Bern ard
aotrou n
bolitik el
drama our
UR SS
Norveg ia
Gev red
ziwezh añ
Zim babwe
Gel ted
Galiz a
Sper ed
hepmu iken
8 6
? )
A ñ
A er
A ll
A ug
B os
C our
C atal
D ala
F ili
G embre
H am
J or
K ro
K evredigezh
K omunouriezh
L iv
M y
M od
M oz
M erc
N A
N atur
S h
S iz
S il
S lo
S evel
T B
T y
T om
V enez
W al
W at
] ]
c ar
c ont
d et
d om
g i
g ur
h iezh
h rou
i digezhioù
j an
k ri
n Óg
o v
p rest
p renet
s et
s am
s is
s ank
t op
t eul
v enn
v antouek
w is
y ak
ê ra
ί α
е р
an i
an ce
re ak
re publik
on où
ha i
ha mm
ha sa
di struj
st ro
st art
ant eg
eg iezh
in er
da g
da k
ra c
ek roaz
am ann
ch oaz
our g
is e
is rannet
de briñ
he ñ
vo t
ma out
um ber
ger n
An t
An na
us oc
St ank
red ek
og a
Gw erz
ot h
oli où
dro idigezh
18 50
Al j
Li doù
bl anedenn
gra vit
ta x
id er
id eg
20 19
dou gen
tro van
tro idigezh
har d
tra je
gal et
var ksouriezh
get ket
mor fologiezh
ke hentiñ
ana at
chom lec
Br u
je diñ
kel aouenn
dal voud
tal benn
lies sintezel
peur getket
istor y
bar rek
alies añ
sin ema
ya e
192 2
omun ourion
les anvet
gre antel
mon eiz
reol enn
sa out
dev ezh
arm où
log od
ku zh
Mont roulez
amer ika
langu e
hres ianeg
lezenn el
bre ur
tekn ologiezh
yaouank iz
diviz et
diviz out
Kreiz douar
ze hoù
Sc ott
Ed ward
prez eg
gwar ellek
breizh ek
Pont ekroaz
Kon go
bat rom
enkloz adurioù
hskeudenn erezh
Lat in
tibet at
Din dan
Cam brid
disklêri et
emdro adur
ditour où
Off ice
amprevan ed
Georg es
Vrezhon ed
Kazak stan
Evan s
titour où
Dala i
Cambrid ge
( '
( -
- )
1 añ
4 2
6 1
B ra
B ob
C omp
D P
D om
E sk
F ren
H ep
I t
J ar
K arn
L eg
L ennoù
L ive
L hasa
M ass
N ik
P an
R em
S C
S y
T ar
T eo
W eb
W alarn
Y u
[ [
a ien
b ik
c or
c ent
f oar
f uz
f ologel
g ü
g on
g il
g lav
g evre
g imiezh
h omz
h ement
i ed
k h
k embraek
l em
l anv
n eder
o od
p s
p ur
s eul
s añset
t ec
v oul
w al
z aou
é ri
í r
ı r
е к
у н
an al
an di
er lec
ou v
re fer
ha y
ha z
ha denn
ha tal
ha doù
di elf
di fer
ro er
da y
vez ent
at iv
om etr
war no
yezh egezh
our ez
la w
il la
se au
evit añ
ann e
im ant
ud d
Ar zh
Ar ouez
dre dan
reizh iadoù
ka zh
ti ñ
ll et
ñv al
ouri n
ig an
red enn
est reget
Yezh adur
tre gont
ot o
ok ol
En ver
hi zhier
ian a
In donez
ve da
ta at
Di wezh
tro ad
zi fenn
gal ianeg
lavar enn
me in
tik a
si ouek
ber g
ub uilh
vel la
17 6
dra vi
ton où
Le wis
Gou arnamant
gan istan
Ker vella
195 2
ser r
Ev ned
gel c
bar r
vr ezel
Dou arnenez
tri ti
go ad
192 4
192 6
diz oloet
lod ennoù
Bri g
ijin añ
kont et
ouzhpenn et
hir der
Ch ile
ow n
Ren adenn
Du val
tost oc
treuz kaset
harz et
stum met
rag ana
ingu a
John son
nerzh ioù
gu itar
tekn ik
patrom où
mell droad
pla c
rus ian
Dia es
dian av
fiñv al
Bu an
Ski ant
teo d
kresk iñ
Af ghan
Af ganistan
Klask et
Fon etik
Red on
danev elloù
vou daegezh
dasp egel
Kin nig
skolveur ieg
heson erezh
diba bet
hual ded
mao our
Gwech all
flamen co
nev es
Palest ina
Ein stein
Aug ust
hatal aneg
Afghan istan
) )
1 10
4 9
5 7
9 8
A fri
A rag
A kt
B and
C I
C a
C re
C ast
D E
F o
K om
K reol
K regiñ
L P
L T
L ok
M u
M amm
M even
M ika
O ad
S ou
T ír
V ir
a f
b ank
d oc
d ourioù
e h
f ont
g reg
g oloet
h rennlavar
h istori
i i
i ez
j ez
j ec
k it
k es
k riz
k rennlavar
k rign
l or
l inguist
m and
m oundek
n d
n en
n eo
n azi
s ha
s ort
t ren
t aget
u y
w ez
y oul
è s
ar a
ar it
en or
et im
el ezhioù
el ouriezh
enn ig
al s
al eg
al th
ad ra
ad arre
st a
st re
ri v
ro e
ra tion
em or
at ia
at ure
un k
it eg
it ion
19 13
19 12
es per
la j
la et
de hou
de skrivet
vo tet
eri añ
Ar me
iv al
gw er
gw ened
gw isk
br oud
ab l
ab solut
gou arn
gou ezel
gou rien
aoz our
arn evez
az e
erezh ioù
od er
ok eg
met al
ran ke
En g
sp lann
hall eg
lenn et
bro tonoù
ve aj
pl adenn
hoar zh
zi ad
Mar teze
fe al
Unan ennoù
der s
der men
tra ou
neg ativel
ilh et
ori ca
mor fologel
bi skoazh
kel c
Sant ez
ton ioù
ho alad
ast ennet
istor our
195 8
rom antoù
kal et
gav out
uhel der
seven adurioù
gour el
urzh iet
kre sket
Ab ugida
mare où
fri di
th m
goun it
193 2
193 3
193 8
bep red
eng u
liamm añ
diz oue
fed où
Fran ces
ach et
miz ioù
elek tre
resis aat
Sp ort
190 5
190 8
skoli ad
gomz er
Ken sonennoù
Hen c
risten iezh
amp rest
peo c
Gweng amp
bann iel
kemer as
rag anvioù
ks our
spered el
ouz bek
eveu rek
hres ianek
gumun iezh
divyezh egezh
ezhomm où
menn ad
Dan mark
vihan ik
tremen et
ish ka
Embann adurioù
rev eulzi
erger zher
ogra phi
Mon um
uj où
vout in
vre udeur
enklask où
kos hoc
tisk ouez
yd d
Lit u
kevredigezh el
fard añ
german ek
Gr and
Maur ice
Sokial our
Wiki pedia
sub strat
maouez ed
hever k
Kirgiz stan
vlo av
wint ouek
êra oz
Alj eria
Fren ch
dravi dek
Mika el
5 2
7 6
8 9
A B
A P
A ir
A zer
A rist
B al
B iz
B ann
B ir
B oli
B lu
B obl
D ra
D ol
D ir
D eiz
D omin
D astum
E c
F av
F eiz
G P
G l
G ab
I deo
L ak
L os
M ell
N ap
P eg
P in
P ra
P ow
P rad
P aco
R od
S ak
S ap
T F
T ha
T amm
V e
W h
] ,
a ezh
b us
c as
c le
c ia
f ro
f alc
f izi
g n
g le
g ement
h re
h istoire
i res
k ao
l ang
m ot
m ut
n ow
p pe
p res
s ch
s ing
t av
t ori
u on
v ezhioù
z ouloueg
é r
ó dig
σ τ
к и
л ар
у г
an e
ar s
ar vez
en k
en ebet
ez ek
ou ie
el la
re f
on s
ha el
ad kavet
ad stêr
di ouer
di plom
st ern
ant er
ro w
ro z
da ol
da ta
li doù
em vod
ol m
19 15
ch im
is a
ell er
ell et
se e
vo ent
ma er
eur og
ud où
ud ela
pa st
oc k
dre vadenn
An d
An dr
ka st
ka at
ti er
St our
ken koulz
Un ico
sav er
ak al
vi el
ok io
of t
ran ket
hi ad
ug h
ug u
laka er
bro gar
mer añ
mer vel
meur iadoù
ac e
dou s
dou chennaoueg
div ent
int ent
den oniezh
reiz hañ
rak gerioù
gen el
kan où
Her ve
eb ek
Ma ch
Euro pe
dal veze
stumm adur
te au
Im pala
13 0
fon n
II vet
vor fologiezh
bar rez
ba id
192 1
192 7
diz olo
hom mon
mili adoù
oni ourien
Roll où
les anv
gre anterezh
ust ed
Pl an
ijin erezh
termen où
treuz skrivañ
Se x
189 6
189 7
189 8
189 9
Ro et
sistem où
berzh ioù
yn tax
Dav id
bom bez
liv our
we alth
Kreiz enn
neu he
Tra oñienn
dib ennoù
Vro adel
Min istr
aes oc
fet i
Embann et
Langu ages
Mich igan
zis pleg
XI V
vre ur
Bre ur
kiri ek
sport où
Jac k
vol t
emren erezh
Mel estradurezh
Katal aneg
Seven adurel
grou iñ
ardivink où
itek t
Dic tion
Val ens
Arz où
anz av
nep tu
araog ennoù
proton où
skoul m
Instit ute
vrudet añ
AM M
Eri c
ekonom iezh
otho eg
Urzh iat
tap out
Dy lan
Rag istor
Hab ask
Norman di
Hog en
Kav out
Levez onet
Ana vezet
Malc olm
aotroun iezh
hement ad
Indonez ia
melldroad er
ódig o
Andr é
Unico de
hommon wealth
" -
6 9
9 2
A viel
B eg
B la
B arn
B arz
B ay
B ors
C ur
C as
D ep
D alc
D evezh
D ider
E k
F ou
F el
F ul
F ac
G od
K ou
K LT
M enn
M aked
N az
N ac
N euze
O c
P as
P ist
P op
P ost
R a
R h
S K
S el
T C
T el
T it
T ang
U K
U kra
a ek
a ol
a our
b as
c um
d em
d og
e ion
e han
f as
f las
f aos
g h
g ri
g oll
g omunouriezh
h ek
h lo
h od
h wel
h redennoù
h leñved
h ortoz
i b
j añs
k enn
k iz
k ot
k oun
k uzul
k eoded
l où
l ing
l emm
m uz
m uzul
m olek
n oblañs
n adoz
o ek
p añ
p eu
p ent
p rou
p ubli
s our
s ul
s emb
s antel
t oud
u tion
y er
ǝ r
μ α
а т
ы н
an dre
an din
ar el
en ad
ez taol
et ikel
enn er
re jont
al li
ad em
di outañ
eg ed
ri an
in du
sk e
ra ed
ra ent
li a
li en
em eur
ed d
at e
at l
at ek
at adur
un d
ol f
19 18
19 16
pe are
zo eg
se iz
ag an
ik ing
eri e
gw i
gw ad
pa ouez
dre ger
ne y
um p
ab adennoù
An ne
gou ez
St an
rou z
aoz adurioù
ig h
penn a
son adegoù
emb er
uz ativel
roll et
az eul
ak ana
dro c
vi deo
and eg
18 88
hi roc
In ter
rann igoù
mer et
20 23
dou reier
Di b
zi war
niver ennoù
har pet
lavar er
man eg
man ia
for mat
oz ik
par ti
olog ie
lu b
ap our
ut er
bi en
Em gl
Her t
esk imo
Br ug
kant on
Gou here
diazez où
oñ je
deg où
douar oniel
teu e
ser ret
Mor fologiezh
kantved où
hoari erien
su per
had ur
po an
sell out
Skri d
Skri doù
Dis hualded
Pl oug
Alam aneg
kont adennoù
190 3
190 9
Hen ry
vev enn
ker ent
Is land
gitar our
erez ioù
Gra m
breton s
dave où
labou re
sur entez
lêri as
Lou arn
vod adeg
not et
kevre adel
uzuli où
pin yin
Char lez
politikerezh ioù
zeg ouezh
Ben j
Te x
Kent elioù
fet is
albom où
Car l
los s
Sing apour
gresk iñ
bur mek
uilh et
geo t
geo ded
Bre ujoù
Dig oret
lad esh
Tim m
Ameri ca
beri odek
mamm enn
preder our
Gre en
Lan dreger
Sha me
Sha kes
Holl ved
AR P
Linguist ic
pour chas
tibet eg
dug elezh
Renk adur
teori ennoù
well añ
Francis co
arguz enn
Lann uon
luz iet
añj er
gro ñs
kempl ezh
dever et
Bang ladesh
gron net
vao ouriezh
heb raeg
merde er
triti om
Oad vezh
elektre k
amprest et
Arist otel
Ideo logiezh
itekt ouriezh
Bors ley
Pist ols
andin av
Emgl eo
Shakes peare
% ),
' .
( «
1 20
6 3
8 2
8 7
A L
A vel
A lain
B R
B all
B out
B erzh
C ree
D C
D itour
F al
H emañ
H ier
H eneg
I B
I von
J ou
J ourn
K aoz
K ala
K eng
K amer
K ors
L ly
M es
N S
N em
N eo
N as
N umber
O uganda
P O
P é
P ere
P rin
P elec
S ad
S om
S ir
S eurt
T am
U P
V III
V ideo
W erc
a ire
b oc
c ul
c omp
c oun
d ok
d añjer
e digezh
g ǝ
g oa
g im
g ap
g êriadenn
h ra
h eri
h ud
h oul
i ro
i ourien
j ad
k amm
k redennoù
l ou
l ur
m å
m ala
m ale
m ision
n ologiezh
p ou
p izh
q q
s all
s out
s us
t il
t ski
u la
v erzh
v emor
w at
w ay
w isk
z un
z alc
z astum
û t
ı ş
е с
о л
’ ,
an ev
ar gerzh
ez e
ez añs
er ann
et is
et te
et ts
re j
al ta
on enn
ad savet
ad sevel
ad embannet
st al
st adeg
ant a
ev a
ri ck
in ed
in es
da e
sk a
sk eul
ra y
ra beg
li m
li st
or bit
ed s
ed enn
at or
at iz
at onek
eo g
am i
om on
om bez
ch t
ch ar
ch ant
yezh ek
il and
de bret
ik aned
eur el
out iek
ab red
ouzh pennañ
ti p
gou st
benn ad
St ra
rou anez
ig ne
red où
est el
ul ar
az as
aou et
Gw enn
tre u
holl ved
ot e
arzh e
18 00
Al ou
her ve
hi ragana
Li es
In di
rann où
bez añs
hel c
han er
han aouennoù
id enn
meur vor
meur iad
zi or
dan zen
adenn iñ
daou zek
gal ian
me sket
per gen
ori ad
embann adurioù
gen ad
gen dalc
ard eg
pro sez
pro testant
iri a
ut her
vel estradurezh
Eur azia
kan ji
na ire
qu er
qu el
eb riñ
Ma en
ho ro
hañ s
douar el
aer oeg
aer gelc
Mor fem
gar eg
disk welet
fon etikel
gel tiek
vr ud
stri ñ
Ab herve
labour erion
goun id
... ).
ien ces
Su amerika
rel ativel
ivel ezh
skritur ioù
fed ed
ach u
fin neg
bev ennoù
bev ien
che ñ
Penn ar
Tre men
Bi skoazh
Jo an
dour redenn
levezon où
ere au
At en
rumm adoù
189 1
amp ion
lusk adoù
rin g
unvan iñ
hoarvez out
elfenn el
Re iñ
gor f
Jez io
tekn ikel
'' ,
kim iezh
187 0
von reizh
zeg emer
Bo ok
Min h
Lev raoueg
Si beria
Japan iz
Ri ou
Sam zun
enroll añ
Brit ish
Gour en
barn et
tol od
etr erann
Laka at
kevred el
teori kel
tam allet
ür k
stand ard
kouezh añ
Dug ed
Cla ude
Lang leiz
fard et
Sened d
parrez ioù
Pouez us
moull et
gwin izh
gwag ennoù
Neb eut
gomp ezenn
tesk ad
Led enez
ordin al
but un
grog as
moul et
Dior ren
Che ñch
pesk ed
Heb reed
redi et
RA F
fram met
Cop iar
Jul es
Vis ant
leusk el
ouizi egezh
Añ j
Fili pin
Diwezh atoc
esper anteg
Frances c
ouzbek eg
Litu ania
Azer baid
Boli via
Fav ereau
eurog omunouriezh
Stour m
indu stri
Aristotel es
Ideologiezh ioù
Kamer oun
må l
etrerann yezhel
! ,
1 16
9 4
A T
A k
A og
A ot
B ul
C N
C l
D em
D rez
E ti
E ast
F a
F ir
F alc
F raz
G ui
G lann
H ell
H im
H and
I rak
K u
K ho
K ach
K ip
K ebek
L ap
M em
M ol
M AMM
N et
N av
O x
O ut
O reg
P ent
P erzh
P oli
P os
P res
P ic
R I
R iver
S en
S at
S and
S ec
S ved
T s
T ek
T reg
T AD
V I
V on
V od
W el
W all
Z ed
] .
b raz
c m
c ed
c las
c ódigo
d us
f el
f oll
g ornôg
h ri
h il
h rist
i ot
l ê
n é
n ezh
n om
n os
n ão
n ikoù
n omin
o ra
p ital
p rizi
r ug
s as
s iv
s lav
t rouz
u er
w euz
w ith
y an
É m
É cho
ñ voc
ö lü
ı n
ǝ n
А р
а в
б і
и л
ֵ א
מ ָ
en skrivet
er a
er di
er min
ou a
re al
al b
ad er
ad ian
di ou
di eg
di ak
di ver
di stri
di oute
di outi
di lezet
st em
st alin
ant ik
ev et
ev ent
ev id
zh iri
ri zh
in c
in am
da oud
sk al
sk eg
sk arzhet
ra zh
li k
li tik
un a
eo zen
am strizh
am bik
iz adur
oa zi
ch ou
ch ek
ch okol
is seau
il eg
de hoù
im bourc
pa e
ne w
ne st
ne izh
ab ad
ger ent
An n
us etts
ka zet
ti g
ti que
St e
ist ed
ig en
ken ofisiel
ken gerioù
son aozour
plij adur
ul le
sav boent
Gw aien
ak eg
ak uzativel
ot eg
lev e
lev rig
hin dou
hi digezh
mar evezh
bl eun
Sk ouer
Sk olioù
ian g
ian o
unan ennoù
In u
In uktitut
gra m
bro du
kem mañ
Di bet
tro ioù
Mar oko
int ern
dan eg
dan ış
adenn et
var i
ori s
ang a
vel i
bi hann
Em il
ton enn
tal v
kev andir
studi er
oun ner
deg as
Mor van
ge f
hw i
iat ion
seven adurezh
Ab eozen
La ur
ba jenn
go añv
Dre ger
klask as
Rou aned
ach usetts
had ennoù
had ourien
Kan erien
Kan ishka
Gen er
oneg où
led añ
Skol aj
ijin our
mo re
mo jennoù
At ao
bod ad
190 2
lâ r
rumm atadur
Kar tenn
Amer ikaned
Ken ya
Ken dalc
Ba udela
riz ek
vev e
vev oniezh
pouez et
êri adennoù
hengoun ioù
taol enn
bo an
Lo ire
Tibet iz
stum mañ
dif etis
Oli mpek
hanter enn
ys ia
pal ioù
rol ektenn
El ek
langu es
hres ianed
Gu ill
end om
vod añ
kelenn adurezh
bin arel
kevre digezhioù
kaoz eal
sko v
alaman ek
Mao dez
aw ouriezh
impala erien
ai res
kom e
Sal omon
gwar eziñ
if ic
gouren erien
Turk men
drou iz
Press es
del c
sking as
gouz añ
Frank ed
Si labenn
boud où
Ara bia
Rober ts
XV Ivet
brez idant
kensonenn el
ledan oc
geri aoueg
sek retour
stank ell
hem enn
poz ioù
Gre un
talvoud us
fun ção
progra mmoù
uma j
gwerz ioù
helenn er
gelenn adurezh
Viet nam
striv où
ain oueg
ju che
indi at
levraoueg où
AN ET
Nic ol
aktour ez
178 9
asant et
gaoz eal
hêr ezh
dil had
ekonom ikel
Luc ía
gwag enn
Ga ulle
greiz enn
Anj ev
hidro gen
Gon ideg
Luk ian
japan ek
mǝ k
tech et
iwerzhon at
Krennlavar où
Rad io
kir ri
vour c
Angel es
Hein z
kod et
pren añ
elektro magn
Stephen s
medisin erezh
Mod ern
Moz ambik
Siz un
hamm ed
distruj et
gravit adur
Mass achusetts
Arag on
Vir gin
arit met
Eng lish
Sport où
Sap ir
Impala er
Urzhiat aerezh
Dep art
Tang i
ARP ANET
Journ al
Kors ika
Filipin ez
Azerbaid jan
Aog ust
Glann dour
Ox ford
Oreg on
Zed ong
Baudela ire
2 50
6 2
9 6
A h
A v
A on
A vo
A kad
A pp
A rem
B in
B oas
B hout
C lar
D rou
E cu
F ra
F am
G il
G risteniezh
H ol
H it
I zo
J on
J ust
K le
K emer
K êrioù
K emeret
K ushan
K roaz
K loss
L l
L ad
L ag
L ong
M I
N O
N ir
O l
O ur
O sis
P S
P r
P ezh
P or
P eo
P ab
P hili
R é
R eol
R ennes
S et
S ed
S ik
S ab
T H
T an
T at
T ak
T ap
U N
U TF
W horf
Y e
Y s
Z e
Z el
a par
b zh
b li
b eur
b ok
b omm
b riz
c zo
c ell
c ep
c omm
c ago
d emokrat
e ñv
f ezh
f ant
f eu
f lo
f ac
g é
g enn
g ig
g op
g loaz
g emm
g ustum
g êraoz
h lav
h resk
h rign
i as
i pe
i um
k ur
k udennoù
k ogn
k ustum
l añ
m ezh
m ol
m our
m uk
m orioù
n y
n ou
n as
o ioù
p á
p é
p ra
p em
p eul
s uk
s othoeg
t un
t iv
t arzh
v enez
v ombez
w n
w as
w ig
w ir
x hos
y ez
y ev
y az
z as
î le
ı z
τ α
в ан
с ар
ә р
ө р
ֹ ל
ל ֵא
ar us
ar ver
ez añ
er re
et er
ou gou
el o
el our
al o
al is
on d
di reizh
di lec
di embann
di aezet
st aon
st alioù
ev añ
ev elloù
ri er
ro k
in ek
in ded
sk lav
sk añv
sk arzhañ
vez ioù
ed elek
at ive
un iver
it o
es c
es i
ent euz
ch ev
ch eg
yezh on
is ek
he bra
he hentiñ
ao stri
vo iñ
lo ar
eur iz
im e
br ou
pa our
pa per
pa jenn
ab jad
An dor
St and
St eve
Un ion
og los
etre ober
Gw er
Gw yn
ot ez
dro adur
vi e
vi er
and o
ok e
hin a
her m
lec tion
sp er
mar ksour
bl eg
ion où
hall ont
ec ker
Bro adoù
unan iezh
op ek
ve fent
agn un
kem enn
ing s
Di hun
zi li
zi forc
Mar sel
int ezel
har oz
man ag
lab el
par lamant
embann e
gen idik
vel estr
kan aouenn
Em droadur
esk ell
hent ennoù
hou zout
seurt ad
Le e
studi adenn
istor ourien
latin ek
fon enn
ster ioù
izi di
verb es
Sina iz
gour don
gour skrid
urzh iañ
str al
izh ier
th ur
go at
eng ő
bihan añ
bev et
Penn ad
Kem m
to ros
skeu lenn
cha denn
Roll ing
ign oned
resis oc
Bri an
Pl adennoù
Daou zek
termen adur
termen iñ
bod y
don enn
190 6
Ba ol
Pro du
Pro viñs
189 0
Ro y
ital ouriezh
ital ianek
ker kent
ry thm
teg as
Is lam
Is rannet
heu ilh
gwel laat
emglev ioù
Tro tski
Mo hammed
so rabeg
izel vro
rizi ennoù
Kel enn
gas as
roued adoù
sokial ouriezh
Dist ro
bin vi
tiri adel
tab ut
tres et
Mao our
187 3
kumun iezh
ben el
Pobl añs
kom añset
menn esk
Ter m
Col um
bra h
pre feti
Peur vuiañ
III vet
Bu llet
Tal benn
drou k
goulenn et
echu aeg
kemm où
Gwel out
blant enn
Sam uel
nor veg
ole iñ
bol dt
lenin our
peg oulz
Pat rick
Lab ou
Son ic
obererezh ioù
oad vezh
vrezhoneg erien
sikour et
hañv al
dres enn
varzh oniezh
Kri eg
kevred adel
skad i
Rev ue
mou ezhioù
efed où
sw ana
Dev anagari
agu a
vesk añ
Mus ic
pemdez iek
rem ziad
chu et
Chi cago
Hel laz
Sim on
pid gin
Hun garia
Jos é
tañ va
Geri aoueg
Ijin et
sem itek
arvor el
Anj ela
Eu skadi
Hon ecker
Mala ysia
blij adur
araok adennoù
Hum boldt
Ru isseau
Win d
Luk semb
japan at
zou ar
Skeu dennoù
Brun ei
Britann ia
Lé on
big i
psik edelek
ident elezh
Sek retour
baz enn
Europ iz
humun ioù
vilion vedenn
gweled va
Disklêri adur
Moul adurioù
Ray mond
zia zez
би р
debr erien
viet nam
Greg or
Jor j
dalvoud egezh
refer endom
Arouez ioù
Brig adennoù
gwened eg
hoarzh in
diplom at
okio yezhoniezh
brogar our
Ful up
Maked onia
eskimo ek
super strat
Heneg ipt
gim iek
gap italouriezh
anev aled
alta ek
horo laj
Jezio ro
Wel sh
Ém ile
מָ לֵא
diak ri
chokol ad
Turkmen istan
Akad em
Ecu ador
Hit ler
Osis mi
hebra ek
Andor ra
Luksemb ourg
% )
/ ).
1 15
5 1
6 00
7 1
7 czo
8 1
9 1
A re
B O
B l
B an
B ig
B ost
B ac
B ure
C ad
C ap
D as
E b
F all
F ont
F red
F rom
G ouez
G ölü
H istory
I ll
J u
J ob
K risten
L or
L ist
L amm
L ander
M E
M ur
M uzulioù
N ev
N ann
O pen
O ded
P ur
P ed
P it
P erc
P riñs
R S
R eg
R out
R az
S ri
S ol
S out
S ul
S pec
S okioyezhoniezh
T es
T ug
T ES
T anz
U p
V D
V or
V at
V iking
X XI
Y en
a h
a fri
a igne
b all
b and
b euz
b hu
b olitikerezh
d j
d é
d ell
f lusk
f eson
f reuz
f aeroeg
g embraeg
g ör
g otek
h eo
h ennoù
h us
h renn
h leñvedoù
j o
j edoù
k wa
k ron
k uzuli
l ug
m l
m adoù
m ignon
n an
n où
o h
p out
p ret
p riñs
r um
s or
s ont
s ened
s ign
t ha
t ev
t her
t alc
t ourioù
t ole
v un
w en
w okeg
y alam
z oull
z oue
Î le
ç a
é li
ë l
ö m
ǝ k
ə r
κ α
ν α
ο υ
д а
е т
и к
ү н
ar met
en où
en savadurioù
ez klozadurioù
et añ
al eu
al se
on dis
ha at
di outo
di wall
st o
st ant
ant e
eg o
ri on
eu b
eu m
eu x
eu di
ro ix
in d
in añ
sk y
sk or
sk lêri
li orzh
or an
or ds
ek sand
un enn
am ek
av o
iz eg
ent e
ent il
ch es
pe sket
is er
de adurezh
he ad
he im
he hed
vo rioù
ont ek
Ar men
Ar thur
br on
ob a
pa zenn
reizh skrivadur
ab i
ka et
St one
rou s
rou aned
ist e
ist añs
ist orioù
skriv e
ken aozet
ren as
ren kad
est in
ul u
Gw ern
Gw iri
Gw azh
ak rolektenn
oli mpek
ok it
implij où
os en
Al eksand
her zel
hi re
hi di
sp lu
skou eri
ver r
ver s
lenn er
gra mm
du al
du di
han eg
ta in
kem end
añs où
dou get
Di fenn
zi ouer
Mar y
dis rann
dis wel
der oet
gal izeg
barzh oniezh
var regezh
ber ek
eil ad
kan ol
wel out
tr u
reg ezhioù
ter ioù
Er gerzh
qu et
diaz ad
Ma zh
ho ad
10 6
gan da
pad us
studi adennoù
kar r
kar rez
kar antez
dez enn
emp re
deg ezhioù
teu fe
Mor vann
Par agu
disk an
izi en
bar a
seven et
gour monc
kre ñvoc
tamm où
go ût
hoari adeg
Dre inded
su is
Rou s
ation ale
brezel ioù
Kem mañ
skeu d
cha pel
aj où
ay mar
sell er
reol ad
reol adoù
Pl eg
mo jenn
kont añ
ow s
zeu e
189 2
ph il
taol ennoù
bo ell
Mont aigne
maez ioù
wa sk
sen s
edel eg
hoarvez as
Rann yezhoù
Mo skov
Emsav adeg
mil ved
spered elezh
bour g
so viedel
sur f
renk adoù
izel oc
hog ozik
Gu il
kor voiñ
tor fed
bre c
gin ivelezh
doue ez
sit e
deo c
ze br
tab le
tab lez
ida e
Po ell
annez ad
Ter menadur
if est
zoare où
hun eg
185 6
gad ro
Cha pel
erger zha
Ara bat
Studi et
As soc
Bon reizh
kern eveurek
Ser vij
arme où
oberi añ
Ac ad
Sell out
iss ion
Pat rom
hem ennoù
ark eo
Vic tor
preder ouriezh
tad jik
Ang ola
melestr adurezh
Yezhon iourien
kra mpouezh
anaou degezhioù
poell ad
Fin land
traoñ ienn
Lit er
Pevar e
wiri où
Dil ennet
ñveri adenn
chen ch
hevre ad
ju benn
kouezh as
stlenn eg
Mi quel
Nat ive
yen isek
Hant er
struktur ioù
sc ience
Instit ut
Christ ian
gol van
té ra
evn oniour
(† )
Ijin erezh
arguz ennoù
Var ia
ple diñ
leg umaj
Tch ek
spont us
mennozh ioù
mezi ant
mezi antoù
Pap oua
duc tion
meul gan
Ern od
Ham let
choaz et
Bru ce
Jar ry
gü l
Arzh ur
greg ach
gouezel eg
Monum antoù
vloav ezhioù
Prad esh
Tex as
Ivon a
coun try
Levraoueg où
Añj ela
Aot rou
Fraz ennoù
Sat an
Ар ван
Avo gadro
Bhout an
Izo top
Zel and
kogn itivel
pem zek
aostri an
velestr adurel
Bullet in
diakri tek
Bost on
Lander ne
Tanz ania
hehed er
Morvann ou
Paragu ay
" ;
7 2
7 00
A da
A ut
B ol
B us
B ep
B ak
B ec
B leun
B loc
C C
C er
C li
C aes
C GP
D ez
D ur
E A
E D
E p
E ver
E neb
F I
F L
F ar
F est
F eder
F ree
G at
G is
G imiezh
H an
H enn
H ug
H arz
H istori
I a
I z
I tron
K un
K ab
K renn
K las
K embraeg
K udennoù
L et
L li
L og
L aos
M T
M ek
M ot
N G
N y
N un
N iv
N oz
N ever
O ke
P ubli
P ink
R ese
R uther
S D
S O
S pe
S um
S oud
S ac
S oñj
S inoù
S outh
T ou
T ech
T iri
T ürk
V en
V reiz
V enet
W int
W ood
X in
a as
b ant
b ot
b esk
b ast
b au
c et
c iv
c op
c io
d d
e au
f la
f ot
g is
g od
g renn
g ün
g omunourion
h im
h iñ
h of
h ultur
i adurioù
i bia
i ques
k embre
l ant
l ezel
l ingua
m it
m ist
m uzuliañ
m istri
n um
n ouez
o in
o res
o ver
p he
p od
p euz
p ort
p ounner
r h
r n
r ê
s s
s ar
s ut
s oñje
t où
t iz
t uz
t oaz
t emz
t eurel
v ell
v ac
v adennoù
v oull
w o
w et
w ek
w ag
w ork
y od
z ra
z es
è ne
é lé
ı q
ə n
а с
и г
с т
с ен
т о
у л
ו ֹל
ק ָ
‘ ’
” .
en c
en ger
ez eg
er eg
et i
ou x
el eg
el eze
al ag
al ho
ur a
ur y
ad e
ad os
ad stumm
ad eilad
di er
di al
di ra
di renk
di mez
st ud
ant ed
ev andir
ri bl
eu re
ro i
ro t
da v
da onet
ra et
li p
li ñv
li vet
li zhiri
em e
or sk
un and
am per
av y
iz as
19 17
om el
war n
war ne
ent a
ent o
ch el
pe adra
zo w
is eg
is me
is si
is rael
il d
il ek
de skrivadur
he in
ell egezh
se ur
vo ger
lo gel
ont o
eur vezh
gw as
pa er
dre c
An aon
gou ezh
St ar
St er
St ered
rou ez
rou denn
ir c
son adeg
ren e
ren ez
ren erezh
ren erien
Un ited
az eri
az iat
aou er
od enn
vro ad
ober our
dig los
dig eriñ
lev ier
os a
hi adur
hi rin
sp i
mar ilhet
mar tolod
Li fe
hall e
Sk ing
men gl
lenn eg
unan iñ
op ia
ta c
pl ed
id on
hen labour
kem ennoù
stroll egezhioù
Mar e
Mar x
Mar ia
fe izidi
niver adeg
har g
gal v
gal on
ilh ez
ber c
ori al
ori yek
tu al
iri n
mor lu
kan erien
Her man
hou mañ
Er nest
wezh où
Ma ine
Pa st
omp erien
ho diern
gan ol
Ker diz
Ker goat
te ñval
kar tennoù
ser ot
skol aer
Mor d
Par an
iet y
fon etek
fon ologel
klo t
str ad
str uc
Ab stand
sin ek
Rou mania
ie w
ach ennoù
skiant our
hom enad
fin nek
bev oniezh
kreiz ennet
led ge
led anaat
cha t
cha se
Je anne
gre ñv
sant et
kêr benn
mem or
190 4
skoli di
tost añ
Ba ader
treuz dougen
ru j
ts alag
rig ht
189 5
zisk enn
Mer ket
bann où
wa hili
wa ii
natur our
pp i
rag istor
yn orsk
erez ed
mil our
mir andeg
tred eog
empred où
ozh ioù
izel añ
test en
Gal li
Kel aouennoù
desk amant
nukle onoù
produ ioù
digor adur
Me in
pevar e
vod ern
not ennet
Bel arus
lan ie
kaoz eet
Mao ouriezh
Sc iences
dib un
ema on
Etre broadel
Po int
dist reiñ
Atl ant
Pobl où
bri zh
Ter ra
Ter men
gwar ezet
vihan añ
Bo oks
Ben gal
On tar
François e
glask e
185 1
Bu ff
Lizher ennoù
drou z
Kon k
fa ezh
bad as
tou esk
Mil zoull
Ka ourin
Ke ñveriadenn
Nam ibia
strat egiezh
hend adoù
fonem où
Son erezh
Kastell in
talvoud egezh
meiz adoù
varzh ed
Jose p
Gres ianeg
pao tred
traoñ iennoù
Rumm adoù
gwerz ennoù
teori enn
Bev oniezh
Bou ed
Ram alho
gos intezel
http s
Preder ouriezh
Tr ugarez
araog enn
film aozer
Hy peri
gristen iezh
sw at
riez où
kenwerzh el
Est onia
dañs où
Christ op
Relijion où
Goul c
Jim my
Mé lanie
Sur inam
zegas as
ome dienn
lak adenn
Mic hael
Soc i
boul c
eskemm où
gom bod
pi ra
mikro prosesor
Tor onto
werz hañ
Stat es
kempenn et
mong olek
BB C
Herri eu
Plo eneg
bla ck
gam br
Encyclo pedia
pleust ret
pleust rek
Kro atia
Slo vak
TB DP
gern eveureg
Stank ell
trovan où
traje diennoù
fuz uilhet
neder landeg
jec t
absolut ivel
Nap ole
Sak son
Wh ite
anter in
akal pak
fonn us
Naz er
SK N
TC P
Ukra ina
molek ulennoù
pent atonek
Hert og
IB M
gǝ l
heri aoueg
mision er
Alou b
cheñ cha
ring field
Bul garia
Eti opia
Him ala
Hand book
Kip renez
nomin ativel
slav ek
daoud ranzitivel
bleun ioù
bihann iver
Elek tron
Greun land
elektromagn et
Tap et
gloaz et
suk r
xhos aeg
Stand ard
manag ement
Labou rat
Akadem iezh
Vat ikan
Viking ed
CGP M
Rese arch
Ruther ford
hodiern ek
Ontar io
Hyperi cum
! !
" >
( )
- (
0 2
1 12
6 8
9 00
> .
A ven
A stur
A chuet
B E
B il
B le
B res
B ale
B enin
C ou
C ra
C ont
C her
C hant
C ru
D emat
D VD
E f
E li
F E
F e
F u
F en
F leur
F loc
G itar
G ru
G old
H al
H ad
H is
H ud
H ong
H indi
J oz
K lo
K ai
K ler
L E
L ar
L em
L anv
L ME
M ou
M all
M ik
M ui
N eu
N ass
N edeleg
O k
O rig
P i
P u
P y
P re
P le
P iv
P ret
P ort
P ublik
P sy
R al
R un
R eo
S es
S ound
T ai
T rizek
U ne
V as
V ill
W is
W ide
Y aouank
Y uzev
b ul
b ezhioù
b astell
d os
d op
e it
e ding
f rek
f ree
f erzhioù
f oblañs
g êrioù
g ativel
g ional
h oaz
h vet
h ennet
h ennañ
i our
i reg
k us
k evez
k izi
k leñved
k izhier
l un
m oa
m evel
m us
m izi
n de
n ia
n ak
n ost
n even
o i
o an
o diñ
p on
p it
p oul
p unk
p engő
s iz
s um
s ia
s ali
s ach
s ci
t z
t as
t us
t az
t ing
t renk
t ranzitivel
u il
u ck
u ela
v s
v reizh
v red
v eneg
v ach
w id
w ana
w reg
x c
x i
y o
y u
y ar
y on
y ri
z al
z ep
z oug
{ {
á s
è r
é l
í s
ï es
ö z
б ер
е г
т ы
ы к
ә м
ا ر
an ant
an adenn
an ien
ar io
ar agua
ar lakadenn
en gra
en savadur
en frammet
et ta
ou st
ou ient
el em
el iezh
re ad
ezh i
al enn
al on
al em
al ko
di m
st om
ant adoù
ev ell
ev arz
eg ipt
ri us
ri son
in u
in ois
da at
da pas
sk luz
ra in
ra fe
vez o
li s
li ter
li vioù
li koù
em vo
em ezel
or ado
at m
at ers
un ders
am eg
ol ed
it teau
av a
av est
iz oglos
es oc
ent s
ch ez
ch tch
yezh our
our s
la h
la ket
is es
il ektenn
ell an
ell es
se x
ao c
ao red
vo kad
ma q
ma z
ma in
ma ilh
eri et
Ar zel
evel ato
gw en
gw iad
br en
pa b
um ant
An nez
us bau
ti st
gou enn
gou denn
St ag
St êrioù
St ones
ren ab
ren ce
Un der
and on
met où
os op
Al poù
her ent
hi ri
mar d
bl ad
bl in
ion s
ver de
hall fe
ic ial
Sk in
hell as
rann ig
bro adoù
lav ia
pl aned
id où
id el
hen i
hen vrezhoneg
mer ek
meur bet
tro idigezhioù
stroll añ
bed el
der menadur
adenn ad
har a
tra ezh
man ed
man uel
var a
var d
oz on
oz añ
ber ed
par k
par don
Liamm et
olog ical
heñvel adur
ili s
gen werzh
get e
ang lish
van ced
15 00
15 36
ke j
ke fridi
kan adian
Her vé
ana out
wel as
17 95
ter ed
renn adur
kel aouennoù
deu t
deu as
pad a
kar tenn
rank out
aer borzh
teu li
Mor gan
Par ti
krou as
disk l
ster dam
ge hentiñ
gour c
urzh ioù
Kembre ad
str u
str öm
stri sh
sin eg
ba our
ba per
tri c
... ),
lin e
bev ar
kreiz enn
Am sterdam
po ch
lod ek
mili ard
oni di
oni ourion
Je ff
gre diñ
ust entin
Ti egezh
dour redennoù
Pl eu
sa il
kont elezhioù
At las
bod ja
Ch â
Ch em
milion où
Ren er
dev oe
Ken derc
Ken avo
pen iti
pen outiek
treuz iñ
ru jet
des avet
ts ch
ous eg
189 3
189 4
amp le
zisk l
kat akana
dam kan
bouez us
Rom an
ph y
ill s
vui oc
Ha waii
gouarnamant où
pobl ek
vij ent
Ad rian
ht ml
soñj er
soñj et
Oli vier
tez enn
Mo al
Emsav erien
erz enezeg
live où
emsav erion
bour zh
labou ras
fur moù
Sa unders
produ er
Kemper le
tor ret
sel lit
kreñv aat
Dist rujet
com par
far sus
doue ek
sh na
alou bidigezh
nij our
tab ou
arao gour
Les neven
dib os
Etre vroadel
kumun iezhioù
Po et
Har ris
dist abil
mesk aj
Pobl ek
Lod enn
spagn ol
kuit aat
hal an
lost gerioù
nes añ
yezhadur our
Breton s
Embann er
Ofis iel
Kon an
Cha mp
eneb iezh
Ara bed
arnod el
Go od
Gwel taz
buan oc
Dar empredoù
skra pet
skra poù
188 6
bad ez
bad ezet
Kerne wek
Ac tion
porzh ioù
sim pl
impalaer ouriezh
Marc el
Dig or
Th é
goul ennoù
goul lo
UA L
Jac ob
pouezus añ
poz it
tisk lêrias
Kevre adurezh
barn er
melestr adur
Gwil un
Gwil herm
Kri shna
Lat via
lao sket
Diaz ez
just is
houlenn as
Fon ologiezh
Bev añ
Din an
zig resk
kenetrez o
Rev iew
devez e
gos hañ
hevre digezhioù
Broadel our
hieroglif ek
Nat ure
mun ut
aloub iñ
aloub adeg
Lizherenneg où
zist ag
profed ed
Dam kan
Nic aragua
fen om
lid et
Kernev euriz
Hent où
ael ed
Kant on
Kam bodja
resev et
Chom et
Pouez ioù
feul s
samm ad
proviñs où
disparti et
kw o
rec te
Anton i
brezeg enn
Corn ish
Lenin ouriezh
por c
vorfem où
Max im
dieub iñ
gouizi egezh
Dior roet
isi art
gwezh all
media où
Bot swana
Kre ñv
Men eget
fiz iet
orel aet
ergerzh erien
form ulenn
Es sa
Flo yd
PC F
bor der
Ark tika
trevadenn el
mong oleg
BB G
Lavar et
Miss ouri
Miss issi
Rec ords
bae añ
zan vez
ém ie
Ern st
Venez uela
Wal es
hrou chtch
sank enn
dag og
Karn ag
homz où
dielf ennet
dielf ennañ
ubuilh où
Kreol egoù
mand ar
etim olo
ographi e
Ec ology
Mell ad
Pra bhu
уг а
enk adenn
ugu ay
Plan ck
Barz haz
Rh isiart
penna ennoù
Jou itteau
Nem o
wisk añ
azas aet
Kach mir
Sved en
Tek nikoù
siv il
alb um
hindou egezh
Laur ent
Gener al
gouzañ ver
Arem orica
Phili ppe
eñv or
muk hi
peul van
enteuz el
agnun ezh
gourdon er
Colum bia
Ill inois
Rout ledge
Tug dual
dell ez
oh j
tole ad
aleu tek
alse ek
Gwiri où
ganda eg
ergerzha degoù
Acad émie
Liter ature
Caes ar
Gis serot
Henn ezh
Hug o
Lli ure
Publi s
kembre at
Buff alo
Kaourin tin
Himala ya
Fleur iot
Hud son
Kler g
Mui oc
Nass au
emvo doù
strish oc
Mississi ppi
Prabhu pada
% ).
' ).
- >
. ".
3 000
3 30
4 80
7 9
8 00
? ,
A g
A lo
A dam
A jañs
B or
B at
B ik
B rou
B az
B ut
B ank
B loaz
B alt
C ri
C at
C arn
C alifornia
D A
D all
D arn
D ulenn
E C
E ug
E dou
F our
F au
F éli
G em
G war
G ent
G lo
G ir
G las
G ong
G ym
H av
H eson
H ans
H AR
I O
I f
I r
I wan
J un
J ones
K ö
K ing
K orn
K ap
K iri
K urt
K ow
K lot
L A
M ed
M ann
M eri
M oun
N an
N es
N ij
N ow
O z
O st
O ud
O ne
O man
P eu
P eri
P lij
P orn
P ass
R io
R udd
S oli
S qu
S eul
S istem
S ão
S cho
S yntax
S iria
T un
T ol
T ok
T oul
T hou
T roet
T ennañ
V el
V il
V ern
V Ivet
X 2
Y our
Y outh
Y oran
Z ef
Z ambia
a où
a erien
a hel
a ub
b es
b is
b ont
b ud
b ost
b ard
b ale
c ur
c ri
d h
d all
d ouez
e ad
e da
f y
f ennoù
f rez
g ir
g reder
g embraek
g ortoz
g ellout
h ur
h mat
h istory
i ant
i adeg
i ón
j ennet
k ennoù
k oz
k ho
k êriadenn
k êriadennoù
l ǝr
m ā
m is
m oned
m ouz
n eus
n it
n ik
o rat
o zoeg
p om
p rin
p uilh
p iano
r er
s un
s oli
t d
t l
t rans
u al
u res
v ant
v ig
v ec
v age
v ision
w ezenn
w iki
w orld
y oc
y ros
z im
z orn
á ve
è res
è cle
é té
ý a
ǝ c
ǝ m
ρ ο
σ έ
С а
а д
а з
а к
г ар
д ү
е л
м а
н а
о в
т у
ч е
ш і
ا ل
an er
an iom
ar lo
ez ioù
ez ennoù
ou k
ou ed
ou ezhioù
ou keg
re akt
al ia
al fa
al ism
al vokad
on der
ha ja
ad ez
ad welet
ad kavout
ad ourel
di du
di wan
di tion
di goust
st on
st eg
st ek
st adegoù
ev aj
ev enneg
ri el
ro y
in et
in enn
da el
sk os
sk andinav
sk event
li e
em à
em droad
at ed
am an
it at
it as
av elioù
iz er
iz out
iz ation
oa bl
ch ed
yezh ourien
pe an
pe on
la g
la ez
la kat
de st
de ñv
de fe
ell añ
vo s
ik e
ik eg
lo j
lo ck
ma el
eri om
eur zh
eur ioù
iv ell
gw ern
gw ezenn
gw rizienn
gw riziennoù
pa ys
pa jennoù
dre mm
ab erioù
ger darzh
An th
anv er
ti ques
gou dor
oll ar
ist es
aoz erien
). ..
ig u
ig et
son ian
ren adennoù
Un nek
est erioù
og ly
emb ur
emb reiz
az iet
etre vroadel
Gw ell
ak h
kent el
dro ienn
vi osferenn
ok ted
hin deg
os aored
ran kas
18 22
Al t
Al do
En nañ
En rollet
res ever
diwar no
her oin
gall et
hi p
hi ennoù
hi riv
sp ar
Li det
laka e
ver t
Bro wn
ic ation
Sk ra
Sk ourr
hell ed
hell ek
lenn erien
rann adur
rann frazenn
han i
pl et
id en
mer zet
añs al
brezhoneg er
Di e
Di dier
Di recte
tro barzh
tro duction
zi riad
Mar ino
kav as
ali er
stag adenn
tra mor
denn añ
me izi
ij e
amzer vezh
man at
man ek
oz ioù
si li
per s
per sat
ber son
ber zet
tu adur
gen ou
gen derc
get oñ
ard ed
ang l
van a
ub a
The ory
mor ph
ke ñveriañ
bi er
blo t
arz el
arz has
esk em
Br onneged
ofis er
ofis ial
hou nez
hou blad
reg in
na on
Er min
qu é
qu ant
kel ennoù
kel eier
seurt adoù
Ma hay
ier s
Pa jenn
ton s
omp son
ho w
ho re
10 24
gan er
gan aouennoù
pad al
dal e
ich eg
14 88
rank fe
lez ioù
hez oug
Da hud
douar ouriezh
aer lu
aer lestr
ser beg
Mor rison
gar tenn
gar antez
au f
disk uli
gel lig
ge in
bar regezh
uhel idi
mare ad
La w
ba ol
tri a
ñver s
pell gomz
skrivagn erion
sonerezh ioù
eiz had
Dre am
roue el
roue ed
Fran z
ach e
ach enn
hom e
po is
po che
oni enn
atom enn
arouez el
anavez er
Rep ubli
Jo hann
va ouez
sant e
sant aleg
glev et
mo ra
mo gerioù
Republik où
hir añ
Ch ild
Kar ta
eeun aet
dev out
Hen dri
Az ginivelezh
zisk ar
tan ia
uli adur
pouez añ
ph ises
do ñv
skrid varn
teg ouezh
Bez ioù
gwel it
Ad olf
Ad vanced
soñj où
Rann vroioù
Rus ianed
rek ipe
stourm erien
Per rot
El zas
El fennoù
Lu x
frank ezañs
Re al
You gos
gor zenn
fur met
hog os
Spagn oleg
Me dia
gu zh
pla kennoù
vod et
not enn
far ro
servij et
Vi han
Vi goudenn
deo mp
lam et
yr d
Ger ne
ziskouez e
nij erez
Dia barzh
etrez ek
sko et
olek tenn
'' .
Div yezhegezh
Tra où
Tra oñ
187 1
187 7
Ed ge
izotop el
mesk añ
kom añs
Dan evelloù
Sal vad
spagn olek
60 2
Bo hr
ros s
gwall zar
Be au
Disk ouez
Disk uliadur
kl añv
nes s
horf où
Cha m
Skriv añ
Ara b
Ara og
Ri poche
fil moù
Krou iñ
tredan el
feur m
Ser bia
nor m
bur g
arvest où
188 9
SI L
XV IIIvet
glot añ
sañskri tek
Mil an
brez oneg
186 4
186 7
keg in
Dig emm
Th is
Th ompson
dorn skrid
ark tika
ark itektouriezh
Fizik ourien
lit téra
Lan ka
arab at
arbenn i
fran ca
niverus añ
poent où
vrezhoneg erion
jed et
jed adennoù
Rel eg
fl emm
dieu bidigezh
glo er
verk où
merk où
skipailh où
laou en
gelenn er
Mag ellan
gred enn
hwezh ek
tam ilek
striv adeg
ES CO
Ex p
kil ometr
kannad ed
proses orioù
pan elloù
oks igen
lid erezh
170 1
170 7
vad os
skoul mañ
vesk ell
korn ad
hollouez iadurioù
resev as
Dim eurzh
Geo breizh
kw ant
Diz alc
boaz ioù
sem antik
Mala wi
Soc iety
sil añ
Guy on
français e
Cal vados
Kad phises
stered enn
CE I
Ja ume
Skeu denn
Britann ica
Alex ander
Bag an
Rez ac
kred et
organ où
oberiant iz
wirion ez
Smith sonian
sac hañ
kaz imant
Juli us
fest où
homp oder
tourist erezh
debr er
kontrol liñ
ograf iezh
Bill y
Fur nez
Gor don
Land evenneg
Rob in
nu ll
Cour rier
Ty pe
stro bad
heñ zh
Ant arktika
Comp an
Esk imo
Nik ita
CI A
hrennlavar ioù
histori cal
krennlavar ioù
tren ioù
dizoue idi
Gl en
Tha iland
Ve da
fizi añs
Diction naire
Valens ia
Nac ional
muz ik
gwi sket
azeul erezh
Ploug astell
Benj amin
Fal un
Keng or
Lly da
UP G
dok tor
goa p
iro kwo
qq ud
achu et
CN RS
Drez en
Mem es
Treg ont
Von reizh
hri eg
Ann ie
Kartenn ouriezh
Silabenn eg
aritmet ik
Nir vana
Tat ar
UN ESCO
demokrat elezh
vombez enn
ougou eg
Roy al
norveg eg
Wind ows
Osismi ed
Eb estel
Sout hern
afri kan
kuzuli er
Armen ia
Aleksand r
splu j
skoueri ek
Mazh ev
empre diñ
Assoc iation
tadjik eg
Izotop où
Harz et
Venet i
diglos ia
Mein hof
Napole on
Reo lenn
nde beleg
stom og
evarz ek
atm osferenn
stru zh
уга ар
Féli x
HAR E
Porn izh
Zef yros
áve is
deñv ed
Ermin ig
Mahay ana
Yougos lavia
Salvad or
" :
) ).
- "
- '
- -
0 1
2 10
3 50
7 3
: :
? "
A w
A od
A gen
A SC
B es
B ran
B oud
B oul
B ach
C iv
C ab
C oll
C ot
C ost
C oun
C aer
C amp
C SS
D O
D r
D os
D ion
D ec
D own
E y
E ñ
E lec
E zel
F aou
F ard
F ort
G evel
G rou
G os
G ran
G roaz
G ér
H é
I k
I ow
I ron
I zili
J r
J il
J uan
K w
K ur
K it
K ost
K ham
K ib
L az
L eno
L ouz
L ingua
L FE
M un
M it
M ob
M az
M id
M ili
M ün
M ogn
N T
N Y
N ou
N ur
N ad
N ant
N ort
N gu
O b
P ad
P ik
P oc
P olitik
P lat
P ry
P ortugaleg
P rud
P evarzek
Q ing
Q ue
R im
R ab
R ic
R oud
R ound
S T
S é
S or
S oul
S au
T Y
T ob
T ir
T rist
T oull
T ru
U D
U t
U gent
V ann
V II
W a
W arn
W ay
W ith
W enet
X X
X i
Y n
Y o
Y ec
Y ard
a ir
b un
b oar
b os
b res
b ech
b eb
b emp
b laz
c f
c lav
c ing
c aer
c ident
d ha
d euz
d elioù
d arzhañ
e j
e eu
e oul
e barzh
f av
f us
f ec
f fer
f aot
f oe
g amm
g orn
g iat
g redennoù
g lad
g ris
g öz
h is
h op
h oud
h reol
h lan
h udennoù
i ra
i ma
j or
j abeg
j entil
j erzenezeg
k v
k ha
k un
k adur
k ab
k lav
k amp
k ushan
k én
k leñvedoù
l us
l lab
l ard
m n
m ia
m erzh
m antoù
m euzioù
n on
n iz
n euz
o ë
p il
p ia
p reizh
p us
p ing
p ut
p renn
p ement
p ikoù
p irc
r ennoù
s erzh
s os
s ran
s id
s oul
s ouezh
s fer
s anek
s ung
s achet
s yntax
s ardeg
s wahili
t à
t sk
t ioù
t im
t ia
t euz
t rist
u reg
v le
v and
v ast
v lez
v ale
v ement
v iken
w az
w evrer
w ood
x o
x ico
y am
y te
y th
y ow
y oga
z or
z our
z ud
z rou
z ebriñ
{ |
} }
É ti
á vel
â r
ä n
ä r
ç i
è l
ê n
ə m
б ә
д угаар
е з
е ш
ж ет
и р
к ыр
м ен
н ші
ы й
ы қ
э г
э р
ִ י
ֵ י
ו ּ
ח ֲ
ب ي
ي ن
’ ’,
an bul
ar tif
ar adennad
en se
en ori
er t
et c
ou el
ou ant
ou cha
ou gre
re oli
re sket
re bech
al of
al ïes
ur u
ad et
ad orn
ad ay
ad ron
di rag
di zhout
di riad
di skoulm
di droc
di weuz
di vodet
st où
ant i
ant enn
eg en
ri d
ri aou
eu li
ro d
ro añ
in og
in format
da z
sk ar
sk añ
ra io
ra ham
ra ult
li c
li stenn
em led
at s
at ez
at ri
at us
am e
am á
am pleg
am ins
am ezek
ol phe
it er
it alek
av eg
av iel
av ier
iz ennoù
iz ia
iz ig
as i
om a
om iezh
war eg
es ha
ch é
ch na
ch istr
yezh erien
pe ak
la zh
la is
is rannañ
il lo
he ñver
ell erezh
evit o
ao tred
vo tiñ
ik al
le j
lo gour
ma is
ud on
Ar ver
Ar damez
Ar ondis
skri teg
gw ener
gw azh
gw evn
ob re
dre k
ia k
ab le
ab ati
An at
An ti
An der
us s
ti zh
ti red
ti ern
ti wan
gou ennoù
gou erien
gou elioù
St rat
rou li
rou de
rou dad
skriv ed
skriv adurioù
ken ver
ken labour
ken delc
son n
son s
red et
red ad
ren erez
arn aet
est où
ul el
ul ation
ul ture
sav iad
Gw ezh
Gw all
Gw iad
Gw ital
ak adem
od y
oli giezh
oli gosintezel
dro as
vi ras
vi ce
ok i
dig resket
os pital
18 19
18 20
Al arc
En klozadurioù
En ss
diwar ni
her vezañ
sp ra
sp as
sp anglish
Li ban
Sk andinav
hell je
hini ennoù
gra f
hel m
hel aouennoù
ve he
ta we
ta pas
zer c
ui elem
pl an
pl at
pl es
hen dalc
hen idik
ing rad
mer erezh
añs iñ
20 vet
meur vorioù
ac tion
ac aq
oul omb
div izi
Di avaez
Di riaou
Di gwener
tro iennoù
zi et
Mar t
implijet añ
int eg
int in
den e
reiz had
dan s
kav adenn
ali e
ali f
daou arn
daou lagad
gal vet
lavar e
lavar as
denn e
ij a
man che
var renn
tik ulenn
ilh enn
si e
si rius
si ècle
per seg
olog our
savet e
din ia
din osaored
ang e
van k
van as
ap ost
eil enn
pro f
15 2
15 9
15 60
ut h
vel eien
arz our
Em p
Em manuel
Her vezañ
ana on
esk i
antel ezhioù
wel ed
wel adenn
tr ad
dreist holl
tud enn
ter s
seurt où
ck s
Pa u
Pa ys
dra oñienn
16 74
Le x
10 9
gan añ
gan erien
Ker rain
nebeu dig
oñ ell
kar bon
Da far
ort ograf
deg ouezhioù
aer o
13 41
Par k
gar ta
ank enn
ge ñveriañ
bar ez
bar regezhioù
ce eding
gav e
gav et
uhel aat
klo taat
12 7
Gant añ
kre c
Ab raham
sin as
fri dioù
Ist anbul
veur iad
pell skriver
diz emglev
lin ennoù
ach où
hom añ
hom me
hom ieg
Kan aouennoù
Am do
po et
po de
oni us
Kem menadur
to sk
led et
anavez ent
anavez omp
cha tal
Tre c
Bi bli
ire k
sell e
gre de
va en
Dis oc
Dis ul
Dis adorn
ijin adenn
glev out
mo ger
sa int
Sp ra
Na ontek
hor an
hor re
Ch al
Ch es
Du blin
gomz erien
Ken diviz
treuz lizherennet
treuz furm
Pro duc
Pro verbes
Pro ceeding
riz ioù
ous law
Se e
Se itek
ip teg
zisk uilh
kat aw
dam kanoù
elektron ikel
bouez usañ
Ro ad
Ro ger
kin s
kin son
stour mer
stour mas
anavezet añ
ill y
unvan et
taol ennet
Lo ch
gres ianek
ker z
Mer añ
Mer deadurezh
skrivagner ez
Mont agn
wa eg
wa fer
Brezel ioù
hu zh
Ha iti
be wech
dek nologiezh
gwel laet
rag anv
Ad embannet
Oli ver
Tro idigezhioù
Mo jennoù
Mo ore
dr uz
let ar
mir di
pal estin
ingu alism
izel aat
test enn
Int el
min h
min ist
Kel ted
hont adennoù
bou daegezh
con sin
turk meneg
Evel ato
kor seg
tor y
Me disin
bre ak
gu er
val ens
val ores
vil ourel
end s
Mal o
Mal manche
liv añ
Man uel
Uhel goad
col n
doue ed
kevre et
kevre adurezh
Pet it
sit aires
Bel la
De wi
ment al
rus eg
ze dig
ziskouez as
Tri c
pleu striñ
Div izet
Les otho
Mao ris
pemp vet
187 2
kinnig as
Bar iz
aw en
añv our
Har vard
dist roet
pleg añ
bri an
Pal eo
fiñv où
Col lo
Col ombia
Iwerzhon iz
if eg
if ern
pre fed
vroadel ouriezh
pr antadoù
kou evr
mez e
185 4
185 7
185 8
185 9
Bu ck
Ober où
Ober enn
Tal voud
leurenn iñ
ER C
dad os
gont añ
ambl ez
gouz añv
goulenn ata
echu iñ
nam at
ogra phy
Ko ad
Ri wal
kro ateg
arnod ennoù
Krou idigezh
As amblez
fell as
nor mal
bur n
bur y
nañ w
skra p
188 1
188 4
188 5
ortugal at
XV vet
tou chennaoueg
oberi adennoù
186 1
186 5
186 6
Pen fell
klas où
Marc oni
Mab inog
isk evandir
ré gional
sek tenn
stank añ
Ka hn
Menez ioù
mu ic
Tim e
dilenn adegoù
romant our
Aber tawe
Lab orat
Son erien
Bras sens
tisk enn
Lan divizi
dic tion
Ni ép
Qu é
hskeudenn iñ
Mel ville
184 2
184 3
varzh oneg
Arm ori
Pemp zek
grou as
tol z
dieu bet
kresk as
Kri chna
degouezh et
post el
gwerz hañ
Dil un
Dic kinson
ен че
onom iezh
brud erezh
horn aoueg
180 1
180 5
Bour y
Bour dellez
tat areg
Mi wokeg
Nat han
Lin coln
araog ennek
fen ik
gristen ien
dasp arzhet
Dev ezhioù
sc ri
soc ial
emgann où
179 1
179 3
Cym raeg
priz on
priz ioù
Fer din
Hel ias
Sar dinia
bir ds
dit l
Don ald
Dim erc
Goul ennoù
Trans fer
Van av
moull añ
pid jin
disparti añ
gatolik ed
Do ors
Anton io
hantved où
Cent er
Geri adurioù
Pell oc
gem mañ
web site
Vin cent
boul où
yuzev egezh
houn it
Kad arnaet
Sw ami
bag ad
Tab le
leu sket
sand hi
beaj où
Alex andre
Hin cks
Kre diñ
Kra ozon
Lam baol
Rez istañs
mag añ
Andre w
droug sant
micher el
matematik our
jar ateg
sent iñ
Stat ud
hwit adenn
steuñv enn
Barzh onegoù
zesk iñ
ал ты
Ark itektouriezh
Lavar out
Nomin oe
Nomin oë
US A
chañ s
tt t
divro idi
dileur iad
bleu ñv
fram mañ
Comm un
V4 r
Wil helm
gam alad
hlas où
tem où
deizi adur
euro pean
diktat ourien
Aer borzh
Merc ure
Venez ia
gur mukhi
Gwerz ioù
trovan el
yaouankiz où
Rem ont
Sy stem
andi rioù
neves oc
jez ero
linguist ics
neo azh
stre wet
broud et
Bann où
Blu es
Gab riel
Peg oulz
Pin yin
gle b
Diction ary
Sel lit
aol et
keoded el
eztaol et
atl antel
parti et
Benj amins
geot debrerien
Hier ogly
Prin cet
Seurt où
cul ture
mala yalam
sout en
orbit enn
treu sk
hollved el
Indi ana
industri ezh
Lap ur
Net work
Poli s
Pos upl
Vod adeg
foll enn
prizi et
kome dienn
Nicol as
Bin vioù
Reol ennoù
bok mål
gop r
nas aek
tiv izas
univer sitaires
sper edoù
toros ennadur
Produ et
izelvro at
brah mi
vietnam eg
Bure v
Das p
Kristen ion
List enn
Open Office
Spec ial
Tes la
pesket a
Poell gor
Hanter kant
Bak tria
Cli ff
Ever y
FI DE
Oke ania
Soud an
Tiri adoù
קָ מ
eti opek
dial ec
israel at
mengl euzioù
Paran á
Atlant ic
Soci été
pira haneg
Slovak ia
Sakson ed
Aloub adeg
cheñcha mant
elektromagnet egezh
Tai wan
Wis consin
dop amin
poul tr
wid th
zal voud
avest eg
herent iad
deut eriom
Maxim us
hrouchtch ov
Heson erezh
Klot añ
Nij erezioù
Squ adron
Tun izia
гар иг
diwan et
skandinav ek
meizi ad
home diennoù
Hendri x
Media où
arbenni gourien
Llyda w
irokwo yek
ASC II
Gevel liñ
Gér ard
Trist an
Wenet ed
Yard birds
eeu na
Éti enne
enori ñ
oucha skeg
ougre k
Gwital meze
Enss lin
uielem _
Produc tions
Proceeding s
kataw bek
Medisin erezh
valens ianeg
Landivizi o
Niép ce
Princet on
! ).
% "
% .
' -
( ✝
) -
) ?
1 17
2 O
3 10
5 21
8 vet
9 31
> ,
A F
A i
A ar
A im
A gu
A rion
A maz
B ad
B ell
B ab
B ok
B yr
C H
C R
C ô
C all
C ann
C hin
C las
C hat
C ulture
D um
D ub
D ong
D ata
D ever
E E
E j
E ar
E ll
E chu
E swat
F K
F i
F re
F is
F az
F ern
F oun
F ire
F riz
F ill
F ly
F aero
G N
G es
G ras
G and
G ern
G reiz
G ast
G ros
H ann
H êr
H iri
H are
H art
H ano
H igh
I X
I b
I an
I za
J i
J ed
J ud
J amm
J aned
J apaneg
K A
K O
K i
K ı
K et
K os
K id
K ast
K olo
K rog
K ong
K ill
K uzuli
K reisteiz
K uj
K annad
K resk
K leñvedoù
K echuaeg
K omedienn
K uba
L I
L eu
L un
L ao
L ud
L ac
M r
M ent
M out
M ul
M os
M agn
M eiz
M ill
M ith
M oris
N é
N ar
N on
N azi
N avar
N ynorsk
O ver
O ld
O kit
P A
P D
P our
P ir
P oul
P olog
P iri
P esk
P las
P ré
R ol
R as
R ost
R oz
R ub
R eb
R ica
R ain
S A
S us
S aou
S lav
S ala
S eiz
S part
S we
S AM
S ankenn
T V
T c
T eur
T red
T og
T od
T ut
T emp
T izh
T ay
T ong
T ré
T achennoù
V 1
V O
V oc
V lad
W enn
W ho
W inter
W right
X II
X hos
Y er
Y uz
Y oga
Z eus
Z ol
Z ep
Z ulu
a iek
a ff
a sket
a bret
b eo
b adel
b eiz
b omperien
c z
c in
c ret
c atal
c ultur
d eri
d omin
d ranzitivel
e V
e où
e dig
f fin
f ask
f resk
f akt
g un
g us
g aou
g lu
g ang
g olo
g ht
g lan
h à
h ã
h ia
h ouez
h arzh
h rank
h olo
h loaz
h eriadur
h annad
h izien
i os
i hi
i adegoù
i ère
j eu
j ek
j as
j us
j ieg
j iang
k ek
k ell
k ag
k ann
k ul
k ost
k erc
k iek
k ous
k ember
k ampion
k echuaeg
k regin
l ud
l olo
m ü
m ə
m ennoù
m aget
m ission
n n
n aoz
n ing
n ier
o ro
o ed
o il
o ras
o id
p y
p all
p aot
p ortug
p ortugalat
q ā
q ʷ
r hi
s ap
s antelezh
s yn
s istr
s ans
s ferenn
s obre
t ang
t eun
t emp
t cha
t cher
t arzhas
u ş
u ti
v l
v u
v ri
v ek
v us
v oaz
v aez
v ut
v ation
v uzul
v ouz
v olek
v enne
w iz
w aneg
x M
y p
y un
y oz
y age
z ad
z ev
z achenn
| }
É dou
è ge
é ment
ι κ
μ ε
π ά
π α
π ου
Т ат
а қ
г а
и з
м и
о ё
т өр
і нші
ә н
ө з
ַ ּ
ַ ח
פ ַּ
ת ַח
ေ က
an ch
ar l
ar da
ar ti
ar men
ar ina
en at
en be
en oret
ez as
ez teurel
er os
er gra
er bed
er gativel
et nek
ou y
ou ar
el e
el y
enn ou
re omp
re str
re pu
re pres
al ist
on de
ha v
ha w
ha mp
ha zet
ur ioù
ur aniom
ad es
ad iñ
ad op
ad verb
di as
di zo
di niver
di ski
di gantañ
di raz
añ val
ant in
ev eg
zh e
ri and
ri to
ri chenn
eu liñ
ro ez
ro ma
in ger
da j
da et
da mmoù
ra at
ra se
ra int
vez ed
li eskement
em i
em ar
em skiant
em brezeg
or al
or elezh
gant an
at t
at u
at her
un t
un tu
un ge
un yezhek
eo log
am poent
it z
av en
iz enn
oa chet
19 1
as y
as an
war e
war lerc
es p
es is
ent et
ent euzet
ch où
ch in
pe b
pe dagog
our d
our alek
la p
is o
is an
is in
is su
is che
il her
de ur
de ir
he sk
he at
he stern
he avy
ell at
se y
evit i
ao str
ag eg
vo das
ik on
ik ianed
rei d
rei di
ma c
eri ck
im pa
im antoù
Ar mañ
Ar cha
gw rez
gw reg
gw ast
gw ered
br onneg
ob erezhioù
pa eet
dre v
dre der
ne pred
um an
ia z
ger s
An aou
An koù
ka p
ka ol
ka kao
ka pital
ti an
ti al
ti ca
ll er
gou d
benn iget
St ali
St aget
St ory
St ivell
rou et
rou sin
rou dennoù
ist er
ist re
amm et
skriv iñ
skriv erezh
ig a
ig ed
penn glaou
ir anek
ken labourat
ken feur
red el
red adegoù
ren adur
ren evez
ren abl
arn ioù
plij et
ul eus
og an
og en
og el
emb ro
emb reg
uz u
uz un
uz alem
Breizh iz
az et
az eg
az ine
az aq
aou ek
Gw ilh
Gw ask
Gw iana
tre vadennoù
tre foe
ak sion
holl vrezhonek
kent a
ot ed
od ed
od ore
oli er
oli con
vi en
vi li
and ed
ret a
dig na
dig resk
implij e
implij ont
hin ad
hin di
arzh ed
os er
ran sit
18 40
Al eut
En klask
diwar nañ
Li bia
bl u
bl an
bl en
ver añ
hall o
Bro ad
Bro ther
Sk rag
Sk laer
lenn ek
lenn egezhioù
In c
rann di
rann bennad
bro viñs
bro testant
bro gramm
bez iet
hel aouenn
han a
han g
han on
ve in
ve au
ta h
ta et
ta ilhoù
lav uzu
ui zh
ui de
pl eget
pl ément
id o
hen sonerezh
kem pred
mer ttt
20 8
ac ión
dou jañ
dou jañs
div yez
Di al
Di eu
stroll et
zi ou
Mar vet
dis meg
der v
har i
har v
gal ite
man ati
var iañ
si f
si er
si us
si oul
si chenn
par lant
ori gin
lu t
ved où
rak welet
aez ar
din a
din am
gen sonennoù
nem eur
van ia
pro to
pro ces
15 24
15 33
15 45
mor zh
vel en
blo c
kan ed
kan erez
Em ir
Em bre
Her bert
esk ern
hou z
hou se
hou arnamant
ala in
dreist ordinal
dreist wirioù
mat ek
ter c
Er yri
je dienn
qu est
kel tieg
ko ek
ko ka
ko iek
ko dian
ko ñvers
eb eut
eb estel
kant adoù
Ma iden
ck er
ier où
dra jedienn
ton um
ton go
ton kad
enez ennoù
16 75
ho e
ho û
ho al
ho eg
ho ine
10 2
10 7
diazez añ
Ker kent
Ker var
Ker hu
te aub
kev andi
14 55
studi o
studi erien
studi erion
kar i
kar ter
eun teun
Da ch
oun tet
peur heñvel
peur badel
emp ouez
deg oue
teu lioù
ser ten
13 64
13 83
krou er
krou adur
disk enn
rom antel
politik er
ank out
bar rad
bar bak
the ir
hw eg
uhel ded
fra pad
12 8
stri sha
Ab ad
Ab ati
Ab alain
sin at
het eg
labour erien
La zhet
go adeg
go vel
kement adoù
eng l
eng roez
rel ativ
su p
diz oleiñ
Rou x
Rou an
darn vuiañ
Fran sez
ach eg
Fr ont
fer ence
Kan et
bev oniel
oni om
che hal
Kem met
Enez eg
kalz ik
cha p
Bi ez
Bi har
resis aet
Skri dou
Dis pleg
mon itour
reol ataet
glev er
mo an
sa eg
dior ret
Alam an
Sp ringfield
Na farro
ere et
At av
Ch ev
Ch uck
Ren an
rumm enn
Kar g
ff en
ff ret
ru ilh
ts waneg
tek ton
") :
zisk lêrias
fi x
mod où
dam hollek
kin kl
ph s
ph on
ph onet
Gall oud
Lo ened
do enn
do re
Mer k
Mer vent
Meneg iñ
mp erezh
mp os
teg emer
rannyezh el
deiz ioù
Bez añ
danvez enn
aoueg où
sen ario
dek a
mas où
pobl ad
vij i
Ber re
bel eien
bel giat
land rez
Ad olphe
yn yrd
Rann où
rek ord
skeudenn iñ
Rop erzh
Tro c
Tro van
hon d
hon nezh
stourm où
Mo on
let anant
mil lion
hanter ouriezh
sina ek
Norzh iwerzhon
bour ouchaskeg
tit le
ys os
stan ket
24 0
El ement
El vis
giz eg
giz ioù
Re ich
Re izh
gor denn
renk adur
lezenn iñ
Kel ennet
fur mad
Ital ianeg
Sa ig
Sa haja
bou daat
buhez ek
con om
skin adur
Brezhon ed
ni qqud
kreñv añ
val ue
vil ed
Dist reiñ
Man er
Man zar
ask ell
ask orn
col lection
com o
katolik ed
De ad
De skrivañ
lan dat
Den is
lar et
ze skrivañ
nij er
nij al
etrez e
tres où
berr adurioù
'' '
Les anvet
kim iour
dastum er
dastum adoù
187 9
25 1
Bar r
Ed gar
Ed win
Po an
Har mat
kadarn aet
bri a
kom bod
von reizhañ
arg adegoù
gwar ez
Col orado
vent oniezh
Bo ys
Min d
Min nes
hal v
pr é
ros oft
tremen as
Kern eveureg
aes aat
kou sket
mez eg
185 3
185 5
forzh ig
kl en
kl euz
eusk ar
Tal dir
vamm enn
vamm vro
ER TY
Kent oc
gont elezh
Car ol
Langu e
gouz oug
kompren er
rev ell
echu et
sintezel ezh
Con c
eneb ourien
arnod où
kemm adur
Go vern
stil où
40 7
As ia
feur ioù
nor man
Amzer ioù
vouezh iadeg
zis heñvel
188 3
188 7
XV I
XV IIvet
tou mperezh
Dave ennoù
can us
186 8
Louis iana
geo logel
peg ement
emat ik
Univer sal
sek s
Ka zh
Th eo
iliz où
To o
To ros
Tim or
bac k
dorn ad
dorn skrivet
dorn levr
hem ennadur
displeg adur
mamm ennoù
pouezus oc
Desk iñ
fol kl
oad et
stra edoù
Dek vet
Gre at
Kevre ad
Kevre adel
Kevre digezhioù
Ph ys
koll as
184 1
184 6
Katal anek
varzh in
varzh onegoù
ene où
ene ber
Arm and
poell ek
Rich arzh
fl our
grou nd
tol pad
reuz ius
progra m
hombod où
nukleüs où
hemm adurioù
lao da
karg où
steu d
kevred adourel
skoazell añ
Mag azine
dug ed
ingal et
Bern at
Tu ad
Tost oc
lig ht
akt eri
Bou da
Ex c
Rev eulzi
Ram on
kil o
Pri gent
fent us
hour enez
kouezh et
mou lenn
mal et
ave adur
Plou gêr
pinvi digezhioù
vag añ
aloub adegoù
Lin né
mich ifeg
vou ed
zist roas
For ce
Thom son
sw itch
178 3
disklêri añ
Lez ennoù
Mad rid
ng ström
asant as
agu erre
Instit ution
Est reget
Mus ique
Mus eum
dle et
stok ell
Can ada
Kat olik
Sar digna
Ton enn
hol lo
kon daonet
éc ologie
matemat ikel
Mas on
Sur entez
Kont adennoù
inter es
diskar et
mekan ikoù
Au ffret
Cent ury
Ros etta
gomp agnunezh
louz aw
louz awouriezh
ör d
dister añ
skorn eg
Seizh vet
Mic rosoft
Soc ial
Hum an
Jer uzalem
Win n
arch ive
gouizi eg
gouizi ek
Norveg eg
Ja frez
mǝ n
zil ez
Der ek
Kra mpouezh
erru et
erru as
diba ouez
imp ort
magn etek
dafar où
Europ at
hwit et
ministr erezh
85 1
Ap oll
Barzh ed
sou bidigezh
tag er
tag añ
tret añ
tret iñ
zesk as
Hein rich
Disklêri añ
Fil m
Fil moù
Juli en
divro et
dileur idi
bleu d
Blo od
Mez ozoeg
Wil son
faz ioù
lü k
chal oni
deizi ad
euro pa
diktat our
Bos nia
Natur al
dom ani
logod enn
Pan amá
Yu ezhi
kh merek
neder landat
ır s
neves añ
Afri ca
Akt où
Cre ek
Cast or
Fo rest
krennlavar où
sta en
gwisk ad
gwisk amant
gouezel ek
vloav ezh
AB ES
Bann iel
Dastum et
Lak e
Peg ement
Pow ell
aezh enn
sing le
tori a
past elloù
kast izet
akal pa
Europe an
130 3
fonn der
dizolo er
Valens ianeg
Cur ie
gri ko
kenn ebeut
ling iteg
prou et
sour cing
ske iñ
kerent iad
pourchas et
Ball on
Bout in
Neo litik
boc had
male i
list in
orbit ennoù
zior ren
vrud añ
Fir st
Gui de
Kho isan
Mol enez
Pres ley
Ts ang
rug bi
ın ız
бі р
stalin ouriezh
pae añ
gerent iezh
kazet enner
intern et
Clar k
Drou izig
Fra mm
Kle in
MI T
Sik ili
briz onidi
comm un
gé ographie
gêraoz ouriezh
hrign erezh
alis ation
sklav ed
yezhon ourion
oke eg
binvi dik
mennesk er
Term Bret
Bac k
XXI añ
lug an
sont adeg
vun ut
sklêri jennet
bron noù
okit anek
aymar eg
phil omel
arkeo logiezh
Feder al
Histori a
Mot her
Nun av
Niv c
Wint oueg
Wood s
Xin jiang
besk eta
wag enn
zes ach
dimez iñ
unand ranzitivel
chel idon
gwas hañ
aziat ek
Sking omz
pled et
Mord rel
Galli ca
Elektron ik
Bale ar
Chant s
Joz ef
Psy ch
sci ent
vred oniezh
vach elouriezh
dim ezet
egipt at
emezel añ
Skin wel
planed ennoù
kefridi el
peniti our
dibos upl
Thé odore
pozit ron
Publis hing
Brou dig
Edou arzh
Meri adeg
Scho ol
bud jed
mā lê
neus e
σέ να
loj ikel
embur g
manat ioù
eskem mañ
tegouezh as
Lux emburg
Cost a
Camp bell
Dion ysos
Mün chen
Qing hai
boar d
caer uleus
swahili eg
חֲ ט
eski bien
Chal otez
palestin at
minist ration
Collo qui
Mabinog ion
Laborat ory
Boury atia
Ferdin and
gamalad ed
Every body
eeuna at
Byr ds
Eswat ini
Faz ioù
Friz eg
Hêr ezh
Jamm u
Kı lavuzu
Pir eneoù
Piri ou
Saou dat
Spart ak
SAM PA
Teur gn
Voc ab
abret oc
lolo ek
rhi f
tcher okeeg
uş ma
vouz ar
Édou ard
Тат ар
оё р
פַּ תַח
ergra fet
restr où
hestern ek
Armañ s
Archa eolog
dreder enn
Anaou degezh
kapital our
ransit ive
Skrag n
divyez egezh
Kerhu on
teaub riand
kevandi rel
barbak oek
Nafarro a
phonet ics
Manzar ek
Minnes ota
switch ing
philomel os
( .
( /
( ?)
) "
) #
. );
/ )
/ -
/ :
0 8
1 em
2 l
3 M
3 22
4 29
5 000
7 74
= =
A A
A G
A S
A st
A ud
A oz
A fer
A vest
A BU
A kw
A stral
A usbau
B hag
B ren
B og
B êr
B lav
B ij
B ala
B au
B art
B lan
B ennig
C u
C ro
C oc
C um
C ard
C hou
C ere
C art
C ass
C ultur
C ity
C hina
D or
D oc
D ok
D reist
D orzh
D ale
D rin
D ari
D aguerre
E di
E du
E wan
E ditions
F A
F l
F ro
F ol
F as
F ag
F ab
F arm
F roud
F ellout
F lor
F landrez
G B
G ur
G ro
G av
G as
G oud
G rad
G arc
G ors
G lad
G ellout
G roe
G anga
G hana
H S
H eus
H ard
H ap
H ow
H amp
H ill
H ym
H añval
I C
I M
I sk
I Xvet
I NS
J oa
J es
J ili
J ener
J ama
J orge
K l
K li
K ok
K lev
K ened
K ay
K amp
K ron
K egin
K omunourion
K risteniezh
K now
K istre
K aezar
K laoda
L â
L lo
L uz
L aou
L ep
L ot
L lu
L ast
L eun
L ow
L ink
L omb
M S
M eo
M and
M adeg
M oull
M ignoned
N E
N g
N u
N ao
N ig
N ak
N ec
N iel
N uc
N ight
N ouv
O g
O aled
O 3M
P P
P av
P om
P all
P lu
P rog
P rus
P ure
P ère
P adal
P unk
P engu
P isa
Q azaq
R E
R iv
R oaz
R aez
R ust
R egin
R ankout
S R
S Y
S z
S em
S ag
S han
S ub
S ouezh
S oun
S eneg
S ach
S eno
S yd
S añset
S indi
S qui
S AD
T en
T em
T as
T all
T ian
T op
T ennet
T hir
T ourist
T ennes
T élé
T chehal
U tah
V arn
V vet
V rest
V end
W es
W ern
W rit
W rec
W aien
W olf
X III
X avier
Y un
Y am
Y as
Y von
Y eoded
Z ar
[ '
] )
a a
a ï
a an
b b
b é
b am
b oa
b ennoù
b lev
b evez
b oz
b ili
b ang
b age
b aotred
c n
c la
c us
c ac
c V2
c ache
c ija
d ŵ
d un
d ol
d añv
d ourist
e di
e ont
e ür
f é
f an
f ou
f ik
f ab
f ul
f os
f ich
f ron
f oto
g 7
g s
g z
g ran
g evez
g aer
g au
g atal
g leñved
g egin
g oñje
g ustentin
h m
h ro
h it
h iv
h lask
h alek
h evredigezh
h houarn
h otek
h vien
i ć
i ev
i añs
i ago
i berek
j adoù
j ak
j uzev
k r
k ol
k our
k le
k ne
k ina
k rom
k udenn
l ə
l hed
l añset
l vania
m all
m est
m og
m ori
m pat
m beg
n eur
n ezet
n ational
n ationale
o ch
o zo
o ñv
o vi
p x
p ag
p lo
p ist
p adoù
p ot
p and
p oazh
p omp
p ign
p loc
r d
r ar
r un
r ust
r ong
r una
s m
s eu
s om
s ve
s ard
s art
s oft
s peak
s oki
t ot
t od
t ran
t ho
t ener
t lingiteg
u ch
u atu
v B
v az
v int
v roud
v reizhat
v rizh
w ad
w ik
w rez
w ill
w ord
x e
x on
y our
y alc
y ana
y oug
z it
z ak
z eiz
å ngström
ç ons
è me
é d
é on
ê te
ï l
ñ ned
ô me
õ es
ú n
ü mǝ
č a
ī n
ş enbe
α τ
γ ι
λ ά
Д ѳ
Р ес
а м
а ң
б а
б л
г у
г э
д е
е й
к у
о р
п у
с ки
с ег
т е
т и
т ар
т үн
ш ен
ш әм
ы л
і з
ש ׁ
ل ار
् र
仮 名
an av
an us
an dro
an adennoù
an avet
an ark
ar gant
ar ia
ar id
ar ts
ar damez
en ant
en ci
en skrivadur
ez ik
ez ia
ez teul
er v
er où
er enn
er sav
er mael
et rad
el enn
el li
el es
enn a
enn is
enn omp
re y
re et
re ut
re vioù
ezh où
al g
al an
al es
on al
on ne
on na
ha us
ha ve
ha vr
ha bit
ur ch
ur zha
ur uguay
ad eu
ad is
ad us
ad unan
ad ouriezh
ad elloù
ad strat
di et
di ad
di ri
di li
di ek
di ell
di ag
di uz
di vi
di egezh
di lez
di resis
di alek
di edoù
di elfenn
di cheñch
di echu
di àr
di kaat
st en
st ik
st ret
st ori
st rez
st lennoù
st abi
ant o
ant s
ev ned
eg a
eg er
ri ou
ri ezh
ri di
ri da
ri sk
ri as
ri ennoù
eu zh
eu red
in f
in al
in us
in os
in ks
in donez
in ingrad
da sk
da vet
da te
da tion
da pout
sk aot
sk areg
ra ska
vez egiezh
li er
li br
li der
li tu
li kan
em en
em ala
em gef
or é
ed y
ed on
ed ennoù
ed ennet
gant ved
gant oñ
at aer
at let
at emala
ek rud
un i
un di
un nek
un ité
un doueek
eo s
am ent
am ia
am ir
am red
am ser
ol as
ol oas
it an
it où
it ali
it reg
it te
it ies
it ional
it ime
it oba
av an
av es
av ouriezh
iz añ
19 vet
om an
om tav
om etrad
war ez
bet eg
es ae
ent re
ch on
ch deu
ch oneg
ch edoù
ch ieg
yezh oniourien
pe diñ
our ces
la c
la y
is et
is rummad
is ism
il s
il y
il in
il hañs
de il
de he
he ñch
he flusk
adur ezhioù
ell o
ell ed
ao eg
ao strez
ag a
vo de
ik erezh
le an
le al
ann a
lo jañ
lo ñned
ma ire
eri c
eri g
eri es
eur vezhioù
out in
out ed
im et
im ir
im per
ud dy
Ar g
Ar t
Ar an
Ar divink
evel ezh
evel tañ
iv in
iv es
gw et
gw euz
gw erc
gw ambia
gw rizioù
gw asket
br alt
br antad
br ador
ob ar
ia c
reizh skrivañ
ab ost
ab lat
ger z
ger ezh
ger ezhioù
An al
An im
us a
ka eg
ka zek
ka stell
ti or
ti um
voe st
gou laou
gou moulenn
benn lec
St ur
St um
St ras
St ru
St ump
St ills
rou gh
rou maneg
ist el
ist ik
ist rad
ouri ñ
ig our
penn et
penn gef
ir d
ir s
ouez er
ken d
ken ar
ken glot
son et
son nen
ren dael
est oneg
Breizh veuriad
etre fas
Gw y
ep s
tre a
ak o
ak tor
ak nost
ak oust
holl veli
ot enn
ot amia
od ennoù
oli mpat
dro ioù
dro iad
vi re
vi dik
ret te
ober ioù
dig em
of fe
of erenn
implij añ
implij as
hin k
hin où
hin nig
os h
18 15
18 30
18 23
18 60
18 38
18 39
Al c
Al ta
Al ese
Al guer
En savadur
her kin
hi o
hi eg
sp et
sp ur
sp let
mar vel
Li d
Li br
Li eb
Li beria
bl oazi
laka ad
ver c
ver vel
ver ker
hall ed
ec t
Bro s
Bro feded
ic um
ic us
hell fer
men ec
In format
In troduction
rann ved
op er
op hon
op otamia
hel ennoù
du er
du re
han o
han ab
ve dia
ta ire
ta ieg
ui di
pl ing
pl ement
id ji
hen g
hen añ
hen gerioù
hen sonenn
hen divizoù
hen gevre
kem pouez
ing en
mer e
mer eg
hoar ezed
brezhoneg erion
brezhoneg va
ac a
ac k
ac ha
dou bl
dou jet
div in
div outin
Di du
Di forc
Di rac
tro adoù
tro tsk
zi ski
zi wall
skouer enn
Mar s
Mar ch
Mar evezh
Mar tial
Mar itime
fe ilhañs
den elezh
dis i
dis ol
komz où
der ioù
dan at
kav e
Lenn on
stag us
har eg
har tennoù
gal z
lavar où
denn as
barzh ed
for t
ilh on
si om
per t
per sek
ber en
ber roc
ori t
even ez
heñvel ster
din as
gen ed
gen itivel
ard où
ard on
ang likan
van e
ub e
eil añ
pro verbes
15 50
15 22
15 21
15 42
15 63
ke w
ke ñveri
ke flusk
ke fridioù
bi o
bi osferenn
Eur ioù
kan i
kan eg
kan ab
Em ile
Her od
Her zeg
ana u
ana eg
chom o
wel yn
wel laat
17 00
17 35
17 78
17 74
hou izi
tr umm
tr ubuilhoù
ala is
na j
tud es
mat is
qu al
qu in
qu ote
ko ñ
Ma ster
Sant iago
dra sk
ton ed
ton ennel
16 95
16 83
ho ñ
ho adoù
10 5
Gou arn
Gou est
Gou elioù
embre get
gan enn
gan edigezh
hant aouet
pad et
pad rom
pad ding
Ker mo
tal voudoù
ast ur
ast ro
14 50
14 64
14 99
14 57
14 91
studi al
kar ak
rank ed
hez eg
Da ys
oun ac
oun tañ
dez erzh
deg adoù
douar oniour
aer ouant
nevez c
ser ved
ser vation
uk tun
13 2
Par am
Par lon
fon ennoù
fon ds
kal s
ank ounac
ster oniezh
bar tikulenn
Sina eg
hw anta
hw erv
olo gourien
gour liamm
gour ener
gour liammoù
urzh ud
str añ
12 2
kre oleg
stri n
stri s
sin i
sin adur
fri adur
het ic
labour er
labour adeg
labour adegoù
La ugh
La brador
tri zek
go ro
go ek
wan da
gwir heñvel
gwir voud
su jedoù
iek aet
diz ehan
Fran co
ale ont
skiant ourien
hom m
hom mes
Kan où
Kan añ
Kan ienn
Kan iennoù
Am our
Am bro
Am éri
po ration
11 1
levr ennoù
Penn aod
Penn sy
arouez iañ
arouez ius
aj i
ign et
ign oniezh
disp riz
Jo ël
va is
Ti rol
Ti egezhioù
lodenn et
lodenn ig
estr añj
Dis partiet
lizherenneg où
reol at
ijin as
ijin ourien
levezon iñ
kloz et
kloz añ
gwiri ekaat
kont er
kont ant
Lec lerc
Sp iri
pet it
At om
bod adegoù
hir ri
hir gizeg
don edigezh
kad or
kad aiek
Ch oc
skoli ataet
rumm ata
Kar akalpak
gomz e
Yann ig
dev e
tost adur
tost aat
(" "),
Amer indi
Ba ile
treuz skrivet
Pro verb
Pro feded
Pro ject
Pro fonds
bu tion
bu rev
bu revioù
des ped
des achet
Az e
Az tl
Se ite
Se xt
oñj et
dam alli
Rom ant
Rom anek
Rom ance
stour met
anavezet oc
ph p
sistem ek
rin i
log ota
pac ing
Lo en
Lo ve
Nor z
Nor folk
do e
Nevez amzer
Nevez oadvezh
ku re
ku zhet
ker s
ker din
Mer ser
mp ilh
vuhez skrid
wa in
tour anga
hu ang
gwel adenniñ
Ber r
bel eion
rag istorel
Ad emb
ks âr
yn dŵ
edel ia
reter adur
Rus ian
Rus ianeg
rad ius
rek is
Tro ioù
stourm erion
hanter voul
erz enez
live adur
emsav erien
emsav idi
Per s
pal eo
Lu is
Lu kaz
gev renn
gev rat
renk où
test où
test eni
min d
min ster
min orelaet
Gal ego
Kel c
fur mel
garg adennet
Gu atemala
gas e
stali as
veg où
con f
con struc
skin oberi
Tur dus
kor sek
gu a
ni ger
sel où
kreñv lec
kreñv aet
27 0
bek ed
mell ad
mouezh iadegoù
vil in
vil la
vil vilionvedenn
kelenn erien
heuli adoù
liv adurioù
Dist ag
Man itoba
Uhel añ
bin viji
col e
ziv izout
doue où
doue egezh
Vi enna
toull où
yr um
Den oniezh
lar inks
Tud wal
Tud ual
berr adur
Sc ri
Sc ient
henn ed
dib aoe
187 4
187 5
187 6
kinnig où
Vall erie
Po ent
laer et
laer on
Har ry
hev arzhe
hev andirioù
sint et
kadarn aat
ben gal
mant ra
laz has
Kal on
Kal iningrad
bri t
nolog y
arg um
arg adenn
arg emm
90 1383
Sal ish
Sal moù
Ter ri
Ter ry
Treuz iñ
Treuz skrivadur
bra mek
vent ennoù
gwenn eg
vroadel ourion
Bo x
Ben et
Ben ac
Ben ead
Ben oded
On ly
hal vez
hal ianed
hun gar
hun gareg
Be ach
Peur unvan
glask as
kou bl
kou kiek
185 2
Disk an
Disk ar
Disk wel
ces s
gad or
kl ouar
kristen iezh
kristen ion
Breiz had
Ho ward
Te xt
Ver mont
Ver tuz
nez où
Lizher où
Koul z
Pont ec
dad o
ata ka
ish oc
pri ed
Frank iz
Frank lin
Frank inc
fa it
Cha teaubriand
eneb iñ
erger z
erger zhet
ogra mm
Ri ez
ais e
fil ogen
fil ozo
evezh iañ
arnod enn
Go adeg
vugale aj
Studi añ
As s
Ser beg
sol wez
gresk as
Dar win
bur ut
dreuz kas
188 2
person æ
XV II
Ac t
Mil ano
sim ploc
ven ec
186 3
impalaer our
OR I
Pen marc
keg iner
ledan añ
pos ition
Ka our
mestr oni
ner v
Om s
Eg yp
beri ant
Politikerezh ioù
Ta ol
tch ek
tch ouv
tch inek
vol um
ark iezh
Anv adur
84 3
84 5
Vic toria
fol klo
Dek red
Hor se
Sha h
dic tons
Ang led
Gour sez
Ni ger
Alan ig
meneg où
AR J
184 7
184 9
Deg emer
Deg aset
Pemp vet
kresk e
Kri me
hemm où
pol oneg
vit ologiezh
steu zi
steu dad
kevred et
gelenn erien
Dic k
lon k
brud añ
Bev ennoù
Din arzh
gred us
hwezh añ
pik ol
tam all
zig or
akt adur
akt ourien
180 3
180 4
striv añ
striv adegoù
Bou daegezh
Bour g
Bour del
Rev ol
Ram pa
stand art
dost aat
mou get
stlenn ourez
Arz ourien
levraoueg ouriezh
ML U
drez i
ef an
efed us
mun tr
mun udoù
Unvan iez
liesseurt ed
aloub as
39 1
Cor gan
Lin ux
krenn vrezhoneg
zist ro
zist reiñ
voc als
Hy per
komp odiñ
ten stein
170 4
disklêri adur
struktur el
Kaz ac
asant iñ
skoul met
179 7
Bod et
Bod ad
Bod adeg
Kev rennadur
ateg ori
Del ta
Eri trea
Gi otop
Kat akana
Sar the
hol en
korn aoueg
noz vezh
emdro et
dec or
ginnig as
Dim ezet
Dim eziñ
Geo tenn
Geo morfologiezh
Goul ven
Jim i
Van de
Van uatu
samm añ
eskop tioù
Kont añ
meg al
gouel ec
Cent re
Cent ral
Diz oue
Diz oloet
Ga ut
Neb raska
Ros s
V2 cV2
gem ennoù
louz où
tle e
tle fe
tesk iñ
hidro logiezh
Gouel ed
Eu skareg
Hon dur
Vin ča
yuzev ien
houn try
houn nezh
Guy ana
bred oniezh
vir out
spis aet
skolveur iek
Ja ff
Tab ut
Vo al
briñ sez
houlz ad
kam br
sand hioù
zil ezel
die han
isi Zulu
Gwen ole
Heñvel adur
Alex is
Bot rel
Bot eller
Hin deg
Tch ang
gr ubuilh
gr unge
psik edelia
Andre o
halloud où
halloud us
hadour ezh
hadour ezhioù
Norman ed
Phil osop
programm iñ
micher our
Heb raeg
jar at
ox uma
ox uy
aval où
Hou se
Hom o
Levez on
tret erezh
rich t
Ana vezout
trevadenn et
May enne
Eizh vet
Nomin ativel
Pla id
ziz oloas
stabil añ
Indian s
Emglev ioù
mekanik erezh
Bill board
Greg ory
Plo ermael
West minster
bak adoù
cel tiques
leusk as
meul eudi
tom a
gwask oneg
diktat ouriezh
All en
Catal à
Catal an
My th
Sil ver
Wat er
det ermin
gur unenn
hrou er
kri eg
ov ina
reak cija
heñ chañ
gern eveurek
oth è
traje diek
teknologiezh ioù
Hep burn
Leg er
Nik ol
Sy llab
Teo d
fuz ion
Redon um
Kinnig et
Kreol eg
jec ts
krign erien
nazi ed
gwened ek
broud añ
abl us
gouarn our
dermen iñ
engu as
dizoue egezh
Dir ty
Gl yndŵ
Gab on
hre eg
kao kazek
lang aj
tori al
лар ы
intent er
dizolo adennoù
bombez et
bombez enn
Ministr erezh
zispleg añ
Bla ck
Barn et
Barz az
Ek ologiezh
Fou quet
Fou enant
Fel ger
Tit l
goll as
hek to
hlo erdi
kot oñs
prou enn
publi kan
sour rus
alli sut
Stan ford
penna enn
Hert z
hadur ioù
luziet oc
Kala hari
Lly welyn
comp uter
dañjer us
ula ire
wat t
stadeg el
stadeg enn
Indi aned
Fa ir
Fir en
Sand hi
Sand hioù
Vod adenn
ил и
distri g
razh ed
new ydd
kazet enn
Dibet aned
ific ación
Virgin ia
aritmet ikel
Depart amant
Depart ment
Drou k
Fam ilhoù
Gil les
Hol y
Just is
Lad akh
Ol li
Pr antad
Peo c
TH C
fac torial
mour teg
nou spet
venez ioù
arver añ
Gwyn edd
bleg enn
haroz ed
izelvro eg
Jorj ia
diplomat el
7czo xM
BO L
Fred erick
Gouez oniezh
Lor en
Ped ro
Priñs elezh
Up per
band ennoù
kron el
pret ioù
sened our
okit aneg
disrann idigezh
tru aj
aymar ek
ifest adeg
FL B
Fest ival
Klas où
Mek ka
Ny ýa
Spe ied
Tech et
mist isism
nouez où
сен бі
adeilad ezh
dira ez
stud erion
zow lagad
paer on
harg où
ruj umant
tsalag i
testen iekaet
faezh et
Christop he
BE ES
Bres le
Cont rol
Ef ez
Lar ry
Neu mann
Vill emar
frek añsoù
kizi dik
moa ien
mizi ek
siz e
sali chek
aters adenn
tist reiñ
renab let
verde iñ
pardon ioù
Poet ry
Essa i
etimolo ji
peulvan où
Bik ted
Balt el
Eug ène
Gym raeg
Kow eit
Nes añ
Ost iz
Sistem où
soli d
wiki pedia
zim eziñ
alfa betek
stek iñ
berson el
aerlestr el
diskuli et
Law rence
Johann es
doñv aet
gwallzar voudoù
Araog ennoù
flemm us
kwant ek
Compan y
Nacional ista
Civ itas
Iow a
Leno ra
Louz awouriezh
UD B
Ut tar
clav e
houd evezh
merzh er
pement adoù
sran ang
är vi
ên cia
artif is
Arver et
akadem iezh
spra che
varrenn ig
savete iñ
apost azia
Lex ique
tosk aneg
treuzfurm iñ
kevreadurezh el
touchennaoueg où
diction naire
postel erezh
treusk aset
dialec ts
Bok mål
Cô tes
GN U
Hano i
Ki beren
Kolo seiz
Kuj ula
Kannad ig
Navar ra
Polog n
Rol and
Sala un
Tc had
Tay lor
Xhos a
beiz anted
kag irek
portug alek
santelezh adur
temp s
tcha touranga
төр т
adop tet
issu e
Stali et
dismeg añs
origin es
Emir elezhioù
Embre gerezhioù
hoû zh
govel iet
engl euz
Saig on
Harmat tan
halv adeg
folkl or
Apoll on
akalpa keg
Blav ezh
Card ona
Edu ard
Grad lon
Hym n
Jama ika
Kistre berzh
Lâ ret
Nao vet
O3M 6
Prus ia
Qazaq stan
Roaz on
SY R
Seneg al
Seno zoeg
Squi ban
SAD ED
Tchehal iseg
Wrec sam
kne cht
sve dat
Рес пу
бл ик
шен би
шәм бә
ezteul er
habit en
uruguay at
adeu c
omtav rouli
bralt ar
Stras bourg
istrad ed
Lieb knecht
hengevre ad
Herzeg ovina
Parlon s
Laugh lin
Pennsy lvania
Karakalpak stan
Amerindi aned
Aztl án
damalli di
Frankinc ense
Egyp tian
tchouv acheg
Hondur as
Glyndŵ r
Nyýa zow
Villemar qué
Респу блик
" ...
' ):
( “
) ),
) ".
, "
, .
. </
0 6
0 9
1 18
1 200
1 14
1 13
2 15
2 16
2 30
2 80
3 20
3 80
3 29
3 35
4 11
5 11
5 60
5 70
7 F
7 vet
7 50
8 31
8 75
8 37
9 80
9 39
9 37
9 1674
> >
> </
? :
A in
A es
A ka
A tro
A raok
A gre
A ust
A riz
A ga
A post
A igu
A ters
B C
B Z
B é
B is
B ont
B eur
B oc
B euz
B oned
B ugale
B arc
B iss
B lon
B AG
C A
C G
C P
C V
C y
C ant
C in
C oa
C lo
C ob
C hall
C han
C hañ
C had
C ai
C ros
C lub
C AT
C yan
C roix
C LA
C offe
C alais
D et
D at
D ent
D ik
D ak
D ian
D orn
D eb
D erc
D ill
D eol
D ress
D AP
D ennis
E B
E V
E i
E le
E vi
E reg
E ski
E rik
E nep
E asy
F la
F us
F ost
F ile
F ourn
F reed
G F
G I
G ŵ
G am
G ol
G ia
G arn
G est
G êr
G op
G ust
G ozh
G laou
G off
G ourin
G embreiz
H z
H ur
H as
H all
H il
H amm
H ig
H ec
H eng
H ale
H lod
H ue
H añv
H avel
H ome
H euli
I K
I T
I mer
I van
I werzhoneg
I dent
I UP
I EC
J en
J in
J our
J ug
J èr
J erzenez
K K
K y
K iz
K all
K ann
K oll
K ana
K rest
K ompren
K azi
K rennamzer
K eoded
K ember
K ampion
K RI
K embreiz
K redet
L V
L en
L eo
L av
L om
L is
L le
L im
L oc
L um
L us
L ig
L ug
L iver
L ost
L ing
L arz
L lan
L yle
L ena
L istri
L ight
L ise
L IB
L SD
L td
L izer
L evenez
M O
M am
M ak
M ali
M oñ
M estr
M yr
M én
M ess
M otel
N W
N ä
N er
N is
N il
N ag
N um
N ich
O h
O s
O is
O mar
O per
O kan
O ce
O tuz
O hio
O wain
P ot
P and
P ezhioù
P omp
P iet
P rest
P ron
P rizi
P ors
P orth
P listin
P gz
Q in
Q ui
R ö
R ik
R ud
R aou
R and
R ug
R id
R ac
R AM
R itch
R DP
R DA
R wanda
S U
S g
S añ
S ev
S ti
S hi
S ier
S cha
S ign
S ong
S anda
S ans
S án
S elec
S now
S oft
S othoeg
S ample
T P
T w
T et
T is
T oc
T ras
T oud
T har
T ier
T reiñ
T hor
T ous
T rig
T rin
T hat
T ourioù
T sim
T wo
T roude
U V
U Y
U s
U bar
U CLA
V a
V ou
V iv
V az
V ec
V ich
V loaz
V ita
V IIvet
V HS
W i
W y
W en
W ik
W ask
W ork
W ord
X IIvet
Y r
Y an
Y ar
Y eo
Y eun
Y ue
Y FK
Z u
Z onder
Z heng
[ ]
a br
a ug
a ut
a je
a ine
a usbau
b k
b iñ
b est
b ina
b ened
b ouz
b iken
b lak
b ém
b euzet
c é
c ir
c ion
c ap
c au
c tion
c hadennoù
c rê
c tus
d ï
d um
d oz
d ard
d urzh
d ür
d ung
d wy
d odenn
d ollar
e en
e er
e ine
e igen
f ø
f it
f our
f ia
f ic
f fe
f oz
f obl
f urt
f eunteun
g ez
g où
g ezh
g es
g est
g ul
g og
g and
g ober
g ana
g eun
g ennet
g ie
g ros
g lann
g udennoù
g ennad
g ellet
g uide
h 1
h le
h ist
h ot
h erien
h unan
h ui
h itar
h ompren
h geriadur
h ostez
h roc
h lann
h dredan
h likoù
h alie
i y
i am
i vo
i fer
i antoù
j en
j er
j ou
j ur
j eg
j at
j av
j ab
j ing
j estr
j pou
k b
k li
k oar
k ouez
k est
k op
k ilh
k euz
k rak
k uk
k ien
k itar
k reder
k rin
k let
k raz
k ör
k omunourion
k now
k ezeg
k likoù
k ablus
l li
l lo
l evel
l amp
l enguas
m 2
m met
m os
m oz
m euz
m ologiezh
m ous
m ada
m alt
m ignoned
n un
n amant
n aet
n ie
n odoù
n ynorsk
o y
o ǧ
o er
o se
o adoù
o tre
o va
o ïl
p æ
p ha
p un
p iz
p oc
p ul
p arzh
p ic
p ton
p riñ
p tor
p one
p ass
q am
q ama
r p
r ö
r ō
r où
r adur
r out
r oute
s n
s r
s ü
s ə
s ig
s hi
s ang
s olo
s aos
s ord
s okio
s hire
s pacing
t ā
t adoù
t os
t hi
t emat
t ave
t book
t okol
t ebriñ
t añsal
t hetic
u ar
u se
u ft
u taat
v d
v li
v ud
v adoù
v ilh
v estr
v eno
v lan
v leun
v oundek
v ignon
v iking
v ami
v ignoniezh
w g
w r
w s
w it
w ennoù
w iñ
w ern
w iad
w astell
w ineg
w heat
x ʷ
y g
y l
y st
y ac
y ks
y tic
y ǝm
z re
z ur
z ri
z em
z ioù
z ennoù
z le
z est
z aeg
z ever
Â ksâr
Ü ç
á l
ä ber
ç e
ç it
è se
è ve
é es
é sie
ê z
ê che
í st
í gen
í lia
î les
î né
ï on
ï añ
ñ se
ñ zor
ó s
ô l
ø r
ü k
ü ç
ü rus
ğ ıq
ŀ l
ś ru
ǝ yǝm
ˈ ty
Ε λ
α π
γ λ
δ ι
δ ρ
λ ι
λ ό
μ ου
ν τα
ρ ία
σ ι
Б а
Т ав
Х э
б ө
б ол
б әр
з ык
м е
м ы
н е
р т
р э
р ѳ
с ан
т ыз
т уг
у у
у ч
ц а
я зык
і м
җ и
ү й
ү ч
һ әм
ә бер
ө ч
ө ө
ֶ ץ
ָ ּ
ב ֶ
ב ָ
ח ִי
ר ֵי
د ا
ि क
က ိ
အ ာ
ស ្
– (
” )
… ,
… .
an is
an os
an mar
ar v
ar in
ar em
ar sav
ar hent
ar diz
ar sell
ar gas
ar val
ar cher
ar tic
ar ondis
ar roudenn
en on
en kas
en linenn
en cyclo
en cia
en istel
ez où
ez our
ez porzh
ez tao
er ost
er vat
er giezh
et ti
ou et
ou est
ou ver
ou los
ou gerezh
el i
el s
el añ
re un
re ñv
re vi
re vr
re ishoc
re publikan
al adoù
al uz
al lit
al gon
on ennoù
on is
on ic
on denn
on lar
on ezek
ha e
ha k
ha et
ha ver
ha ta
ad implijet
ad wel
ad aozet
ad kemeret
ad stagañ
ad dilennet
ad kempenn
di di
di zh
di vez
di am
di roll
di ve
di labour
di lerc
di ff
di mp
di hun
di seblant
di skouarn
di wez
di ella
di drouz
di bersonel
st ep
st lennegel
st arti
ant et
ev i
ev enn
ev ant
ev in
ev ek
ev ezhioù
eg i
eg erion
eg ipteg
zh ug
ri c
ri e
ri o
ri eg
ri co
eu d
eu v
eu il
ro is
ro sa
ro kañ
in el
in de
in sec
da u
da ch
da men
da kad
da vare
da chennoù
sk l
sk r
sk el
sk enn
sk il
sk ell
sk ap
ra ma
li r
li ezh
li est
li tr
li ck
li ers
li pañ
em ziv
em ezañ
or c
or f
or der
or ks
or añj
or ps
ed us
ed ourien
gant ad
at z
at ro
at iva
ek adur
ek ologel
ek osferenn
un ell
un ya
un vouezh
un iadoù
eo st
am o
am our
am dranzitivel
am hareg
ol am
ol éon
it ia
it che
av ant
av ioù
iz ez
iz or
iz ed
as p
as ion
as adennoù
om en
om ent
all y
all man
war lec
bet a
es a
es sa
es sen
ent es
ent iñ
ch ec
ch rist
yezh er
yezh ouriezh
yezh oniourion
pe hini
pe davare
our et
our us
la ï
la st
la eg
la erezh
la ut
la ke
la ine
la joù
zo c
is on
is ed
is sa
is huang
il où
de a
de au
de co
de hour
he ñval
ell ou
se p
se ja
se idon
evit e
ao ek
ao tr
ao ter
ag ra
ag ask
ag ram
ag glu
vo ir
vo ice
ik o
ik enn
ik egezh
ik ouy
ik orps
le ar
le on
le oneg
le anez
ann ezet
lo w
lo sk
lo jik
lo jet
ma j
ma p
ma ji
eri or
eri as
eri digezh
eri co
out liers
im er
im ier
Ar gant
Ar ch
Ar lu
Ar sell
Ar mel
evel t
skri t
gw ik
gw isp
gw astell
gw raet
ob jedoù
pa ker
oc a
oc cident
dre it
dre ment
ne ñv
um s
um ar
um as
ia q
reizh kred
ab e
ab erzh
ab yte
An to
An no
us h
us ar
us si
iezh où
anv e
anv adur
ti o
ti fenn
ti pos
ll es
gou mbeg
St o
St ud
St urt
St ival
St rizh
St allman
ist anted
ouri tania
skriv erien
skriv erez
ig o
penn ek
penn iezh
penn lec
penn adurezhioù
ken stur
ken urzhiañ
son omiezh
ren añ
ren erion
arn odiñ
Un ix
plij e
plij out
est an
sav erien
sav ouriezh
og ée
uz ik
roll er
az er
az enn
erezh el
Gw in
Gw ent
Gw ag
Gw rez
Gw riziennoù
Gw itreg
tre iz
tre ma
ak s
ak int
kent yezh
ot s
ot á
ot os
ot her
ot te
ot hy
od erioù
oli fant
dro e
dro mpilh
vi o
vi ch
vi che
and en
ok imiezh
ok arina
vro gar
ret ouriezh
dig ez
dig ion
dig arez
implij erien
implij idi
met rad
arzh in
os fer
os evelt
ran ko
ran ge
18 17
18 14
18 11
18 21
18 35
18 26
Al le
Al berzh
Al bom
En tre
En dro
En bro
her manek
gall aouek
hi eu
hi per
sp oe
sp ringfield
mar ia
mar ilh
mar va
mar mouz
Li p
Li am
Li ech
Li bre
skou led
erien ce
ug ed
bl em
bl oa
bl adennoù
ver sion
hall fed
Bro ok
ic on
ic ker
Sk oaz
Sk oed
hell enistel
men i
men el
men ozioù
ian s
ian us
ern o
In gal
In com
gra er
rann frazennoù
bro ad
bro sez
bro ses
bro iou
op p
op ol
op pid
op tered
op yrum
Ur uguay
hel stan
hel tieg
du k
du ad
han ba
han edigezh
ta w
ta er
ta chet
zer o
ost is
ui e
pl ad
pl in
pl us
pl ane
id os
hen el
hen verb
hen iwerzhoneg
kem ere
ing ton
20 7
20 9
hoar veze
ac hañ
orn eg
dou et
dou eg
dou ll
div skouarn
Di rak
Di edoù
Di eub
tro as
zi bab
zi plom
Mar gar
Mar ku
Mar ksour
int e
int on
den ce
dis c
dis rannet
dis rannañ
dis fiz
dis pakañ
dis hual
dis paket
dis hañval
dis heñval
der e
der ou
der aouer
dan ia
kav or
.. ..
stag as
lizher où
har reg
tra g
gal onenn
lavar ioù
lavar ennoù
lavar iou
me y
me ṣ
me er
man aveg
var ks
adel ezh
adel ph
oz y
tik el
si ble
per adurioù
per my
ber a
par l
olog ia
olog ue
ori yeg
tu et
tu res
lu ioù
lu sket
lu fr
lu tig
heñvel revel
ili es
rak keltiek
din al
din ger
din ast
nem or
nem ent
viz e
viz iek
ang ek
ap pro
ap ük
pro fet
pro letar
pro tokol
15 3
15 4
15 8
15 14
15 35
15 78
15 39
15 43
15 48
hervez o
mor el
mor se
vel o
vel ace
ke y
ke in
ke jañ
blo ck
kan a
kan iñ
nemet o
Em b
Em ili
Her ai
Her sart
Br us
hent elioù
ofis erien
17 58
hou ng
tr al
tr ub
na hu
na ult
na ontek
mat h
mat ica
ter a
Er er
Er ger
Er fin
Er vlan
je diennoù
kel t
kel où
diaz et
diaz adoù
seurt ed
ko w
ko sk
ko diñ
eb iezh
Ma i
Ma ï
Ma ast
Ma ouritania
Sant ali
lizherenn ek
lizherenn adur
Pa skal
Pa pers
16 6
16 7
16 8
16 59
16 36
16 32
16 38
16 41
16 47
16 65
16 98
Le f
Le ft
ho ed
ho ka
10 3
10 8
Gou ed
Gou lenn
Gou nez
Gou zout
Gou nezet
gan eo
gan erez
pad as
Ker c
Ker Ofis
Ker avel
Ker gi
lies ad
lies doueek
kev arzhe
Im pal
Im prim
dia vez
14 2
14 5
14 13
14 40
14 58
14 97
studi as
studi oioù
rank fent
lez as
Da u
oun ed
ort od
dez revell
peur gent
peur vat
peur vir
deg ad
aer on
teu io
skol aerien
13 5
13 7
13 00
13 45
Mor lu
Mor bihan
Par sons
au dae
disk arg
disk oachet
fon ks
kal ite
ank l
ge hent
vor el
vor ouriezh
vor dredan
Ne izh
the id
gav r
gav adenn
hw ay
elf ennañ
uhel gompezenn
klo areg
klo tañ
klo erdi
broadel ourien
fra ezh
gour skridoù
gour drouz
12 5
12 6
sin añ
sin halek
labour et
veur at
ya br
ya fe
ya hat
disheñvel out
th on
ba sk
ba ch
ba ud
tri n
tri vli
gent el
mont ano
dindan añ
ien où
Dre ux
eneg ro
rel egoù
su a
su j
diz emglevioù
Rou anez
Rou maneg
Fran ck
ale ous
fer ell
fin ite
Kan ol
Kan aouenn
bev oniour
Gen ova
po em
po wer
brezel erien
Penn lec
to et
to enn
to emm
atom iezh
led red
arouez lun
kalz ig
cha îné
Je han
Je ffer
Tre v
ay eg
les anvioù
ust a
izik en
dar emprediñ
Not et
va iek
va ieg
Bri ant
dour ennoù
sant ez
sant adoù
sant imantoù
Skri g
mon umant
reol e
Pl ouz
Pl ym
Pl omel
Pl añvour
Daou laz
glev ed
mo haw
gwiri añ
termen adurezh
sa ṃ
sa ilhez
Alam eda
kont ed
kont roll
kont rollet
pet a
At co
Bret oned
Bret tania
bod añ
roman eg
roman izadur
don oc
don ezon
kad oriad
stad t
Ch ris
lâ re
lâ red
ow ski
Ren et
Ren ad
rumm ataet
Du c
Kar t
Kar terioù
eeun añ
eeun oc
gomz où
gomz ont
zeu g
bobl où
bobl ad
dev an
dev ije
ff el
ff re
ff udd
kañ val
stêr anvadurezh
Amer ikan
Ken werzh
Ken rouedad
Ba en
treuz douget
treuz furmet
30 5
30 7
Pro sez
eno e
bu zhug
ded enn
ts eg
ts im
ts che
Hen goun
Hen roma
Se ine
Se yahat
arm ezh
risten ien
ip i
zisk wel
oñj al
kat ivel
vev ien
dam all
elektron ik
50 9
Ro i
Ro se
Ro che
Ro ald
Ro osevelt
Rom antoù
pat ois
ill on
Gall es
diñ s
taol ennañ
taol ennadur
taol enniñ
bo at
bo eson
bo oks
ital ika
log os
Lo velace
Nor d
Nor te
Nor mand
brudet oc
ker den
lot te
Mer lin
Mer kit
Mer chant
fizik ourien
Mont enegro
co pe
co de
co ordin
22 5
vuhez egezh
gitar ourien
hu a
heu re
be at
be au
gouarnamant el
Douar ouriezh
dek red
Tibet eg
Ber gen
Ber ge
Ber ry
bel ec
bel gat
Ad savet
Ad kavet
Ad ministration
Oli fant
Rus ed
ari ot
skeudenn et
skeudenn aouet
Tro idigezh
hon où
Mo jenn
Mo vement
Gra ce
dr ums
ga zh
mir and
mir dioù
live et
stan ding
Per se
Per rault
bell gomz
pal atal
rol liñ
El orn
Lu ft
gev andir
Re ac
renk adurezh
izel aet
isp el
galloud us
galloud usañ
ukle el
sevenadur ezhioù
He avy
Gal lia
Kel ennoù
Kel eier
Kel tieg
hat tan
hat olik
Gu ern
Gu jarat
Gu ishuang
gas er
So hier
bou revi
buhez skridoù
dachenn ad
Spagn oled
con stit
nukle id
skin weler
Tur ner
tor fedoù
23 6
Me ad
Me dina
lêri e
sel ona
ress ive
27 5
Lou aneg
bek et
end eo
azi adeg
sokial ourion
vod adenn
heuli as
Mal ak
Mal ivel
no tiñ
Ge çit
Man y
Man av
Man hattan
col lec
col lap
yaouank oc
servij out
Kreiz amerika
Vi ma
Vi eux
lam a
lam adur
29 0
29 2
De skrivadur
gann ad
gann wg
ment e
seg ondenn
dremen as
Ger s
Ger veur
Izel vro
neu dennoù
ze skriv
vest l
mab le
europ eg
pred eriet
dik adoù
divyezh eg
berr bad
Div i
Div roañ
Tra onienn
Tra ctus
Tra jediennoù
krog adoù
ral oc
tak son
dib aot
Bar on
Bar ret
Bar selona
Ed die
Ed mond
Etre broadelour
prez id
Po em
hev rennadur
mi wokeg
niv c
dibar ek
pleg adel
Char lotte
Kal ispel
Pobl el
kom ekrud
menn adoù
Co ok
Dan vez
Lod ennoù
Sal ver
gwar an
alamaneg erien
fiñv et
fiñv us
Col a
Col bert
bra hweg
if t
pre cis
vroadel ourien
kuit aas
Ben fro
Ben vegoù
Geriadur ig
Min ihi
hal in
Leon ard
aes soc
kou sk
kou de
kou moul
Bu da
kl emm
kl eub
Ho el
Ho aladoù
Ver sailhez
leun iet
gallek aet
28 9
gont adenn
Car lo
del ta
del wenn
del wennoù
Test enn
Ethnolog y
Frank furt
Kon stan
Mich erioù
Si am
Si ouslaw
forn uft
echu as
Con stant
Con ference
nam iz
Ara beg
Ri bag
kro mm
kro aziet
skourr où
Krist ol
stil haneg
Studi os
Gwel ed
plant es
plant ennoù
Bon apar
Mon de
Mon aco
Pol ar
Pol oneg
Ser van
Ser vice
sol u
Dar k
bur meg
bur gh
zis oc
zis pak
zis parti
arvest iñ
asambl ez
tic al
silabenneg où
Mat ematik
SI N
tou p
tou ell
saoznek aet
Ac adem
Mil in
ven ia
enroll adenn
enroll adennoù
Louis e
lenin ourion
enklask erien
ley er
ci pe
ан а
ан д
iss ance
hier atek
Il dud
Ka wan
No al
No va
No ël
Th rough
goul ou
iliz ations
To day
Tim othy
dilenn adeg
Ke ñver
Ke ith
Ke fridi
bal tek
bal izennoù
dorn skridoù
Arvorig iz
hend all
fonem ennoù
Brit tonum
displeg adenn
statud où
Aber hond
Ta iland
Desk et
preder ourien
lit z
pas ivel
pas sant
zha deg
33 2
Gour enez
Holl bouezus
Ni xon
Qu and
hskeudenn erien
roud et
roud adoù
AR N
Kevre digez
Mel ody
Ph illi
TO K
jed oniezh
jed oniour
mes a
184 8
aotre egezh
Arm orica
feiz oniezh
hwez ek
poell gor
korf où
Universit aires
Rich er
fl amm
tol padoù
labous ig
Bur kina
Bur undi
Lat imier
Or gan
Or th
Or tiz
bit où
glo k
glo bal
glo kaat
ever d
degouezh out
Ouzbek ed
Lit tle
Mir dioù
ei ro
tibet an
oglif où
houlenn e
diaes oc
Dil ez
Mag al
lon ket
lon kañ
Bev ennet
Red adeg
San c
Tu ll
horn ad
horn og
hwezh et
pik eg
pik non
tam ileg
tam bém
zig arez
ür ki
ary ek
skad ig
lig istri
akt ivel
Bour c
Ex eter
Ram ón
kil ometrad
abugida où
38 3
Cam ille
gompren an
gompren as
kleiz our
Arz ur
geñver elezh
Plou diern
Nat halie
drez e
efed usoc
mun ud
mun tret
aloub erien
Egipt iz
AN D
Cla pton
Sav adur
gl añv
mich erioù
pan evet
voc alist
loen oniezh
loen oniour
Dam heñvel
Hy p
Hy wel
ex pres
eien enn
fen se
gaz où
gristen ion
klev er
komp ozadur
tel ougoueg
dasp arzhañ
178 5
struktur et
Kaz etenn
Mad ha
Mad agask
Vol pone
sc iences
sak son
vin orelaet
vesk e
66 8
Kev arzhe
stok us
stok elloù
imo re
raktres où
gevred ad
Can yon
Com ité
Eri spoe
Fer rer
Fer gus
Gi ra
Hel ouri
Kam br
Sim ple
Ton ight
jener aled
éc ri
dil honoù
ram zel
Geo ff
Goul m
Mé xico
Trans liter
Trans mission
gol f
jañ r
tis gar
silab aer
Kont elezh
Vari añ
clo ck
ogn on
plu ñv
inter estoù
Au stral
Corn wall
Diz olo
IP M
IP v
Jan ig
Jan eiro
Lenin our
Pell gargañ
Sin ema
by e
tesk as
ай ы
istri us
hidro sferenn
rannvroel our
selaou et
selaou erien
taboul in
Led an
Mala yalam
Off icial
Vin ic
kostez ennoù
gwaz ed
150 9
amprevan oniezh
Jer emi
Kad oriad
bag adoù
gouizi egezhioù
spis c
spis aat
kalon enn
stered oniour
arbennik aet
CE LIB
Gon d
Hi ragana
Vo yage
from us
kam atz
tech ni
Gwen rann
niverel aat
Brun o
Brun dt
beaj our
titl où
Bag audae
Der où
Dour redennoù
Hin dou
Sez iz
gr and
nav ac
erru out
organ egoù
pesk erezh
Andre u
Andre v
kempl ez
Verb où
ergerzh ourien
mikro prosesorioù
Phil adelph
Hog ozik
Kas h
Kas pia
iwerzhon ek
mao diern
pu is
pu ñs
vak añsiñ
ín cipe
aezet oc
hwit añ
greun landeg
Labour erien
Ap ogée
Bas se
Bas ic
Fri adur
Fri ends
Flo rida
Hou arn
Hom eros
Krennlavar ioù
Sch rö
Sch leyer
bil ingu
sou benn
vour zh
you kagirek
hever kañ
Disklêri et
Juli et
Pla c
Pla en
Rec on
US D
chañ ch
homp ozadur
ped et
rent et
rent añ
tourist el
ziz alc
zia z
ур ав
ыр ма
divro añ
entin elezh
Mari anne
Plant s
Comm ent
EN N
Et ang
Gor re
Gor read
Hir der
Jul uan
Mez opotamia
Mez iantoù
Malc om
We is
hl euzioù
meul et
tom atez
zan evelloù
rop ological
Encyclo pé
160 5
Bos ch
Catal unya
Fili p
Jor dania
My anmar
Slo venia
TB q
Tom é
Tom az
Wal ter
Wat t
cont inu
kri tik
prest et
sam vit
sank ennoù
venn ozhioù
yak eg
yak ek
start oc
dag añ
vot adeg
Ant ilhez
gravit adurel
traje dienn
galet ez
prezeg ennoù
Comp uter
Tar im
Teo rienn
Teo riennoù
gil ometr
glav eier
gevre digezhioù
pur a
pur gat
voul c
176 8
barr où
August e
Afri kaned
Ca en
Cre am
Lok maria
Mamm ennoù
krign erezh
nd l
etim ologiezh
halleg erion
engu a
Monum ant
Blu e
Dra mmoù
Domin ika
Domin ique
Nap oléon
Pow er
Wh it
fizi out
hre anterezh
mot or
sing loù
chim ik
past oral
Mach ina
Mach ine
Europe aned
bombez ennoù
Jack son
Bla ze
Bay ley
Cas newydd
Dider ot
Ek onomiezh
Fac es
Fac tbook
God dard
Naz ar
Oc tav
Post añ
hlo er
keoded ourien
muz is
molek ulel
sul tan
paouez et
paouez adenniñ
igh ts
Dib ennoù
Dib aoe
lub où
Ploug on
Gram matica
geot debrer
Green berg
AL LE
Hier oglifoù
Kala allit
Mes sina
NS DAP
Nem et
Nas h
Number T
PO P
Pé tain
Som me
Som alia
gǝ lir
Stra bon
Gwenn ole
rannoù igoù
Tremen et
zegemer ont
Cheñch et
East ern
Pent evr
clas s
clas ificación
fel d
nom s
diver adur
stalin ourion
tig het
Inu ited
gram mar
brodu iñ
Dibet iz
danış ırs
vari ável
Guill em
Ah mad
Av ran
App le
Ll engua
Lag adeg
NO AA
NO ALLE
Nir mala
Our al
Pr íncipe
Por c
Peo gwir
Reol adoù
TH F
Tak ad
Ye ar
apar chant
cell padding
cell spacing
cep s
feu rek
flo at
genn adoù
gop ret
kur un
lañ chenn
mour anek
was haat
yaz maq
arver et
loar elloù
Gwer ziou
Proviñs où
tiriadel ezh
mennesk everd
gweledva où
ziazez añ
vietnam at
Bure au
Fred die
Mur ray
Nev ada
Pit ts
Pit eas
Yen is
gembraeg erien
pret i
vun tr
ǝk dir
ind ígen
liorzh où
Gwern enez
Ergerzh erien
Rous seau
Rous ilhon
mojenn el
phil osop
Servij où
jubenn iñ
Institut o
golvan eged
meulgan où
gül mǝk
Dur ked
EA U
Ep ist
Far aday
Gat oligiezh
MT V
Nun aat
Never mind
civ ilizations
cop iar
fla strañ
god ell
pod em
élé ment
ст ан
unand ed
Ster enn
Stered oniezh
chase al
testen ioù
dibun et
faezh idigezh
Christop her
gǝl mǝk
Gru ffudd
Orig ins
Pret tan
Yaouank iz
Yuzev ien
frek añs
kizi digezh
lun edoù
moa ian
nak es
pon ner
vreizh ek
vreizh veuriat
xc ín
zep ant
alko ol
liter ature
aoc tet
renab liñ
Under standing
hiri naj
teuli adoù
Parti do
Pleu striñ
Châ teau
ziskl êr
damkan el
Good bye
fenom en
mandar ineg
etimolo jik
Ag van
Gem per
Gir l
IO U
If ern
Nan cy
Plij out
Tol kien
Tok yo
gir zhier
gortoz et
trans istor
vant ell
ǝc ǝyǝm
ǝc ǝkdir
дү гэ
arlo adoù
reakt orioù
alvokad ed
steg n
gwern is
Gwell oc
Skra pet
trobarzh elloù
sili siom
morph eme
hore aneg
douarouriezh el
auf stand
Republi kan
mora er
skridvarn erezh
Cham ber
Digemm enn
littéra ire
Exp erience
Glen mor
Agen cy
Cab anis
Fard et
Grou p
Gos vami
Gran de
Mili adoù
Nort hern
Ngu yen
Plat on
Rim baud
ST IOU
Sau vé
Toull bac
ebarzh et
göz lük
hreol eg
jor jieg
klav ier
syntax e
teuz iñ
vast añ
بي ر
alof onenn
informat ik
skañ voc
Ardamez ioù
Arondis amant
Ander son
tiwan as
Skandinav ia
graf iezh
acaq san
Emp ire
Buck wheat
Talvoud us
régional es
Armori canus
Hierogly phi
malayalam ek
Lapur dum
קָמ ֶץ
Amaz on
CH NA
Ej ipt
Ear ly
Fre ikorps
Fill more
Gast on
KO STIOU
Leu sket
Magn us
Nazi ed
Okit aneg
Pour chas
Pré vert
Rost ren
Swe et
Tog o
Tizh et
Tré sor
Vlad imir
cultur elle
fask our
fakt orioù
pall enn
qā meṣ
uti liz
vut un
πά ντα
hazet ennoù
dizo ber
diski bl
diraz añ
lieskement où
esp ern
hesk ob
aostr onezek
embro idi
Enklask où
blu enn
Brother s
helaouenn er
sier ra
dinam ik
Kervar ker
kari bek
strisha et
Element s
Reizh iad
Carol ina
Govern ment
Phys ik
louzaw our
Klein rock
Sikili a
mennesker et
Colloqui um
Vocab ulaire
Татар ски
Archaeolog y
Afer ioù
Bog otá
Bij er
Cum bria
Cere digion
Cass ard
Dorzh iev
Drin ded
Fas o
Fag opyrum
Hap py
INS EE
Kli son
Klev et
Kegin erezh
Llu ís
Meo la
Moull et
Nig eria
Nouv elle
Soun ds
Syd ney
Sindi kad
Tennes see
Wolf gang
fik erien
hiv iziken
hevredigezh où
hhouarn erezh
juzev ion
plo ts
vaz ilektenn
youg eg
zit l
arid ennad
enci à
ersav ioù
urzha z
adunan idigezh
diad reñv
diri adoù
risk loù
litu aneg
emgef re
itan ya
itali at
imper ator
Ardivink où
ivin elezh
gwet urioù
gwambia eg
abost ol
ablat ivel
Anim als
Stum met
Stru c
kenglot us
akoust ik
Libr ary
Informat ion
aca ğıq
Didu amant
trotsk our
March and
disol vet
Herod otos
urzhud us
aleont ologiezh
Sext et
Loen oniezh
skinoberi ek
Distag adur
Scri pt
sintet izor
Terri tory
Pontec roix
filogen eliezh
folklo re
Krime a
Hyper Text
Giotop oulos
megal itoù
oxuma q
Firen ze
Efez iz
artifis iel
91674 5
Atro pa
Agre ement
Ariz ona
Boned où
Biss au
Blon de
Cob ain
Cai us
Cyan istes
Coffe a
Dill eri
Ei ffel
Eski bien
Gust ave
Hig hway
IUP AC
Jèr ri
Koll et
KRI CHNA
LV K
Larz ac
Moñ forzh
Myr rh
Motel s
Nich olas
Ois ín
Oper a
Raou l
RAM A
Ritch ie
RDP K
Sañ skriteg
Sier ra
Sán chez
Zonder eigen
bened e
crê pe
durzh unell
jpou reg
malt out
pæ dia
qam ets
qama ẓ
temat ek
tave iñ
zle e
śru ti
ˈty ː
рѳ в
חִי ר
ardiz ation
eztao liñ
erost en
diwez atoc
diella oueg
starti jenn
emziv ad
itche weg
agglu tin
Arlu th
Arsell va
Armel ine
gwisp id
Sturt evant
akint hos
Liech tenstein
Incom e
Marku p
permy akeg
block quote
Herai os
houng eg
nahu atl
Maast richt
Kergi du
Impal eriezh
Imprim erie
Neizh iañ
aleous ian
Jeffer son
Plym outh
Plomel in
Brettania i
collap se
komekrud ek
Ribag or
Bonapar te
Aberhond du
Madagask ar
Fergus on
Brundt land
Philadelph ia
Schrö dinger
Encyclopé die
NOALLE G
indígen as
дүгэ эр
Татарски й
! )
" '
' :
' ),
( (
( +
( =
) ",
* ,
- :
. ;
. ”
0 4
0 7
0 48
1 st
1 19
2 V
2 19
2 20
2 88
2 nd
3 17
3 25
3 31
4 e
4 000
4 12
4 30
4 50
4 22
4 28
5 24
5 27
5 pt
6 vet
6 000
7 000
8 000
8 70
8 33
8 74
9 50
9 36
: ”
? ?
A O
A q
A ur
A ri
A our
A pa
A ne
A us
A res
A man
A si
A udi
A bi
A mat
A ff
A stenn
A orel
A gur
A stro
A gri
A esoc
A sini
A mable
A SIN
B I
B J
B ha
B un
B 00
B oll
B ouri
B est
B urt
B ast
B oni
B aj
B ee
B age
B ass
B ata
B omb
B arnenez
B udd
B irin
B ountet
B uddy
B roudet
C S
C i
C á
C ic
C oz
C ho
C rist
C au
C omun
C are
C arc
C live
C raz
C ress
C ult
C lé
C ath
C anter
C ódigo
C yri
C ross
C lut
C lear
D é
D û
D al
D ad
D ro
D un
D it
D vo
D añs
D ac
D har
D reg
D uk
D olo
D ada
D one
D ji
D és
D adra
D ebriñ
D ante
D estin
D örd
D anau
E G
E L
E un
E ag
E ñv
E sp
E mer
E lies
E lez
E stad
E liz
E zek
E bol
E tou
E reoù
E sc
E dit
E conom
F C
F N
F em
F ed
F un
F uz
F oz
F orzh
F lies
F ast
F izi
F ask
F if
F ata
F ors
F aoued
F ave
F rit
F ox
F aeroeg
F idel
F idji
F lick
G é
G ó
G ed
G un
G im
G ouri
G ren
G og
G ori
G evre
G ay
G ron
G astell
G ish
G annad
G ato
G RA
G ambia
G argadenn
G ristenien
H r
H ô
H our
H ok
H os
H op
H ui
H ip
H omin
H ave
H arzoù
H ugh
I D
I N
I d
I j
I o
I ri
I ro
I da
I êr
I sa
I ves
I rien
I beria
I gn
I berek
J et
J ur
J har
J ap
J ong
J ord
J azz
J ava
J SR
K D
K j
K n
K enn
K es
K our
K la
K is
K ik
K ouez
K uz
K ot
K har
K omp
K ennet
K aer
K hw
K omun
K wa
K ostez
K redennoù
K ado
K omb
K EN
K ition
K ings
K ustentin
K auf
K olier
L ob
L oar
L op
L eb
L hu
L aval
L uther
L illo
L ynyrd
M A
M is
M ouez
M ing
M adel
M aez
M ap
M esk
M ela
M uzuliañ
M oarvat
M off
M oment
M usta
M enoe
N P
N in
N ol
N om
N og
N ation
N one
N oblañs
N ance
N gh
N CP
O Z
O ch
O ak
O mer
O car
O det
O ump
O beriant
P ou
P li
P ennoù
P il
P ug
P ern
P har
P euz
P rak
P ala
P lin
P les
P riñ
P ois
P ius
P SC
P uer
P NG
P irc
P omperien
P isin
P ardon
Q ar
Q ad
Q ay
R O
R g
R y
R í
R ü
R is
R um
R est
R aj
R ico
R ép
R KA
R LVK
R FC
S eg
S le
S ud
S ket
S og
S ep
S ot
S of
S hin
S ran
S ech
S har
S par
S ang
S eb
S elf
S ay
S ieg
S co
S BN
S art
S no
S hig
S eni
S ego
S qʷ
T in
T ag
T adoù
T ot
T ran
T res
T her
T ho
T ort
T omm
T ill
T amer
T rad
T ezenn
T iss
T hier
T hing
T TO
T ome
T TB
T euli
T aves
T ürki
U ter
U ser
U rien
U DP
V ezh
V ik
V ig
V ras
V ot
V and
V os
V ac
V oul
V oz
V au
V uhez
V aj
V ong
V uzul
V org
V anda
V ey
V organ
V illa
V arzhed
W 9
W m
W on
W or
W ol
W it
W ig
W ast
W eng
W ill
W alt
W lad
W anez
W rac
W ray
W ings
W elles
W azeg
W ERTY
X u
X en
X iz
X IIIvet
Y ed
Y emen
Z ü
Z en
Z eno
Z SI
Z ola
Z ERTY
[ ...
a ː
a ḥ
a ed
a un
a ennoù
a he
a ka
a ern
a pl
a fe
a erion
a io
a hont
b s
b ǝ
b ə
b où
b em
b ist
b ui
b ilh
b eil
b arz
b aneg
b eng
b ign
b ital
b rizi
b ound
b und
b iria
b engő
b eure
b ountet
b rini
c 1
c ı
c ə
c en
c ad
c ra
c em
c at
c il
c alc
c ui
c ast
c ler
c ations
c ock
c oulomb
c ümǝ
c ategori
d 4
d T
d w
d à
d ü
d ant
d oar
d reizh
d adoù
d ern
d ru
d bu
d ron
d ys
d eol
d orioù
d emz
d ır
d own
d rizek
d V4r
d reid
e a
e an
e añ
e fe
e adennoù
e xt
e jet
e ürus
f 9
f u
f es
f is
f od
f ret
f oun
f fon
f rad
f roud
f oñs
f idel
g 6
g li
g it
g ennoù
g ell
g evel
g ab
g ras
g ost
g ast
g oñ
g rist
g emp
g ust
g omunour
g rennamzer
g laz
g reisteiz
g én
g ess
g rign
g oñs
g omedienn
g ikouy
g ivinelezh
h 2
h 6
h v
h â
h è
h ê
h li
h war
h and
h ok
h lev
h ori
h ub
h ut
h ala
h anvioù
h ru
h ong
h stan
h ruz
h laou
h odoù
h êriadennoù
h mereg
i ː
i ol
i ras
i dig
i egezh
i we
i ás
j à
j od
j adenn
j sko
j inoù
j ord
j oñs
j abi
j ours
j ourd
k y
k ũ
k ʷ
k oa
k is
k ist
k adoù
k of
k ut
k lin
k ign
k rig
k omunouriezh
k eum
l en
l le
l êr
l ui
l ong
l entez
l uganda
m 3
m c
m à
m ur
m am
m im
m ud
m ouzh
m ul
m oli
m ion
m id
m iri
m bi
m ennet
m uzuli
m ish
m iss
m V4
m iria
m intin
m euliñ
n s
n ̪
n ad
n ant
n ul
n aou
n id
n oazh
n goun
n ga
n end
n ano
n oñs
n V4
n ouv
n atri
n goumbeg
o ː
o red
o van
o ji
o dic
o kaz
o tip
p ez
p ant
p eus
p hen
p ouezh
p het
p ologiezh
p tion
p neu
p odoù
p ology
p éri
p rusian
p agan
p avioù
p ienoù
p ipi
p istrius
q tun
q arda
r t
r and
r añv
s j
s q
s v
s é
s í
s ʌ
s ev
s ioù
s he
s pa
s of
s op
s ui
s ved
s oun
s hu
s sel
s ym
s anda
s ound
s V4
s more
s ample
t ə
t ̪
t hag
t ann
t eur
t anv
t og
t ok
t ern
t rez
t hou
t oun
t age
t hat
t lan
t ze
t ung
t arzhet
t hai
t oto
t ǝr
t wo
t ouseg
u a
u q
u da
u ist
u bl
u dis
u vel
u ster
u art
u vre
v y
v á
v ā
v ə
v ur
v ra
v oa
v all
v im
v agn
v ing
v añs
v evez
v aget
v erzhioù
v istri
v aux
v yan
v ignoned
v rous
v roude
v engleuz
w u
w am
w est
w ok
w ec
w op
w ere
w ave
w orth
w ena
w ald
w ick
w eni
w anaat
x a
x x
x ̣
y ü
y ī
y ũ
y es
y out
y im
y ter
y che
y stem
y cin
z on
z añ
z am
z av
z ong
z eta
z añsal
² .
» -
» ).
» ),
É tat
É cole
à ng
á ñ
á in
á des
á rio
ä ş
ç ü
ç ador
ç ǝk
ç ões
è te
é ta
é ré
é zet
é chal
é dition
ê ts
ï n
ï lles
ô n
ô tr
ú l
ú ʔ
ü l
ü m
ü t
ü hr
ü íst
ā n
ā gar
ă k
ă ṭ
ă il
ĩ kũ
İ y
ŋ s
ō ng
ş am
ş gün
ƛ ̕
ə cə
ɬ ə
ʊ ŋs
΄ »)
Η με
έ ρ
α γ
α ς
α σι
ε τ
ε ία
ε σένα
η ν
ι δ
ο γ
ο λ
ο μα
ρ ώ
τ ος
ω ν
ό ς
ό που
А лар
Б ар
К о
М я
Н а
Н эг
Т о
Х оёр
а п
а х
а ш
б ес
б ул
в ә
г ыз
д ар
д ан
д ер
ж ана
и ч
к а
к ай
л ы
л әр
л өр
м дар
н эг
о о
с и
с иг
с ән
т ү
т ын
у п
х оёр
ч ы
ш ы
ы м
э к
і л
і р
ѳ на
ғ ыз
ң ыз
ү з
ү ш
ְ ג
ֶ ג
ֶ ף
ֶ ק
ַ ף
ַ ץ
ּ וֹל
ב ַ
ב ֹ
ב ּ
ס ְג
ס ֶג
ح ش
ک ی
र ी
ต ั
ท ย
ไ ทย
ក ្
រ ៈ
ḡ ôl
ḥ ata
ḥ ăṭ
ṯ aḥ
’ ’
… )
貴 霜
an ik
an erezh
an ic
an oeg
an ave
an atomiezh
ar o
ar r
ar ra
ar ne
ar um
ar vel
ar vev
ar sail
ar ventennoù
en ç
en an
en adoù
en sav
en vro
en iel
en der
en heg
en orioù
en porzh
en chaîné
en rolliñ
ez ket
ez erezh
ez oni
ez idi
ez eien
ez tiriadelezh
er ab
er voir
et h
et z
et ed
et ologiezh
et ru
et hn
et tes
ou b
ou f
ou re
ou arn
ou ac
ou sa
el d
el ez
el in
el ia
el evez
el ier
el ien
enn gan
enn aouegoù
re q
re aneg
re ys
re aux
re ath
re form
re port
al p
al r
al en
al as
al go
on ez
on iz
on ik
on est
on ie
ha is
ha out
ha im
ha oz
ha mat
ha deg
ha mek
ha ven
ha ouer
ha ble
ha ideg
ha bask
ha okaz
ur n
ur s
ur us
ur san
ad c
ad é
ad ek
ad our
ad reizh
ad ober
ad ic
ad reiz
ad stag
ad skrivañ
ad anvet
ad lakaet
ad dalc
ad krouet
ad kaset
ad lâret
ad verboù
ad esh
ad lañs
di ne
di ger
di gou
di ret
di men
di dud
di zi
di aez
di hent
di seurt
di te
di elloù
di harz
di ezhomm
di leun
di lestr
di skoul
di drevadenn
di zior
di skoulmañ
di ogel
st la
st us
st rol
st lej
añ a
añ vez
añ rej
ant rop
ant ines
ev al
ev eur
ev euriz
ev ousa
eg e
eg enn
eg hel
zh ioù
ri et
ri erien
ri ver
ri egezh
ri bod
ri que
ri mp
ri val
ri cher
ri ft
ri chennoù
eu zi
eu kar
ro it
ro iñ
ro gen
ro ast
ro dek
ro dite
in ha
in it
in iz
in ard
in na
in ess
in fo
in chi
in troduction
in uktun
da p
da in
da ed
da ger
da man
da ko
da go
da iek
da sa
da elioù
da olioù
sk ṛ
sk our
sk we
sk udon
sk edus
ra p
ra q
ra er
ra ou
ra mp
ra val
ra mant
ra ft
ra imp
ra jak
ra hamek
vez an
vez el
vez int
vez olektenn
li ad
li eu
li ed
li ket
li gou
li bert
em où
em ober
em met
em pleg
or ez
or ennoù
or um
or ka
or te
or row
ed ont
gant enn
at ar
at er
at on
at ch
at eur
at um
at ing
at eb
ek a
ek eg
ek ologour
ek ologourien
un el
un ev
un ik
un ic
un gen
un ded
un do
un ois
un vezh
un penniezh
eo pat
eo ged
am h
am el
am eri
am br
am reizh
am us
am dro
am ost
am eeun
am part
am tek
am redoù
am ezeg
am strukturet
am ezeien
ol où
ol es
ol ing
it et
it he
it le
it has
it ito
it än
av ent
av our
av ada
av esi
iz e
iz ar
iz où
iz erioù
iz obar
as a
as h
as ur
as eg
as is
as aet
as omtavrouli
om i
om s
om er
all eg
all ophon
war c
war ek
war eziñ
war ellek
bet ra
es el
es al
es eg
es hat
es sel
es pañ
ent ile
ch an
ch os
ch ard
ch iek
ch ip
ch ile
ch ester
ch iki
yezh adurioù
pe qu
la ik
la hom
la ozañ
zo g
zo roast
is sin
is mo
is rannyezh
is spesad
is landeg
is oma
il o
il lu
il ton
de ch
de ien
de diz
de pen
de diet
de ithas
he a
he y
he chu
he ñveriañ
adur iezh
ell y
ell ennoù
ell adur
ell inger
se a
se pt
ao tik
ao stral
ag ain
vo wel
ik os
ik ki
le i
le in
le ch
le ir
le ich
le au
le çons
ann i
lo k
lo re
lo ad
lo go
lo vak
lo kativel
ont ez
ma x
ma ed
ma it
ma il
eri al
eri ad
eri di
eri ezhioù
eur enn
eur vad
out sourcing
im i
im an
im or
im es
im ent
im ologiezh
im oeg
ud al
ud ding
ud eva
Ar n
Ar un
Ar gen
Ar mor
Ar vest
Ar tem
Ar row
Ar gompezenn
Ar dako
evel kent
evel op
iv alioù
skri da
skri jus
gw e
gw al
gw ri
gw alc
gw yn
gw anaat
br u
br an
br er
br ani
br uzun
ob i
ob erezh
ob last
pa p
pa ir
pa kad
pa ieg
pa ide
pa hlav
oc e
oc ent
dre g
dre vez
dre go
dre sañ
dre gantad
ne cess
um et
oar tic
ia is
ab is
ab ask
ab ria
ab igu
ab arda
ab rahamek
ger ne
ger ber
ger va
An gers
us ha
ka k
ka ezh
ka ka
ka zel
ka ido
anv as
ti r
ti gresk
ll y
gou iet
gou stad
gou ennel
benn adoù
benn oberenn
St ro
St or
St even
St erioù
St ép
St ock
St efan
St uart
rou dour
rou del
rou antelezhioù
ist ro
ist os
ist ry
ist osen
aoz e
ñv añs
ouri el
amm as
ig ana
penn kaoz
penn hêr
penn reolenn
ir é
ouez oc
ken v
ken verb
ken diviz
ken aozañ
ken strivadeg
son a
son e
son où
son al
son as
son aoz
red o
red adel
ren ker
Un iad
Un ys
Un anded
plij us
est lamm
ul um
ul tad
sav o
sav lec
sav elañ
emb ourg
uz enn
uz in
uz iañ
Breizh veuriat
roll añ
az iek
az ezañ
az ginivelezh
aou erezh
Gw az
Gw egen
ep ̄
ep ot
ak e
ak r
ak ers
ak sep
holl ret
holl zebr
ot ik
ot to
ot iki
ot ransitive
ot eos
od añ
od rama
oli g
oli s
oli et
oli vez
oli ted
dro enn
dro barzh
vi al
vi di
vi digezh
vi skoazh
and ant
and uilh
ok u
ok to
ok les
ret orn
dig ar
dig reiz
dig alon
dig empouez
of an
of re
lev enez
lev ezoni
implij ad
implij our
hin ec
hin du
met eier
met riezh
os ant
os lovak
os olited
ran j
18 3
18 10
18 13
18 28
Al re
Al ed
Al ma
Al man
Al ber
Al mat
Al fon
Al bin
Al gé
Al pha
En c
En t
En gel
En vor
En no
En derc
En orioù
En savadurioù
En ergiezh
En rico
res pet
res ources
her man
her wez
her tz
gall ureg
lec ture
hi d
hi ek
sp izer
sp ilhenn
sp izerioù
mar a
mar s
mar ine
mar gin
Li ck
Li zhiri
doare enn
ug e
ug ged
bl om
bl ass
ion n
laka fe
ver sa
hall as
hall us
hall je
ec a
ec ke
ec ca
Bro ken
ic i
Sk arzhet
Sk oet
Sk uizh
Sk ynyrd
hell o
hell ent
hell fent
men g
men ce
men aj
men ozhioù
ian iver
lenn adennoù
lenn erion
lenn eien
lenn eion
In dre
In gel
In dus
gra phi
rann barzh
rann gement
bro let
bro letar
bro mesa
op ti
op era
bez ioù
Ur ban
Ur bina
hel f
hel en
hel iom
du i
du t
du iñ
du ked
han ed
han as
han oc
han aouenn
han ada
ve y
ta ḥ
lav a
zer e
ost ilh
pl ou
pl où
pl adoù
pl ouz
pl uie
pl ugged
id h
id ou
id ed
id ek
id es
id ade
hen où
hen ger
hen amzer
hen eil
hen strollad
hen emglev
hen diviz
hen dad
hen verboù
hen varc
hen gembraeg
hen gerneveureg
kem ener
kem mesket
mer zout
añs iel
hoar voudoù
meur gan
brezhoneg erien
ac qu
ac oust
oul d
oul eg
dou evel
div skoaz
div rud
Di ba
Di droc
Di weuz
Di Meola
tro our
tro mp
tro iadoù
zi adoù
zi eub
bed e
bed er
bed enn
Mar ion
Mar va
Mar io
Mar co
Mar échal
ech an
ech er
int rus
int rud
niver adur
den g
den jentil
dis h
dis welet
dis entez
dis glav
dis plijet
dis oñjet
komz ont
komz erien
komz erion
der riñ
der aouiñ
dan ek
kav ed
kav ell
ali as
ali ezik
lizher adur
har ak
har ter
har evousa
daou hant
daou sistemek
tra ken
tra walc
tra kt
tra onienn
gal ianek
denn ont
me et
me on
ij erezh
ij ska
amzer vezhioù
man ifest
for mel
var r
var ia
var regezhioù
oz et
oz adoù
tik où
si en
si ras
si wazh
si ouslaw
per ag
per mek
ber eg
ber vet
ber ation
ber raet
amant eg
par ioù
par te
par rat
par koù
par adis
olog io
olog ique
olog iques
savet eet
ori k
ori an
tu keg
tu ellennoù
heñvel son
heñvel rev
ili an
tur a
rak lavar
din alia
embann erien
gen er
gen eg
gen de
gen ce
gen labourat
gen glotañ
gen strivadeg
nem edennoù
get ep
ard o
ang ström
van où
van ke
ub ieg
ap ti
ap orte
rez in
eil at
eil lard
pro por
15 5
15 15
15 th
15 30
15 88
15 59
15 84
15 75
15 32
15 66
15 57
15 98
15 52
15 69
15 92
15 87
15 51
15 72
iri e
mor al
mor dreizh
ut en
ut es
ut vers
vel eion
ke al
ke ier
ke jet
ke fred
ke ineg
ke idenn
udi ne
udi ya
bi e
bi ologiezh
bi otop
bi bli
arz ourez
kan e
kan ourez
Em gav
Em droad
Em dreiñ
Her ak
Her mann
Br ad
Br yth
Br ăil
wel e
wel adenniñ
17 2
17 20
17 10
17 14
17 70
17 32
17 54
17 57
17 71
hou el
tr and
tr elo
ala yek
dreist natur
na y
na out
mat os
ter e
ter riñ
Er bed
Er gativel
Er nault
qu o
qu im
qu ita
qu ille
qu ête
renn ou
kel ey
kel aouiñ
ouezh out
saozneg er
saozneg erien
ko her
ko rea
ko aven
eb eg
eb ung
kant vet
Ma u
Ma in
Ma ilh
Sant eg
Sant aleg
ier to
vras oc
lizherenn añ
Pa y
dra ou
dra ig
dra ezenn
dra matis
dra fikerien
ton e
ton et
enez egoù
ofisiel aet
16 3
16 4
16 5
16 20
16 16
16 11
16 50
16 21
16 80
16 54
16 56
16 43
16 77
16 89
16 92
Le ñv
Le hon
Le one
ho i
ho j
ho antoù
ho ef
10 4
10 vet
10 12
10 66
Gou nit
Gou edig
diazez ennoù
gan ienn
Ker ala
Ker rien
Ker varzhin
Ker gustentin
dal benn
tal añ
tal veze
lies yezhegezh
lies vedia
te ach
te ñzor
Europa iz
ast ero
ast ava
kev rat
kev rin
ich al
kas as
kas oni
dia esterioù
14 1
14 3
14 19
14 00
14 22
14 80
14 70
14 67
14 42
14 94
studi ennoù
kar t
kar v
kar akteri
kar amel
lat ion
lat ina
rank ont
lez varn
Da f
Da y
oun evez
oun ded
dez verkañ
peur dremenet
peur lise
emp lo
deg el
deg ouez
douar et
rat es
aer ioù
aer listri
nevez iñ
ser vije
ser vat
uk us
13 4
13 80
13 65
13 76
13 62
13 79
Mor se
Mor ph
Par us
Par ty
Par lant
Par oles
Par itito
gar e
gar ek
ubli que
au jourd
ial es
disk as
disk ennet
latin ekaet
politik erien
ank oue
gel ouriezh
ster va
izi ed
ge fridi
ge idenn
ge jas
vor skorneg
bar ed
bar ne
bar renn
bar dia
bar th
bar egezhioù
bar adoz
ce au
the ory
gav ont
hw est
hw esha
uhel ennoù
iat a
klo kaat
klo kaet
seven er
gour enez
urzh iad
Dou glas
avat ions
12 1
12 9
12 53
12 86
Gant e
perzh ier
Ab d
Ab el
Ab out
Ab red
Ab ern
Ab adenn
sin e
sin al
sin adeg
sin omiezh
sin kronel
mare adegoù
fri ed
labour erezh
labour va
Ist imet
La ezh
La ha
La us
La Vey
La utvers
ya our
rest eurel
rest achoù
ba y
ba ş
ba ouez
ba udela
... "
pell ek
pell der
pell gehentiñ
pell gehent
go eg
go roet
go dian
kement ad
ien s
eiz ioù
werzh et
eng ol
Su per
Su pre
Su ess
eneg ed
Istor ourien
su res
su jed
su jet
diz anv
diz implij
diz esk
diz kit
diz intrus
klask er
Rou z
Rou antelezhioù
Fran c
Fran ja
Fran cia
hom o
hom ograf
Fr é
fer is
Kan enn
Kan sas
bloaz ioù
bev enn
bev in
bev ennet
kreiz ennoù
Am os
Am pre
Am und
Am prestet
Am ezket
Gen eliezh
Gen aan
po ol
11 00
11 12
levr lennadur
diwezh at
brezel our
oni bili
Penn eg
Penn glaou
Penn aennoù
Kem mesk
to eg
to way
led d
led enn
led ennad
nig ht
anavez as
Frañs izien
cha ok
cha degoù
cha oser
cha mada
Je f
fam ily
ign er
Evit e
Evit añ
vogalenn el
Bi ography
disp onibili
ay s
idi ent
idi cheg
sell où
gre vus
dar bet
dar avat
Not es
va al
va ins
Bri s
Bri zh
Bri zeug
Ti red
dour ennek
dour gi
dour gon
dour dredan
sant i
sant out
sant alek
lodenn añ
Dis oñjal
mon gol
mon arkiezh
mon ukleel
mon otransitive
Pl adenn
Pl ourin
Pl ouezoc
Pl ounevez
glev e
mo q
mo dif
mo ins
gwiri ekaet
termen adurioù
sa is
sa ff
bout i
Sp enc
Sp ézet
Na on
Na uru
pet its
ere adur
At har
hor s
hor onal
omm unic
bod oek
bod jpoureg
hir ded
don n
don der
don vor
kad ori
stad amantoù
Ch urch
ow er
Ren a
Ren ée
Kar a
Kar ter
Kar akalpakeg
gomz erioù
zeu io
ff ez
stêr anvioù
Ken labourat
Ken vreur
Ba i
Ba ud
Ba ffin
Ba ird
treuz et
treuz skrivadur
treuz kiz
treuz atlantel
30 1
30 6
Pro met
Pro fed
Pro let
Pro bab
Pro gram
Pro phet
des i
des evel
des ach
des achañ
ous c
Implij où
Implij out
fem to
tenn e
tenn is
Az tlan
Az asaet
Se f
Se feris
arm é
arm el
ip uz
ip edourien
amp rouet
tan y
fi skal
kat odek
dam lizherenneg
dam allet
vat ezh
50 94
Ro e
Ro om
Ro je
Ro cher
Ro skudon
Ro ellinger
kin ed
kin klet
pat atez
lusk añ
Ou ez
ph rase
ill é
Gall en
Gall aoueg
Gall aoued
unvan iezh
taol et
Iliz où
bo x
bo ineg
bo estoù
bo rajak
norzh ek
log ia
Lo i
Lo ok
Nor ton
Nor ge
do o
do va
gres s
ku ñv
ker ez
Mer o
Mer erezh
Mer val
Mont ana
Mont pel
mp ia
22 6
Is landeg
wa ffe
leur ennoù
gitar où
kemer ont
hu eg
hu ek
heu g
natur al
danvez el
Ha us
be arn
be wezh
be ats
sen a
sen enn
sen esal
BN G
dek vedenn
dek nikoù
pobl et
pobl el
gwel e
gwel adenn
gwel adennet
Ber trand
Ber keley
bel oioù
land s
Ad hik
Ad embannadur
21 vet
dif ton
dif lipañ
Oli gosintezel
Oli mpos
Rann yezh
tez astum
ron ez
ari es
ari um
skeudenn ek
Rop arzh
Gan da
hon der
stourm adenn
Mo izez
Mo vim
Mo drego
Dav is
let ioù
mil in
mir va
spered ek
elfenn erezh
emsav ioù
Norzh korea
nek et
stan dilhonoù
linenn ad
linenn adoù
Per sia
Per sonal
bell oc
pal ez
pal eg
art iz
24 2
24 3
El li
El lis
gev atal
giz on
Re quest
You meg
sur aet
tred eo
isp re
galloud egezh
He y
He ad
He fa
He arts
He wit
min orel
Gal v
Kel tia
Vreizh veuriat
hont où
sik én
hat tisgar
Ital ianed
gas oni
Sa par
Spagn ol
con nec
con sul
skin bell
ugent ad
produ adur
produ erien
produ ction
Tur ing
kor r
kor z
apan sa
23 2
Me an
Me ilh
Me xico
bre m
bre ou
bre sk
hevel ebiezh
ni bus
urzhiataer el
27 6
Lou dieg
mouezh iañ
pla kenn
val tout
vil vedenn
vil oy
end um
one y
New s
leiz eg
armerzh our
armerzh ourien
Mal ta
Mal divez
no ye
not adur
not enniñ
ezenn ek
liv enn
Dist roet
Dist rito
Ge or
Man i
Man che
bin di
com es
com plément
we en
yaouank añ
doue oniezh
doue elezh
Pet ers
mel en
mel ezour
Kreiz ennoù
Kreiz europa
Vi la
Vi enne
deo liezh
29 1
Bel ize
De y
De ep
De izi
De ath
gann añ
ment o
ment s
seg ol
seg gol
gwech où
Den elezh
Den smore
Ger man
Ger main
Ger varzhin
Izel añ
lar gos
neu b
tab lezennoù
eskob ed
Dia ezet
Tri fin
Tri pura
pred où
pred eriañ
etrez añ
sko ilh
tres adennoù
Doue ed
Div ision
Div izout
Tra ezh
Tra ité
geriadur ig
dastum adegoù
ema omp
187 8
25 2
25 5
Bar adoz
Bar bara
Ed s
Ed na
Etre keltiek
Vall ey
pennad ig
Met ro
Po or
Po at
Po seidon
Doare er
Har pet
Har vest
gemer e
hev atal
kembraeg erien
dist aolet
aot ed
mesk l
Atl anta
Pobl et
ai maed
bri ed
bri entinelezh
kom enad
menn ozioù
arg omp
Co de
Co oke
Dan evell
Pal ez
Sal ezidi
Ter re
Ter ro
gwar ellegezh
gwar niz
gwar antet
heg ed
ass et
ass im
vihan oc
Treuz skrivañ
Treuz skrivet
Treuz dougen
fiñv adennoù
Col e
Col in
Col om
bra ster
bra zili
vent enn
kuit aet
Bo ro
Bo cher
Geriadur ourien
On un
On ofre
hal eg
hun du
hun vre
nag aek
pr unev
gwall oberoù
gwall oberioù
tremen ed
Gane digezh
aes añ
aes aet
glask er
glask erien
kou erien
kou arc
eta is
Disk ennet
Disk welet
III e
Bu ll
ces las
gad oriad
kl ər
kl ádes
stat ik
stat ist
eusk el
Ho chdeu
Ver ne
Ver laine
gouren où
leurenn er
Turk eg
Turk ic
28 3
35 4
Kent uck
Pont c
Pont où
dad e
gont er
gont adennoù
tin chi
Indez europek
26 1
26 5
Car o
Car ter
Car los
Car diff
Lev renn
del e
pri entet
Embann erien
Langu es
Test ennoù
Test ament
pel laat
indez ek
indez europeg
diskouez añ
Kon stant
Kon uşma
ers haim
Con f
Con cep
Con date
Con servation
Cha p
Cha u
Cha itanya
Pier rette
Willi e
nam on
gwan oc
ogra m
ogra our
Ko da
Ko ch
Ri ed
bon s
bon ne
bon go
bon reizhel
kro c
kro az
kro chedoù
kro aziadeg
arnod enniñ
kemm adurioù
Go ch
Go iás
Go ñvañs
ds ch
stil ekaet
Studi adennoù
As pec
As semb
Bon n
Mon c
Mon s
fell out
loc al
Pol onius
Ser r
Ser ret
Sam oa
bat er
bat chev
sol ini
sol udoù
arme ad
Amzer vezh
buan aet
Dar ol
zis rannañ
zis pakañ
dreuz iñ
person al
Mat the
Mat hur
Mat aji
Mat hieu
XV III
glot fe
oberi adenn
Ac ot
Ac tium
Mil eva
XI vet
sim i
ven deg
arvar us
Pen ven
geo logiezh
geo dediz
keg inañ
vre c
benna enn
ci ent
ci ón
fall akr
isk ev
isk is
ré s
sek retouriezh
stank oc
ideo logel
Skrivagn erezed
36 4
Dig resk
Dig eriñ
Il tud
Jak ob
Ka iak
Ka ieroù
Th ur
lad eshat
mu da
mu ianiver
mik ron
Om nibus
Tim es
pes uer
dilenn erien
sport el
plas añ
Eg un
Hu el
Hu pel
Ke it
Ke ñveriañ
bal um
gat o
gat ory
hem ia
strat egel
Brit tany
displeg adennoù
skingomz er
Lab ourioù
ki red
ki bi
kerzh et
mamm outed
tch oko
tch itcheweg
vol ution
vol apük
vol ontez
Anv adurezh
pleustr où
Bras aet
Bras ília
varn er
stra mm
lit osferenn
hern eveg
Dek abr
Gre anterezh
arbenn ig
33 7
Gour el
Gour helen
Holl y
Holl ad
Holl ouez
Holl and
Holl egezhioù
Ni amh
Porzh ioù
Qu ar
fran co
niverus oc
plaen enn
plaen ennoù
Ph rase
Pon ç
jed erez
jed erezioù
pont où
za ed
za ol
ens is
gwerzh ioù
184 4
Diouzh tu
Linguist ique
kra ek
kra oñv
stur ier
stur iet
stur levr
isto ires
feiz ad
korf adurezh
International ist
Deg as
Deg ouezhout
Fin neg
Pemp oull
Rich ie
dor f
ew ay
fl adennoù
fl egenn
pour men
tol pet
diern iezh
seizh vet
frankiz où
Af ter
Bur r
Bur gess
CO M
Gres ian
Lat veg
Or der
Or well
Or dinalia
Ori ent
Ori yeg
Ron ald
glo an
glo ri
glo areg
hemm adur
hemm ennadur
pol lo
pol tred
lao ek
karg iad
karg idi
Lit téra
Mir lenn
Mir anda
ei laozañ
mé d
post et
wiri ekaat
enezenn ig
skoazell er
skoazell et
34 5
34 8
Dil o
Dil enn
Dil ezet
Dic tons
Fon adur
Pep per
Val ent
bab lentez
ty pe
ingal ded
Des avet
Des pré
Pe ip
Pe arl
Red ones
Tost aet
horn iek
none a
zig eriñ
zig oras
ür ǝm
ham peon
lig où
lig nezoù
180 2
180 7
Bou essel
Bour get
boas ioù
kil añ
kannad ek
uc tion
uc ci
uel s
ung s
impalaeriezh où
Marv in
Pri est
Pri vezioù
Pri entet
hour c
hour en
hik ular
ju ez
ju in
mou k
mal añ
mal teg
stlenn ek
stlenn adoù
levraoueg er
metr où
Broadel ouriezh
Plou gerne
pinvi di
kerneveureg erion
Pondi cher
46 1
46 2
ML A
Priz ioù
Tr uru
ef re
efed usted
fo etañ
fo dinas
hann adeg
hann ati
mad igoù
marteze adennoù
Skritur ioù
Egipt ouriezh
39 3
AC T
Cor entin
Cor pus
Cor poration
Cla udine
Lin enn
Sav adurioù
Sav idigezh
Tour na
ble diñ
pan jabeg
pan ellerezh
qui er
zist aol
oks idenn
materi el
Deu tsch
For ces
Hy akinthos
Lang lais
Nic ép
ex clave
ex emplo
gaz us
klev as
tel ev
tel enngan
dasp arzh
170 9
178 2
178 7
;" >
Dev on
Mad e
Vol taire
vin orelezh
unvez ioù
179 4
179 9
AD P
Bod adenn
Est oneg
Est eve
Est udis
Kev ig
Kev atal
Kev redadel
Mus solini
dle e
dle fe
dañs erien
priz erion
rem ziadoù
Can ard
Com mon
Del c
Del hi
Del aporte
Eri e
Fer ri
Fer mi
Gi braltar
Gi use
Gi otto
Hel mut
Kat ar
Kat astro
Kam brian
Mc Cart
Mc Laughlin
Sim one
Ton y
bir c
bir vilh
falt aziet
falt aziek
hrog adoù
kon goek
kon yakek
éc ommunic
dil ezel
dit ransitive
dit ouriñ
ini og
ram id
skolaj où
Don ovan
Mé lang
Mas son
Mas soud
Pred eneg
Trans radio
Trans vaal
hos hañ
katal og
katal anek
moull er
pid jinoù
samm e
samm et
anat aet
dat ivel
dat aset
chi ebung
divouezh iet
treuzkas er
Luc ien
Hun ed
Hun gareg
Mong oleg
kw antik
meg a
sy stem
Anton a
gouel ezennoù
inter aksion
ute au
drama ek
Au f
Au x
Corn u
Gr ant
Gr un
Gr all
Gar l
Gar ta
Geri ad
Ijin añ
Jan ick
Mac Arthur
Ros a
Sin et
Sin cla
boaz et
gem e
gem enn
gem penn
louz eier
sem ikon
tle er
tesk anv
wi ski
ай м
ena ieg
skorn et
pec t
pec ial
partik ulenn
selaou er
selaou erion
47 6
56 5
Eu f
Hon or
IV vet
Led unois
Off a
blij e
hreiz ennoù
san skriteg
up iaq
yuzev iezh
yuzev ion
150 4
150 6
houn idoù
Max ime
struj us
Guy ot
Hum ph
Jer men
Jer oni
Jer ry
Jer sey
Sw adesh
Win neb
bag où
bred oniel
bred elfennerezh
flam ank
hiz ion
tomm adur
zar emprediñ
otek nologiezh
Maur iac
stered oniezh
Brez al
Nn n
Niver où
Rag land
Tab lez
Tab uteau
Wiki books
from adennoù
kam peon
zez verkoù
zil eur
isi Xhosa
Gwen ael
off icial
respont et
ziwezh at
Notenn ou
Norzha frika
beaj iñ
distro enn
Daniel ou
Bag ad
Bag ram
Dour du
Ez ra
Hab ach
Kre sket
Lam et
Lam bert
Tch ou
gr á
gr ant
mag a
psik ologiezh
sat an
ouenn oniezh
organ ization
halloud ezh
kempl es
Mark iz
pinvidik oc
Pap uan
Sek toù
Tor res
baz ennoù
jar atek
vak añsoù
redi añ
redi as
Stat e
blas enn
Galiz eg
flamen cas
Ap rel
Barzh oniezh
Bang laeg
Fri ed
Fri day
Hou ad
PC C
Rak tres
Sch leich
bil ingualism
bil dung
humun iezhioù
sou bet
sou koun
tag adennoù
wer enn
you mek
vilion où
kempenn adur
Hein ecke
simbol où
Kirgiz ia
Gri ko
Gri mm
Gri llet
Gri ffen
Kor f
Kor seg
Moul erezh
Moul erez
Pla y
Res ervoir
fest ival
homp oz
ide ien
ped ennoù
pren estr
rent aoù
tourist ed
ziz olo
ziz oleiñ
би ш
ур ан
ур га
dileur iet
damm ig
Plant ag
gazetenn erien
Prezidant ed
Blo om
Cop ons
Comm ission
Et imologiezh
Gor batchev
Rob be
bla en
cel tique
dur k
hl emm
hl añvour
tem peradurioù
tom orrow
wy ll
wint oueg
egor lestr
chal otez
heb kén
euro ioù
gwez ennoù
gwask añ
Encyclo pae
Encyclo pædia
merde iñ
Armerzh el
Añ je
All man
Catal ans
Ham ilton
Kro get
Kro ateg
Liv ouriezh
Liv ourien
Sh ri
Sh riv
Sil vest
Tom as
]] .
cont ro
hrou iñ
kri ek
sam pling
hamm ad
stro ñs
dak sonomiezh
heñ c
umber land
oth esis
galet ezenn
Bru eghel
prezeg enniñ
batrom où
Bra v
Bra ve
Bra bant
Dom nonea
Jar l
Karn ataka
Leg ion
Mass imo
Rem ind
Tar v
bik seloù
cent er
gevre añ
kh and
voul et
zaou zek
ır ıq
ек і
anal izañ
hay ouseg
difer añs
difer ente
difer entes
Arouez ennoù
Yezhadur ourien
triti et
Brig itte
hirder ioù
guitar ra
guitar ras
Skiant ourien
neves aet
August us
Arag ó
Ca çador
Cast ro
Fo ix
Lok ireg
Mu ller
Mu skadig
Sou ffez
af ghan
bank s
bank où
greg aj
hrennlavar où
histori que
linguist ic
linguist ique
neo litik
Eng land
halleg erien
veaj as
Frances co
reveulzi er
reveulzi erien
ographi que
ydd fa
Litu aneg
Air bus
Air plane
Bal izennoù
Bir d
Bir mania
Dra ma
Dir t
Deiz levr
Pin vidik
Ve fa
aezh ennoù
mot s
mot oueg
ér ale
στ ρώ
arvez ioù
anter inoù
emvod añ
chim ek
drevadenn erien
ugh ter
ace ita
Breur iezh
Breur iez
volt adur
Aviel où
Barn ard
Cur rent
Kou fodinas
Menn ozhioù
Pas con
Pas cal
Ra ff
Tel ev
Tel ougoueg
Ukra ineg
dem otek
dog reg
dog moù
hek tar
hlo penn
hod ell
hwel el
kot on
kot chimek
koun skrid
muzul man
peu c
peu re
peu zhe
prou iñ
μα τος
eztaol adur
ske j
edd fod
gwi ñver
Anne cy
Stan is
Inter connec
Dib un
poan ius
Skrid varn
Ploug oñ
Gram s
Gram maire
Tex te
loss ia
geoded ourien
Green dale
Hollved el
Fal z
Kaoz eal
Kala allisut
Neo azh
Neo genel
PO BOL
Sad orn
Tam il
Tam allet
Tam ileg
dok trin
hra f
houl où
houl omb
lur elloù
qq iz
sout enet
sout ene
til ez
til ezel
wat er
argerzh où
rej imant
stadeg ouriezh
lim estra
list ennet
atiz añ
tip ologiezh
azas aat
treu skrivet
hollved elezh
zior roas
prosez où
gounid où
relativel ezh
cheñ chas
ring ton
standard s
Nebeut oc
butun iñ
Añj ev
116 6
Bul gareg
Dem oc
Gui bert
Ku it
Kho i
Mol dova
Out sourcing
Pent reath
Pres pa
RI KEN
Sec ond
Sved eg
Ts huek
Tek sas
Wall ace
clas ses
fel t
foll ennoù
hrist alioù
lê z
prizi us
sas areg
siv i
ǝn bǝ
ermin ig
ermin igoù
diou ganet
diou ganer
dieg enheg
diver ret
distri bution
distri bui
daoud er
oazi et
new ton
savboent où
Inu it
Inu inna
brodu erien
danış maq
vari ezon
vari áveis
Guill ou
kome dian
kome diennoù
ific ation
drouiz ed
skingas er
skingas adenn
skingas adennoù
gouzañ vet
geriaoueg où
Greun landeg
Vietnam iz
elektromagn etek
Depart amantoù
App lied
Bin ig
Just ina
Lag adeuc
Por ched
Ré gis
Sik kim
Ye ars
Ze it
Ze bede
apar theid
flo diñ
gig a
gêraoz our
hlav ier
hlav eier
nas aeg
pá tac
pá ṯaḥ
pá taḥ
pra tique
was h
wig ourus
yaz acağıq
τα στρώ
ougou ek
staon ekaet
univer sal
enteuz iñ
chev ik
yezhon our
loar enn
pajenn ad
oglos ia
Gwer ledan
Gwyn for
lection al
toros ad
Kelenn erezh
binvi dikaat
tabut où
kumuniezh où
Term Ofis
drouk lazhet
Krieg er
diplomat egezh
Osismi i
BO TTO
Bl oazi
Fall a
Font aine
Gouez eleg
Ju das
Lor ca
Sol an
Sul tan
XXI vet
band enn
gör mǝk
hrenn vrezhoneg
hrenn gerneveureg
sont adegoù
zoue ed
zoue egezh
ǝk kiz
κα ταστρώ
да мдар
ик е
sto ikegezh
Aleksand ria
splu jañ
skoueri ekaet
verr dro
Mary land
Mazh e
106 46
karr di
skeud tap
Guil herm
zebr ont
Patrom où
arkeo logour
jubenn our
golvan ed
Tchek eg
gül ǝcǝyǝm
pemzek tez
Bus iness
Bec k
Cer f
Eneb iezh
Eneb ourien
Feder ation
Gat eway
Ia ith
Kun uşma
Klas sen
MT I
NG UY
SO V
Sum mer
Soñj et
Soñj où
Soñj al
Tiri ad
Wint ouned
bant u
bast añ
civ itat
him otiki
him alayek
mist ik
pounner oc
tiz has
wag ennoù
zra mm
zra oñienn
ас и
ул л
adeilad ezhioù
raet h
Sking asadennoù
tac tic
Paran ã
tsalag ieg
swat ieg
pira hã
Slovak eg
gǝl ǝcǝkdir
cheñcha mantoù
Astur ianeg
Ble az
Cru c
Cru ïlles
Eli ot
Fe ar
Fu ture
Fen ikianed
Gitar ourien
Gru yter
Gold berg
Had es
Mall armé
Mik ro
Ok lahom
Pu ig
Pre fed
Ple istosen
Port o
Ses otho
Vas co
Vas udeva
Yuzev egezh
kevez erezh
mevel ien
oi u
tas ad
engra vet
alon ik
alko olek
mailh oni
bren añ
verde erien
planed el
bedel adur
teuli aouiñ
Morgan e
diskl eriañ
bevar gant
Jeff roy
Pleu stret
Chem istry
ziskl erias
dibos ubl
Champ ion
Diazez où
zistag er
zistag añ
Damkan iezh
Kanton ioù
mandar in
eñvor ennoù
Publis her
Alo fonennoù
Adam s
But ter
Dall as
Fau re
Gem ene
Gwar ellegezh
Gir onde
Jun i
Kö l
Kap itän
Moun tain
Now here
Oud mourteg
Peu ple
Peri odic
Pass ion
Syntax e
Thou ght
Vern on
bes prezidant
cur rent
gir l
kho i
moned one
nit rogen
ýa br
ρο λό
Са у
ак ц
дү рт
ов а
ال ك
didu amant
skos eg
skos at
Anth ology
Anth ropological
spar lañ
morph ology
ofisial ded
hounez as
naon egezh
diskuli añ
Child ren
skridvarn ouriezh
Vihan añ
gwallzar voud
Beau vais
Diskouez et
Araog enn
littéra ture
Type Var
doktor elezh
Tatar ed
Aw de
Bran ly
Boud dha
Elec tric
Hé bert
Kost anoeg
Mob y
Nou veau
Nur se
Nur sultan
Nad u
Nort hwest
Politik ourien
Pry ce
Pry dain
Ric ardo
Roud où
Tru e
Vann in
Wa it
Yo wan
bos ci
deuz outi
ej ened
gamm gemer
put sch
sos ial
sfer ennoù
tim ezas
zrou k
zrou iz
жет и
мен ен
rebech et
daz eilat
Arondis amantoù
Anat ole
Ander sen
Strat ton
Gwezh all
acaq s
integ ras
Pau lo
Bibli othè
Spra ch
Spra chen
Montagn ais
Bella ing
Buck ley
skrap erion
Nathan iel
fenik ian
prizon iad
Hierogly phs
malayalam eg
Lapur di
קָמ ַץ
zalvoud egezh
AF N
Aar on
Aim ée
Bab y
Call able
Clas s
Dum n
Dub ourg
Dever et
Ell en
Foun dation
Fly ing
Gern eveuriz
Greiz enn
Hann ah
Hiri e
Hiri v
Ib áñ
Jed adurioù
Ket eg
Kid s
Kuzuli adeg
Kuzuli erion
Lud wig
Mout on
Mith un
PD G
Ras pe
Reb ecca
Tred an
Tod d
Temp le
Tong a
catal à
gun du
harzh erezh
hloaz añ
kell ennoù
kul or
kous ek
kous oueg
mə y
syn tactic
volek ulel
zev ri
ικ ή
πα ιδ
armen iek
erbed et
hamp où
ilher ez
impa elouriezh
impa elour
gwast illi
kap ı
goud jarateg
kenfeur el
renevez et
renevez iñ
Gwask ogn
trefoe daj
trefoe dach
blan che
brotestant iezh
brogramm ourien
Dial og
Dieu bidigezh
morzh ed
houz añv
kodian añ
Dach sprache
diskenn idi
relativ ite
Displeg adur
Chev alier
tekton ikel
kinkl adur
phon ology
conom ie
klen ket
klen kañ
euskar ek
Conc ierto
Theo dore
Toros ad
Toros ennadur
back ground
Exc avations
interes où
Mother s
Nunav ik
Nunav ut
besketa erien
חֲט ֶף
חֲט ַף
Ast ennet
Aoz adurioù
Avest a
Akw ino
Bren dan
Bala fenn
Bart hed
Blan chard
Bennig ed
Dari orit
Edi son
Garc ía
Heus saff
Hamp shire
IM AP
Isk evandir
Jes us
Kron ologiezh
Know s
Llo yd
Luz iet
Lot ei
Niel s
Regin ca
Souezh et
Tem pl
Tourist erezh
Wes sex
Yas in
Yvon ne
bang ladeshat
cac cio
dourist ed
eont r
eür usted
fich ennoù
gatal anek
krom elloù
mest al
pag anda
pot añsiel
poazh et
pign at
vroud añ
zak ad
zeiz levr
γι ο
λά ς
Дѳ рѳв
гу з
ку к
сег із
anav azet
anark our
alg umas
dialek t
dielfenn adur
inf lectional
skaot et
atlet ourien
amir al
Aran juez
goulaou iñ
kend euzet
sonnen où
aknost egezh
hollveli ouriezh
herkin iat
Lid erezh
bloazi ek
ziski bled
Mars hall
kew eriañ
keñveri et
houizi eg
Kermo al
astur ianeg
karak ter
stris hañ
Améri que
estrañj our
reolat añ
Baile y
Berr adurioù
radius où
Scient ist
bengal ek
koubl et
ergerz has
filozo f
Ass ad
mestroni añ
nerv ennoù
steuzi añ
Revol ution
decor ador
Dizoue egezh
Gaut eng
Jaff rennou
oxuy acaqsan
determin et
Nikol az
Fair banks
Olli vro
dismegañs us
Aka yev
Aust in
Aga in
Aigu illon
Aters adenn
BZ H
Boc caccio
Cin namon
Cros by
Det roit
Dat agram
Dik tat
Easy beats
Fost us
GI AP
Gŵ yr
Has hable
Hamm ershaim
Hlod wig
Heuli et
IK ER
Imer ologio
Ky kládes
Lom bardia
Lug dun
Liver pool
Mén ard
Mess age
Nag ar
Okan agan
Pand jabeg
Pomp onius
Rö yks
Rug bi
Sg t
Selec ted
Snow don
Vou daegezh
Vich y
Yeo di
biñ sa
four maj
jestr où
mous ek
pun jabi
pass ent
rō maji
sr ăk
sə ḡôl
êz va
туг ыз
ស្ រៈ
arondis amantoù
arroudenn et
ezporzh iañ
algon kek
hata f
insec tes
skel edenn
skil tr
orañj ez
amour ouz
chec s
christ ian
losk us
occident alis
dreit ouriezh
Anto ine
Sto ikianed
Stud y
Gwag ennoù
Enbro añ
douet añs
Margar et
varks ourion
nemor ant
proletar iad
velo dienn
Brus el
tral izadur
naontek vet
hoka in
Gounez erezh
ganeo c
kevarzhe où
arouezlun ioù
Skrig neg
Plouz eniel
mohaw keg
saṃ skṛ
Kart ada
devan āgar
Luft waffe
Izelvro eg
Barret t
kleub où
Siouslaw ed
toup iek
Keñver erezh
Philli ps
expres so
Geoff roy
Transliter ated
golf ier
Malayalam eg
Gond wana
Hindou egezh
Weis gerber
continu um
gilometr adoù
purgat or
Napoléon ville
Octav ius
Plougon ven
Avran ches
Pitts burgh
Yenis ei
Epist le
Prettan ike
ponner oc
Chamber lain
gözlük çü
Hieroglyphi ca
emgefre ek
sintetizor où
Jèrri ais
Ribagor ça
Apa che
Ane irin
Asini boineg
Boll oré
Cá diz
Craz y
Cath olicon
Canter bury
Dad jik
Dhar ma
Dji bouti
Eag les
Eñv orennoù
Ebol a
Etou mbi
Fed erico
Fata h
Fors ch
Frit z
Gó mez
Gouri ereg
Gori osolited
Gron net
Gannad ed
GRA PO
Gargadenn eg
Hok kaido
Iri sh
Jhar khand
Kennet h
Khw ek
Kado red
Kauf man
Lhu yd
Madel eine
Mesk et
Musta fa
Och idient
Ocar ina
Oump kwa
Pern ando
Pala u
Ples sis
Puer to
Rü diger
Rép ublique
Sle eps
Sket la
Sech elez
Sco ti
Sart è
Sego brani
Ther avada
Tho se
Tiss ot
Thier ry
Türki ye
Uter o
Vong oled
Vorg ium
Wm ffre
Xiz ang
Zü rich
Zen ith
bengő ioù
calc ul
cui re
hê red
hwar k
hlev ed
kist in
mouzh iet
muzuli et
nant ais
ngoun ek
natri om
sved eg
sanda weg
tǝr cümǝ
uvel ded
vur ut
vagn etek
vañs eg
vrous gwezenn
west ern
x̣ ʷ
yche iniog
ĩkũ yũ
əcə klər
Ημε ρολό
ομα ι
сиг ез
סְג וֹל
סֶג ּוֹל
ตั ว
ḥata f
ḥăṭ ep̄
arsail hadenn
ethn ologue
dihent et
diskoul moù
didrevadenn añ
dizior roet
strol lajoù
eopat ra
ampart iz
chile at
zoroast regezh
hechu aeg
aostral ian
Artem is
Ardako ç
paide ia
necess ário
oartic ulation
abigu da
Stép han
Alman ach
Almat y
Algé siras
Alpha bet
Envor ennou
hertz ian
Lick lider
blass enn
Ingel heim
broletar ion
acoust ic
Diba bet
tromp ilhoù
intrud u
disglav ier
daouhant eriñ
siouslaw ek
propor ção
keineg ed
Emgav ioù
Bryth onic
Brăil oiu
trelo sk
astero idenn
peurlise añ
Lautvers chiebung
baudela iri
homograf où
Ampre van
Amund sen
Amezket arra
disponibili te
Spenc er
Kenvreur iez
5094 27
Adhik ari
Hefa istos
Hewit t
valtout el
complément aire
Peters bourg
brazili an
Hochdeu tsch
Kentuck y
Goñvañs ion
Aspec ts
Mathur in
pesuer t
tchoko ek
Nicép hore
Giuse ppe
Katastro matos
écommunic ations
Mélang es
Sincla ir
semikon duer
Schleich er
Encyclopae dia
Shriv astava
peuzhe ñvel
distribui ção
Inuinna qtun
BOTTO M
καταστρώ ματος
NGUY EN
Oklahom a
Bibliothè que
Ibáñ ez
Dariorit um
Hammershaim b
Röyks opp
devanāgar ī
Ημερολό γιο
! ...
$ $
' ",
( [
( ~
( ·
( ),
) (
+ !
+ +
+ ,
, (
, )
, ,
- ?
- ?)
. ):
/ "
0 3
0 5
0 F
0 18
0 15
0 14
0 30
0 34
0 72
0 900
1 px
2 P
2 18
2 vet
2 12
2 11
3 G
3 e
3 de
3 16
3 13
3 12
3 21
3 23
3 27
3 84
3 74
3 Bl
3 NT
3 MTI
4 20
4 vet
4 15
4 21
4 35
4 59
4 84
4 95
5 em
5 30
5 44
6 13
6 50
6 21
6 23
6 29
6 74
6 32
6 46
6 55
6 54
7 E
7 10
8 30
8 24
8 90
8 28
8 35
8 40
8 34
8 76
9 20
9 vet
9 000
9 13
9 22
9 21
9 24
9 27
9 32
: .
? ’)
A el
A as
A ul
A men
A ta
A dan
A ub
A mm
A str
A don
A vui
A sur
A sh
A vent
A hern
A lig
A sta
A gn
A esc
A ozañ
A ston
A dore
A deil
A iac
A otre
A ZERTY
A pollo
B h
B y
B enn
B eo
B am
B im
B op
B iel
B ali
B oz
B ub
B eb
B eun
B izh
B ien
B lin
B ered
B BN
B ress
B end
B org
B éc
B ultur
B leu
B ick
B euzet
B anal
B eog
B ombez
B listin
B icker
B IPM
B äş
B apti
C 5
C M
C r
C z
C eu
C ed
C un
C it
C av
C ao
C az
C aou
C and
C os
C ran
C ec
C hel
C alc
C hen
C urt
C ie
C ry
C OR
C ré
C lif
C ord
C ave
C aled
C és
C off
C rop
C lem
C roz
C ock
C ette
C ampion
C uer
C eau
C lock
C oulomb
C ümǝ
C ategori
C reole
C IPM
C ea
C umberland
D G
D L
D h
D j
D ri
D da
D war
D ao
D ag
D le
D oar
D og
D res
D iver
D id
D oun
D aneg
D eng
D estr
D bu
D ee
D rag
D yn
D erez
D ativel
D ela
D ourioù
D emokrat
D AR
D ourist
D ép
D rac
D hek
D rian
D ARP
D ogan
D edennet
D moz
D xʷ
D evelop
D draig
D himotiki
E P
E X
E ğ
E on
E ma
E ne
E ger
E ul
E dig
E oz
E eun
E rat
E ster
E les
E ff
E stour
E ph
E do
E gin
E uj
E xt
E ple
E ight
E ye
E fedoù
E AT
E sper
E chuet
E wen
E wid
E dition
E scri
E tudes
E 7E
F U
F g
F é
F ǎ
F an
F ao
F ann
F oc
F oar
F res
F ic
F iel
F eil
F urt
F eb
F eul
F lat
F evr
F azi
F aw
F ive
F alt
F reuz
F SS
F rouezh
F aber
F leu
F its
F lem
F LP
F aezh
F AL
F ats
F eunteun
F TP
F ühr
G E
G S
G Y
G h
G y
G ǀ
G enn
G ad
G iz
G la
G ell
G ud
G amm
G ig
G az
G ober
G ug
G lav
G orn
G ard
G arz
G au
G loaz
G orin
G evredigezh
G hat
G laz
G ris
G azeg
G lac
G leoneg
G ipuz
G ĩkũyũ
H K
H Y
H ồ
H eu
H em
H at
H evel
H ob
H oc
H us
H ist
H est
H ina
H ili
H ub
H izi
H eno
H ida
H ors
H orth
H AM
H ini
H otel
H old
H CI
H achet
H esi
H ills
H 2O
H ostis
H istoires
I F
I L
I U
I g
I ý
I ha
I li
I vi
I var
I ce
I ts
I hu
I kast
I raq
I 3NT
J x
J eg
J av
J as
J ia
J oli
J op
J eun
J ay
J eno
J enni
J avel
J ude
J ona
J ago
J ock
J erzenezeg
J ST
J ussi
K M
K ô
K ø
K ek
K hag
K ao
K out
K evel
K adoù
K ig
K est
K erzh
K ras
K aou
K ep
K od
K of
K ic
K oaz
K ili
K ang
K esk
K rom
K izi
K ust
K omm
K ous
K leur
K illi
K ork
K oe
K ris
K ola
K leñved
K ustum
K JK
K ushaned
K êraoz
K AB
K lub
K êriadennoù
K EA
K rn
K ills
K hrouchtch
K intin
K EE
K PD
K reta
K umar
K ledenn
L C
L U
L y
L er
L ub
L aet
L erc
L au
L ester
L ord
L ero
L isi
L oth
L DE
L AB
L isa
L ike
L CR
L eskobed
M D
M P
M f
M j
M p
M ö
M ü
M eg
M oll
M ig
M ug
M añs
M ennet
M emp
M oned
M eas
M uzul
M ys
M end
M ikel
M agne
M euzioù
M itch
M wer
M ignon
M emor
M xe
M uddy
M arzhin
M g6
M 3MTI
M HK
N L
N ö
N ǝ
N ha
N eus
N de
N ern
N ost
N 17
N ieg
N enni
N oe
N eder
N ero
N aked
N eze
N ationale
N inet
N akh
N ousc
O B
O E
O U
O a
O e
O j
O w
O ra
O ma
O ger
O ul
O sp
O ec
O dis
O neg
O gan
O uli
O teg
O lar
O ly
O ris
O ferenn
O kt
O vad
O UP
O ther
O wen
O skar
O illo
O asis
O toeg
P B
P E
P G
P N
P V
P el
P ant
P ek
P is
P um
P oll
P rou
P og
P od
P ec
P ac
P rat
P olo
P age
P ouz
P sik
P De
P aot
P renet
P ata
P uj
P tol
P ism
P ham
P ino
P UR
P CE
P ick
P éri
P esha
P aotred
P ange
P unt
P iaz
P rouet
P embro
P seu
P amir
P aotr
P ush
P renañ
P azenn
P ENN
P aleontologiezh
P MLA
P 2P
P HAM
Q X
Q a
Q al
Q ir
Q ian
Q anda
Q ır
Q WERTY
Q atar
R an
R enn
R oa
R ont
R euz
R ut
R oun
R eiz
R IS
R ue
R oute
R AD
R ight
R ick
R ance
R inc
R evelezh
R ift
R AND
R echer
S G
S N
S ā
S it
S as
S ont
S iv
S pa
S ka
S od
S ok
S os
S ug
S ui
S hen
S oaz
S ut
S ho
S ich
S lat
S olo
S het
S liamm
S po
S amp
S hu
S hon
S ven
S lad
S ark
S ese
S chen
S enek
S hy
S otho
S ena
S ome
S vab
S aux
S EN
S tif
S AB
S ardeg
S quer
S event
S intezel
S MT
S EC
S how
S asan
S ammet
S eries
S rp
S euil
S nakes
S ète
S ǝkkiz
T W
T X
T ü
T enn
T eu
T ao
T rou
T uz
T ret
T ic
T orn
T ub
T erc
T rom
T alies
T ale
T angu
T uli
T hu
T hon
T erez
T rik
T eñ
T org
T hun
T ata
T ues
T oue
T sal
T yd
T here
T UR
T ago
T itour
T ouloueg
T hai
T own
T achet
T AB
T oba
T él
T embur
T osh
T MO
T epot
U F
U m
U se
U ma
U lu
U sa
U gas
U pan
U TC
U CC
V m
V u
V w
V re
V ev
V eg
V ek
V eo
V it
V iz
V ent
V our
V ist
V ali
V ard
V rez
V ie
V ach
V ire
V ive
V ues
V AN
V ision
V abil
V ille
V imp
V ér
V SO
V adez
V ega
V arzhin
W 1
W 3
W W
W o
W ē
W er
W ant
W ed
W ob
W ak
W hen
W ang
W ort
W ien
W las
W ieg
W ener
W hat
W ies
W AN
W ald
W ye
W CC
W onder
W ima
W illy
W rong
W oman
W omen
W ounded
W yddfa
X 1
X L
X P
X e
X ion
X ay
X uan
X XIV
Y X
Y on
Y es
Y out
Y anv
Y ig
Y ir
Y aou
Y ak
Y od
Y ang
Y uk
Y ale
Y aj
Y org
Y ona
Y ezek
Y atri
Y esha
Y 2l
Y orks
Z o
Z in
Z em
Z og
Z ug
Z ec
Z ub
Z eta
Z oue
Z ino
Z ouloueg
Z air
Z avier
Z hang
] :
] |
] ),
_ _
_ dem
_ cache
` `
a x
a ç
a ket
a ig
a ul
a hw
a walc
a wa
a ção
a ike
a peak
a quest
b W
b h
b m
b ɐ
b ʰ
b ent
b aou
b ion
b ian
b unan
b iri
b ala
b ouezh
b eul
b aer
b ublik
b ya
b aned
b eno
b orin
b ata
b une
b lia
b ounner
b ije
b reizhad
b illy
b ingen
b ountañ
b ør
b hak
b urzhudus
b hoj
b izied
b oaziet
c 4
c d
c ̓
c ь
c er
c enn
c am
c our
c ann
c oc
c oll
c ist
c lu
c ana
c olo
c oni
c yn
c ré
c lif
c ens
c ets
c rop
c ès
c ǝr
c iation
c ito
c ollar
c reole
c ariot
c 2V
c oarticulation
d 5
d f
d m
d õ
d ĭ
d ̪
d de
d out
d anv
d ren
d ot
d ret
d hi
d ori
d elf
d rig
d ry
d yn
d renk
d ler
d éc
d hy
d V2
d oko
d ém
d ydd
d ər
d arzhas
d alif
d örd
d zong
e 1
e 5
e ʎ
e ː
e on
e bed
e adenn
e hir
e ff
e brel
e ers
e joù
e dition
f å
f eg
f at
f le
f ir
f ouez
f lij
f erzh
f oli
f lav
f ost
f lu
f emp
f ennañ
f ach
f ire
f oull
f ts
f ois
f ys
f oue
f ica
f ür
f alioù
f yrd
f ather
f jord
g ʰ
g ha
g añ
g eg
g la
g ag
g out
g ne
g ak
g ret
g of
g lec
g ec
g oz
g euz
g rez
g eb
g izi
g lin
g oned
g omun
g aouenn
g io
g rig
g uzul
g rik
g astell
g uzuli
g ichen
g orioù
g los
g roc
g lif
g hiz
g leñvedoù
g êra
g law
g ions
g lais
g Krichna
h s
h î
h oa
h ob
h um
h ti
h ug
h ver
h men
h euz
h oniezh
h emp
h ornô
h erion
h mon
h let
h yr
h olenn
h ros
h lad
h fonem
h ler
h én
h arzhet
h lub
h dugelezh
h lik
h regin
h uman
h empouez
h bk
h redo
h leizeg
i q
i ş
i oa
i rei
i im
i gou
i erezh
i adennoù
i ya
i adurel
i pen
i enne
i ola
i plu
i form
i usted
i hm
i O3M6
i I3NT
i QX
j p
j ī
j al
j ha
j ant
j un
j am
j ia
j anv
j ot
j ian
j oul
j ut
j ana
j aneg
j ay
j ärvi
k n
k à
k ä
k ī
k ǝ
k eu
k ia
k iezh
k arn
k ok
k ing
k har
k var
k ori
k ub
k ala
k rist
k rat
k olo
k ornô
k ologiezh
k ie
k omm
k ine
k ieg
k hu
k rag
k rennamzer
k ola
k euzioù
k ultur
k oko
k hai
k êraoz
k ings
k heim
k ən
k merek
k Ik
k arnioù
k olier
k ranked
k luboù
l k
l ú
l ek
l eo
l eus
l la
l ern
l var
l antel
l ank
l ya
l eneg
l ru
l ari
l oue
l V2
l ïes
l V4r
l ún
m ì
m ĕ
m ь
m out
m ig
m son
m iñ
m emb
m arzh
m erien
m ing
m oun
m ba
m ust
m ine
m ica
m outh
m its
m uzulioù
m iser
m X2
m V1
m ırs
n m
n ä
n ě
n ı
n ar
n el
n il
n az
n ori
n tu
n uk
n avet
n ers
n én
n uc
n ado
n ome
n umber
n ature
n ative
n edeleg
n orneg
n alr
o ez
o di
o eu
o zer
o rek
o amerikan
o tic
o diennoù
o oth
o jez
o jas
p Z
p ī
p ə
p ʰ
p ann
p ok
p ug
p ta
p adenn
p ilh
p ang
p ier
p oun
p umun
p ation
p oull
p rad
p ages
p ute
p ick
p anta
p ǝn
p tered
p plément
p aleontologiezh
p ôtr
p udding
p df
q l
q ar
q ala
q lar
q ahw
r r
r z
r í
r ī
r ǝ
r añ
r li
r ell
r anv
r ub
r ale
r ée
r uktur
r ès
r nijour
r ezhoù
r skap
s g
s l
s x
s ø
s ǝ
s où
s war
s le
s lo
s ud
s ouri
s ir
s og
s ot
s oaz
s var
s urt
s hed
s had
s che
s sa
s ga
s ée
s ema
s aot
s field
s ǝn
s pecial
s êzva
t w
t adur
t ell
t reizh
t ug
t han
t bed
t har
t ter
t ouezh
t ort
t eng
t ivel
t avet
t ill
t ouz
t ata
t orioù
t ym
t antad
t ome
t arzhañ
t imant
t ürk
t ime
t chat
t reid
t hink
t anden
t helstan
u ñ
u ň
u ž
u ː
u ez
u eg
u sk
u it
u iz
u is
u lo
u iñ
u tu
u ana
u chu
u ista
u ès
u qʷ
u taet
u inte
v em
v ik
v rou
v ul
v ret
v lev
v res
v eul
v ong
v yn
v ikel
v ure
v uzuli
v ational
v olenn
v oas
v oug
v ite
v ugel
v riad
v Mari
v Moskov
v nik
v alier
v ountañ
v urzhudus
v bm
w Z
w x
w á
w ann
w eri
w ap
w kel
w ho
w ast
w ser
w th
w ened
w eneg
w ie
w ieg
w alarn
w erioù
w yn
w sko
w ers
w yd
w alad
w ydd
w orks
x en
x ter
x te
x ote
x iang
x vd
x iales
y M
y k
y x
y é
y ê
y ň
y ō
y ş
y ˑ
y ễ
y ed
y as
y se
y ann
y anv
y ll
y ug
y ang
y oun
y mp
y ota
y pt
y ugh
y fus
y llab
y okto
y idicheg
z y
z in
z ed
z at
z ao
z ag
z ik
z ir
z az
z iel
z ac
z ard
z eb
z had
z ous
z eas
z mir
z bek
z we
z gü
z emeur
z onenn
z alo
| ,
| [
² ,
À r
Á tha
Á lvar
Æ thelstan
Ç ǝr
É d
É li
É lé
É tudes
Ý ig
ß e
á y
á š
â ma
ä l
ä y
ä ll
ä tter
å nd
ç ö
ç ǝ
ç ə
ç et
ç ïon
è o
è le
è yn
è ze
è mes
è rent
è mia
é g
é z
é ro
é ch
é lev
é lec
é qu
é nig
é ron
é col
é nez
é ditions
é dit
é gol
é vé
é conomie
ê s
ê tre
ê rig
ë n
ë t
ë ssel
í p
í on
í as
í via
î tri
î req
ñ a
ñ sel
ò u
ò w
ô m
ô r
ô se
ô le
ô ne
ù la
ú c
ü z
ü ber
ü lǝr
ā h
ā yī
č ić
ē rê
ē rī
ī t
İ ki
İ zmir
ı m
ı cı
Ł už
ł p
ŋ ə
ō id
ō lem
œ uvre
ş ǝnbǝ
š q
š ə
š je
š cn
š ić
ũ ː
ū s
ū mì
ŷ n
Ə rǝ
ư ờ
ǝ ş
ɑ ː
ɔ ː
ə l
ə p
ə t
ə ŋ
ɛ ː
ɥ in
ɬ p
ʔ a
ʔ ab
ʔ yˑ
ˌ g
́ č
̓ əm
Β ασι
Σ τ
ά ω
ά μα
έ λ
έ φ
έ ω
έ κα
ί ων
α στ
β ι
β αστ
γ t
γ ος
γ ας
δ α
δ ία
ε ι
ε κ
ε ρ
ε ρο
η ς
θ ολ
ι σ
κ ρ
λ ία
λ εία
μ ος
ν ω
ο ι
ο ρία
ρ η
ρ δι
ρ ετ
σ η
σ ία
τ ώ
τ ῶ
υ φ
υ χ
φ ή
χ τώ
ω μα
ό χτώ
ύ φ
ώ ρ
Б ур
Б ей
Г уч
Г урав
Д ол
Д ад
Д үй
Е с
Ж о
Ж ек
З урга
И сән
К уран
М ен
М он
Н айм
П ер
Р ах
С С
С о
С ә
С ен
С ай
Т А
Х ар
Х ор
Х ім
а а
а г
а у
а дамдар
б р
б ай
б ак
б еш
в ар
г ан
г ол
г ый
г урав
д и
д э
д ә
д өр
д ық
е д
ж и
ж ол
ж ил
ж ир
ж ый
ж аң
ж үз
и т
и ки
и ст
и улл
к ур
к ес
к өз
м ал
м ба
н ич
о ғ
о лар
о ту
о тыз
р ил
с он
с ек
с өз
с із
с өө
т м
т әбер
т өө
т ап
у я
у тыз
у кук
ф иулл
х ь
ч а
ч и
ч ан
ч на
ш ү
ш ай
ы п
ы я
ы ңыз
і с
і чна
Қ ар
Қ ай
Қ аз
қ ай
қ ал
қ ыр
қ сан
ү ң
ә т
ө тү
ְ ׁ
ֵ שׁ
ֵ רֵי
ֶ ם
ָ א
ָ ן
ב ֵ
ב י
ג ָּ
ג ֵשׁ
ד וֹל
ד ָּ
ו ָא
ח ֹל
ח וֹל
ט ָן
צ ֵי
צ ֵרֵי
ש ְׁ
ا و
ا ی
ب ر
ت ب
د ر
ق ار
ل ر
ل ى
م ی
ى ي
ى لى
ي ر
ي ش
ي ي
ग री
त िक
न िक
प ा
प ्र
म ा
य ा
य निक
र ा
र ्
स ं
स ा
ि न
ि या
् ध
ਖ ੀ
ਗ ੁ
ਮ ੁ
ਰ ਮੁ
ி ய
් ර
ි ක
ข ่
ร ะ
ร า
ล ข
อ ั
เ ลข
ไ ข่
བ ོ
က ာ
က ီ
က ူ
အ ိ
ာ ္
ေ အ
ေ အာ
დ რ
ე დრ
ლ ი
მ ხ
რ ი
უ ლი
უ რი
Ꮙ Ꮿ
ḥ iri
ḥ olam
ḥ îreq
ḥ ōlem
ṣ ērê
ẓ ere
Ἱ στ
ᾶ μα
Ῥ ωμα
ῳ δία
’ ’)
€ ,
ア イ
大 法
平 仮名
拼 音
日 本
本 书
武 門
死 語
法 輪
法 轮
濁 点
片 仮名
西 藏
这 本书
an c
an y
an an
an et
an ad
an de
an ken
an ak
an ion
an agn
an aet
an rik
an lar
an ces
an anda
an revel
an oued
an asi
ar ou
ar on
ar ed
ar ta
ar mer
ar man
ar aez
ar van
ar ko
ar te
ar aneg
ar ge
ar ks
ar ga
ar sez
ar ly
ar hentoù
ar roud
ar bit
ar ola
ar etenn
ar ound
ar ity
ar sellout
ar ined
ar izadur
ar ame
ar drev
ar gerz
ar divin
en en
en el
en ev
en de
en ob
en os
en ezel
en ac
en ier
en do
en gouest
en derc
en cy
en fred
en gouestlet
en berg
en aouet
en fant
en ikeg
en devout
en frammañ
en quête
en felt
ez adur
ez adus
ez klozet
er y
er ek
er ing
er anz
er tz
et mi
et hy
et nom
et ooth
ou an
ou al
ou es
ou ras
ou neg
ou gen
ou che
ou beg
ou igoù
ou ied
el c
el en
el où
el on
el ag
el ourien
el mo
el ement
el éc
el ey
el ona
el zas
el odennoù
enn fo
re o
re x
re eg
re at
re am
re is
re he
re adur
re oc
re ger
re us
re ot
re dik
re prez
re das
re action
re uged
ezh añ
ezh sko
ezh ied
al v
al añ
al eo
al om
al ac
al ouriezh
al ba
al itar
al do
al teg
al pin
al anga
al ezioù
al kol
al iment
al amanteg
on n
on u
on x
on y
on el
on ioù
on erezh
on iet
on iat
on iad
on ese
on vedenn
on line
on oukeg
on oid
ha c
ha j
ha st
ha as
ha es
ha il
ha ud
ha vi
ha si
ha ser
ha mel
ha mant
ha degoù
ha pra
ha ptor
ha stilhaneg
ha ezadus
ur ia
ur lar
ur ity
ur gence
ur zhad
ad en
ad ezh
ad on
ad añ
ad in
ad as
ad ell
ad hi
ad skrivet
ad iek
ad kaver
ad stummoù
ad implijout
ad tapet
ad stêrioù
ad aozañ
ad kroget
ad kanet
ad vab
ad savidigezh
ad unanet
ad dak
ad stummet
ad tapout
ad sky
ad kempennet
ad unvanet
ad planedennoù
ad ministration
ad onna
ad lodennañ
ad stramm
di w
di ar
di on
di ant
di da
di om
di aoz
di dro
di ac
di lavar
di amzer
di for
di heñvel
di enez
di stumm
di th
di liamm
di skiant
di les
di kad
di dalvez
di fi
di leiz
di doue
di arao
di arvar
di arbenn
di feiz
di egezhioù
di rec
di araok
di nec
di dalvoud
di stummadur
di atonek
di horolaj
di boell
di wask
di berc
di xi
di laosket
di lamet
di heñc
st u
st ar
st el
st ed
st le
st ir
st uz
st ak
st erien
st añs
st adel
st ard
st oni
st aat
st ress
st ikel
st yr
st ael
st ock
st ajoù
st ivell
st ouet
st eurenn
st ipen
st ätter
añ se
añ vioù
añ toù
añ apansa
ant h
ant es
ant iek
ant ins
ev o
ev nig
ev aled
ev ardon
eg un
eg ol
eg erien
eg ouriezh
eg ip
eg za
eg orel
eg mental
eg uista
zh u
zh el
zh eben
ri l
ri ed
ri ta
ri ezel
ri ke
ri digezh
ri go
ri ff
ri ca
ri ks
ri dir
ri mi
ri ère
ri ble
ri eien
ri chi
ri boul
ri bot
ri bouloù
ri bution
eu dig
eu reg
eu ziet
ro b
ro r
ro ï
ro ad
ro eg
ro adur
ro mañ
ro cher
ro logiezh
ro liñ
ro poù
ro vañseg
ro ën
in da
in iezh
in ta
in egezh
in dia
in do
in ée
in iañ
in ers
in ole
in ci
in oeg
in ezek
in owski
da c
da ad
da iz
da of
da ge
da mab
da varn
da but
da skor
da eroù
sk ʷ
sk ant
sk ann
sk lo
sk adoù
sk od
sk and
sk ana
sk elloù
sk oteg
sk opek
sk antenn
sk oachet
sk uizh
sk aoter
ra ez
ra ezh
ra es
ra our
ra tre
ra erien
ra ve
ra per
ra te
ra mm
ra bar
ra bek
ra cis
ra yek
ra personel
ra mento
vez adel
vez ienn
vez iant
li di
li zh
li ma
li ger
li vi
li os
li zi
li amant
li van
li ke
li gel
li mon
li pet
li co
li kor
li das
li ps
li esterioù
li gatory
li elmo
em c
em ell
em ouez
em ic
em embann
em gav
em vuhez
em isk
em ey
em anaoudegezh
em dreiñ
em zifenn
em oi
em vuhezskrid
em vastañ
or er
or enn
or dan
or ca
or bital
ed t
ed u
ed ad
ed eg
ed eo
ed wie
gant on
gant adoù
gant vedenn
at r
at an
at re
at ant
at in
at es
at ist
at ak
at os
at hi
at han
at ter
at ieg
at hon
at ory
at ino
at tle
at izet
at ebek
at ürk
at abask
ek añ
ek iz
ek tro
ek adenn
ek ho
un s
un et
un es
un son
un din
un pennoù
un vezhioù
un ification
eo z
eo logiezh
eo stoù
am b
am n
am on
am at
am as
am ot
am ic
am bro
am skouer
am ziv
am fet
am iteg
am brou
am oukeg
am orf
am lake
am tbed
am rita
ol on
ol di
ol os
ol tra
ol ang
ol ph
ol inguist
ol lion
ol ino
it ad
it añ
it es
it is
it uk
it ris
it ude
it ania
it és
it iers
av er
av on
av ad
av ik
av iñ
av ec
av ank
av ans
iz u
iz jont
iz omer
iz enac
oa zo
oa chañ
19 e
as ó
as ez
as ek
as am
as ser
as sa
as so
as sky
as cri
as sine
om où
om at
om is
om ian
om bezañ
om ys
om ena
om icheg
all a
all t
all am
all revelezh
war t
war lin
war ellegezh
war droioù
bet h
bet erab
bet ween
es an
es ar
es son
es aou
es sant
es aat
es col
es cu
es cal
es cul
ent i
ent el
ent añ
ent um
ent os
ent orn
ent ial
ent iet
ent ation
ent idigezh
ent ary
ch s
ch or
ch it
ch ann
ch iv
ch ran
ch iri
ch ien
ch ow
ch ure
ch anda
ch ineg
ch waeg
ch olam
ch rift
ch oazo
yezh ourion
yezh egerien
pe ar
pe er
pe br
pe ine
pe das
pe ñse
our ell
our ce
our doueg
la e
la ch
la ko
la keg
la weg
zo kenn
is el
is os
is erien
is rann
is ation
is ine
is dachenn
is isial
is atomek
is vroadel
is mes
is ferenn
is spesadoù
is eni
is lavarenn
is ition
is rummadoù
is letanant
is ˈtyː
il ar
il ha
il añ
il de
il ation
il had
il les
il inenn
de f
de y
de en
de skriv
de ñvel
de hañ
de ste
de wi
de but
de ñval
de pois
de quin
de fense
de puis
de Gruyter
de pute
he on
he da
he art
he skin
he áveis
he itad
adur ez
ell à
ell enn
ell adennoù
ell keineged
se in
se bez
se con
se itek
se Sotho
evit a
ao idi
ao ping
ag ro
ag ent
ag het
ag onia
ag ireg
vo to
vo bil
vo yage
ik u
ik our
ik ell
ik oc
ik oul
ik ouriezh
ik elloù
le a
le p
le das
ann oc
ann ing
rei g
lo i
lo vi
lo gen
lo je
lo ko
lo chennoù
lo genel
lo reidi
ont eg
ma i
ma y
ma ha
ma ch
ma ik
ma ke
ma kou
ma ked
ma ins
ma chal
ma ines
ma jor
ma zhe
eri an
eri enn
eri um
eri adennoù
eri ores
eur s
out r
out ra
out ch
im m
im ar
im ez
im on
im añ
im in
im pl
im ut
im etr
im plement
im cets
ud er
ud oux
Ar al
Ar kan
Ar gent
Ar end
Ar adennad
Ar ché
Ar gemmañ
Ar allrevelezh
evel just
iv et
iv ri
iv ed
skri vez
skri tek
skri fts
gw ann
gw rizi
gw iti
gw ehan
gw raed
gw alenn
br ezon
br anch
br ør
br adañ
ob al
ob ser
ob sc
ob ject
ob idoù
ob oji
ob ligatory
00 3
pa z
pa ez
pa ch
pa pe
pa bl
pa kas
pa bu
pa pred
pa stell
pa weg
pa hoe
pa iplu
oc en
oc tet
oc arina
dre ser
dre sit
ne wez
ne wareg
ne paleg
ket s
ket ing
ket par
um i
um où
um ba
um antoù
um inal
um laut
um alanga
reizh et
reizh ed
reizh skriv
ab a
ab ann
ab ig
ab ai
ab sol
ab elle
ab illy
ab jadoù
An tre
An don
An kin
An sel
An net
An kou
An nam
An dak
An ders
An kow
An zav
An daman
An aimaed
An evaled
An emoi
us eg
us es
us ion
us que
us pra
us aufstand
us wap
ka us
ka keg
ka kt
ka ura
ka stilhaneg
ka esar
ti e
ti en
ti di
ti po
ti geri
ti egezhioù
ti bab
ti poù
ti sta
ti berek
ti bun
ti ruilh
ti bereg
ll uc
ll onder
gou i
gou zer
gou lakaat
gou erion
gou ign
gou sket
gou riz
gou ezet
gou kou
gou vrezel
gou rion
gou bren
benn et
benn rann
St il
St amm
St ok
St rom
St adegoù
St aon
St abil
St riv
St read
St rong
St reet
St eud
St iloù
St range
St aun
St ruktur
St avans
rou se
rou zig
ist on
ist red
ist ic
ist ence
ist achennoù
ist ruj
ist achenn
ist imet
ist eddfod
ist imañ
aoz ioù
aoz as
ñv où
ñv adenn
ouri ez
ouri cn
amm ar
skriv a
skriv i
skriv adennoù
ig ezh
ig ell
ig us
ig ion
ig neg
ig elloù
penn ger
penn lizherenn
penn gerioù
penn adurezh
penn oberenn
penn gom
ir y
ir í
ir ma
ir mi
ken c
ken el
ken ed
ken ger
ken etre
ken skrivañ
ken eil
ken urzh
ken distaget
ken aozer
ken gred
ken drec
ken werzhañ
ken strollet
ken stourmet
ken strivadegoù
ken gorioù
son our
son iñ
son iad
son erion
son erez
son aozañ
red adeg
ren adoù
arn o
arn s
Un o
Un cle
Un plugged
Un iform
est a
est l
est re
est ed
est im
est ret
est ic
est ão
est aolet
est icus
ul d
ul us
ul ta
ul ator
ul ettes
ul arium
ul atory
sav enn
sav ent
sav ont
sav jont
og g
og o
og eg
og eo
Breizh ek
roll erezh
az ar
az ez
az el
az az
az ieg
az inoù
az iland
az euliñ
az givinelezh
ras ional
ras egmental
etre k
etre keltiek
etre kelenn
etre personel
etre oberiañ
aou erien
aou idi
aou rek
aou raval
Yezh Ofisiel
Gw ig
Gw ion
Gw ast
Gw ener
Gw evn
Gw ambia
Gw rizioù
Gw iseni
ep pe
ep ik
ep tion
tre g
tre ñ
tre ut
tre ment
tre pas
tre vadoù
ak or
ak ek
ak our
ak riñ
ak ord
ak ular
ak ouk
ak tikel
kent an
kent idik
ot en
ot añ
ot aer
ot ball
ot oman
ot ikerezh
ot ropoù
ot eoz
ot aktikel
od et
od ren
od erezh
od os
od ouleg
oli an
oli on
oli tek
dro l
dro ch
dro id
dro van
dro hed
dro iadoù
dro tsk
vi c
vi ev
vi êt
vi hann
vi canus
vi ôse
and an
and or
and our
and otek
ok ta
ok sel
ok ane
ok omicheg
vro et
vro adoù
vro idi
ret red
ober ourien
dig l
dig ev
dig oll
dig omp
dig ompren
dig ejet
dig ramm
of eg
of fer
lev ra
lev ioù
lev rou
lev rier
lev tə
lev rierien
implij abl
hin d
hin e
hin iv
hin oniezh
hin kl
met a
met e
met ez
arzh el
os eg
os ed
os ek
os is
os cy
os sec
os cope
ran ath
18 2
18 18
18 vet
18 16
18 12
18 24
18 27
18 80
18 36
18 33
Al em
Al es
Al amant
Al ine
Al ys
Al bre
Al manac
Al lah
Al phon
Al gec
Al entorn
En or
En nem
En ni
En klozadur
En teuz
En rollañ
En izenac
res i
res ford
res ult
res adennet
res ultad
diwar ne
her c
her it
her reizh
her ing
her reg
her berc
lec ted
hi eri
hi adoù
hi bi
hi dr
hi cal
hi pi
hi èr
sp in
sp ier
sp las
sp art
sp lui
sp ektro
sp aghet
mar t
mar ks
mar ilhoù
mar god
mar evezhioù
mar athi
Li u
Li en
Li ch
Li beration
Li ñvadenn
skou ezh
doare et
doare ou
ug n
bl es
bl ue
ion a
ion es
laka aet
laka omp
laka eet
ver bi
ver zout
ver sus
ver deadurezh
ver raat
hall ez
hall aoueg
deus outañ
deus outi
ec e
ec ia
ec ción
ic es
ic lo
ic 3Bl
Sk ag
Sk lav
Sk ut
Sk eul
Sk oteg
Sk ignet
Sk okomicheg
hell où
hell erezh
hell omp
hell enat
men o
men or
men at
men ek
ian iz
lenn adurezh
ern ity
unan iz
unan stomog
hini enn
hini enel
200 50
In it
In tron
In con
In zar
In cor
In scri
In finite
In upiaq
gra fem
gra mmoù
gra mpouezh
gra oñell
rann er
rann as
rann ont
rann adenn
bro te
bro fed
bro tonennoù
bro feded
bro wn
bro kus
bro bablentez
bro rskap
bro vnik
bro wser
bro chure
op en
op ing
op lan
op iom
op rovañseg
bez oud
hel p
hel et
hel ezh
hel our
hel aouiñ
dud ennoù
dud oniezh
dud jentil
du et
du ce
han ennoù
han ienn
han daed
ve ed
ve ilh
ve digezh
ve sket
ve fa
ve ira
ve joñs
ve illé
ve hikular
agn o
agn é
agn er
agn es
agn ost
ta ilh
ta stum
ta èyn
lav e
lav aoù
zer où
ost in
ost hen
ost ilhoù
ost yakeg
ui gou
ui dennoù
pl ann
pl um
pl and
pl ass
pl anedenn
pl orer
id s
id ad
id eri
id op
id hun
id ence
saoz on
hen s
hen eg
hen ig
hen dra
hen gel
hen vrezhonek
hen gor
hen gred
hen draoù
hen vreur
hen egipt
hen sonn
hen voaz
hen derv
hen egiptat
hen strivadegoù
hen seurted
hen ouennoniezh
kem ennet
kem mas
oud et
oud mourteg
ing don
ing ham
mer o
mer ioù
oazh et
añs er
20 1
20 2
20 5
20 e
20 th
hoar voud
hoar vezont
hoar zhadeg
meur zh
brezhoneg erez
ac on
ac um
ac tes
ac cor
ac tual
ac ross
oul ed
dou sik
dou soc
div r
div eo
div ec
div uzul
div oret
div ugel
div evenn
Di f
Di ou
Di ber
Di ari
Di bab
Di wall
Di damallet
Di eppe
tro p
tro w
tro er
tro erien
tro id
tro ial
tro pell
tro wardroioù
stroll où
stroll der
stroll egezh
zi p
zi eg
zi ri
zi egezh
zi rak
zi wan
zi bou
zi hun
zi zhout
zi agent
bed oniezh
Mar d
Mar j
Mar se
Mar cha
Mar sh
Mar iner
Mar tolod
Mar mouz
Mar ija
Mar evezhioù
Mar ichal
ech o
ech et
ech ek
fe diñ
fe ature
int o
int elli
int añvez
int ég
int rapersonel
niver oniezh
niver ennet
oaz et
den roll
den heñvel
den oniourien
den oniourion
den sid
dis mant
dis heol
dis pak
dis pennet
dis orc
dis wkel
der aouidi
reiz hadennoù
reiz haouer
dan ze
dan frammoù
kav adennoù
adenn ig
ali añ
ali adurezh
ali bur
ali baned
stag er
stag enn
stag adennoù
har e
har t
har in
har ia
har id
har mon
har toù
har akalpak
har akalpakeg
daou du
daou hanter
bras lenn
bras aat
bras soc
dezh oñ
tra it
tra ck
tra odoù
tra ged
tra vell
gal a
gal lico
lavar it
denn o
barzh oniel
me i
me an
me da
me dic
me iro
ina eg
ina uer
ij en
ij ing
ij ani
ij uana
man a
man u
man er
man gez
for h
for ma
for mer
var tez
var evezh
var teze
var iadur
lab elioù
ilh og
ilh erien
si o
si al
si ek
si de
si eur
si ous
si que
si beri
si Sw
si ege
per e
per o
ber ioù
ber ry
ber dik
ber raat
par d
par on
par ed
par iz
par ch
par la
par iñ
par elezh
par ois
par ezed
par ative
par agra
par eañ
par keier
olog ía
euz iñ
ori a
ori e
ori g
ori ent
ori us
ori ta
ori ty
ori sis
tu an
tu ioù
tu de
tu ta
tu ary
tu stik
vet e
vet ek
vet te
vet lan
vet alouriezh
lu ks
lu tin
lu gern
lu oez
ved ek
ved egezh
ved alenn
heñvel sterioù
ili tr
ili ty
ili aire
ili dade
tur b
tur oscope
rak wel
rak nevez
aez amant
din erzh
din aled
din amek
gen s
gen son
gen res
gen eil
gen seurt
gen gerioù
gen urzh
gen etek
gen divizoù
gen drec
nem ed
nem ek
nem edenn
viz ied
viz skriverez
ard s
ard et
ard erezh
ard wy
van i
van el
van eg
van ac
van ifestadeg
ub by
ub mV1
ap ta
ap ata
ap rès
rez ioù
rez istanted
eil er
eil et
eil adur
eil vet
eil rener
eil lé
pro vo
pro verb
pro tak
pro stat
pro blem
pro gress
pro kulor
pro paganda
pro verbi
15 1
15 6
15 7
15 18
15 000
15 12
15 27
15 90
15 34
15 55
15 54
15 47
15 58
15 99
15 53
15 96
15 81
iri eg
iri adur
iri erien
mor t
mor u
mor v
mor fin
mor hoc
mor zig
mor gaou
mor skouled
ut ing
ut styr
vel egiezh
vel inus
ke e
ke hel
ke id
ke je
ke bek
ke ew
bi om
bi bl
bi hañ
bi oko
bi ogeo
urt er
Eur oa
Eur ip
blo g
arz hadenn
kan on
kan ek
kan erion
kan ienn
kan erezed
orzh ellegezh
Em led
Em bera
Her a
Her mes
Her ria
Her sch
Her mits
ana is
ana veze
chom fe
chom je
Br enn
Br umm
Br onis
Br anden
Br ycheiniog
Br onx
hent ennek
wel ont
wel us
wel erez
ofis ourien
strollad ig
17 1
17 3
17 7
17 F
17 16
17 13
17 50
17 80
17 29
17 84
17 46
17 66
17 77
17 65
17 52
17 72
hou m
hou enn
hou eg
hou ll
hou est
hou erc
hou stoù
tr é
tr añ
tr ue
tr ugarez
tr ép
tr adem
tr alisation
ala e
ala ouret
reg ed
dreist añ
dreist ski
dreist naturel
dreist vaget
dreist limestra
na h
na er
na eus
na farro
na issance
tud jentil
ski ff
ski berioù
mat a
mat rehe
ter m
ter re
ter ab
ter aou
ter egezh
ter ouer
ter rand
ter êts
ter monukleel
ter duet
Er zh
Er ru
qu em
qu am
qu ia
qu ista
qu ando
qu ities
qu qlar
qu iry
renn ek
kel o
kel tek
kel ligoù
kel ligel
neb reizh
neb lec
wezh arall
ko vo
ko roll
ko ef
ko ñs
ko reaneg
ko difi
goude ennoù
eb o
eb ann
kant reat
Ma j
Ma il
Ma he
Ma stri
Ma ure
Ma uss
Ma fia
Ma hapra
Sant af
ck haus
vras aat
vras sañ
Pa w
Pa sk
Pa ouez
Pa ieg
Pa eet
Pa chel
dra m
dra me
dra oñ
dra mmet
dra ezoù
dra stus
dra eneged
dra ilherez
dra goned
ton ius
enez ig
enez ourien
enez eneg
enez iek
16 9
16 00
16 17
16 14
16 23
16 29
16 35
16 26
16 34
16 46
16 37
16 44
16 66
16 86
16 61
16 76
16 82
16 62
16 71
16 68
Le al
Le arn
Le oneg
Le af
Le iden
Le çons
ho ra
ho diñ
ho anag
ho ût
ho ñvers
ho chdeu
10 18
10 20
10 15
10 21
10 40
10 84
10 85
Gou sed
Gou enoù
diazez erien
gan ez
gan où
gan in
gan ent
gan imp
hant on
deu zh
deu li
deu tsch
pad out
Ker ent
Ker dre
Ker gu
Ker loc
Ker ven
Ker lann
Ker vin
Ker vesk
Ker saout
Ker goad
Ker verzhioù
Ker ouac
dal añ
tal et
tal enn
tal on
tal ant
lies adur
lies aet
lies sevenadurel
lies stomog
stumm as
te i
te en
te skrivañ
te skrivas
te brer
te atr
ast i
ast han
ast enne
ast ureg
kev odañ
ich e
ich t
ich on
ich iek
ich ieg
Im age
Im ages
mm es
dia u
14 0
14 4
14 6
14 7
14 C
14 18
14 16
14 25
14 31
14 28
14 78
14 34
14 46
14 37
14 43
14 85
14 61
14 49
14 52
14 76
14 82
14 79
14 73
studi e
kar a
kar et
kar out
kar enek
kar otez
kar akalpak
kar iak
kar dinal
kar oling
lat itude
distag adurioù
Meur lar
rank jont
lez ireg
hed où
hed ru
hed rouli
hez kel
Da ughter
Da eadenn
oun et
ort hog
dez e
dez ennoù
dez us
dez astum
dez verkoù
peur gas
peur bad
peur gompren
deg ré
douar oniourien
rat ed
galleg er
nevez gotek
nevez enti
teu y
teu ed
teu ont
teu zi
teu jont
teu ziet
teu reuged
ser b
uk h
uk agireg
13 8
13 9
13 12
13 30
13 50
13 84
13 75
13 46
13 99
13 77
13 85
13 89
13 96
Mor and
Mor ton
Mor elle
Mor gannwg
Par a
Par l
Par ker
Par ry
Par idae
Par tikulenn
Par liamant
gar r
gar at
gar ouriezh
gar rez
gar reg
gar age
gar oek
gar kiezh
krou adurioù
au ch
au tres
au vais
au kee
disk lipet
disk oachañ
Ev il
Ev rann
Ev ezhi
latin o
fon otaktikel
rom où
rom ek
kal vezadel
gel a
gel aouennoù
gel ted
ster enn
ster eo
ster oniel
verb e
vor lenn
Ne al
Ne igh
Ne hru
Ne hemia
bar t
bar on
bar ok
bar aji
vr onneg
Sina at
alies ik
gav or
hw a
hw enn
hw ennet
hw ezet
uhel enn
uhel aet
klo c
klo er
klo tennoù
broadel ouriezh
broadel ourion
olo jik
olo ji
fra ost
fra me
fra ga
fra oñv
gour sav
gour tez
gour fenn
gour namant
wech all
urzh iek
urzh iadoù
urzh udoù
Dou g
Dou ro
Dou get
Dou fin
Dou jet
Dou jañ
Dou evelezh
str é
str ong
avat am
12 3
12 4
12 C
12 vet
12 13
12 84
12 95
12 54
12 67
12 97
12 83
Gant on
perzh ded
kre ol
Ab u
Ab eg
Ab ram
Ab solut
Ab jad
Ab sar
Ab alan
Ab erig
Ab idos
Ab ingdon
sin k
sin s
sin dikadoù
sin dikad
mare adeg
fri e
fri n
fri z
fri kan
fri dom
het a
het chwaeg
labour us
Ist orioù
La e
La ket
La yer
veur vorel
ya ume
th s
th is
th ree
ba eg
ba sket
ba ee
ba yin
ba yev
ba uspra
ba ijani
tri g
tri an
tri ad
tri di
tri ne
tri der
tri ca
tri lion
tri kon
tri but
tri wec
goun ideien
... ?
gent a
gent yezh
mont golfier
ñver z
dindan i
pell ing
pell gomzer
go û
go et
go ra
go ed
go añvioù
ika at
kement iñ
kement adel
hoari erion
eng eg
Dre k
Dre amer
Dre yfus
liamm adurioù
gwir el
Su ez
Su li
Su peri
Su law
Su jedoù
Su pplément
rel è
rel ation
su la
su stañs
diz our
diz has
diz imez
klask e
lin son
lin has
lin nen
Rou en
Rou edoù
Rou edad
darn où
ie j
ach i
ach al
ach ia
ach id
ale f
hom et
hom itia
iad e
iad elloù
rock abilly
fer e
fer um
fer son
fer mion
had añ
had zaed
fin où
miz vezh
evr ennoù
Kan omp
Kan uhel
Kan oe
Kan saeg
bev ennad
kreiz ig
kreiz douar
Am u
Am on
Am gu
Am iga
Am beno
Gen e
Gen itivel
Gen kiz
Gen eva
Gen esis
Gen ève
po i
po ek
po ésie
levr oniezh
brezel ig
mili ad
mili metr
elek tri
oni ennoù
oni um
oni que
che e
Penn adurezh
Kem ennoù
Kem enez
Kem ijska
to i
atom ennoù
IS SN
led où
led redoù
arouez iñ
Enez enn
Enez ourien
anavez ont
cha h
cha od
cha ft
cha stek
cha mantoù
enep ster
enep yuzevegezh
Je ann
Tre k
Tre ñv
Tre beur
Tre vadennoù
Rep res
Rep rin
Rep uidi
fam ilies
Stad unaniz
ign o
ign où
ign ano
Bi ot
Saoz nek
disp ignet
disp ignoù
Jo e
Jo el
Jo int
Jo vis
idi r
idi om
sell ont
sell us
sell boent
gre c
gre at
gre ol
dar ev
dar eg
Not adur
va i
va el
va zh
va in
va ed
resis añ
Bri ad
Bri ag
Bri and
Bri ñs
Bri tain
Bri tonum
dour et
dour enn
dour bont
sant er
sant ad
sant as
sant imant
Skri ver
Dis rannet
Dis mant
Dis hual
Dis pleget
mon a
mon et
mon di
mon de
mon son
mon umantoù
reol ata
Pl on
Pl out
Pl one
ijin er
ijin erien
glev as
mo ien
mo ires
gwiri ennoù
termen er
sa onenn
sa haja
Alam anek
bout añ
kont ell
kont adenn
kont ammet
Sp an
Sp ur
Sp ice
Sp uy
Sp anglish
Sp assky
Sp okane
Na skap
Na houm
Na hwa
ere adurioù
ere adurezh
At ena
At helstan
At ebeg
At atürk
hor r
hor ventennoù
mem orial
Bret ounet
bod adeg
hir on
hir vi
hir bad
Ret hink
Ret urn
don ioù
don aet
kad omian
stad ud
Ch y
Ch í
Ch and
Ch hattisgar
Ch anning
Ch ubby
lâ ras
ow ethy
traoù igoù
aos et
Ren e
Ren erion
Ren ais
Du al
Du ck
Du valier
Du hamel
Du brovnik
Kar en
Kar tennoù
Kar rnijour
War s
War ren
gomz et
zeu fe
zeu je
bobl vouezhiadeg
ff ff
kañ v
tost a
tost aet
brezhonek aet
Ken an
Ken savet
Ken gerioù
Ken sonenn
Ken aozet
Ken distagadur
Ken varc
Ken delc
Ken drec
Ken dael
Ken aan
Ba ha
Ba zh
Ba ix
Ba xter
treuz fur
treuz lizherennadur
treuz skrivadennoù
silabenn aoueg
30 2
30 4
30 8
Pro jects
Pro blem
Pro fes
Pro bosci
ru e
ru jañ
bu oc
bu annoc
bezh in
ded ennet
ts an
ts ar
ous ed
rig uez
koul eg
koul ourd
orin t
orin el
atur a
dalvez as
dalvez fe
ine fort
Hen añ
Hen vrezhoneg
Hen ej
Hen gelted
ong hua
tenn ek
tenn ont
tenn oc
Hervez o
Az vent
Az ər
Se yr
Se blant
Se idhun
heul h
arm orica
arm orial
varv je
ip ient
ement in
amp laet
zisk uli
zisk lêrie
zisk leir
oñj er
tan er
tan av
tan ioù
tan ihi
fi ez
fi añs
kat a
kat ekiz
mod er
mod el
mod elo
vev ont
uli ñ
dam c
dam serr
dam zigor
bouez e
bouez as
vat ematik
vloaz ioù
50 8
Ro din
Ro ots
Ro chester
Ro yaume
Rom e
Rom eu
Rom eo
Rom ania
ca is
ca ya
ca usa
ca uld
pat ri
pat ron
pat ient
stour me
Bed el
Ou eloù
ile ía
bret agne
ph éri
ill er
ill et
ill ard
ill andre
rin iz
rin kined
unvan idigezh
Iliz ioù
bo eg
bo dia
bo ire
bo rek
bo chet
log otaer
olik ed
Lo ir
Lo eb
Lo vec
Lo hueg
Nor dr
Nor mant
Nor mal
Nor way
do en
do ros
do ors
zel c
bennak ed
ker vel
ker reg
ry n
ry s
amañ choù
Mer et
Mer kañ
Mer drig
fizik erien
Mont es
Mont agne
Mont ler
mp 3
mp viled
etrebroadel our
rannyezh ouriezh
wechoù igoù
urzhiat a
co ver
22 1
22 4
22 8
Is la
Is le
Is cariot
Is abelle
deiz levr
tour namant
amer indian
hu ch
hu los
hu ye
hu chet
hu vri
heu barth
heu ilañ
danvez ennoù
Ha ý
Ha ut
Ha ute
dibenn et
be ek
be diñ
be dagog
be wiñ
be ñse
be ñsel
sen ennoù
dek o
dek vet
dek miliadoù
mas s
mas hing
pobl adoù
pobl etañ
ada ieg
gwel adennoù
gwel eoù
Ber ing
Ber tron
Ber tin
Ber zet
Ber tol
Ber rien
Ber tel
Ber sed
Ber engu
Ber lus
Ber tran
Ber wick
Ber tie
Ber resford
Ber taèyn
bel e
bel o
bel la
bel eget
bel laat
land ek
rag on
rag aozet
rag ona
Ad sav
Ad ver
Ad stêrioù
Ad ele
Ad stagenn
ht m
ht oñ
soñj as
soñj ont
yn n
yn es
yn ji
yn thetic
yn gla
dif rouezh
dif lip
dif lach
edel ic
hoarvez o
hoarvez fe
Oli mpia
Oli veira
Rann barzh
Rann adurioù
Rann frazenn
Rus h
Rus eg
ron ezia
rad en
rad ikal
rad ioa
skeudenn er
Gan su
Gan ada
Tro is
Tro adeg
hon go
hon neur
Mo ro
Mo gerioù
Mo ose
Mo edeg
Diwan et
Emsav ioù
Dav os
Gra u
Gra y
Gra ham
Gra eme
Gra ecia
dr ant
dr âma
ga e
ga i
ga fe
ga udiya
gêr savouriezh
let i
let on
let renn
let rennoù
mil le
mil mor
mil ourien
mil milion
mir our
mir elour
ois e
egel in
hanter ourien
hanter vogalennoù
hanter tonenn
hanter gensonennoù
elfenn ek
emsav el
emsav oc
emsav adurioù
emsav adegoù
bour men
tit aniom
ys an
ys is
ys ynthetic
ouz awouriezh
stan i
linenn eg
Per es
Per rin
Per ry
Per seg
Per roz
Per alta
Per wen
Per omys
bell e
bell o
bell gehentiñ
bell adonna
art amant
dave añ
raz ia
24 7
24 D
El sev
Lu ís
Lu blin
Lu skadoù
frank at
frank lin
gev nid
giz ell
so zi
so diom
so rabek
eveu reger
Re x
Re ed
Re ques
Re fran
Re wiz
You reg
gor ventenn
sur oc
sur jian
has as
has yllab
has heáveis
renk ennet
izel der
test s
Int erior
He ine
He idel
min or
Gal ianeg
Gal ianed
Gal esi
Gal ega
Gal eguista
Kel enner
Kel tica
Kel dreg
Kel toi
fur lu
fur chal
fur igana
fur chadegoù
hont añ
hont inu
hog edenn
sik hed
sik ourioù
sik ouras
hat olicon
hat lantel
desk ed
garg où
Gu ic
Gu itar
Gu illa
Gu inefort
Gu yngla
Ital ez
Ital iano
Miz t
Miz vezh
gas aet
stali adur
Sa ğ
Sa an
Sa il
Sa inc
Sa xi
Sa ône
So rabeg
bou kousoueg
buhez ioù
buhez egezh
buhez skrid
bom bezañ
bom bard
con s
con jec
con lang
con cep
con vers
con cret
con nier
con jur
nukle idoù
skin s
ugent vet
turk menek
produ our
John ny
Evel kent
Tur n
kor denn
kor vig
nerzh us
nerzh usoc
tor s
tor kadoù
23 8
23 228
Me V
Me at
Me ins
Me yer
Me abann
bre man
bre vet
bre ved
bre ujoù
bre vedoù
bre utaet
fr où
fr añ
fr wezh
fr ía
fr dwy
gu ez
gu re
gu al
gu es
gu ita
gu erre
ni ñv
ni deien
ni ardwy
sel la
ress ion
kreñv der
urzhiataer ezioù
27 2
27 3
27 00
Lou ie
ban o
ban où
ban elloù
ban sol
gin el
mell adoù
pla stik
val u
val an
val ign
val ds
val izenn
val encià
vil vil
end li
end oglosia
New ton
vod fe
vod adegoù
kelenn e
kelenn adur
kelenn erezh
kelenn ouriezh
heuli er
heuli adenn
Mal ou
Mal ac
Mal teg
Mal geneg
Mal inowski
no ve
no ires
no amlake
not er
not añ
not omp
not toway
liv ouriezh
liv adenn
liv ourien
liv familh
Dist rig
Ge es
Ge ertz
Man cha
Man ip
Man ifest
Man aveg
Man ifestadeg
Man sfield
Uhel der
Uhel aet
Uhel gompezenn
ask eg
bin ioù
bin om
com bat
com para
com ical
com plet
far s
far aday
gevredigezh el
we ek
we ep
we ight
ziv ro
ziv iz
ziv ec
ziv yezhek
ziv izas
ziv roañ
kevre at
kevre adur
Pet ri
Pet rar
Ul m
Ul ar
Ul bri
Ul rich
Ul rike
mel in
mel odrama
mel odiennoù
sit y
sit é
sit ron
sit zen
servij er
80 4
80 9
Kreiz afrika
lam big
sh iki
toull bac
yr na
29 4
29 5
29 8
29 875
29 461
Bel eg
Bel ong
Bel tan
Bel eien
Bel eion
De i
De ir
De hou
De skrivet
De eds
De heubarth
gumun ioù
lan s
ment où
ment ek
ment rezhoù
seg al
seg hol
seg mental
seg uinte
Den e
Den ver
Ger ly
Izel oc
lar k
lar go
neu ial
neu ñver
neu tralisation
rus at
rus ier
rus ianek
rus ineg
ze bras
ze skrivadurioù
displ egel
Tud al
nij erien
nij erezioù
tab l
vest re
vest ris
marv où
eskob iñ
eskob elezh
Dia esterioù
Dia weladenn
Tri o
Tri as
arao kaet
etrez i
sko ed
sko ilhoù
tres ennoù
tres adenn
Doue oniezh
Intern ationale
'' )
'' ',
'' ')
Div ezh
Div iz
Div rud
Div arvel
Les lie
Mao ist
Mao dan
Sc ar
Sc ene
Sc ream
Sc atter
Tra ou
Tra sk
Tra jan
Tra vers
geriadur ouriezh
henn iezh
henn iezhioù
kim ia
krog ad
tak ki
25 6
25 9
25 00
88 5
Bar an
Bar th
Bar ba
Bar regezh
Bar vek
Bar ack
Bar bared
Bar rington
Ed ern
Ed vard
Vall s
Vall es
Vall ès
aw alac
enne ien
vare adoù
Met a
Po il
Po vo
Po tier
Po ésie
Po itiers
ja čić
ja inegezh
net s
net ed
Har dou
Har ley
Har old
Har sha
Har rer
Har yana
Har deng
gemer er
hev red
hev redad
hev raou
hev anion
km 2
kembraeg er
mi rou
mi bien
mi wok
niv eridigezh
sint etik
sint aks
dist eg
dist res
dist roas
dibar derioù
izotop ek
aot eriad
pleg où
pleg ennoù
Char ente
ben iti
ben hav
annez er
annez erien
impala eriezhioù
mesk alin
gensonenn el
Franç ais
Franç aise
Kal et
Kal vez
Kal ed
kom i
kom sed
kom set
kom iser
kom elem
kom añse
nolog ie
von arkiezh
arg on
arg ad
arg adeg
arg adiñ
90 5
Co re
Co hen
Co ola
Co rea
Co roller
Co chran
Pal edoù
Pal antines
Pal atino
Sal m
Sal ud
Sal van
Sal mon
Sal oñs
Sal adin
Sal azar
Ter moù
Ter rence
gwar k
gwar izi
heg er
heg erien
heg inañ
sez ioù
sez iz
zeg ouez
org i
org lez
ass oc
ass um
vihan aat
vihan aas
strizh vor
Treuz et
Treuz kas
Treuz revelezh
Treuz stummadur
Treuz skrivadurioù
Treuz lizherennadur
fiñv fe
fiñv adenn
fiñv adurioù
60 5
Col ville
Col lection
Col lie
Col onna
Col lier
if ester
if ïañ
pre pos
pre fix
vent i
vent ion
vroadel ezh
vroadel ouricn
Bo son
Bo hen
Bo reas
Bo ie
Ben e
Ben ito
Min i
Min or
Min ic
Min ds
Min utes
On kar
On line
On ezhsko
hal on
hal ant
hal ian
hal vadenn
hun da
ienn es
nag ement
pr én
pr éc
sañ skr
sañ timant
zen it
gwall et
gwall aozet
gwall reuz
tremen erezh
Be ş
Be ijing
Kern aouek
breizh veurat
kou er
kou st
kou ign
kou stoù
mez v
mez olektenn
lost igoù
Disk enn
Bu c
Bu ona
Bu ffon
gad o
gad ol
gad arn
gad oniezh
kl añ
kl em
kl ann
kl euzet
kristen ien
stat ek
stat istik
Ho ra
Ho over
Ho kakeg
Ho skins
Ober erezh
Te ars
Tal my
Tal bot
Ver tou
Ver deadurezh
Ver reaux
zek redas
gouren adenn
gouren adeg
levezonet oc
gwirionez ioù
Turk estan
28 4
28 5
28 7
35 5
35 6
35 00
Aost a
ER N
ER WAN
Pont o
Pont char
drou zet
gont e
tin ger
tin cu
tin iom
ata erezh
Ski pailh
26 2
26 6
Car roll
Car ga
Car pent
Car hais
Car dequin
Lev riou
del enn
kichen ik
pri ori
pri mat
pri vezioù
pri entiñ
pri oldi
pri meiro
Embann adur
Embann erezh
fenn ad
pel in
indez at
leñv añ
leñv ejoù
horf uniadoù
Frank ezañs
Kon gar
Mich eau
Si ar
Si lab
Si oux
Si biria
Si froù
fa el
fa ourell
kompren as
teo rik
rev ital
rev erzhioù
rev ellet
reizhiad ek
droad ikell
menez iek
menez eier
niverenn iñ
teir yezhek
teir mentek
Con j
Con n
Con de
Con se
Con go
Con rad
Con nec
Con sor
Cha o
Cha se
Cha ban
Cha steg
Cha plin
kornôg at
nam ad
nam eg
eneb e
eneb erezh
eneb ourion
70 5
Ara bek
Ara pahoe
Ko ka
Ko roller
Ko reeg
Ko helet
Ri quer
Ri edon
bon reizh
bon eget
fil es
fil mañ
evezh ier
evezh iadennoù
arnod va
arnod skrid
arnod skridoù
Go o
Go v
Go añv
Go rea
Go ose
Go inard
Go ater
Krist ian
Sing s
Studi a
Gwel adenn
Gwel laet
plant et
plant adurioù
plant adegoù
tredan ek
As am
As sam
As sign
As omtavrouli
Bon d
Bon ne
Bon go
Bon pland
Mon d
Mon nier
Mon mouth
feur met
kern eveg
kern eveur
kern eveureger
kevrenn adur
Nep tu
Ser j
Ser ve
Ser vat
Sam son
Sam ieg
Sam pling
Sam bh
Sam asó
bat i
bat iri
ly k
nor manek
sol ais
skign er
skign as
Bihan oc
gresk e
buan añ
buan adur
Dar ya
Dar ling
vouezh iañ
zis oñj
zis paket
zis hualded
oue idi
skra ber
skra mmoù
skra pañ
skra mpviled
dreuz as
dreuz furm
tic s
tic ut
59 3
59 9
Mat h
Mat er
Mat agne
Mat thi
bad umoù
bol otenn
bol zioù
bol garek
bol uň
tou et
tou gen
tou chennoù
ves e
arall anv
arall revel
ama ezh
ama ek
oberi adurioù
Ac i
Ac ts
Ac coun
Ac cess
Mil es
Mil le
Mil ton
Mil ford
XI X
can e
sim il
ven el
ven veg
ven irs
186 9
Louis on
impalaer el
Fañch ig
Pen zez
Pen fro
ft wer
geo teg
geo logour
geo metriezh
klas ek
lenin ourien
vre utaat
enklask er
enklask erion
Univer sid
Marc us
ISO C
ledan aet
Bre ach
Bre udeur
Bre gourien
Lon ely
Lon nie
ci u
ci ó
ci es
ci enne
pos itivel
ré d
ré as
ré gions
sek ek
sek redoù
ан жир
stank elloù
ideo gramm
36 1
36 6
78 6
Dig los
Dig envez
Dig lossia
Il án
Ka on
Ka hli
No i
No vo
No yabr
Th ree
mu taet
mestr oniet
ris m
goul z
prezidant ed
Sun g
Sun set
Sun day
To enn
To var
To skana
UA E
pes ort
dilenn idi
laezh ajoù
sport va
peurunvan iñ
Hu an
Hu ang
Nam es
Nam neted
Pat er
Pat xi
Pat wineg
Pat ronez
Pat agonia
bal ioù
bal dus
bal izenn
beri odenn
dorn et
dorn levrioù
gat e
hem ennet
hem menadur
strat um
hing on
fonem ek
romant ourien
Brit t
displeg où
displeg adurioù
Aber yst
Aber deen
Son ioù
Ta ieg
Ta hoe
kerzh out
mamm vro
tch i
tch ard
tch iang
tch erno
vol ume
vol chev
ark and
ark hai
Stumm adur
Stumm adurioù
84 2
84 4
84 7
Bras s
Bras añ
Bras il
Bras oc
Bras parzh
Vic enç
varn oñ
stra f
stra p
lit os
tisk lêrie
tisk lêr
Gre co
Lan cel
Lan cret
Roc kers
Sha w
Sha sta
poli ser
poli tan
poli sintetik
sal var
sal ick
sal velinus
arab ica
arbenn igour
enkloz añ
dic t
dic hañs
sklaer aat
oulz añ
talvoud egezhioù
talvoud ekaet
Roue ed
33 3
75 2
Gour c
Holl ret
Ni h
Ni qqud
Ni emey
Porzh ig
Qu er
Qu al
Qu oc
Qu ick
Qu aï
fran glais
hskeudenn er
hskeudenn our
hskeudenn erezioù
meneg er
meiz añ
AR BR
AR IO
Mel illa
Mel anch
Ph ras
Pon ant
Pon keg
barn añ
barn erien
cis montano
jed adurioù
mes mo
mes ures
za W9
hañv ale
emz istruj
184 5
gorre où
74 75
95 2
95 8
fun c
fun k
fun ções
kra oñ
kra oñell
ene au
stur iennoù
ins chaft
Arm y
isto er
feiz oniour
poell el
poell adoù
Deg adoù
Pemp ont
Rel igion
Rich eli
Seven iñ
dor fed
ew here
fl us
fl umm
fl adenn
fl ond
fl uidennoù
pour vezer
pour vezet
pour vezioù
Gwil er
fonetik amant
framm adel
Rannvro el
frankiz adur
Belg iat
Af rodite
Bur ut
Bur gos
Bur dur
CO BOL
Kri edt
Lat chieg
Or ne
Or tod
Ori go
Ori sa
Ron sard
glo ev
glo erdi
glo zañ
pol d
pol oniat
pol inezek
pol ysynthetic
pao trig
ever y
lao eg
seblant e
merk adur
romanek aat
Tadjik ed
Diaz ad
Diaz ezañ
Lit iom
Lit tré
Mir et
Mir out
Mir andeg
Rumm adur
Rumm ouriezh
Rumm ataet
Rumm atadur
bugale aj
mé ner
post où
vit ch
steu ziet
helenn di
kevred adoù
100 3
100 8
34 1
34 4
Dil ec
Dil had
Dil asser
Dic cion
Fon em
Hag ai
Mag oer
Mag tym
Mag arola
Neil l
Val enc
Val encia
Val encià
Val réas
bab ig
dug ez
lon où
lon kadur
ty pology
ati bl
ingal añ
ingal eg
ingal adur
Bev et
Bev fizik
Bern d
Bern ez
Din eol
Des evel
Des hay
Des alonik
Des ideri
Pe er
Pe pe
Pe diñ
Pe adra
Pe ace
Pe šić
Red ec
Tu u
Tu al
Tu valu
biz ant
biz skrivañ
horn adoù
pik o
pik teg
pik seloù
én ie
ür ülǝr
ham bre
ham brian
lig atur
lig nez
180 6
180 8
180 9
keit at
striv as
Bou c
Bou ëssel
ES B
Ex pos
Ex otic
Ex plorer
Rev ival
SS A
gos pel
kil ogramm
tat or
stand ardization
derez ioù
38 1
38 5
38 00
Cam brian
Jam no
Pri el
Pri ce
Pri tan
Pri vac
Pri tchard
dost oc
dost aer
dost dur
fent igelloù
gy bi
hour vez
hour sav
hour onek
hour drouz
hour lañchenn
hevre adur
hevre adurezh
kt ivel
mou ar
mou el
mal izenn
indi vi
daolenn adur
ave et
ess ä
ess ion
ess ential
vicher el
vicher ourien
vicher ourion
levraoueg ourien
proses us
Plou ha
Plou hinec
Plou arzhel
pinvi digezh
46 6
Dug elezh
Mi ra
Mi bien
Mi edwie
Mi ossec
Tr ubuilh
Tr ento
Tr ubuilhoù
Tr ườ
bern ioù
bern ia
drez añ
ef ennoù
ef reoù
ef eld
efed usañ
fo enn
fo od
hann es
mad im
mun utaat
tar v
tar af
vag istraded
anz avet
lise où
Unvan et
marteze adoù
aloub erion
aotrou nez
Cor se
Cor su
Cor relation
Cla y
Cla ir
Cla ck
Cla uses
Lin on
Lin us
Lin naeus
Sav erien
Sav elet
ble ioù
ble adoù
ble izi
ble iniañ
kig debrer
krenn gerneveurek
pan eve
pan evek
qui d
qui eu
vou je
vou daat
vou daiz
well yn
zist orioù
zist rujañ
rit m
rit os
rit age
voc ê
oks id
oks ijen
hoarier ez
perc omp
materi als
Saint e
Saint s
araog erien
film ig
44 5
Deu ts
Deu tsche
Dam an
Dam ez
Dam varv
Dam emren
For el
For um
For mal
For gannwg
Hy ac
Hy brid
Hy oscy
Lang e
Lang res
Lang evin
Nic k
Nic ko
Nic ola
Sid un
cu it
cu pation
cu isine
ex p
ex tre
ex pé
ex iste
ex pon
fard erien
klev ed
komp ez
komp oder
komp agnun
komp agnunezh
komp oderioù
komp ozadoù
komp oderezh
komp atibl
sw ick
ten sible
tel c
tel e
tel y
tel ier
tel heim
tel ougouek
ano ek
chich te
170 3
170 5
178 1
disklêri as
disklêri adenn
difenn erien
Cel tes
Cel tica
Cel sius
Dev il
Lez ardrev
Mad ness
Mad ame
Mad ison
Vol ta
Vol ume
Vol tage
breder ourien
sc ar
soc ius
vin o
vin ed
vin vioù
vin sky
vin drailherez
eut ung
emgann er
emgann erien
agu er
Stalin ouriezh
kenwerzh ourien
vesk as
179 2
179 6
modern aat
55 3
55 6
55 67
66 5
Bod y
Bod en
Bod añ
Bod oeg
Cym ry
Cym deithas
Est on
Est ienne
Hent enn
Kev in
Kev renn
Kev redad
Kyr k
Kyr toma
Pak añ
ael ez
dle out
dañs al
pemdez ieg
chu penn
harr dioù
diorro iñ
Bae où
Israel iz
gevred adourel
54 8
54 00
AM D
Can al
Can adian
Com o
Com es
Com bat
Com media
Chi ck
Del mas
Eri ch
Fer ry
Gi reg
Gi bb
Gi bran
Gi orgi
Kant vedoù
Kat oligiezh
Kat harevousa
Kam peon
Kam tchat
Kam enev
Kam bodia
Lezenn el
Mc Cal
Mc Bra
Sar tre
Sar ah
Sim la
Sim bol
Sim berg
Ton ioù
Ton ennoù
Ton go
Ton kin
azh ent
bir d
gaoz e
gaoz ee
hol on
hêr benn
kon werzh
kon goeg
korn ioù
korn og
noz vezhioù
éc ologique
ado x
dil denn
dil uziañ
ino xiales
ram z
ram mañ
emdro as
dec em
dec im
henc hañ
skolaj iad
skolaj idi
Christ gau
ginnig e
Don ati
Dim itris
Dim oteoz
Geo logiezh
Geo graphi
Goul d
Mé heu
Mé tho
Mé moires
Mas où
Nob iliaire
Pred enek
Sm all
Sm yrna
Sur real
Sur vey
bolitik erien
bolitik ourien
hy st
ifi ques
katal an
lañs al
moull adur
moull erezh
pid on
samm as
samm adur
tis che
tis avouriezh
tis avour
ün ji
oret ische
chi reg
chi Shon
gwin ieg
Martin ek
treuzkas adennoù
300 29461
Do es
Do qq
Hun za
Hun garat
Jos ilin
Kin ks
Kin alteg
Kont et
Kont rol
Mong olian
med ex
pop o
pop ula
pop ular
sy k
té moins
rec ipient
gwag rennoù
german ische
Anton in
Anton inus
gouel ezenn
gouel edennet
istori ma
tap ed
inter aktadur
zegas e
mekan ikel
brezeg enniñ
Au ver
Au bron
Corn ic
Corn ette
Corn icum
Ga ugu
Gar den
Gar onne
Geri aouiñ
HT TP
Jan e
Jan uar
Mac lou
Mac lovi
Pell eter
Pell gomzerioù
Ros loc
Ros por
Ros sign
Sin añ
Sin deg
Sin dikadoù
Sent menat
gomp oder
louz aouegoù
por ter
sem ant
wi adenn
és iais
ör t
ör öm
dister oc
dister aet
skorn el
skorn egoù
ome diennoù
ocol atl
Anj ou
estren vro
hidro jen
bled e
henwerzh er
Gouel où
urzhiataerezh ioù
arguz enniñ
47 7
58 1
58 2
Eu red
Eu skal
Hon oré
Hon dsch
Mic k
Mic klem
UR L
Vr ezel
Var iad
Var oko
Var iety
Var anasi
Vin c
Vin ca
Vin istred
boul touz
jazz y
lé aire
my rat
my ths
san ce
san skritek
sil et
sil ent
sil zig
sil vidigezh
sil vestris
ordin ateur
150 3
kanet ennoù
Emren erezh
houn id
houn skrid
Max well
araok adur
araok adurioù
Vici pedia
67 2
99 2
99 6
Cal vez
Cal vi
Dy wyll
Dy frdwy
Hum or
Jer em
Ru pert
Sw in
Sw azi
Sw itch
Sw aziland
bred eriañ
bred oniourion
but as
hiz eller
hig h
moul añ
vir on
vir uz
zar a
spis oc
spis haat
vern akular
Maur o
skolveur iad
stered ennoù
stered egoù
CE T
Che ap
Che cker
Gon deg
Gon zalo
Hi dro
Hi machal
Hi bernia
Niver adeg
Niver oniezh
Rag anvioù
Sokial ouriezh
Tab arly
Vo ice
Vo egelin
dent ro
fal en
ged ez
ged on
kam ek
kam ik
leu e
leu egen
tech n
tech où
tech nology
vé no
zez as
zez revell
zou gen
zou esk
zou ge
zil ec
itch eg
itch es
itch aneg
isi ó
Gwen dal
Gwen roc
Gwen holon
off ic
respont e
Skeu liad
Skeu denroll
niverel aet
Brun swick
degemer er
Heñvel revelezh
Georg eg
Georg ia
Coop er
Daniel s
Britann iam
faltazi us
Alex andro
Ez klozadur
Hin gant
Hab icht
Kre eg
Kra c
Kra vez
Kra oñell
Kra ftwer
Kim ura
Lé vi
Lé gende
Lé veillé
Lam at
Lam bal
Men ou
National sozi
Prez eger
Rez istanted
Sez ambr
Vog alenn
Zim mer
Zim oteos
big orn
dri ve
fiz jont
fiel ds
gro ge
gro matek
gom añs
gom per
gom iserien
kred enn
mag adurezh
mag iques
mag istraded
mag azinoù
pi ramid
sat iva
sat yam
sat ıcı
sub type
organ el
pesk ig
vojenn el
imp lic
imp erium
Andre a
spont erezh
spont erien
spont erion
halloud egezh
halloud usañ
ident ité
kempl esoc
doug où
doug erion
dever adur
dever adoù
dever adurioù
Norman eg
mezi antel
ergerzh our
Phil ologie
Vrezhon egerion
1000 7
1000 8
77 9
Hog efeld
Sek o
Sek iz
Tor fed
Tor mo
Tor valds
baz ilektenn
dt vig
magn et
ox i
ox eg
ront aet
sent ence
vis arga
werz ennoù
án os
ин а
ин чи
redi di
ath é
ath eos
Stat udoù
Gwech où
duc ation
form ulennoù
form ulettes
form osek
Europ é
hwit adennoù
steuñv ekaat
97 9
Ap pl
Ap pala
Bet t
Bet ter
Bet telheim
Barzh oneg
Barzh ezed
Bang or
Es aet
Es quer
Flo ch
Flo wers
Hou mañ
Hou ck
Hom añ
Hom me
Kav ed
Krennlavar iou
PC I
Rad ivo
Rad clif
Rad iola
Rak gerioù
Rak tresoù
bor stel
bemdez iek
eizh vet
kir vi
kir ghiz
kir antiek
lamm où
sac has
tag al
tag usoc
vour re
wer in
you c
ал п
its chrift
ourn ier
Ark eologiezh
Angel a
Angel s
trevadenn iñ
digemm enn
May all
May be
mong ole
poblañs où
Kazak h
ET H
Fil th
Lavar ou
Lavar où
Mouezh iet
Mouezh iadur
Miss ion
Pla ine
Res is
Res publi
Res istañs
Res ource
US B
fest ivalioù
homp oderioù
pren ez
sion ouriezh
tt iz
tourist añ
tourist elezh
vann où
vann añ
ziz ober
zia es
zia kronel
ыр лы
arre beur
dileur iñ
egin er
islam a
islam ek
islam our
islam ouriezh
pak adur
pak adoù
bleu striñ
Mari ed
sizhun ioù
sizhun iek
sizhun vezh
sizhun vezhioù
elektro gwan
Plant ejened
Palest ine
Ali ce
Ali ezik
Blo w
Blo av
Blo que
Comm and
Comm ents
EN I
Fur y
Fur ay
Hir wazh
Hir fan
Hir undin
Jul y
Land elo
Mez olitik
Mez olektenn
Plo veilh
Rob by
Vis it
We ber
We ights
West ern
West falen
borzh ioù
cel tic
cel tica
cel tische
dur c
faz er
faz iet
faz iek
gron nañ
gron ologel
hl en
hlas adoù
nu llet
tem pl
tom etr
vas hed
vao ourien
vlo taat
wy th
wy andotek
zan vezioù
zan evell
ouizi eg
ouizi ek
chal et
deizi ataet
tif ication
merde erien
harlu et
harlu añ
koad eier
160 2
160 8
wazh enn
laosk oc
Bernard o
aotroun iek
aotroun iezhioù
Gevred et
Spered elezh
86 2
86 843
Aer on
Aer lestr
Aer ouant
Aer oplan
All ouarn
Bos veneg
Cour s
Cour t
Cour bet
Cour cy
Jor di
Liv oneg
Liv onia
Moz illa
Merc ury
NA SA
Sh āh
Sh uswap
Sh mouel
Siz e
Sil vio
Slo veneg
Ty men
Ty ping
Tom linson
Wat son
Wat ers
Wat oto
Wat kins
car es
cont ra
dom mañ
dom esticus
hrou adur
kri v
set swana
sam e
yak oneg
yak ineg
ер ме
reak sj
republik où
distruj où
distruj añ
stro b
iner t
[...]
