{
  "version": "1.0",
  "truncation": null,
  "padding": null,
  "added_tokens": [
    {
      "id": 0,
      "content": "<s>",
      "single_word": false,
      "lstrip": false,
      "rstrip": false,
      "normalized": true,
      "special": true
    },
    {
      "id": 1,
      "content": "</s>",
      "single_word": false,
      "lstrip": false,
      "rstrip": false,
      "normalized": true,
      "special": true
    },
    {
      "id": 2,
      "content": "<pad>",
      "single_word": false,
      "lstrip": false,
      "rstrip": false,
      "normalized": true,
      "special": true
    },
    {
      "id": 3,
      "content": "<unk>",
      "single_word": false,
      "lstrip": false,
      "rstrip": false,
      "normalized": true,
      "special": true
    },
    {
      "id": 4,
      "content": "<mask>",
      "single_word": false,
      "lstrip": true,
      "rstrip": false,
      "normalized": false,
      "special": true
    }
  ],
  "normalizer": null,
  "pre_tokenizer": {
    "type": "ByteLevel",
    "add_prefix_space": false,
    "trim_offsets": true,
    "use_regex": true
  },
  "post_processor": {
    "type": "RobertaProcessing",
    "sep": [
      "</s>",
      1
    ],
    "cls": [
      "<s>",
      0
    ],
    "trim_offsets": true,
    "add_prefix_space": false
  },
  "decoder": {
    "type": "ByteLevel",
    "add_prefix_space": true,
    "trim_offsets": true,
    "use_regex": true
  },
  "model": {
    "type": "BPE",
    "dropout": null,
    "unk_token": null,
    "continuing_subword_prefix": "",
    "end_of_word_suffix": "",
    "fuse_unk": false,
    "byte_fallback": false,
    "ignore_merges": false,
    "vocab": {
      "<s>": 0,
      "</s>": 1,
      "<pad>": 2,
      "<unk>": 3,
      "<mask>": 4,
      "!": 5,
      "\"": 6,
      "#": 7,
      "$": 8,
      "%": 9,
      "&": 10,
      "'": 11,
      "(": 12,
      ")": 13,
      "*": 14,
      "+": 15,
      ",": 16,
      "-": 17,
      ".": 18,
      "/": 19,
      "0": 20,
      "1": 21,
      "2": 22,
      "3": 23,
      "4": 24,
      "5": 25,
      "6": 26,
      "7": 27,
      "8": 28,
      "9": 29,
      ":": 30,
      ";": 31,
      "<": 32,
      "=": 33,
      ">": 34,
      "?": 35,
      "@": 36,
      "A": 37,
      "B": 38,
      "C": 39,
      "D": 40,
      "E": 41,
      "F": 42,
      "G": 43,
      "H": 44,
      "I": 45,
      "J": 46,
      "K": 47,
      "L": 48,
      "M": 49,
      "N": 50,
      "O": 51,
      "P": 52,
      "Q": 53,
      "R": 54,
      "S": 55,
      "T": 56,
      "U": 57,
      "V": 58,
      "W": 59,
      "X": 60,
      "Y": 61,
      "Z": 62,
      "[": 63,
      "\\": 64,
      "]": 65,
      "^": 66,
      "_": 67,
      "`": 68,
      "a": 69,
      "b": 70,
      "c": 71,
      "d": 72,
      "e": 73,
      "f": 74,
      "g": 75,
      "h": 76,
      "i": 77,
      "j": 78,
      "k": 79,
      "l": 80,
      "m": 81,
      "n": 82,
      "o": 83,
      "p": 84,
      "q": 85,
      "r": 86,
      "s": 87,
      "t": 88,
      "u": 89,
      "v": 90,
      "w": 91,
      "x": 92,
      "y": 93,
      "z": 94,
      "{": 95,
      "|": 96,
      "}": 97,
      "~": 98,
      "": 99,
      "": 100,
      "¡": 101,
      "£": 102,
      "¤": 103,
      "¥": 104,
      "§": 105,
      "¨": 106,
      "©": 107,
      "ª": 108,
      "«": 109,
      "¬": 110,
      "­": 111,
      "®": 112,
      "¯": 113,
      "°": 114,
      "±": 115,
      "²": 116,
      "³": 117,
      "´": 118,
      "µ": 119,
      "·": 120,
      "¹": 121,
      "º": 122,
      "»": 123,
      "¼": 124,
      "½": 125,
      "¾": 126,
      "¿": 127,
      "À": 128,
      "Á": 129,
      "Â": 130,
      "Ã": 131,
      "Ä": 132,
      "Å": 133,
      "Æ": 134,
      "Ç": 135,
      "È": 136,
      "É": 137,
      "Ê": 138,
      "Ë": 139,
      "Ì": 140,
      "Í": 141,
      "Î": 142,
      "Ï": 143,
      "Ð": 144,
      "Ñ": 145,
      "Ò": 146,
      "Ó": 147,
      "Ô": 148,
      "Õ": 149,
      "Ö": 150,
      "×": 151,
      "Ø": 152,
      "Ú": 153,
      "Ü": 154,
      "Ý": 155,
      "Þ": 156,
      "ß": 157,
      "à": 158,
      "á": 159,
      "â": 160,
      "ã": 161,
      "ä": 162,
      "å": 163,
      "æ": 164,
      "ç": 165,
      "è": 166,
      "é": 167,
      "ê": 168,
      "ë": 169,
      "ì": 170,
      "í": 171,
      "î": 172,
      "ï": 173,
      "ð": 174,
      "ñ": 175,
      "ò": 176,
      "ó": 177,
      "ô": 178,
      "õ": 179,
      "ö": 180,
      "ø": 181,
      "ù": 182,
      "ú": 183,
      "û": 184,
      "ü": 185,
      "ý": 186,
      "þ": 187,
      "ÿ": 188,
      "Ā": 189,
      "ā": 190,
      "Ă": 191,
      "ă": 192,
      "ą": 193,
      "Ć": 194,
      "ć": 195,
      "ĉ": 196,
      "ċ": 197,
      "Č": 198,
      "č": 199,
      "ď": 200,
      "Đ": 201,
      "đ": 202,
      "Ē": 203,
      "ē": 204,
      "Ĕ": 205,
      "ĕ": 206,
      "ė": 207,
      "ę": 208,
      "Ě": 209,
      "ě": 210,
      "Ĝ": 211,
      "ĝ": 212,
      "ğ": 213,
      "Ġ": 214,
      "ġ": 215,
      "ģ": 216,
      "ĥ": 217,
      "ħ": 218,
      "ĩ": 219,
      "Ī": 220,
      "ī": 221,
      "ĭ": 222,
      "Į": 223,
      "İ": 224,
      "ı": 225,
      "Ĵ": 226,
      "ĵ": 227,
      "ķ": 228,
      "ĸ": 229,
      "ļ": 230,
      "Ľ": 231,
      "ľ": 232,
      "Ł": 233,
      "ł": 234,
      "ń": 235,
      "ņ": 236,
      "ň": 237,
      "Ŋ": 238,
      "ŋ": 239,
      "Ō": 240,
      "ō": 241,
      "ŏ": 242,
      "Ő": 243,
      "ő": 244,
      "Œ": 245,
      "œ": 246,
      "ŕ": 247,
      "ŗ": 248,
      "Ř": 249,
      "ř": 250,
      "Ś": 251,
      "ś": 252,
      "ŝ": 253,
      "Ş": 254,
      "ş": 255,
      "Š": 256,
      "š": 257,
      "Ţ": 258,
      "ţ": 259,
      "ť": 260,
      "ũ": 261,
      "Ū": 262,
      "ū": 263,
      "Ŭ": 264,
      "ŭ": 265,
      "ů": 266,
      "ű": 267,
      "ų": 268,
      "ŵ": 269,
      "ŷ": 270,
      "Ź": 271,
      "ź": 272,
      "Ż": 273,
      "ż": 274,
      "Ž": 275,
      "ž": 276,
      "ſ": 277,
      "Ɔ": 278,
      "Ɖ": 279,
      "Ɛ": 280,
      "Ƒ": 281,
      "ƒ": 282,
      "Ɣ": 283,
      "ƙ": 284,
      "ƛ": 285,
      "ơ": 286,
      "Ƨ": 287,
      "ư": 288,
      "Ʋ": 289,
      "ƴ": 290,
      "ƶ": 291,
      "ǀ": 292,
      "ǁ": 293,
      "ǃ": 294,
      "ǎ": 295,
      "ǐ": 296,
      "ǒ": 297,
      "ǔ": 298,
      "ǘ": 299,
      "ǣ": 300,
      "ǥ": 301,
      "Ǧ": 302,
      "ǧ": 303,
      "Ǫ": 304,
      "ǵ": 305,
      "ǽ": 306,
      "ǿ": 307,
      "ȓ": 308,
      "Ș": 309,
      "ș": 310,
      "Ț": 311,
      "ț": 312,
      "ȳ": 313,
      "ɐ": 314,
      "ɑ": 315,
      "ɒ": 316,
      "ɓ": 317,
      "ɔ": 318,
      "ɕ": 319,
      "ɖ": 320,
      "ə": 321,
      "ɛ": 322,
      "ɜ": 323,
      "ɡ": 324,
      "ɢ": 325,
      "ɣ": 326,
      "ɤ": 327,
      "ɥ": 328,
      "ɦ": 329,
      "ɨ": 330,
      "ɪ": 331,
      "ɫ": 332,
      "ɯ": 333,
      "ɲ": 334,
      "ɴ": 335,
      "ɵ": 336,
      "ɸ": 337,
      "ɾ": 338,
      "ʀ": 339,
      "ʁ": 340,
      "ʂ": 341,
      "ʃ": 342,
      "ʉ": 343,
      "ʊ": 344,
      "ʋ": 345,
      "ʌ": 346,
      "ʎ": 347,
      "ʑ": 348,
      "ʒ": 349,
      "ʔ": 350,
      "ʕ": 351,
      "ʦ": 352,
      "ʧ": 353,
      "ʨ": 354,
      "ʰ": 355,
      "ʱ": 356,
      "ʲ": 357,
      "ʷ": 358,
      "ʻ": 359,
      "ʼ": 360,
      "ʾ": 361,
      "ʿ": 362,
      "ˁ": 363,
      "ˈ": 364,
      "ˌ": 365,
      "ː": 366,
      "ˑ": 367,
      "˙": 368,
      "˚": 369,
      "˜": 370,
      "ˡ": 371,
      "ˤ": 372,
      "˥": 373,
      "̀": 374,
      "́": 375,
      "̂": 376,
      "̃": 377,
      "̄": 378,
      "̅": 379,
      "̇": 380,
      "̈": 381,
      "̖": 382,
      "̗": 383,
      "̚": 384,
      "̟": 385,
      "̥": 386,
      "̧": 387,
      "̩": 388,
      "̪": 389,
      "̭": 390,
      "̯": 391,
      "̱": 392,
      "̶": 393,
      "̺": 394,
      "̽": 395,
      "͜": 396,
      "͡": 397,
      "ͤ": 398,
      "ͭ": 399,
      "Ά": 400,
      "Έ": 401,
      "Ή": 402,
      "Ί": 403,
      "Ύ": 404,
      "Α": 405,
      "Β": 406,
      "Γ": 407,
      "Δ": 408,
      "Ε": 409,
      "Ζ": 410,
      "Η": 411,
      "Θ": 412,
      "Ι": 413,
      "Κ": 414,
      "Λ": 415,
      "Μ": 416,
      "Ν": 417,
      "Ο": 418,
      "Π": 419,
      "Ρ": 420,
      "Σ": 421,
      "Τ": 422,
      "Υ": 423,
      "Φ": 424,
      "Χ": 425,
      "Ψ": 426,
      "Ω": 427,
      "ά": 428,
      "έ": 429,
      "ή": 430,
      "ί": 431,
      "α": 432,
      "β": 433,
      "γ": 434,
      "δ": 435,
      "ε": 436,
      "ζ": 437,
      "η": 438,
      "θ": 439,
      "ι": 440,
      "κ": 441,
      "λ": 442,
      "μ": 443,
      "ν": 444,
      "ξ": 445,
      "ο": 446,
      "π": 447,
      "ρ": 448,
      "ς": 449,
      "σ": 450,
      "τ": 451,
      "υ": 452,
      "φ": 453,
      "χ": 454,
      "ψ": 455,
      "ω": 456,
      "ϊ": 457,
      "ό": 458,
      "ύ": 459,
      "ώ": 460,
      "ϑ": 461,
      "ϕ": 462,
      "ϛ": 463,
      "Ϝ": 464,
      "ϝ": 465,
      "ϟ": 466,
      "ϡ": 467,
      "ϣ": 468,
      "ϫ": 469,
      "Ѐ": 470,
      "Ё": 471,
      "Ђ": 472,
      "Ѓ": 473,
      "Є": 474,
      "І": 475,
      "Ї": 476,
      "Ј": 477,
      "Љ": 478,
      "Њ": 479,
      "Ћ": 480,
      "Ќ": 481,
      "Ѝ": 482,
      "Ў": 483,
      "Џ": 484,
      "А": 485,
      "Б": 486,
      "В": 487,
      "Г": 488,
      "Д": 489,
      "Е": 490,
      "Ж": 491,
      "З": 492,
      "И": 493,
      "Й": 494,
      "К": 495,
      "Л": 496,
      "М": 497,
      "Н": 498,
      "О": 499,
      "П": 500,
      "Р": 501,
      "С": 502,
      "Т": 503,
      "У": 504,
      "Ф": 505,
      "Х": 506,
      "Ц": 507,
      "Ч": 508,
      "Ш": 509,
      "Щ": 510,
      "Ъ": 511,
      "Ы": 512,
      "Ь": 513,
      "Э": 514,
      "Ю": 515,
      "Я": 516,
      "а": 517,
      "б": 518,
      "в": 519,
      "г": 520,
      "д": 521,
      "е": 522,
      "ж": 523,
      "з": 524,
      "и": 525,
      "й": 526,
      "к": 527,
      "л": 528,
      "м": 529,
      "н": 530,
      "о": 531,
      "п": 532,
      "р": 533,
      "с": 534,
      "т": 535,
      "у": 536,
      "ф": 537,
      "х": 538,
      "ц": 539,
      "ч": 540,
      "ш": 541,
      "щ": 542,
      "ъ": 543,
      "ы": 544,
      "ь": 545,
      "э": 546,
      "ю": 547,
      "я": 548,
      "ё": 549,
      "ђ": 550,
      "ѕ": 551,
      "і": 552,
      "ї": 553,
      "ј": 554,
      "љ": 555,
      "њ": 556,
      "ћ": 557,
      "ў": 558,
      "џ": 559,
      "ѡ": 560,
      "ѣ": 561,
      "Ѧ": 562,
      "Ѩ": 563,
      "Ѫ": 564,
      "Ѭ": 565,
      "ѯ": 566,
      "ѱ": 567,
      "ѳ": 568,
      "ѵ": 569,
      "Ѷ": 570,
      "Ѽ": 571,
      "Ѿ": 572,
      "Ґ": 573,
      "Җ": 574,
      "җ": 575,
      "Ҙ": 576,
      "Ҩ": 577,
      "Ҫ": 578,
      "ү": 579,
      "Ұ": 580,
      "Ӏ": 581,
      "Ӄ": 582,
      "ӏ": 583,
      "Ӕ": 584,
      "ӡ": 585,
      "ө": 586,
      "Ա": 587,
      "Հ": 588,
      "Ն": 589,
      "Շ": 590,
      "Վ": 591,
      "ա": 592,
      "գ": 593,
      "ե": 594,
      "զ": 595,
      "ի": 596,
      "խ": 597,
      "կ": 598,
      "հ": 599,
      "ղ": 600,
      "մ": 601,
      "յ": 602,
      "ն": 603,
      "ո": 604,
      "պ": 605,
      "ջ": 606,
      "ս": 607,
      "վ": 608,
      "տ": 609,
      "ր": 610,
      "ւ": 611,
      "ք": 612,
      "֫": 613,
      "ְ": 614,
      "ֱ": 615,
      "ֲ": 616,
      "ִ": 617,
      "ֵ": 618,
      "ֶ": 619,
      "ַ": 620,
      "ָ": 621,
      "ֹ": 622,
      "ּ": 623,
      "ׁ": 624,
      "א": 625,
      "ב": 626,
      "ג": 627,
      "ד": 628,
      "ה": 629,
      "ו": 630,
      "ז": 631,
      "ח": 632,
      "ט": 633,
      "י": 634,
      "ך": 635,
      "כ": 636,
      "ל": 637,
      "ם": 638,
      "מ": 639,
      "ן": 640,
      "נ": 641,
      "ס": 642,
      "ע": 643,
      "ף": 644,
      "פ": 645,
      "צ": 646,
      "ק": 647,
      "ר": 648,
      "ש": 649,
      "ת": 650,
      "،": 651,
      "ء": 652,
      "آ": 653,
      "أ": 654,
      "ؤ": 655,
      "إ": 656,
      "ئ": 657,
      "ا": 658,
      "ب": 659,
      "ة": 660,
      "ت": 661,
      "ث": 662,
      "ج": 663,
      "ح": 664,
      "خ": 665,
      "د": 666,
      "ذ": 667,
      "ر": 668,
      "ز": 669,
      "س": 670,
      "ش": 671,
      "ص": 672,
      "ض": 673,
      "ط": 674,
      "ظ": 675,
      "ع": 676,
      "غ": 677,
      "ـ": 678,
      "ف": 679,
      "ق": 680,
      "ك": 681,
      "ل": 682,
      "م": 683,
      "ن": 684,
      "ه": 685,
      "و": 686,
      "ى": 687,
      "ي": 688,
      "ٌ": 689,
      "َ": 690,
      "ُ": 691,
      "ِ": 692,
      "ّ": 693,
      "ْ": 694,
      "ٰ": 695,
      "ٱ": 696,
      "پ": 697,
      "چ": 698,
      "ژ": 699,
      "ڬ": 700,
      "گ": 701,
      "ی": 702,
      "ܐ": 703,
      "ܒ": 704,
      "ܗ": 705,
      "ܠ": 706,
      "ܢ": 707,
      "ܲ": 708,
      "ܵ": 709,
      "ߌ": 710,
      "ߍ": 711,
      "ߖ": 712,
      "ߣ": 713,
      "߫": 714,
      "߬": 715,
      "ं": 716,
      "ः": 717,
      "अ": 718,
      "आ": 719,
      "ई": 720,
      "उ": 721,
      "ए": 722,
      "औ": 723,
      "क": 724,
      "ख": 725,
      "ग": 726,
      "च": 727,
      "छ": 728,
      "ज": 729,
      "झ": 730,
      "ञ": 731,
      "ट": 732,
      "ठ": 733,
      "ड": 734,
      "ढ": 735,
      "ण": 736,
      "त": 737,
      "द": 738,
      "ध": 739,
      "न": 740,
      "प": 741,
      "फ": 742,
      "ब": 743,
      "भ": 744,
      "म": 745,
      "य": 746,
      "र": 747,
      "ल": 748,
      "ळ": 749,
      "व": 750,
      "श": 751,
      "ष": 752,
      "स": 753,
      "ह": 754,
      "़": 755,
      "ा": 756,
      "ि": 757,
      "ी": 758,
      "ु": 759,
      "ू": 760,
      "ृ": 761,
      "े": 762,
      "ै": 763,
      "ो": 764,
      "ौ": 765,
      "्": 766,
      "ॐ": 767,
      "।": 768,
      "ঁ": 769,
      "ং": 770,
      "অ": 771,
      "আ": 772,
      "ই": 773,
      "উ": 774,
      "এ": 775,
      "ঐ": 776,
      "ও": 777,
      "ঔ": 778,
      "ক": 779,
      "খ": 780,
      "গ": 781,
      "ঘ": 782,
      "ঙ": 783,
      "চ": 784,
      "ছ": 785,
      "জ": 786,
      "ঞ": 787,
      "ট": 788,
      "ড": 789,
      "ণ": 790,
      "ত": 791,
      "থ": 792,
      "দ": 793,
      "ধ": 794,
      "ন": 795,
      "প": 796,
      "ব": 797,
      "ভ": 798,
      "ম": 799,
      "য": 800,
      "র": 801,
      "ল": 802,
      "শ": 803,
      "ষ": 804,
      "স": 805,
      "হ": 806,
      "়": 807,
      "া": 808,
      "ি": 809,
      "ী": 810,
      "ু": 811,
      "ূ": 812,
      "ৃ": 813,
      "ে": 814,
      "ো": 815,
      "্": 816,
      "৩": 817,
      "ਅ": 818,
      "ਲ": 819,
      "ਹ": 820,
      "ਾ": 821,
      "ੁ": 822,
      "ੱ": 823,
      "இ": 824,
      "க": 825,
      "ங": 826,
      "ச": 827,
      "ஞ": 828,
      "ண": 829,
      "ப": 830,
      "ம": 831,
      "ர": 832,
      "ல": 833,
      "ா": 834,
      "ி": 835,
      "ூ": 836,
      "ை": 837,
      "்": 838,
      "ം": 839,
      "അ": 840,
      "ക": 841,
      "ച": 842,
      "ട": 843,
      "ണ": 844,
      "ത": 845,
      "ഭ": 846,
      "ശ": 847,
      "സ": 848,
      "ാ": 849,
      "ി": 850,
      "ോ": 851,
      "്": 852,
      "ං": 853,
      "ක": 854,
      "ජ": 855,
      "ඩ": 856,
      "ත": 857,
      "ප": 858,
      "ය": 859,
      "ර": 860,
      "ල": 861,
      "ව": 862,
      "ශ": 863,
      "ළ": 864,
      "්": 865,
      "ා": 866,
      "ි": 867,
      "ී": 868,
      "ේ": 869,
      "ො": 870,
      "ก": 871,
      "ข": 872,
      "ค": 873,
      "ง": 874,
      "จ": 875,
      "ช": 876,
      "ซ": 877,
      "ญ": 878,
      "ฐ": 879,
      "ณ": 880,
      "ต": 881,
      "ท": 882,
      "ธ": 883,
      "น": 884,
      "บ": 885,
      "ป": 886,
      "พ": 887,
      "ภ": 888,
      "ม": 889,
      "ย": 890,
      "ร": 891,
      "ว": 892,
      "ศ": 893,
      "ส": 894,
      "ห": 895,
      "อ": 896,
      "ะ": 897,
      "ั": 898,
      "า": 899,
      "ำ": 900,
      "ิ": 901,
      "ี": 902,
      "ื": 903,
      "ุ": 904,
      "เ": 905,
      "ไ": 906,
      "้": 907,
      "์": 908,
      "ກ": 909,
      "ຂ": 910,
      "ຄ": 911,
      "ງ": 912,
      "ຈ": 913,
      "ຊ": 914,
      "ດ": 915,
      "ຕ": 916,
      "ທ": 917,
      "ນ": 918,
      "ປ": 919,
      "ພ": 920,
      "ລ": 921,
      "ວ": 922,
      "ສ": 923,
      "ຫ": 924,
      "ອ": 925,
      "ະ": 926,
      "ັ": 927,
      "າ": 928,
      "ິ": 929,
      "ີ": 930,
      "ົ": 931,
      "ຽ": 932,
      "ເ": 933,
      "ແ": 934,
      "ໄ": 935,
      "་": 936,
      "ད": 937,
      "བ": 938,
      "ོ": 939,
      "င": 940,
      "စ": 941,
      "ည": 942,
      "တ": 943,
      "ထ": 944,
      "န": 945,
      "ပ": 946,
      "ဖ": 947,
      "မ": 948,
      "ရ": 949,
      "သ": 950,
      "ာ": 951,
      "ိ": 952,
      "ု": 953,
      "ူ": 954,
      "ေ": 955,
      "ဲ": 956,
      "ံ": 957,
      "့": 958,
      "္": 959,
      "်": 960,
      "ြ": 961,
      "ွ": 962,
      "ა": 963,
      "ბ": 964,
      "დ": 965,
      "ე": 966,
      "ვ": 967,
      "თ": 968,
      "ი": 969,
      "კ": 970,
      "ლ": 971,
      "ნ": 972,
      "ო": 973,
      "რ": 974,
      "ს": 975,
      "უ": 976,
      "ფ": 977,
      "ქ": 978,
      "ღ": 979,
      "შ": 980,
      "ჩ": 981,
      "ძ": 982,
      "ჯ": 983,
      "ለ": 984,
      "ሊ": 985,
      "ላ": 986,
      "ሞ": 987,
      "ሥ": 988,
      "ሪ": 989,
      "ራ": 990,
      "ር": 991,
      "ሲ": 992,
      "ሴ": 993,
      "ሻ": 994,
      "ቡ": 995,
      "ብ": 996,
      "ት": 997,
      "ኃ": 998,
      "ን": 999,
      "ኢ": 1000,
      "ኤ": 1001,
      "ክ": 1002,
      "ዊ": 1003,
      "የ": 1004,
      "ያ": 1005,
      "ይ": 1006,
      "ዮ": 1007,
      "ዲ": 1008,
      "ዴ": 1009,
      "ጵ": 1010,
      "ፌ": 1011,
      "ፐ": 1012,
      "፡": 1013,
      "ᗐ": 1014,
      "ᙶ": 1015,
      "ក": 1016,
      "ខ": 1017,
      "ច": 1018,
      "ជ": 1019,
      "ណ": 1020,
      "ត": 1021,
      "ទ": 1022,
      "ន": 1023,
      "ប": 1024,
      "ព": 1025,
      "ម": 1026,
      "រ": 1027,
      "ស": 1028,
      "ហ": 1029,
      "ា": 1030,
      "ិ": 1031,
      "ុ": 1032,
      "េ": 1033,
      "ែ": 1034,
      "ះ": 1035,
      "្": 1036,
      "ᵒ": 1037,
      "ᵖ": 1038,
      "ᶜ": 1039,
      "Ḁ": 1040,
      "ḇ": 1041,
      "Ḍ": 1042,
      "ḍ": 1043,
      "ḏ": 1044,
      "ḗ": 1045,
      "Ḥ": 1046,
      "ḥ": 1047,
      "ḫ": 1048,
      "ḱ": 1049,
      "Ḳ": 1050,
      "ḳ": 1051,
      "Ḵ": 1052,
      "ḷ": 1053,
      "ṁ": 1054,
      "ṃ": 1055,
      "ṅ": 1056,
      "ṇ": 1057,
      "ṓ": 1058,
      "ṗ": 1059,
      "Ṛ": 1060,
      "ṛ": 1061,
      "Ṣ": 1062,
      "ṣ": 1063,
      "Ṭ": 1064,
      "ṭ": 1065,
      "ṯ": 1066,
      "ṹ": 1067,
      "ṿ": 1068,
      "Ẓ": 1069,
      "ẓ": 1070,
      "ẖ": 1071,
      "ẞ": 1072,
      "ạ": 1073,
      "ả": 1074,
      "ấ": 1075,
      "ầ": 1076,
      "ẩ": 1077,
      "ẫ": 1078,
      "ậ": 1079,
      "ắ": 1080,
      "ằ": 1081,
      "ặ": 1082,
      "Ẹ": 1083,
      "ẹ": 1084,
      "ẻ": 1085,
      "ẽ": 1086,
      "ế": 1087,
      "ề": 1088,
      "ễ": 1089,
      "ệ": 1090,
      "ỉ": 1091,
      "ị": 1092,
      "Ọ": 1093,
      "ọ": 1094,
      "ố": 1095,
      "ồ": 1096,
      "ổ": 1097,
      "ộ": 1098,
      "ớ": 1099,
      "ờ": 1100,
      "ợ": 1101,
      "ủ": 1102,
      "ứ": 1103,
      "ử": 1104,
      "ữ": 1105,
      "ự": 1106,
      "ỳ": 1107,
      "ỵ": 1108,
      "ỷ": 1109,
      "ỹ": 1110,
      "ἀ": 1111,
      "ἁ": 1112,
      "ἄ": 1113,
      "Ἀ": 1114,
      "ἐ": 1115,
      "ἑ": 1116,
      "ἒ": 1117,
      "ἔ": 1118,
      "ἕ": 1119,
      "Ἐ": 1120,
      "Ἑ": 1121,
      "Ἓ": 1122,
      "Ἕ": 1123,
      "ἠ": 1124,
      "ἡ": 1125,
      "ἣ": 1126,
      "ἤ": 1127,
      "ἥ": 1128,
      "ἦ": 1129,
      "Ἡ": 1130,
      "Ἥ": 1131,
      "ἰ": 1132,
      "ἱ": 1133,
      "ἴ": 1134,
      "ἵ": 1135,
      "ἶ": 1136,
      "ἷ": 1137,
      "Ἰ": 1138,
      "Ἱ": 1139,
      "ὀ": 1140,
      "ὁ": 1141,
      "ὄ": 1142,
      "ὅ": 1143,
      "ὐ": 1144,
      "ὑ": 1145,
      "ὒ": 1146,
      "ὔ": 1147,
      "ὕ": 1148,
      "ὠ": 1149,
      "ὤ": 1150,
      "ὥ": 1151,
      "ὰ": 1152,
      "ὴ": 1153,
      "ὶ": 1154,
      "ὸ": 1155,
      "ᾠ": 1156,
      "ᾰ": 1157,
      "ᾱ": 1158,
      "ᾶ": 1159,
      "ῃ": 1160,
      "ῆ": 1161,
      "ῐ": 1162,
      "ῖ": 1163,
      "ῠ": 1164,
      "ῥ": 1165,
      "ῦ": 1166,
      "Ῥ": 1167,
      "ῳ": 1168,
      "ῴ": 1169,
      "ῶ": 1170,
      "῾": 1171,
      "​": 1172,
      "‌": 1173,
      "‍": 1174,
      "‎": 1175,
      "‏": 1176,
      "‐": 1177,
      "‑": 1178,
      "–": 1179,
      "—": 1180,
      "―": 1181,
      "‖": 1182,
      "‘": 1183,
      "’": 1184,
      "‚": 1185,
      "“": 1186,
      "”": 1187,
      "„": 1188,
      "†": 1189,
      "‡": 1190,
      "•": 1191,
      "…": 1192,
      "‧": 1193,
      "‬": 1194,
      "‰": 1195,
      "′": 1196,
      "″": 1197,
      "‹": 1198,
      "›": 1199,
      "⁂": 1200,
      "⁄": 1201,
      "⁓": 1202,
      "⁠": 1203,
      "⁣": 1204,
      "⁰": 1205,
      "⁶": 1206,
      "⁷": 1207,
      "⁸": 1208,
      "⁹": 1209,
      "₁": 1210,
      "₂": 1211,
      "₃": 1212,
      "₄": 1213,
      "₢": 1214,
      "€": 1215,
      "₱": 1216,
      "℃": 1217,
      "℈": 1218,
      "ℓ": 1219,
      "№": 1220,
      "™": 1221,
      "ℳ": 1222,
      "⅓": 1223,
      "ↀ": 1224,
      "ↁ": 1225,
      "ↂ": 1226,
      "ↇ": 1227,
      "ↈ": 1228,
      "↑": 1229,
      "→": 1230,
      "↓": 1231,
      "↔": 1232,
      "↵": 1233,
      "↺": 1234,
      "⇆": 1235,
      "⇌": 1236,
      "⇐": 1237,
      "⇒": 1238,
      "⇔": 1239,
      "∀": 1240,
      "∂": 1241,
      "∃": 1242,
      "∅": 1243,
      "∆": 1244,
      "∇": 1245,
      "∈": 1246,
      "∑": 1247,
      "−": 1248,
      "∙": 1249,
      "√": 1250,
      "∝": 1251,
      "∞": 1252,
      "∧": 1253,
      "∩": 1254,
      "∪": 1255,
      "∫": 1256,
      "∴": 1257,
      "∼": 1258,
      "≈": 1259,
      "≠": 1260,
      "≤": 1261,
      "≥": 1262,
      "⊆": 1263,
      "⊕": 1264,
      "⊗": 1265,
      "⊢": 1266,
      "⊥": 1267,
      "⋀": 1268,
      "⋁": 1269,
      "⋅": 1270,
      "⋈": 1271,
      "⋉": 1272,
      "⋋": 1273,
      "⋌": 1274,
      "⋔": 1275,
      "⋯": 1276,
      "⌀": 1277,
      "①": 1278,
      "⑤": 1279,
      "Ⓧ": 1280,
      "─": 1281,
      "│": 1282,
      "█": 1283,
      "◇": 1284,
      "●": 1285,
      "◦": 1286,
      "◫": 1287,
      "◲": 1288,
      "◴": 1289,
      "◷": 1290,
      "★": 1291,
      "☉": 1292,
      "☧": 1293,
      "♀": 1294,
      "♂": 1295,
      "♇": 1296,
      "♈": 1297,
      "♊": 1298,
      "♎": 1299,
      "♒": 1300,
      "♔": 1301,
      "♙": 1302,
      "♛": 1303,
      "♜": 1304,
      "♝": 1305,
      "♞": 1306,
      "♟": 1307,
      "♠": 1308,
      "♣": 1309,
      "♥": 1310,
      "♦": 1311,
      "♭": 1312,
      "⟨": 1313,
      "⟩": 1314,
      "⠀": 1315,
      "⠁": 1316,
      "⠂": 1317,
      "⠃": 1318,
      "⠄": 1319,
      "⠅": 1320,
      "⠆": 1321,
      "⠇": 1322,
      "⠈": 1323,
      "⠉": 1324,
      "⠊": 1325,
      "⠋": 1326,
      "⠌": 1327,
      "⠍": 1328,
      "⠎": 1329,
      "⠏": 1330,
      "⠐": 1331,
      "⠑": 1332,
      "⠒": 1333,
      "⠓": 1334,
      "⠔": 1335,
      "⠕": 1336,
      "⠖": 1337,
      "⠗": 1338,
      "⠘": 1339,
      "⠙": 1340,
      "⠚": 1341,
      "⠛": 1342,
      "⠜": 1343,
      "⠝": 1344,
      "⠞": 1345,
      "⠟": 1346,
      "⠠": 1347,
      "⠡": 1348,
      "⠢": 1349,
      "⠣": 1350,
      "⠤": 1351,
      "⠥": 1352,
      "⠦": 1353,
      "⠧": 1354,
      "⠨": 1355,
      "⠩": 1356,
      "⠪": 1357,
      "⠫": 1358,
      "⠬": 1359,
      "⠭": 1360,
      "⠮": 1361,
      "⠯": 1362,
      "⠰": 1363,
      "⠱": 1364,
      "⠲": 1365,
      "⠳": 1366,
      "⠴": 1367,
      "⠵": 1368,
      "⠶": 1369,
      "⠷": 1370,
      "⠸": 1371,
      "⠹": 1372,
      "⠺": 1373,
      "⠻": 1374,
      "⠼": 1375,
      "⠽": 1376,
      "⠾": 1377,
      "⠿": 1378,
      "ⲁ": 1379,
      "ⲉ": 1380,
      "ⲟ": 1381,
      "Ⲡ": 1382,
      "ⲣ": 1383,
      "ⲥ": 1384,
      "ⲧ": 1385,
      "ⲩ": 1386,
      "ⴰ": 1387,
      "ⴽ": 1388,
      "ⵎ": 1389,
      "ⵏ": 1390,
      "ⵓ": 1391,
      "ⵔ": 1392,
      "ⵛ": 1393,
      "⸱": 1394,
      "、": 1395,
      "。": 1396,
      "々": 1397,
      "《": 1398,
      "》": 1399,
      "「": 1400,
      "」": 1401,
      "〒": 1402,
      "あ": 1403,
      "ぃ": 1404,
      "い": 1405,
      "う": 1406,
      "え": 1407,
      "お": 1408,
      "か": 1409,
      "が": 1410,
      "き": 1411,
      "く": 1412,
      "ぐ": 1413,
      "け": 1414,
      "げ": 1415,
      "こ": 1416,
      "ご": 1417,
      "さ": 1418,
      "し": 1419,
      "じ": 1420,
      "す": 1421,
      "ず": 1422,
      "せ": 1423,
      "そ": 1424,
      "た": 1425,
      "だ": 1426,
      "ち": 1427,
      "ぢ": 1428,
      "っ": 1429,
      "つ": 1430,
      "づ": 1431,
      "て": 1432,
      "で": 1433,
      "と": 1434,
      "な": 1435,
      "に": 1436,
      "ぬ": 1437,
      "ね": 1438,
      "の": 1439,
      "は": 1440,
      "ば": 1441,
      "ひ": 1442,
      "び": 1443,
      "ぷ": 1444,
      "へ": 1445,
      "べ": 1446,
      "ほ": 1447,
      "ま": 1448,
      "み": 1449,
      "む": 1450,
      "め": 1451,
      "も": 1452,
      "ゃ": 1453,
      "や": 1454,
      "ゅ": 1455,
      "ゆ": 1456,
      "ょ": 1457,
      "よ": 1458,
      "ら": 1459,
      "り": 1460,
      "る": 1461,
      "れ": 1462,
      "ろ": 1463,
      "わ": 1464,
      "ゐ": 1465,
      "を": 1466,
      "ん": 1467,
      "゛": 1468,
      "゜": 1469,
      "ァ": 1470,
      "ア": 1471,
      "イ": 1472,
      "ゥ": 1473,
      "ウ": 1474,
      "ェ": 1475,
      "エ": 1476,
      "オ": 1477,
      "カ": 1478,
      "ガ": 1479,
      "ク": 1480,
      "ケ": 1481,
      "コ": 1482,
      "ゴ": 1483,
      "シ": 1484,
      "ス": 1485,
      "ソ": 1486,
      "タ": 1487,
      "チ": 1488,
      "ッ": 1489,
      "ツ": 1490,
      "テ": 1491,
      "ト": 1492,
      "ド": 1493,
      "ナ": 1494,
      "ニ": 1495,
      "ヌ": 1496,
      "ネ": 1497,
      "パ": 1498,
      "ビ": 1499,
      "ピ": 1500,
      "フ": 1501,
      "ブ": 1502,
      "ベ": 1503,
      "ポ": 1504,
      "マ": 1505,
      "ミ": 1506,
      "メ": 1507,
      "ャ": 1508,
      "ヤ": 1509,
      "ュ": 1510,
      "ユ": 1511,
      "ョ": 1512,
      "ラ": 1513,
      "リ": 1514,
      "ル": 1515,
      "レ": 1516,
      "ロ": 1517,
      "ヲ": 1518,
      "ン": 1519,
      "ー": 1520,
      "ㄦ": 1521,
      "㭺": 1522,
      "一": 1523,
      "七": 1524,
      "万": 1525,
      "三": 1526,
      "上": 1527,
      "下": 1528,
      "不": 1529,
      "丑": 1530,
      "且": 1531,
      "世": 1532,
      "业": 1533,
      "东": 1534,
      "严": 1535,
      "个": 1536,
      "中": 1537,
      "主": 1538,
      "久": 1539,
      "义": 1540,
      "之": 1541,
      "乐": 1542,
      "乗": 1543,
      "乘": 1544,
      "书": 1545,
      "乱": 1546,
      "争": 1547,
      "事": 1548,
      "二": 1549,
      "五": 1550,
      "井": 1551,
      "交": 1552,
      "京": 1553,
      "人": 1554,
      "仁": 1555,
      "今": 1556,
      "仔": 1557,
      "仕": 1558,
      "仙": 1559,
      "代": 1560,
      "以": 1561,
      "们": 1562,
      "仮": 1563,
      "仲": 1564,
      "件": 1565,
      "伊": 1566,
      "伏": 1567,
      "伐": 1568,
      "休": 1569,
      "会": 1570,
      "伝": 1571,
      "伯": 1572,
      "但": 1573,
      "位": 1574,
      "体": 1575,
      "何": 1576,
      "佛": 1577,
      "你": 1578,
      "佢": 1579,
      "使": 1580,
      "供": 1581,
      "侯": 1582,
      "保": 1583,
      "信": 1584,
      "俭": 1585,
      "修": 1586,
      "倉": 1587,
      "個": 1588,
      "假": 1589,
      "働": 1590,
      "僕": 1591,
      "僧": 1592,
      "儺": 1593,
      "儿": 1594,
      "元": 1595,
      "兄": 1596,
      "先": 1597,
      "光": 1598,
      "児": 1599,
      "党": 1600,
      "入": 1601,
      "內": 1602,
      "全": 1603,
      "八": 1604,
      "公": 1605,
      "六": 1606,
      "兰": 1607,
      "共": 1608,
      "关": 1609,
      "兵": 1610,
      "其": 1611,
      "军": 1612,
      "农": 1613,
      "冥": 1614,
      "冬": 1615,
      "冲": 1616,
      "出": 1617,
      "分": 1618,
      "切": 1619,
      "刑": 1620,
      "列": 1621,
      "刚": 1622,
      "初": 1623,
      "判": 1624,
      "別": 1625,
      "利": 1626,
      "前": 1627,
      "剛": 1628,
      "剧": 1629,
      "劇": 1630,
      "劉": 1631,
      "力": 1632,
      "加": 1633,
      "助": 1634,
      "勇": 1635,
      "勉": 1636,
      "勒": 1637,
      "動": 1638,
      "務": 1639,
      "勝": 1640,
      "勞": 1641,
      "勾": 1642,
      "包": 1643,
      "北": 1644,
      "区": 1645,
      "医": 1646,
      "區": 1647,
      "十": 1648,
      "千": 1649,
      "半": 1650,
      "华": 1651,
      "协": 1652,
      "卒": 1653,
      "協": 1654,
      "南": 1655,
      "単": 1656,
      "厚": 1657,
      "原": 1658,
      "厩": 1659,
      "友": 1660,
      "反": 1661,
      "口": 1662,
      "古": 1663,
      "可": 1664,
      "台": 1665,
      "史": 1666,
      "吁": 1667,
      "合": 1668,
      "吉": 1669,
      "同": 1670,
      "名": 1671,
      "后": 1672,
      "吐": 1673,
      "吒": 1674,
      "君": 1675,
      "含": 1676,
      "呂": 1677,
      "呉": 1678,
      "告": 1679,
      "周": 1680,
      "味": 1681,
      "命": 1682,
      "和": 1683,
      "咸": 1684,
      "哀": 1685,
      "哋": 1686,
      "員": 1687,
      "哪": 1688,
      "唐": 1689,
      "商": 1690,
      "啟": 1691,
      "啸": 1692,
      "喇": 1693,
      "喺": 1694,
      "喾": 1695,
      "嗰": 1696,
      "嘅": 1697,
      "嘉": 1698,
      "噶": 1699,
      "囗": 1700,
      "四": 1701,
      "回": 1702,
      "囲": 1703,
      "図": 1704,
      "围": 1705,
      "国": 1706,
      "圃": 1707,
      "國": 1708,
      "圍": 1709,
      "園": 1710,
      "土": 1711,
      "在": 1712,
      "地": 1713,
      "场": 1714,
      "坐": 1715,
      "块": 1716,
      "坡": 1717,
      "埋": 1718,
      "城": 1719,
      "域": 1720,
      "報": 1721,
      "場": 1722,
      "壁": 1723,
      "壤": 1724,
      "士": 1725,
      "壽": 1726,
      "备": 1727,
      "変": 1728,
      "夏": 1729,
      "夔": 1730,
      "外": 1731,
      "多": 1732,
      "夜": 1733,
      "夢": 1734,
      "大": 1735,
      "天": 1736,
      "太": 1737,
      "夫": 1738,
      "央": 1739,
      "头": 1740,
      "奄": 1741,
      "奈": 1742,
      "奉": 1743,
      "奎": 1744,
      "奥": 1745,
      "奭": 1746,
      "女": 1747,
      "奴": 1748,
      "好": 1749,
      "如": 1750,
      "妈": 1751,
      "妙": 1752,
      "妻": 1753,
      "始": 1754,
      "姑": 1755,
      "姓": 1756,
      "委": 1757,
      "姿": 1758,
      "娥": 1759,
      "婆": 1760,
      "媧": 1761,
      "嫦": 1762,
      "嬰": 1763,
      "子": 1764,
      "字": 1765,
      "孙": 1766,
      "孝": 1767,
      "孟": 1768,
      "学": 1769,
      "孫": 1770,
      "學": 1771,
      "孺": 1772,
      "宁": 1773,
      "安": 1774,
      "宏": 1775,
      "宗": 1776,
      "官": 1777,
      "定": 1778,
      "宝": 1779,
      "実": 1780,
      "客": 1781,
      "宣": 1782,
      "室": 1783,
      "宫": 1784,
      "宮": 1785,
      "家": 1786,
      "宿": 1787,
      "富": 1788,
      "實": 1789,
      "寧": 1790,
      "寸": 1791,
      "对": 1792,
      "寺": 1793,
      "封": 1794,
      "将": 1795,
      "將": 1796,
      "尊": 1797,
      "小": 1798,
      "少": 1799,
      "尖": 1800,
      "尤": 1801,
      "尧": 1802,
      "尼": 1803,
      "局": 1804,
      "居": 1805,
      "山": 1806,
      "岳": 1807,
      "島": 1808,
      "崑": 1809,
      "崙": 1810,
      "嶋": 1811,
      "川": 1812,
      "州": 1813,
      "工": 1814,
      "巫": 1815,
      "已": 1816,
      "巴": 1817,
      "市": 1818,
      "师": 1819,
      "帝": 1820,
      "帥": 1821,
      "師": 1822,
      "帮": 1823,
      "常": 1824,
      "幣": 1825,
      "干": 1826,
      "平": 1827,
      "年": 1828,
      "幹": 1829,
      "幻": 1830,
      "广": 1831,
      "庁": 1832,
      "庄": 1833,
      "应": 1834,
      "庙": 1835,
      "府": 1836,
      "康": 1837,
      "廃": 1838,
      "廉": 1839,
      "廣": 1840,
      "廬": 1841,
      "延": 1842,
      "廷": 1843,
      "建": 1844,
      "式": 1845,
      "弓": 1846,
      "弔": 1847,
      "弗": 1848,
      "弘": 1849,
      "弟": 1850,
      "弥": 1851,
      "弧": 1852,
      "張": 1853,
      "強": 1854,
      "彌": 1855,
      "当": 1856,
      "录": 1857,
      "彼": 1858,
      "征": 1859,
      "待": 1860,
      "律": 1861,
      "後": 1862,
      "徐": 1863,
      "御": 1864,
      "微": 1865,
      "德": 1866,
      "徹": 1867,
      "徽": 1868,
      "心": 1869,
      "忌": 1870,
      "忍": 1871,
      "志": 1872,
      "忙": 1873,
      "忠": 1874,
      "念": 1875,
      "思": 1876,
      "性": 1877,
      "怨": 1878,
      "恆": 1879,
      "恋": 1880,
      "恕": 1881,
      "恭": 1882,
      "恺": 1883,
      "悟": 1884,
      "悪": 1885,
      "情": 1886,
      "惟": 1887,
      "惠": 1888,
      "想": 1889,
      "愛": 1890,
      "愿": 1891,
      "慈": 1892,
      "態": 1893,
      "慧": 1894,
      "慰": 1895,
      "慶": 1896,
      "懿": 1897,
      "成": 1898,
      "我": 1899,
      "戦": 1900,
      "戰": 1901,
      "戲": 1902,
      "戸": 1903,
      "所": 1904,
      "手": 1905,
      "扶": 1906,
      "技": 1907,
      "把": 1908,
      "拉": 1909,
      "拐": 1910,
      "拓": 1911,
      "拝": 1912,
      "拾": 1913,
      "振": 1914,
      "排": 1915,
      "掖": 1916,
      "撲": 1917,
      "攝": 1918,
      "支": 1919,
      "政": 1920,
      "教": 1921,
      "数": 1922,
      "文": 1923,
      "料": 1924,
      "断": 1925,
      "新": 1926,
      "方": 1927,
      "旅": 1928,
      "旗": 1929,
      "日": 1930,
      "旬": 1931,
      "旱": 1932,
      "昆": 1933,
      "昊": 1934,
      "昌": 1935,
      "明": 1936,
      "易": 1937,
      "昔": 1938,
      "星": 1939,
      "春": 1940,
      "昭": 1941,
      "時": 1942,
      "晋": 1943,
      "普": 1944,
      "景": 1945,
      "暨": 1946,
      "曜": 1947,
      "更": 1948,
      "書": 1949,
      "曹": 1950,
      "最": 1951,
      "月": 1952,
      "有": 1953,
      "朔": 1954,
      "朝": 1955,
      "期": 1956,
      "木": 1957,
      "本": 1958,
      "术": 1959,
      "权": 1960,
      "杉": 1961,
      "李": 1962,
      "村": 1963,
      "条": 1964,
      "来": 1965,
      "東": 1966,
      "板": 1967,
      "极": 1968,
      "林": 1969,
      "果": 1970,
      "枝": 1971,
      "柏": 1972,
      "柔": 1973,
      "校": 1974,
      "栽": 1975,
      "桑": 1976,
      "桓": 1977,
      "梅": 1978,
      "棋": 1979,
      "森": 1980,
      "楚": 1981,
      "楽": 1982,
      "榊": 1983,
      "榮": 1984,
      "槍": 1985,
      "樂": 1986,
      "標": 1987,
      "樺": 1988,
      "橋": 1989,
      "檎": 1990,
      "欣": 1991,
      "歐": 1992,
      "正": 1993,
      "此": 1994,
      "武": 1995,
      "死": 1996,
      "殤": 1997,
      "殿": 1998,
      "母": 1999,
      "比": 2000,
      "毛": 2001,
      "氏": 2002,
      "民": 2003,
      "氣": 2004,
      "水": 2005,
      "氵": 2006,
      "永": 2007,
      "氹": 2008,
      "求": 2009,
      "汉": 2010,
      "江": 2011,
      "池": 2012,
      "汪": 2013,
      "沐": 2014,
      "沖": 2015,
      "沪": 2016,
      "河": 2017,
      "治": 2018,
      "泉": 2019,
      "法": 2020,
      "波": 2021,
      "洋": 2022,
      "洞": 2023,
      "津": 2024,
      "洪": 2025,
      "洱": 2026,
      "洲": 2027,
      "派": 2028,
      "流": 2029,
      "浄": 2030,
      "浦": 2031,
      "海": 2032,
      "涛": 2033,
      "涯": 2034,
      "淸": 2035,
      "清": 2036,
      "渎": 2037,
      "温": 2038,
      "湖": 2039,
      "湘": 2040,
      "湾": 2041,
      "準": 2042,
      "演": 2043,
      "漢": 2044,
      "澤": 2045,
      "濟": 2046,
      "濤": 2047,
      "瀛": 2048,
      "灣": 2049,
      "火": 2050,
      "灶": 2051,
      "炟": 2052,
      "炮": 2053,
      "炳": 2054,
      "為": 2055,
      "烏": 2056,
      "烟": 2057,
      "焙": 2058,
      "無": 2059,
      "然": 2060,
      "熟": 2061,
      "熹": 2062,
      "燦": 2063,
      "爲": 2064,
      "爵": 2065,
      "爾": 2066,
      "片": 2067,
      "牌": 2068,
      "牛": 2069,
      "牧": 2070,
      "物": 2071,
      "特": 2072,
      "犬": 2073,
      "狂": 2074,
      "狩": 2075,
      "獄": 2076,
      "獅": 2077,
      "獬": 2078,
      "獻": 2079,
      "玄": 2080,
      "玉": 2081,
      "王": 2082,
      "玖": 2083,
      "現": 2084,
      "球": 2085,
      "理": 2086,
      "琉": 2087,
      "琛": 2088,
      "琴": 2089,
      "瑞": 2090,
      "瑤": 2091,
      "環": 2092,
      "甘": 2093,
      "生": 2094,
      "田": 2095,
      "男": 2096,
      "町": 2097,
      "畀": 2098,
      "界": 2099,
      "留": 2100,
      "番": 2101,
      "病": 2102,
      "痛": 2103,
      "發": 2104,
      "白": 2105,
      "百": 2106,
      "皇": 2107,
      "盆": 2108,
      "盈": 2109,
      "盤": 2110,
      "相": 2111,
      "省": 2112,
      "県": 2113,
      "眞": 2114,
      "真": 2115,
      "着": 2116,
      "知": 2117,
      "石": 2118,
      "砲": 2119,
      "碁": 2120,
      "碗": 2121,
      "礼": 2122,
      "社": 2123,
      "祇": 2124,
      "祓": 2125,
      "祖": 2126,
      "祜": 2127,
      "祝": 2128,
      "神": 2129,
      "祭": 2130,
      "禅": 2131,
      "禊": 2132,
      "禪": 2133,
      "禮": 2134,
      "禰": 2135,
      "禹": 2136,
      "秀": 2137,
      "秋": 2138,
      "种": 2139,
      "科": 2140,
      "移": 2141,
      "程": 2142,
      "稚": 2143,
      "種": 2144,
      "稲": 2145,
      "空": 2146,
      "竜": 2147,
      "竟": 2148,
      "章": 2149,
      "端": 2150,
      "竹": 2151,
      "第": 2152,
      "等": 2153,
      "筒": 2154,
      "筹": 2155,
      "箇": 2156,
      "算": 2157,
      "節": 2158,
      "簡": 2159,
      "米": 2160,
      "粵": 2161,
      "精": 2162,
      "系": 2163,
      "紀": 2164,
      "紅": 2165,
      "納": 2166,
      "級": 2167,
      "索": 2168,
      "紫": 2169,
      "結": 2170,
      "統": 2171,
      "綏": 2172,
      "經": 2173,
      "維": 2174,
      "総": 2175,
      "線": 2176,
      "縄": 2177,
      "織": 2178,
      "纘": 2179,
      "红": 2180,
      "组": 2181,
      "经": 2182,
      "给": 2183,
      "罗": 2184,
      "置": 2185,
      "羅": 2186,
      "美": 2187,
      "群": 2188,
      "義": 2189,
      "羲": 2190,
      "羽": 2191,
      "羿": 2192,
      "耀": 2193,
      "老": 2194,
      "而": 2195,
      "耳": 2196,
      "耻": 2197,
      "聖": 2198,
      "聞": 2199,
      "職": 2200,
      "肇": 2201,
      "育": 2202,
      "背": 2203,
      "胡": 2204,
      "能": 2205,
      "脇": 2206,
      "腦": 2207,
      "腺": 2208,
      "臣": 2209,
      "臨": 2210,
      "自": 2211,
      "至": 2212,
      "臺": 2213,
      "舅": 2214,
      "與": 2215,
      "興": 2216,
      "舜": 2217,
      "舞": 2218,
      "良": 2219,
      "色": 2220,
      "节": 2221,
      "花": 2222,
      "范": 2223,
      "茅": 2224,
      "茶": 2225,
      "荔": 2226,
      "药": 2227,
      "莊": 2228,
      "菊": 2229,
      "菜": 2230,
      "菩": 2231,
      "華": 2232,
      "萊": 2233,
      "萍": 2234,
      "萬": 2235,
      "落": 2236,
      "葉": 2237,
      "葡": 2238,
      "董": 2239,
      "蒲": 2240,
      "蓬": 2241,
      "蓮": 2242,
      "蕃": 2243,
      "薩": 2244,
      "藍": 2245,
      "藏": 2246,
      "藩": 2247,
      "虛": 2248,
      "虫": 2249,
      "蚩": 2250,
      "蛇": 2251,
      "蛮": 2252,
      "融": 2253,
      "血": 2254,
      "行": 2255,
      "衎": 2256,
      "衛": 2257,
      "衡": 2258,
      "衣": 2259,
      "表": 2260,
      "裁": 2261,
      "西": 2262,
      "見": 2263,
      "覚": 2264,
      "観": 2265,
      "覽": 2266,
      "觀": 2267,
      "角": 2268,
      "言": 2269,
      "計": 2270,
      "訓": 2271,
      "記": 2272,
      "詞": 2273,
      "詢": 2274,
      "話": 2275,
      "誌": 2276,
      "語": 2277,
      "説": 2278,
      "読": 2279,
      "談": 2280,
      "論": 2281,
      "諦": 2282,
      "諮": 2283,
      "諸": 2284,
      "謙": 2285,
      "謠": 2286,
      "議": 2287,
      "让": 2288,
      "议": 2289,
      "记": 2290,
      "诚": 2291,
      "语": 2292,
      "谷": 2293,
      "豊": 2294,
      "象": 2295,
      "豸": 2296,
      "貅": 2297,
      "貔": 2298,
      "財": 2299,
      "貨": 2300,
      "貴": 2301,
      "賀": 2302,
      "賓": 2303,
      "質": 2304,
      "财": 2305,
      "贸": 2306,
      "赤": 2307,
      "赴": 2308,
      "赵": 2309,
      "越": 2310,
      "足": 2311,
      "路": 2312,
      "車": 2313,
      "輝": 2314,
      "輪": 2315,
      "车": 2316,
      "辞": 2317,
      "辯": 2318,
      "辰": 2319,
      "農": 2320,
      "込": 2321,
      "迚": 2322,
      "送": 2323,
      "通": 2324,
      "遇": 2325,
      "過": 2326,
      "道": 2327,
      "達": 2328,
      "遣": 2329,
      "遺": 2330,
      "邏": 2331,
      "邑": 2332,
      "邓": 2333,
      "邦": 2334,
      "邪": 2335,
      "郎": 2336,
      "郡": 2337,
      "部": 2338,
      "都": 2339,
      "鄉": 2340,
      "鄧": 2341,
      "配": 2342,
      "采": 2343,
      "重": 2344,
      "野": 2345,
      "金": 2346,
      "鉄": 2347,
      "銀": 2348,
      "銅": 2349,
      "錦": 2350,
      "鍾": 2351,
      "鎌": 2352,
      "鏡": 2353,
      "鏵": 2354,
      "鐵": 2355,
      "钚": 2356,
      "锦": 2357,
      "長": 2358,
      "門": 2359,
      "開": 2360,
      "間": 2361,
      "閣": 2362,
      "閻": 2363,
      "關": 2364,
      "阳": 2365,
      "阿": 2366,
      "陈": 2367,
      "降": 2368,
      "院": 2369,
      "陵": 2370,
      "陽": 2371,
      "隅": 2372,
      "隆": 2373,
      "隍": 2374,
      "随": 2375,
      "隴": 2376,
      "隸": 2377,
      "雅": 2378,
      "集": 2379,
      "雑": 2380,
      "離": 2381,
      "難": 2382,
      "雨": 2383,
      "雲": 2384,
      "雷": 2385,
      "電": 2386,
      "霊": 2387,
      "霧": 2388,
      "露": 2389,
      "靈": 2390,
      "靑": 2391,
      "青": 2392,
      "静": 2393,
      "面": 2394,
      "韓": 2395,
      "音": 2396,
      "順": 2397,
      "頡": 2398,
      "頭": 2399,
      "願": 2400,
      "顼": 2401,
      "颛": 2402,
      "風": 2403,
      "食": 2404,
      "飴": 2405,
      "館": 2406,
      "餮": 2407,
      "饕": 2408,
      "首": 2409,
      "馗": 2410,
      "馬": 2411,
      "駕": 2412,
      "驁": 2413,
      "马": 2414,
      "高": 2415,
      "鬘": 2416,
      "鬼": 2417,
      "魁": 2418,
      "魃": 2419,
      "魈": 2420,
      "魔": 2421,
      "鮮": 2422,
      "鯤": 2423,
      "鳥": 2424,
      "鳳": 2425,
      "鴻": 2426,
      "鵊": 2427,
      "鵬": 2428,
      "鵲": 2429,
      "鶼": 2430,
      "鷫": 2431,
      "麟": 2432,
      "麻": 2433,
      "黃": 2434,
      "黄": 2435,
      "黑": 2436,
      "點": 2437,
      "黨": 2438,
      "鼎": 2439,
      "鼻": 2440,
      "龍": 2441,
      "ꜜ": 2442,
      "ꜣ": 2443,
      "ꜥ": 2444,
      "ꟾ": 2445,
      "가": 2446,
      "강": 2447,
      "개": 2448,
      "경": 2449,
      "고": 2450,
      "곡": 2451,
      "공": 2452,
      "광": 2453,
      "교": 2454,
      "구": 2455,
      "국": 2456,
      "군": 2457,
      "금": 2458,
      "기": 2459,
      "김": 2460,
      "남": 2461,
      "년": 2462,
      "노": 2463,
      "다": 2464,
      "단": 2465,
      "담": 2466,
      "당": 2467,
      "대": 2468,
      "덕": 2469,
      "도": 2470,
      "독": 2471,
      "동": 2472,
      "둑": 2473,
      "드": 2474,
      "디": 2475,
      "라": 2476,
      "락": 2477,
      "람": 2478,
      "래": 2479,
      "려": 2480,
      "례": 2481,
      "로": 2482,
      "록": 2483,
      "류": 2484,
      "르": 2485,
      "리": 2486,
      "림": 2487,
      "마": 2488,
      "만": 2489,
      "면": 2490,
      "목": 2491,
      "무": 2492,
      "미": 2493,
      "민": 2494,
      "바": 2495,
      "반": 2496,
      "방": 2497,
      "벌": 2498,
      "베": 2499,
      "별": 2500,
      "부": 2501,
      "북": 2502,
      "사": 2503,
      "산": 2504,
      "삼": 2505,
      "색": 2506,
      "서": 2507,
      "선": 2508,
      "성": 2509,
      "세": 2510,
      "수": 2511,
      "시": 2512,
      "식": 2513,
      "신": 2514,
      "실": 2515,
      "십": 2516,
      "아": 2517,
      "악": 2518,
      "암": 2519,
      "야": 2520,
      "약": 2521,
      "양": 2522,
      "어": 2523,
      "없": 2524,
      "역": 2525,
      "염": 2526,
      "영": 2527,
      "올": 2528,
      "요": 2529,
      "울": 2530,
      "원": 2531,
      "월": 2532,
      "위": 2533,
      "유": 2534,
      "으": 2535,
      "음": 2536,
      "의": 2537,
      "이": 2538,
      "인": 2539,
      "일": 2540,
      "자": 2541,
      "작": 2542,
      "잠": 2543,
      "장": 2544,
      "전": 2545,
      "절": 2546,
      "정": 2547,
      "제": 2548,
      "조": 2549,
      "주": 2550,
      "지": 2551,
      "진": 2552,
      "찬": 2553,
      "천": 2554,
      "철": 2555,
      "청": 2556,
      "충": 2557,
      "치": 2558,
      "침": 2559,
      "카": 2560,
      "토": 2561,
      "통": 2562,
      "특": 2563,
      "판": 2564,
      "팔": 2565,
      "편": 2566,
      "평": 2567,
      "포": 2568,
      "폰": 2569,
      "픽": 2570,
      "한": 2571,
      "함": 2572,
      "핸": 2573,
      "행": 2574,
      "허": 2575,
      "현": 2576,
      "호": 2577,
      "홍": 2578,
      "화": 2579,
      "황": 2580,
      "회": 2581,
      "효": 2582,
      "훈": 2583,
      "휴": 2584,
      "흥": 2585,
      "ﬁ": 2586,
      "ﬂ": 2587,
      "ﷲ": 2588,
      "﻿": 2589,
      "（": 2590,
      "）": 2591,
      "，": 2592,
      "｜": 2593,
      "￥": 2594,
      "￼": 2595,
      "�": 2596,
      "𐀡": 2597,
      "𐀩": 2598,
      "𐀵": 2599,
      "𐤋": 2600,
      "𐬀": 2601,
      "𐬌": 2602,
      "𐬎": 2603,
      "𐬢": 2604,
      "𐬥": 2605,
      "𐬨": 2606,
      "𐬭": 2607,
      "𒀭": 2608,
      "𒁺": 2609,
      "𒂗": 2610,
      "𒃶": 2611,
      "𒆠": 2612,
      "𒆧": 2613,
      "𒈾": 2614,
      "𞤈": 2615,
      "𞤘": 2616,
      "𞤤": 2617,
      "𞤦": 2618,
      "𞤨": 2619,
      "𞤫": 2620,
      "𞤭": 2621,
      "𞤲": 2622,
      "𞤳": 2623,
      "𞤵": 2624,
      "de": 2625,
      "ra": 2626,
      "do": 2627,
      "es": 2628,
      "nt": 2629,
      "da": 2630,
      "co": 2631,
      "os": 2632,
      "as": 2633,
      "ri": 2634,
      "re": 2635,
      "ta": 2636,
      "er": 2637,
      "is": 2638,
      "or": 2639,
      "ma": 2640,
      "ão": 2641,
      "al": 2642,
      "in": 2643,
      "em": 2644,
      "ca": 2645,
      "ent": 2646,
      "qu": 2647,
      "ci": 2648,
      "ro": 2649,
      "en": 2650,
      "an": 2651,
      "ti": 2652,
      "el": 2653,
      "ar": 2654,
      "se": 2655,
      "com": 2656,
      "to": 2657,
      "ção": 2658,
      "que": 2659,
      "di": 2660,
      "te": 2661,
      "no": 2662,
      "na": 2663,
      "pa": 2664,
      "po": 2665,
      "li": 2666,
      "dos": 2667,
      "ei": 2668,
      "ment": 2669,
      "ul": 2670,
      "ni": 2671,
      "si": 2672,
      "tu": 2673,
      "gu": 2674,
      "ou": 2675,
      "on": 2676,
      "vi": 2677,
      "um": 2678,
      "res": 2679,
      "por": 2680,
      "so": 2681,
      "con": 2682,
      "19": 2683,
      "va": 2684,
      "ha": 2685,
      "des": 2686,
      "ol": 2687,
      "uma": 2688,
      "das": 2689,
      "su": 2690,
      "fi": 2691,
      "mo": 2692,
      "ria": 2693,
      "la": 2694,
      "para": 2695,
      "tra": 2696,
      "mi": 2697,
      "ex": 2698,
      "us": 2699,
      "pro": 2700,
      "dade": 2701,
      "ões": 2702,
      "nte": 2703,
      "gi": 2704,
      "fo": 2705,
      "pe": 2706,
      "nci": 2707,
      "mente": 2708,
      "lo": 2709,
      "am": 2710,
      "ho": 2711,
      "du": 2712,
      "ter": 2713,
      "ram": 2714,
      "20": 2715,
      "at": 2716,
      "pel": 2717,
      "le": 2718,
      "un": 2719,
      "como": 2720,
      "ve": 2721,
      "ran": 2722,
      "ga": 2723,
      "go": 2724,
      "me": 2725,
      "ant": 2726,
      "ist": 2727,
      "ver": 2728,
      "pos": 2729,
      "sa": 2730,
      "pri": 2731,
      "ia": 2732,
      ").": 2733,
      "ções": 2734,
      "for": 2735,
      "ce": 2736,
      "pi": 2737,
      "za": 2738,
      "tr": 2739,
      "mento": 2740,
      "esta": 2741,
      "bi": 2742,
      "cas": 2743,
      "ina": 2744,
      "cul": 2745,
      "mais": 2746,
      "foi": 2747,
      "Es": 2748,
      "são": 2749,
      "rio": 2750,
      "tos": 2751,
      "he": 2752,
      "cont": 2753,
      "ista": 2754,
      "vo": 2755,
      "par": 2756,
      "ém": 2757,
      "mu": 2758,
      "ncia": 2759,
      "ça": 2760,
      "ali": 2761,
      "lu": 2762,
      "mb": 2763,
      "tor": 2764,
      "era": 2765,
      "ao": 2766,
      "pres": 2767,
      "per": 2768,
      "cos": 2769,
      "tura": 2770,
      "eiro": 2771,
      "eira": 2772,
      "ser": 2773,
      "18": 2774,
      "ntes": 2775,
      "fe": 2776,
      "est": 2777,
      "mas": 2778,
      "ando": 2779,
      "tem": 2780,
      "cu": 2781,
      "ros": 2782,
      "im": 2783,
      "ís": 2784,
      "gra": 2785,
      "ne": 2786,
      "cor": 2787,
      "il": 2788,
      "sua": 2789,
      "não": 2790,
      "pre": 2791,
      "ação": 2792,
      "ab": 2793,
      "ele": 2794,
      "ência": 2795,
      "Pa": 2796,
      "gues": 2797,
      "bra": 2798,
      "Co": 2799,
      "ru": 2800,
      "int": 2801,
      "ente": 2802,
      "ns": 2803,
      "ch": 2804,
      "nos": 2805,
      "),": 2806,
      "sil": 2807,
      "ano": 2808,
      "ês": 2809,
      "ado": 2810,
      "ndo": 2811,
      "cio": 2812,
      "tas": 2813,
      "tica": 2814,
      "forma": 2815,
      "onal": 2816,
      "Ma": 2817,
      "seu": 2818,
      "io": 2819,
      "Em": 2820,
      "fa": 2821,
      "Al": 2822,
      "lí": 2823,
      "vol": 2824,
      "ba": 2825,
      "fica": 2826,
      "Re": 2827,
      "min": 2828,
      "vel": 2829,
      "ces": 2830,
      "ja": 2831,
      "fre": 2832,
      "entre": 2833,
      "rica": 2834,
      "nas": 2835,
      "pul": 2836,
      "endo": 2837,
      "No": 2838,
      "cri": 2839,
      "pela": 2840,
      "tal": 2841,
      "tamb": 2842,
      "dia": 2843,
      "rei": 2844,
      "cons": 2845,
      "também": 2846,
      "pode": 2847,
      "tro": 2848,
      "cia": 2849,
      "200": 2850,
      "pen": 2851,
      "segu": 2852,
      "dor": 2853,
      "cial": 2854,
      "prim": 2855,
      "cional": 2856,
      "mes": 2857,
      "car": 2858,
      "ag": 2859,
      "au": 2860,
      "pelo": 2861,
      "Por": 2862,
      "man": 2863,
      "ir": 2864,
      "mar": 2865,
      "nto": 2866,
      "201": 2867,
      "fu": 2868,
      "bli": 2869,
      "emb": 2870,
      "ári": 2871,
      "cer": 2872,
      "sob": 2873,
      "cí": 2874,
      "pes": 2875,
      "ário": 2876,
      "ens": 2877,
      "pl": 2878,
      "As": 2879,
      "anos": 2880,
      "ras": 2881,
      "qui": 2882,
      "uni": 2883,
      "Uni": 2884,
      "ob": 2885,
      "dades": 2886,
      "cent": 2887,
      "ju": 2888,
      "ino": 2889,
      "dis": 2890,
      "ris": 2891,
      "ass": 2892,
      "tó": 2893,
      "tar": 2894,
      "Na": 2895,
      "tiva": 2896,
      "Os": 2897,
      "pal": 2898,
      "ide": 2899,
      "anto": 2900,
      "tico": 2901,
      "tru": 2902,
      "tri": 2903,
      "ge": 2904,
      "orte": 2905,
      "popul": 2906,
      "tes": 2907,
      "tado": 2908,
      "cidade": 2909,
      "titu": 2910,
      "Se": 2911,
      "bol": 2912,
      "erra": 2913,
      "Con": 2914,
      "mos": 2915,
      "parti": 2916,
      "cal": 2917,
      "Ca": 2918,
      "gia": 2919,
      "der": 2920,
      "São": 2921,
      "bo": 2922,
      "199": 2923,
      "ad": 2924,
      "ior": 2925,
      "mui": 2926,
      "ur": 2927,
      "este": 2928,
      "gre": 2929,
      "De": 2930,
      "cha": 2931,
      "nio": 2932,
      "ten": 2933,
      "país": 2934,
      "Bra": 2935,
      "produ": 2936,
      "tros": 2937,
      "fregues": 2938,
      "je": 2939,
      "vis": 2940,
      "pr": 2941,
      "lh": 2942,
      "ini": 2943,
      "fun": 2944,
      "cre": 2945,
      "pu": 2946,
      "ins": 2947,
      "ais": 2948,
      "ço": 2949,
      "sé": 2950,
      "maior": 2951,
      "val": 2952,
      "men": 2953,
      "âni": 2954,
      "inha": 2955,
      "pan": 2956,
      "gran": 2957,
      "inter": 2958,
      "00": 2959,
      "ori": 2960,
      "sem": 2961,
      "conhe": 2962,
      "mé": 2963,
      "polí": 2964,
      "ber": 2965,
      "II": 2966,
      "ismo": 2967,
      "17": 2968,
      "sobre": 2969,
      "gan": 2970,
      "be": 2971,
      "vos": 2972,
      "tebol": 2973,
      "gos": 2974,
      "vas": 2975,
      "ada": 2976,
      "mentos": 2977,
      "ral": 2978,
      "ós": 2979,
      "15": 2980,
      "regi": 2981,
      "cel": 2982,
      "contra": 2983,
      "ix": 2984,
      "present": 2985,
      "culo": 2986,
      "brasil": 2987,
      "aliza": 2988,
      "Gu": 2989,
      "cípi": 2990,
      "rela": 2991,
      "xi": 2992,
      "muni": 2993,
      "posi": 2994,
      "Jo": 2995,
      "pera": 2996,
      "Ar": 2997,
      "gem": 2998,
      "rior": 2999,
      "até": 3000,
      "futebol": 3001,
      "clu": 3002,
      "istó": 3003,
      "den": 3004,
      "foram": 3005,
      "ares": 3006,
      "gua": 3007,
      "cada": 3008,
      "jo": 3009,
      "198": 3010,
      "cl": 3011,
      "Brasil": 3012,
      "ing": 3013,
      "mer": 3014,
      "ana": 3015,
      "ela": 3016,
      "porta": 3017,
      "ários": 3018,
      "ap": 3019,
      "bas": 3020,
      "bal": 3021,
      "Mar": 3022,
      "freguesia": 3023,
      "gal": 3024,
      "Mo": 3025,
      "Vi": 3026,
      "algu": 3027,
      "conheci": 3028,
      "fere": 3029,
      "parte": 3030,
      "vez": 3031,
      "princi": 3032,
      "ças": 3033,
      "hi": 3034,
      "bri": 3035,
      "seus": 3036,
      "anti": 3037,
      "envol": 3038,
      "Po": 3039,
      "rante": 3040,
      "indo": 3041,
      "Esta": 3042,
      "nti": 3043,
      "gen": 3044,
      "rá": 3045,
      "uro": 3046,
      "pé": 3047,
      "197": 3048,
      "16": 3049,
      "nta": 3050,
      "Li": 3051,
      "In": 3052,
      "Ro": 3053,
      "tivo": 3054,
      "tá": 3055,
      "ac": 3056,
      "iste": 3057,
      "fil": 3058,
      "mun": 3059,
      "pois": 3060,
      "che": 3061,
      "gover": 3062,
      "pas": 3063,
      "sim": 3064,
      "atri": 3065,
      "ciona": 3066,
      "ame": 3067,
      "inda": 3068,
      "portu": 3069,
      "úbli": 3070,
      "rea": 3071,
      "sendo": 3072,
      "ias": 3073,
      "Sant": 3074,
      "bu": 3075,
      "ves": 3076,
      "plo": 3077,
      "196": 3078,
      "Cas": 3079,
      "istas": 3080,
      "dores": 3081,
      "cípio": 3082,
      "dera": 3083,
      "sub": 3084,
      "lia": 3085,
      "Fran": 3086,
      "via": 3087,
      "Car": 3088,
      "Pe": 3089,
      "eiros": 3090,
      "bita": 3091,
      "ven": 3092,
      "onde": 3093,
      "14": 3094,
      "eito": 3095,
      "mina": 3096,
      "té": 3097,
      "Ba": 3098,
      "lan": 3099,
      "públi": 3100,
      "col": 3101,
      "eral": 3102,
      "ban": 3103,
      "ona": 3104,
      "cam": 3105,
      "ores": 3106,
      "nome": 3107,
      "ulo": 3108,
      "hos": 3109,
      "et": 3110,
      "futebolista": 3111,
      "zi": 3112,
      "Portu": 3113,
      "grande": 3114,
      "Qu": 3115,
      "fí": 3116,
      "10": 3117,
      "dio": 3118,
      "tras": 3119,
      "ôni": 3120,
      "outros": 3121,
      "194": 3122,
      "século": 3123,
      "sidade": 3124,
      "An": 3125,
      "fer": 3126,
      "ticas": 3127,
      "pon": 3128,
      "cultura": 3129,
      "espe": 3130,
      "zação": 3131,
      "vam": 3132,
      "ira": 3133,
      "segui": 3134,
      "\",": 3135,
      "qual": 3136,
      "fin": 3137,
      "reg": 3138,
      "és": 3139,
      "has": 3140,
      "entes": 3141,
      "aos": 3142,
      "olo": 3143,
      "195": 3144,
      "sos": 3145,
      "trans": 3146,
      "\".": 3147,
      "fia": 3148,
      "193": 3149,
      "está": 3150,
      "gar": 3151,
      "habita": 3152,
      "suas": 3153,
      "população": 3154,
      "brasileiro": 3155,
      "gas": 3156,
      "tual": 3157,
      "gn": 3158,
      "ncias": 3159,
      "nacional": 3160,
      "dro": 3161,
      "ainda": 3162,
      "primeira": 3163,
      "Com": 3164,
      "corre": 3165,
      "pró": 3166,
      "Su": 3167,
      "st": 3168,
      "ora": 3169,
      "município": 3170,
      "america": 3171,
      "Lu": 3172,
      "quando": 3173,
      "primeiro": 3174,
      "nú": 3175,
      "pesso": 3176,
      "istória": 3177,
      "vimento": 3178,
      "tre": 3179,
      "mesmo": 3180,
      "12": 3181,
      "inclu": 3182,
      "cen": 3183,
      "vida": 3184,
      "Ch": 3185,
      "ás": 3186,
      "inf": 3187,
      "vent": 3188,
      "greja": 3189,
      "ess": 3190,
      "embro": 3191,
      "desenvol": 3192,
      "bro": 3193,
      "Fo": 3194,
      "consi": 3195,
      "região": 3196,
      "mia": 3197,
      "atra": 3198,
      "So": 3199,
      "rece": 3200,
      "norte": 3201,
      "faz": 3202,
      "tâni": 3203,
      "ér": 3204,
      "lica": 3205,
      "durante": 3206,
      "tí": 3207,
      "ração": 3208,
      "dem": 3209,
      "mel": 3210,
      "Mi": 3211,
      "fran": 3212,
      "muito": 3213,
      "rin": 3214,
      "veis": 3215,
      "her": 3216,
      "cria": 3217,
      "dois": 3218,
      "escri": 3219,
      "Portugal": 3220,
      "estado": 3221,
      "área": 3222,
      "já": 3223,
      "constru": 3224,
      "chama": 3225,
      "istema": 3226,
      "penas": 3227,
      "Par": 3228,
      "quanto": 3229,
      "Le": 3230,
      "lon": 3231,
      "ógi": 3232,
      "cis": 3233,
      "esti": 3234,
      "km": 3235,
      "mil": 3236,
      "rí": 3237,
      "ck": 3238,
      "sig": 3239,
      "ine": 3240,
      "trabal": 3241,
      "funda": 3242,
      "rem": 3243,
      "indi": 3244,
      "cur": 3245,
      "pla": 3246,
      "principal": 3247,
      "Rio": 3248,
      "istra": 3249,
      "13": 3250,
      "bili": 3251,
      "árias": 3252,
      "cesso": 3253,
      "mundo": 3254,
      "maio": 3255,
      "sica": 3256,
      "possu": 3257,
      "habitantes": 3258,
      "ita": 3259,
      "def": 3260,
      "estu": 3261,
      "tili": 3262,
      "organ": 3263,
      "dist": 3264,
      "apenas": 3265,
      "sí": 3266,
      "mor": 3267,
      "ind": 3268,
      "dent": 3269,
      "elo": 3270,
      "dense": 3271,
      "ticos": 3272,
      "Ex": 3273,
      "governo": 3274,
      "colo": 3275,
      "liv": 3276,
      "Pro": 3277,
      "pelos": 3278,
      "mica": 3279,
      "todos": 3280,
      "gru": 3281,
      "can": 3282,
      "ados": 3283,
      "lei": 3284,
      "les": 3285,
      "dé": 3286,
      "mei": 3287,
      "pra": 3288,
      "difere": 3289,
      "eram": 3290,
      "depen": 3291,
      "importa": 3292,
      "ale": 3293,
      "odo": 3294,
      "ços": 3295,
      "ências": 3296,
      "rito": 3297,
      "vido": 3298,
      "come": 3299,
      "cla": 3300,
      "cou": 3301,
      "inte": 3302,
      "auto": 3303,
      "grafia": 3304,
      "=\"": 3305,
      "192": 3306,
      "idente": 3307,
      "ária": 3308,
      "Di": 3309,
      "antes": 3310,
      "nda": 3311,
      "Sen": 3312,
      "dência": 3313,
      "tório": 3314,
      "rou": 3315,
      "cimento": 3316,
      "Des": 3317,
      "Ri": 3318,
      "tação": 3319,
      "tempo": 3320,
      "edi": 3321,
      "mul": 3322,
      "pais": 3323,
      "cie": 3324,
      "desta": 3325,
      "capi": 3326,
      "quer": 3327,
      "sistema": 3328,
      "sido": 3329,
      "outras": 3330,
      "ição": 3331,
      "tou": 3332,
      "and": 3333,
      "av": 3334,
      "considera": 3335,
      "político": 3336,
      "Igreja": 3337,
      "ciais": 3338,
      "diver": 3339,
      "estadu": 3340,
      "los": 3341,
      "cerca": 3342,
      "inas": 3343,
      "mili": 3344,
      "cra": 3345,
      "tinha": 3346,
      "istem": 3347,
      "alidade": 3348,
      "portugues": 3349,
      "dire": 3350,
      "númer": 3351,
      "Sa": 3352,
      "cado": 3353,
      "depois": 3354,
      "Ci": 3355,
      "cola": 3356,
      "ício": 3357,
      "utili": 3358,
      "esse": 3359,
      "Estados": 3360,
      "ton": 3361,
      "ani": 3362,
      "Cam": 3363,
      "úl": 3364,
      "fei": 3365,
      "Ver": 3366,
      "britâni": 3367,
      "volu": 3368,
      "reli": 3369,
      "oso": 3370,
      "th": 3371,
      "represent": 3372,
      "concel": 3373,
      "estão": 3374,
      "às": 3375,
      "huma": 3376,
      "Go": 3377,
      "ór": 3378,
      "Ant": 3379,
      "Mu": 3380,
      "religi": 3381,
      "sul": 3382,
      "todo": 3383,
      "após": 3384,
      "apresent": 3385,
      "perí": 3386,
      "Santa": 3387,
      "cação": 3388,
      "exem": 3389,
      "três": 3390,
      "encontra": 3391,
      "aneiro": 3392,
      "Ou": 3393,
      "nter": 3394,
      "pass": 3395,
      "21": 3396,
      "inho": 3397,
      "tores": 3398,
      "sas": 3399,
      "Bar": 3400,
      "vés": 3401,
      "ância": 3402,
      "ceu": 3403,
      "Fre": 3404,
      "Para": 3405,
      "desde": 3406,
      "of": 3407,
      "ví": 3408,
      "pública": 3409,
      "Jos": 3410,
      "João": 3411,
      "alem": 3412,
      "ena": 3413,
      "nou": 3414,
      "rac": 3415,
      "partir": 3416,
      "Bo": 3417,
      "então": 3418,
      "milh": 3419,
      "fal": 3420,
      "mal": 3421,
      "últi": 3422,
      "pessoas": 3423,
      "tivos": 3424,
      "Nos": 3425,
      "Du": 3426,
      "align": 3427,
      "ministra": 3428,
      "eta": 3429,
      "eles": 3430,
      "bem": 3431,
      "Guerra": 3432,
      "rig": 3433,
      "hora": 3434,
      "nia": 3435,
      "passa": 3436,
      "má": 3437,
      "atriz": 3438,
      "pou": 3439,
      "tivi": 3440,
      "To": 3441,
      "rias": 3442,
      "medi": 3443,
      "dez": 3444,
      "duas": 3445,
      "obra": 3446,
      "ator": 3447,
      "peri": 3448,
      "ement": 3449,
      "loc": 3450,
      "atro": 3451,
      "cionais": 3452,
      "ase": 3453,
      "dial": 3454,
      "constitu": 3455,
      "geral": 3456,
      "son": 3457,
      "panh": 3458,
      "Fer": 3459,
      "usa": 3460,
      "posição": 3461,
      "nova": 3462,
      "concelho": 3463,
      "rios": 3464,
      "ula": 3465,
      "Euro": 3466,
      "cono": 3467,
      "emente": 3468,
      "cialmente": 3469,
      "tê": 3470,
      "ht": 3471,
      "contin": 3472,
      "rie": 3473,
      "Ne": 3474,
      "11": 3475,
      "Paulo": 3476,
      "terra": 3477,
      "podem": 3478,
      "há": 3479,
      "anu": 3480,
      "ónio": 3481,
      "Or": 3482,
      "apro": 3483,
      "alguns": 3484,
      "sia": 3485,
      "bele": 3486,
      "publi": 3487,
      "base": 3488,
      "ável": 3489,
      "las": 3490,
      "período": 3491,
      "ál": 3492,
      "fam": 3493,
      "Do": 3494,
      "deira": 3495,
      "almente": 3496,
      "ren": 3497,
      "ua": 3498,
      "ofi": 3499,
      "americano": 3500,
      "terri": 3501,
      "Segu": 3502,
      "estaduni": 3503,
      "através": 3504,
      "nifica": 3505,
      "Unidos": 3506,
      "25": 3507,
      "além": 3508,
      "eiras": 3509,
      "tivas": 3510,
      "número": 3511,
      "trutura": 3512,
      "vem": 3513,
      "Im": 3514,
      "Gran": 3515,
      "ng": 3516,
      "rada": 3517,
      "estra": 3518,
      "dados": 3519,
      "organi": 3520,
      "rado": 3521,
      "sal": 3522,
      "nor": 3523,
      "La": 3524,
      "Univer": 3525,
      "hor": 3526,
      "lin": 3527,
      "Cons": 3528,
      "mú": 3529,
      "isto": 3530,
      "assim": 3531,
      "acor": 3532,
      "estadunidense": 3533,
      "190": 3534,
      "agem": 3535,
      "realiza": 3536,
      "Ju": 3537,
      "tradi": 3538,
      "roma": 3539,
      "2013": 3540,
      "início": 3541,
      "tamente": 3542,
      "ologia": 3543,
      "iu": 3544,
      "sur": 3545,
      "exemplo": 3546,
      "Cor": 3547,
      "cres": 3548,
      "enta": 3549,
      "gado": 3550,
      "189": 3551,
      "junto": 3552,
      "ard": 3553,
      "pare": 3554,
      "mada": 3555,
      "estrutura": 3556,
      "Te": 3557,
      "mon": 3558,
      "povo": 3559,
      "Fa": 3560,
      "só": 3561,
      "Sul": 3562,
      "presidente": 3563,
      "significa": 3564,
      "ero": 3565,
      "deu": 3566,
      "arqui": 3567,
      "cês": 3568,
      "quis": 3569,
      "osa": 3570,
      "sol": 3571,
      "guês": 3572,
      "água": 3573,
      "seja": 3574,
      "pequ": 3575,
      "XI": 3576,
      "Cent": 3577,
      "mis": 3578,
      "mico": 3579,
      "atual": 3580,
      "segundo": 3581,
      "deste": 3582,
      "frica": 3583,
      "resul": 3584,
      "apo": 3585,
      "Lo": 3586,
      "24": 3587,
      "obje": 3588,
      "econ": 3589,
      "plan": 3590,
      "hom": 3591,
      "aca": 3592,
      "tido": 3593,
      "tur": 3594,
      "tados": 3595,
      "fir": 3596,
      "abri": 3597,
      "tais": 3598,
      "tendo": 3599,
      "servi": 3600,
      "administra": 3601,
      "fro": 3602,
      "portuguesa": 3603,
      "bel": 3604,
      "art": 3605,
      "lín": 3606,
      "ze": 3607,
      "tão": 3608,
      "Ge": 3609,
      "Estado": 3610,
      "exter": 3611,
      "Pi": 3612,
      "José": 3613,
      "influ": 3614,
      "rico": 3615,
      "produção": 3616,
      "ang": 3617,
      "Inter": 3618,
      "ante": 3619,
      "história": 3620,
      "ocu": 3621,
      "ografia": 3622,
      "úni": 3623,
      "acordo": 3624,
      "ãos": 3625,
      "Um": 3626,
      "estabele": 3627,
      "épo": 3628,
      "maioria": 3629,
      "Foi": 3630,
      "30": 3631,
      "Fe": 3632,
      "Is": 3633,
      "reira": 3634,
      "tanto": 3635,
      "Ent": 3636,
      "Per": 3637,
      "enquanto": 3638,
      "direi": 3639,
      "vezes": 3640,
      "política": 3641,
      "contro": 3642,
      "carac": 3643,
      "Mun": 3644,
      "menos": 3645,
      "sico": 3646,
      "países": 3647,
      "có": 3648,
      "lio": 3649,
      "En": 3650,
      "francês": 3651,
      "Ra": 3652,
      "grá": 3653,
      "mí": 3654,
      "principais": 3655,
      "vários": 3656,
      "bre": 3657,
      "ível": 3658,
      "ribu": 3659,
      "Tra": 3660,
      "situ": 3661,
      "ntos": 3662,
      "essa": 3663,
      "cé": 3664,
      "Grande": 3665,
      "pei": 3666,
      "guerra": 3667,
      "teve": 3668,
      "panha": 3669,
      "zar": 3670,
      "visão": 3671,
      "Me": 3672,
      "III": 3673,
      "popula": 3674,
      "Senhora": 3675,
      "esa": 3676,
      "dente": 3677,
      "ambi": 3678,
      "capital": 3679,
      "dou": 3680,
      "época": 3681,
      "Da": 3682,
      "cion": 3683,
      "ocorre": 3684,
      "lha": 3685,
      "gações": 3686,
      "num": 3687,
      "bilidade": 3688,
      "poder": 3689,
      "natura": 3690,
      "dido": 3691,
      "riam": 3692,
      "idade": 3693,
      "comuni": 3694,
      "muitos": 3695,
      "The": 3696,
      "dar": 3697,
      "tada": 3698,
      "território": 3699,
      "milhões": 3700,
      "Fi": 3701,
      "grandes": 3702,
      "serva": 3703,
      "amb": 3704,
      "União": 3705,
      "cle": 3706,
      "empres": 3707,
      "cido": 3708,
      "baix": 3709,
      "rus": 3710,
      "ído": 3711,
      "sede": 3712,
      "bar": 3713,
      "espé": 3714,
      "gens": 3715,
      "188": 3716,
      "fra": 3717,
      "conhecido": 3718,
      "gada": 3719,
      "econo": 3720,
      "sen": 3721,
      "Bi": 3722,
      "dias": 3723,
      "Santo": 3724,
      "For": 3725,
      "ética": 3726,
      "tivamente": 3727,
      "rim": 3728,
      "tera": 3729,
      "XV": 3730,
      "boa": 3731,
      "várias": 3732,
      "eli": 3733,
      "ília": 3734,
      "algumas": 3735,
      "Ale": 3736,
      "entanto": 3737,
      "ulho": 3738,
      "fim": 3739,
      "final": 3740,
      "2011": 3741,
      "clas": 3742,
      "ré": 3743,
      "britânico": 3744,
      "neces": 3745,
      "Norte": 3746,
      "meio": 3747,
      "teri": 3748,
      "social": 3749,
      "pério": 3750,
      "Maria": 3751,
      "História": 3752,
      "iro": 3753,
      "tornou": 3754,
      "23": 3755,
      "França": 3756,
      "desenvolvimento": 3757,
      "local": 3758,
      "feri": 3759,
      "têm": 3760,
      "pec": 3761,
      "lado": 3762,
      "pelas": 3763,
      "Vila": 3764,
      "pós": 3765,
      "permi": 3766,
      "reiro": 3767,
      "utiliza": 3768,
      "formação": 3769,
      "República": 3770,
      "década": 3771,
      "possui": 3772,
      "deno": 3773,
      "dan": 3774,
      "torna": 3775,
      "moder": 3776,
      "Nacional": 3777,
      "Roma": 3778,
      "ple": 3779,
      "soci": 3780,
      "origem": 3781,
      "ológi": 3782,
      "cin": 3783,
      "aco": 3784,
      "devido": 3785,
      "volta": 3786,
      "grupo": 3787,
      "Uma": 3788,
      "espa": 3789,
      "cli": 3790,
      "ân": 3791,
      "corpo": 3792,
      "22": 3793,
      "terior": 3794,
      "eno": 3795,
      "ída": 3796,
      "ilha": 3797,
      "it": 3798,
      "indepen": 3799,
      "Fregues": 3800,
      "cente": 3801,
      "fos": 3802,
      "Col": 3803,
      "feito": 3804,
      "nu": 3805,
      "proje": 3806,
      "fico": 3807,
      "Pedro": 3808,
      "cant": 3809,
      "outro": 3810,
      "lugar": 3811,
      "Nova": 3812,
      "logia": 3813,
      "ruz": 3814,
      "Ele": 3815,
      "histó": 3816,
      "Mé": 3817,
      "Sal": 3818,
      "capa": 3819,
      "localiza": 3820,
      "veu": 3821,
      "Entre": 3822,
      "longo": 3823,
      "xo": 3824,
      "ques": 3825,
      "mou": 3826,
      "çou": 3827,
      "nal": 3828,
      "zo": 3829,
      "tante": 3830,
      "pó": 3831,
      "logo": 3832,
      "tec": 3833,
      "português": 3834,
      "cais": 3835,
      "aqu": 3836,
      "muitas": 3837,
      "hou": 3838,
      "gação": 3839,
      "alemão": 3840,
      "hoje": 3841,
      "186": 3842,
      "unho": 3843,
      "defini": 3844,
      "Ni": 3845,
      "exist": 3846,
      "composi": 3847,
      "pesar": 3848,
      "50": 3849,
      "gê": 3850,
      "quais": 3851,
      "enti": 3852,
      "cular": 3853,
      "gin": 3854,
      "isso": 3855,
      "ene": 3856,
      "limi": 3857,
      "Nossa": 3858,
      "equi": 3859,
      "quia": 3860,
      "ocupa": 3861,
      "própri": 3862,
      "cho": 3863,
      "todas": 3864,
      "leva": 3865,
      "culos": 3866,
      "dida": 3867,
      "posta": 3868,
      "ugu": 3869,
      "importante": 3870,
      "ús": 3871,
      "ár": 3872,
      "principalmente": 3873,
      "uso": 3874,
      "centro": 3875,
      "ática": 3876,
      "dita": 3877,
      "exi": 3878,
      "total": 3879,
      "volução": 3880,
      "187": 3881,
      "fis": 3882,
      "oria": 3883,
      "cro": 3884,
      "ficação": 3885,
      "divi": 3886,
      "reas": 3887,
      "cios": 3888,
      "ima": 3889,
      "itali": 3890,
      "dra": 3891,
      "freguesias": 3892,
      "econô": 3893,
      "trabalho": 3894,
      "metros": 3895,
      "op": 3896,
      "ener": 3897,
      "opera": 3898,
      "element": 3899,
      "Europa": 3900,
      "deve": 3901,
      "ola": 3902,
      "vista": 3903,
      "elas": 3904,
      "tubro": 3905,
      "ons": 3906,
      "vou": 3907,
      "estava": 3908,
      "right": 3909,
      "jor": 3910,
      "vil": 3911,
      "dado": 3912,
      "var": 3913,
      "Pal": 3914,
      "Pres": 3915,
      "conta": 3916,
      "Reino": 3917,
      "ata": 3918,
      "Janeiro": 3919,
      "quatro": 3920,
      "quí": 3921,
      "bus": 3922,
      "..": 3923,
      "processo": 3924,
      "fl": 3925,
      "wa": 3926,
      "elei": 3927,
      "cies": 3928,
      "Muni": 3929,
      "casa": 3930,
      "tando": 3931,
      "Casa": 3932,
      "desco": 3933,
      "ende": 3934,
      "tan": 3935,
      "estas": 3936,
      "the": 3937,
      "tembro": 3938,
      "Lis": 3939,
      "cida": 3940,
      "militar": 3941,
      "denomina": 3942,
      "din": 3943,
      "gue": 3944,
      "rar": 3945,
      "externas": 3946,
      "cito": 3947,
      "deter": 3948,
      "respon": 3949,
      "deix": 3950,
      "pí": 3951,
      "cem": 3952,
      "cidades": 3953,
      "ães": 3954,
      "novo": 3955,
      "diferentes": 3956,
      "tividade": 3957,
      "vin": 3958,
      "pressão": 3959,
      "sequ": 3960,
      "brasileira": 3961,
      "espanh": 3962,
      "Universidade": 3963,
      "rando": 3964,
      "Cal": 3965,
      "ler": 3966,
      "guas": 3967,
      "subs": 3968,
      "tel": 3969,
      "construção": 3970,
      "lar": 3971,
      "cient": 3972,
      "rança": 3973,
      "Sé": 3974,
      "dri": 3975,
      "relação": 3976,
      "cto": 3977,
      "ise": 3978,
      "XIX": 3979,
      "inado": 3980,
      "antiga": 3981,
      "tia": 3982,
      "ônia": 3983,
      "morte": 3984,
      "dão": 3985,
      "embora": 3986,
      "qualquer": 3987,
      "grama": 3988,
      "data": 3989,
      "havia": 3990,
      "Ta": 3991,
      "Anti": 3992,
      "Ho": 3993,
      "Joh": 3994,
      "tin": 3995,
      "Lei": 3996,
      "passou": 3997,
      "euro": 3998,
      "Porto": 3999,
      "embros": 4000,
      "Império": 4001,
      "Ha": 4002,
      "elho": 4003,
      "prote": 4004,
      "lhe": 4005,
      "vembro": 4006,
      "Cris": 4007,
      "Amé": 4008,
      "talha": 4009,
      "mode": 4010,
      "Ligações": 4011,
      "dios": 4012,
      "ística": 4013,
      "Mundial": 4014,
      "Ter": 4015,
      "rão": 4016,
      "ança": 4017,
      "ença": 4018,
      "super": 4019,
      "Pra": 4020,
      "Patri": 4021,
      "termo": 4022,
      ");": 4023,
      "Nor": 4024,
      "Dem": 4025,
      "economia": 4026,
      "ín": 4027,
      "Lisboa": 4028,
      "incluindo": 4029,
      "vila": 4030,
      "língua": 4031,
      "Ber": 4032,
      "conhecida": 4033,
      "cipal": 4034,
      "ger": 4035,
      "ações": 4036,
      "Cul": 4037,
      "perten": 4038,
      "Este": 4039,
      "gres": 4040,
      "torn": 4041,
      "cus": 4042,
      "diz": 4043,
      "escritor": 4044,
      "toda": 4045,
      "caso": 4046,
      "meta": 4047,
      "Hen": 4048,
      "poli": 4049,
      "40": 4050,
      "duzi": 4051,
      "cípios": 4052,
      "000": 4053,
      "integra": 4054,
      "tora": 4055,
      "porte": 4056,
      "movimento": 4057,
      "ts": 4058,
      "força": 4059,
      "quase": 4060,
      "arte": 4061,
      "dezembro": 4062,
      "governa": 4063,
      "sões": 4064,
      "tipo": 4065,
      "ônio": 4066,
      "afir": 4067,
      "Como": 4068,
      "pli": 4069,
      "deus": 4070,
      "oeste": 4071,
      "quista": 4072,
      "28": 4073,
      "fé": 4074,
      "agos": 4075,
      "energia": 4076,
      "dentes": 4077,
      "ular": 4078,
      "manha": 4079,
      "bio": 4080,
      "Ins": 4081,
      "caracter": 4082,
      "ph": 4083,
      "cun": 4084,
      "Pol": 4085,
      "cole": 4086,
      "possí": 4087,
      "cident": 4088,
      "atu": 4089,
      "Além": 4090,
      "aus": 4091,
      "Sil": 4092,
      "institu": 4093,
      "posto": 4094,
      "rista": 4095,
      "ental": 4096,
      "ísticas": 4097,
      "xa": 4098,
      "Alemanha": 4099,
      "vada": 4100,
      "2010": 4101,
      "Wil": 4102,
      "ciedade": 4103,
      "comer": 4104,
      "cei": 4105,
      "frequ": 4106,
      "ki": 4107,
      "membros": 4108,
      "event": 4109,
      "ponto": 4110,
      "26": 4111,
      "palav": 4112,
      "partici": 4113,
      "Francis": 4114,
      "maiores": 4115,
      "univer": 4116,
      "27": 4117,
      "mónio": 4118,
      "Ing": 4119,
      "elha": 4120,
      "ntas": 4121,
      "fon": 4122,
      "vado": 4123,
      "tempera": 4124,
      "2021": 4125,
      "nica": 4126,
      "úde": 4127,
      "Si": 4128,
      "Ga": 4129,
      "teria": 4130,
      "gera": 4131,
      "cana": 4132,
      "densidade": 4133,
      "conjunto": 4134,
      "adas": 4135,
      "elé": 4136,
      "numa": 4137,
      "áreas": 4138,
      "zes": 4139,
      "compositor": 4140,
      "gio": 4141,
      "ecu": 4142,
      "Cruz": 4143,
      "disso": 4144,
      "ka": 4145,
      "manda": 4146,
      "vesti": 4147,
      "185": 4148,
      "Be": 4149,
      "cir": 4150,
      "Tor": 4151,
      "ciência": 4152,
      "lista": 4153,
      "ouro": 4154,
      "família": 4155,
      "rique": 4156,
      "Ama": 4157,
      "perior": 4158,
      "ferência": 4159,
      "Após": 4160,
      "Can": 4161,
      "chamado": 4162,
      "ham": 4163,
      "ito": 4164,
      "gent": 4165,
      "Fun": 4166,
      "classi": 4167,
      "populacional": 4168,
      "propri": 4169,
      "formas": 4170,
      "condi": 4171,
      "ses": 4172,
      "grupos": 4173,
      "anterior": 4174,
      "Durante": 4175,
      "tion": 4176,
      "tarde": 4177,
      "end": 4178,
      "har": 4179,
      "espécies": 4180,
      "escol": 4181,
      "Ser": 4182,
      "Carlos": 4183,
      "Cab": 4184,
      "estre": 4185,
      "Val": 4186,
      "demo": 4187,
      "funci": 4188,
      "telo": 4189,
      "marca": 4190,
      "pouco": 4191,
      "enas": 4192,
      "comple": 4193,
      "clo": 4194,
      "primeiros": 4195,
      "flu": 4196,
      "pint": 4197,
      "lem": 4198,
      "ador": 4199,
      "org": 4200,
      "seria": 4201,
      "segunda": 4202,
      "bran": 4203,
      "Popul": 4204,
      "Centro": 4205,
      "âne": 4206,
      "tria": 4207,
      "dentro": 4208,
      "ulas": 4209,
      "tít": 4210,
      "gou": 4211,
      "istro": 4212,
      "prob": 4213,
      "lança": 4214,
      "Terra": 4215,
      "obras": 4216,
      "heiro": 4217,
      "ry": 4218,
      "julho": 4219,
      "ner": 4220,
      "desa": 4221,
      "rismo": 4222,
      "nação": 4223,
      "mesma": 4224,
      "janeiro": 4225,
      "ató": 4226,
      "ânti": 4227,
      "istemas": 4228,
      "XX": 4229,
      "tória": 4230,
      "regiões": 4231,
      "mara": 4232,
      "Nas": 4233,
      "ducação": 4234,
      "varia": 4235,
      "tró": 4236,
      "pesquis": 4237,
      "cél": 4238,
      "teoria": 4239,
      "arti": 4240,
      "Cultura": 4241,
      "empre": 4242,
      "183": 4243,
      "gol": 4244,
      "2000": 4245,
      "América": 4246,
      "áveis": 4247,
      "land": 4248,
      "Sol": 4249,
      "comum": 4250,
      "mão": 4251,
      "evi": 4252,
      "mem": 4253,
      "mulher": 4254,
      "ército": 4255,
      "Ori": 4256,
      "ridade": 4257,
      "sempre": 4258,
      "importantes": 4259,
      "geralmente": 4260,
      "aproxi": 4261,
      "vereiro": 4262,
      "experi": 4263,
      "center": 4264,
      "Deus": 4265,
      "cadas": 4266,
      "crí": 4267,
      "Capela": 4268,
      "29": 4269,
      "Mas": 4270,
      "ficou": 4271,
      "cursos": 4272,
      "censo": 4273,
      "El": 4274,
      "agosto": 4275,
      "pol": 4276,
      "recebe": 4277,
      "bis": 4278,
      "zado": 4279,
      "velmente": 4280,
      "ía": 4281,
      "comun": 4282,
      "média": 4283,
      "Algu": 4284,
      "Rib": 4285,
      "setembro": 4286,
      "usado": 4287,
      "ture": 4288,
      "mio": 4289,
      "2001": 4290,
      "juda": 4291,
      "45": 4292,
      "Ao": 4293,
      "outubro": 4294,
      "plica": 4295,
      "micas": 4296,
      "Bu": 4297,
      "música": 4298,
      "ense": 4299,
      "mol": 4300,
      "decla": 4301,
      "sex": 4302,
      "tina": 4303,
      "pad": 4304,
      "jornal": 4305,
      "mando": 4306,
      "criação": 4307,
      "nível": 4308,
      "Lou": 4309,
      "temperatura": 4310,
      "domin": 4311,
      "oficial": 4312,
      "execu": 4313,
      "surgi": 4314,
      "inos": 4315,
      "Cont": 4316,
      "80": 4317,
      "nacionais": 4318,
      "chi": 4319,
      "origin": 4320,
      "forças": 4321,
      "Francisco": 4322,
      "cinco": 4323,
      "ell": 4324,
      "deri": 4325,
      "perma": 4326,
      "Ingla": 4327,
      "Inglaterra": 4328,
      "março": 4329,
      "senti": 4330,
      "IB": 4331,
      "António": 4332,
      "novembro": 4333,
      "Ban": 4334,
      "filho": 4335,
      "Freguesias": 4336,
      "frances": 4337,
      "possível": 4338,
      "quad": 4339,
      "pria": 4340,
      "Cha": 4341,
      "rais": 4342,
      "conquista": 4343,
      "abril": 4344,
      "Institu": 4345,
      "aument": 4346,
      "bandeira": 4347,
      "junho": 4348,
      "isti": 4349,
      "Ín": 4350,
      "estes": 4351,
      "front": 4352,
      "tam": 4353,
      "enda": 4354,
      "determina": 4355,
      "Anos": 4356,
      "Cu": 4357,
      "Ru": 4358,
      "mental": 4359,
      "joga": 4360,
      "outra": 4361,
      "campo": 4362,
      "60": 4363,
      "crescimento": 4364,
      "cantor": 4365,
      "eu": 4366,
      "téc": 4367,
      "compu": 4368,
      "lógi": 4369,
      "real": 4370,
      "gé": 4371,
      "lês": 4372,
      "arma": 4373,
      "porto": 4374,
      "Dia": 4375,
      "ref": 4376,
      "fazer": 4377,
      "natural": 4378,
      "mbi": 4379,
      "veram": 4380,
      "nada": 4381,
      "África": 4382,
      "orde": 4383,
      "deral": 4384,
      "aber": 4385,
      "tamento": 4386,
      "canto": 4387,
      "san": 4388,
      "perador": 4389,
      "atin": 4390,
      "Prim": 4391,
      "figu": 4392,
      "70": 4393,
      "arquite": 4394,
      "lidade": 4395,
      "orge": 4396,
      "At": 4397,
      "escre": 4398,
      "ida": 4399,
      "China": 4400,
      "Património": 4401,
      "port": 4402,
      "Segundo": 4403,
      "sistemas": 4404,
      "Espanha": 4405,
      "Ja": 4406,
      "Min": 4407,
      "insta": 4408,
      "diversos": 4409,
      "quanti": 4410,
      "tividades": 4411,
      "Gra": 4412,
      "tex": 4413,
      "histo": 4414,
      "identi": 4415,
      "compl": 4416,
      "Rua": 4417,
      "tares": 4418,
      "próxi": 4419,
      "italiano": 4420,
      "posterior": 4421,
      "produzi": 4422,
      "seguinte": 4423,
      "zona": 4424,
      "parece": 4425,
      "deia": 4426,
      "massa": 4427,
      "diversas": 4428,
      "sociação": 4429,
      "Manu": 4430,
      "Partido": 4431,
      "curso": 4432,
      "zada": 4433,
      "indus": 4434,
      "começou": 4435,
      "Sou": 4436,
      "popular": 4437,
      "liber": 4438,
      "dução": 4439,
      "quil": 4440,
      "2009": 4441,
      "separa": 4442,
      "fez": 4443,
      "fato": 4444,
      "cine": 4445,
      "conf": 4446,
      "Regi": 4447,
      "2008": 4448,
      "próprio": 4449,
      "65": 4450,
      "urb": 4451,
      "alto": 4452,
      "leg": 4453,
      "dica": 4454,
      "seis": 4455,
      "postos": 4456,
      "superior": 4457,
      "continu": 4458,
      "Ti": 4459,
      "erais": 4460,
      "refere": 4461,
      "isla": 4462,
      "Rob": 4463,
      "inglês": 4464,
      "Museu": 4465,
      "micos": 4466,
      "2012": 4467,
      "rina": 4468,
      "crist": 4469,
      "lá": 4470,
      "1990": 4471,
      "relaciona": 4472,
      "chamada": 4473,
      "exti": 4474,
      "az": 4475,
      "Her": 4476,
      "Mon": 4477,
      "2007": 4478,
      "tário": 4479,
      "japon": 4480,
      "Emb": 4481,
      "observa": 4482,
      "pré": 4483,
      "Cos": 4484,
      "conhecimento": 4485,
      "proprie": 4486,
      "2006": 4487,
      "Internacional": 4488,
      "prin": 4489,
      "valor": 4490,
      "público": 4491,
      "caus": 4492,
      "Rei": 4493,
      "Tamb": 4494,
      "John": 4495,
      "stria": 4496,
      "tudo": 4497,
      "San": 4498,
      "mã": 4499,
      "lito": 4500,
      "escra": 4501,
      "migra": 4502,
      "Lon": 4503,
      "Man": 4504,
      "ura": 4505,
      "asso": 4506,
      "fera": 4507,
      "locais": 4508,
      "organização": 4509,
      "estudo": 4510,
      "sário": 4511,
      "ústria": 4512,
      "Fern": 4513,
      "rede": 4514,
      "íveis": 4515,
      "39": 4516,
      "Fil": 4517,
      "proces": 4518,
      "Serra": 4519,
      "mont": 4520,
      "ensos": 4521,
      "inici": 4522,
      "direito": 4523,
      "solu": 4524,
      "produtor": 4525,
      "resta": 4526,
      "Ass": 4527,
      "atos": 4528,
      "papel": 4529,
      "ty": 4530,
      "gui": 4531,
      "influência": 4532,
      "produz": 4533,
      "alta": 4534,
      "modo": 4535,
      "aba": 4536,
      "pensa": 4537,
      "ússia": 4538,
      "dei": 4539,
      "substitu": 4540,
      "descober": 4541,
      "sor": 4542,
      "vão": 4543,
      "verdade": 4544,
      "Também": 4545,
      "docu": 4546,
      "pons": 4547,
      "explo": 4548,
      "tim": 4549,
      "lingu": 4550,
      "americana": 4551,
      "série": 4552,
      "começa": 4553,
      "toma": 4554,
      "cidos": 4555,
      "espaço": 4556,
      "considerado": 4557,
      "tele": 4558,
      "ricos": 4559,
      "cima": 4560,
      "fici": 4561,
      "pedi": 4562,
      "modelo": 4563,
      "contribu": 4564,
      "aplica": 4565,
      "siva": 4566,
      "aconte": 4567,
      "cidental": 4568,
      "fora": 4569,
      "2005": 4570,
      "jas": 4571,
      "livro": 4572,
      "Manuel": 4573,
      "eleito": 4574,
      "conce": 4575,
      "ânia": 4576,
      "esses": 4577,
      "bur": 4578,
      "bá": 4579,
      "Itá": 4580,
      "matem": 4581,
      "entemente": 4582,
      "bor": 4583,
      "dação": 4584,
      "âmara": 4585,
      "elementos": 4586,
      "ceira": 4587,
      "vio": 4588,
      "homens": 4589,
      "respons": 4590,
      "programa": 4591,
      "osos": 4592,
      "dico": 4593,
      "causa": 4594,
      "terras": 4595,
      "lib": 4596,
      "fab": 4597,
      "ft": 4598,
      "neg": 4599,
      "Vale": 4600,
      "fas": 4601,
      "ples": 4602,
      "Tem": 4603,
      "Clu": 4604,
      "Bri": 4605,
      "Er": 4606,
      "Edi": 4607,
      "osas": 4608,
      "vul": 4609,
      "plos": 4610,
      "melhor": 4611,
      "quem": 4612,
      "porém": 4613,
      "peia": 4614,
      "90": 4615,
      "cantora": 4616,
      "investi": 4617,
      "Quando": 4618,
      "permane": 4619,
      "del": 4620,
      "geo": 4621,
      "184": 4622,
      "treina": 4623,
      "lhas": 4624,
      "animais": 4625,
      "verno": 4626,
      "eb": 4627,
      "sociedade": 4628,
      "2004": 4629,
      "antigo": 4630,
      "derro": 4631,
      "ático": 4632,
      "Municipal": 4633,
      "título": 4634,
      "igu": 4635,
      "ições": 4636,
      "Alex": 4637,
      "zou": 4638,
      "linha": 4639,
      "tenta": 4640,
      "Século": 4641,
      "And": 4642,
      "ume": 4643,
      "1980": 4644,
      "Itália": 4645,
      "Mor": 4646,
      "porque": 4647,
      "31": 4648,
      "cientí": 4649,
      "proví": 4650,
      "forte": 4651,
      "mudan": 4652,
      "coloni": 4653,
      "inta": 4654,
      "Tu": 4655,
      "inten": 4656,
      "Apesar": 4657,
      "tureza": 4658,
      "precis": 4659,
      "minu": 4660,
      "mostra": 4661,
      "encont": 4662,
      "ama": 4663,
      "Unido": 4664,
      "vei": 4665,
      "ke": 4666,
      "NA": 4667,
      "extre": 4668,
      "glo": 4669,
      "Au": 4670,
      "Je": 4671,
      "Pen": 4672,
      "internacional": 4673,
      "ixo": 4674,
      "van": 4675,
      "dê": 4676,
      "único": 4677,
      "reia": 4678,
      "Fu": 4679,
      "Santos": 4680,
      "festa": 4681,
      "tent": 4682,
      "leste": 4683,
      "ético": 4684,
      "180": 4685,
      "tórios": 4686,
      "ilhas": 4687,
      "ferro": 4688,
      "apresenta": 4689,
      "banda": 4690,
      "Segunda": 4691,
      "gados": 4692,
      "indústria": 4693,
      "Instituto": 4694,
      "cultural": 4695,
      "usão": 4696,
      "igreja": 4697,
      "simples": 4698,
      "emin": 4699,
      "fevereiro": 4700,
      "vação": 4701,
      "tinham": 4702,
      "alidades": 4703,
      "ércio": 4704,
      "inhos": 4705,
      "dim": 4706,
      "espanhol": 4707,
      "reforma": 4708,
      "desig": 4709,
      "peti": 4710,
      "função": 4711,
      "IS": 4712,
      "especialmente": 4713,
      "pren": 4714,
      "distribu": 4715,
      "inais": 4716,
      "1970": 4717,
      "gares": 4718,
      "presença": 4719,
      "possi": 4720,
      "ficado": 4721,
      "censos": 4722,
      "comércio": 4723,
      "Assim": 4724,
      "Chi": 4725,
      "1950": 4726,
      "cr": 4727,
      "mundial": 4728,
      "creto": 4729,
      "atribu": 4730,
      "1960": 4731,
      "clás": 4732,
      "produtos": 4733,
      "ulos": 4734,
      "Bran": 4735,
      "mant": 4736,
      "distrito": 4737,
      "tecno": 4738,
      "Embora": 4739,
      "umo": 4740,
      "apare": 4741,
      "interior": 4742,
      "menor": 4743,
      "tadas": 4744,
      "rom": 4745,
      "Castelo": 4746,
      "mercado": 4747,
      "ley": 4748,
      "pia": 4749,
      "dó": 4750,
      "finan": 4751,
      "culas": 4752,
      "representa": 4753,
      "Afon": 4754,
      "2003": 4755,
      "ceiro": 4756,
      "ofere": 4757,
      "Ir": 4758,
      "último": 4759,
      "cate": 4760,
      "pai": 4761,
      "domí": 4762,
      "termos": 4763,
      "serviços": 4764,
      "ficas": 4765,
      "imperador": 4766,
      "participa": 4767,
      "africa": 4768,
      "sema": 4769,
      "jus": 4770,
      "Ordem": 4771,
      "desse": 4772,
      "existência": 4773,
      "Rober": 4774,
      "concent": 4775,
      "viol": 4776,
      "País": 4777,
      "centes": 4778,
      "homem": 4779,
      "esco": 4780,
      "net": 4781,
      "cendo": 4782,
      "cano": 4783,
      "promo": 4784,
      "64": 4785,
      "hon": 4786,
      "especi": 4787,
      "ânica": 4788,
      "adi": 4789,
      "domina": 4790,
      "feitos": 4791,
      "ordem": 4792,
      "inicia": 4793,
      "cató": 4794,
      "Bibli": 4795,
      "instru": 4796,
      "credita": 4797,
      "afirma": 4798,
      "cando": 4799,
      "rinha": 4800,
      "melho": 4801,
      "Mal": 4802,
      "Escola": 4803,
      "expan": 4804,
      "55": 4805,
      "sin": 4806,
      "ko": 4807,
      "ên": 4808,
      "1991": 4809,
      "cil": 4810,
      "He": 4811,
      "agri": 4812,
      "ensino": 4813,
      "Tri": 4814,
      "núcle": 4815,
      "Pos": 4816,
      "2002": 4817,
      "engen": 4818,
      "forne": 4819,
      "células": 4820,
      "tenha": 4821,
      "independência": 4822,
      "eses": 4823,
      "administrativa": 4824,
      "rados": 4825,
      "formar": 4826,
      "pratica": 4827,
      "Pre": 4828,
      "camin": 4829,
      "mani": 4830,
      "natureza": 4831,
      "dá": 4832,
      "nar": 4833,
      "lhos": 4834,
      "municípios": 4835,
      "vendo": 4836,
      "particular": 4837,
      "Monte": 4838,
      "fen": 4839,
      "gram": 4840,
      "100": 4841,
      "complex": 4842,
      "existem": 4843,
      "projeto": 4844,
      "ento": 4845,
      "própria": 4846,
      "sar": 4847,
      "flor": 4848,
      "religião": 4849,
      "Ed": 4850,
      "rial": 4851,
      "xe": 4852,
      "costa": 4853,
      "duz": 4854,
      "madamente": 4855,
      "resultado": 4856,
      "gresso": 4857,
      "fase": 4858,
      "Paul": 4859,
      "intro": 4860,
      "Jes": 4861,
      "bes": 4862,
      "vento": 4863,
      "ístico": 4864,
      "Jap": 4865,
      "tela": 4866,
      "livre": 4867,
      "Afonso": 4868,
      "associa": 4869,
      "alização": 4870,
      "Eu": 4871,
      "emi": 4872,
      "Sua": 4873,
      "Japão": 4874,
      "wi": 4875,
      "prova": 4876,
      "correspon": 4877,
      "cina": 4878,
      "pção": 4879,
      "rida": 4880,
      "istência": 4881,
      "Associação": 4882,
      "características": 4883,
      "ron": 4884,
      "raz": 4885,
      ".,": 4886,
      "atualmente": 4887,
      "ismos": 4888,
      "Pes": 4889,
      "óso": 4890,
      "chin": 4891,
      "controle": 4892,
      "Outros": 4893,
      "Ben": 4894,
      "Silva": 4895,
      "somente": 4896,
      "cção": 4897,
      "movi": 4898,
      "versão": 4899,
      "1999": 4900,
      "nen": 4901,
      "partes": 4902,
      "Não": 4903,
      "ândia": 4904,
      "Há": 4905,
      "amento": 4906,
      "conde": 4907,
      "plane": 4908,
      "única": 4909,
      "lemas": 4910,
      "til": 4911,
      "portância": 4912,
      "fício": 4913,
      "ministro": 4914,
      "Pr": 4915,
      "vor": 4916,
      "tipos": 4917,
      "acesso": 4918,
      "regista": 4919,
      "||": 4920,
      "cados": 4921,
      "2014": 4922,
      "apoio": 4923,
      "cimentos": 4924,
      "preen": 4925,
      "Luís": 4926,
      "metro": 4927,
      "ério": 4928,
      "exten": 4929,
      "endário": 4930,
      "arda": 4931,
      "central": 4932,
      "35": 4933,
      "Tran": 4934,
      "torno": 4935,
      "População": 4936,
      "presente": 4937,
      "anda": 4938,
      "testa": 4939,
      "sion": 4940,
      "Ad": 4941,
      "alcan": 4942,
      "fess": 4943,
      "emblei": 4944,
      "luz": 4945,
      "mó": 4946,
      "exército": 4947,
      "treinador": 4948,
      "Batalha": 4949,
      "grego": 4950,
      "seguintes": 4951,
      "Gon": 4952,
      "junta": 4953,
      "peona": 4954,
      "exce": 4955,
      "ficar": 4956,
      "trono": 4957,
      "palavra": 4958,
      "descri": 4959,
      "existe": 4960,
      "85": 4961,
      "ido": 4962,
      "desen": 4963,
      "tran": 4964,
      "tualmente": 4965,
      "nem": 4966,
      "importância": 4967,
      "historia": 4968,
      "camente": 4969,
      "morre": 4970,
      "relações": 4971,
      "estados": 4972,
      "Mont": 4973,
      "rit": 4974,
      "Mos": 4975,
      "aproximadamente": 4976,
      "Paris": 4977,
      "gráfica": 4978,
      "Cer": 4979,
      "iz": 4980,
      "dura": 4981,
      "reali": 4982,
      "ácio": 4983,
      "bia": 4984,
      "poeta": 4985,
      "Gal": 4986,
      "dina": 4987,
      "saúde": 4988,
      "Gru": 4989,
      "europe": 4990,
      "cura": 4991,
      "condições": 4992,
      "alter": 4993,
      "Constitu": 4994,
      "militares": 4995,
      "novas": 4996,
      "lico": 4997,
      "reuni": 4998,
      "1998": 4999,
      "hia": 5000,
      "tei": 5001,
      "rido": 5002,
      "sio": 5003,
      "apesar": 5004,
      "tt": 5005,
      "cap": 5006,
      "Demografia": 5007,
      "jam": 5008,
      "dessa": 5009,
      "Costa": 5010,
      "gão": 5011,
      "viética": 5012,
      "séculos": 5013,
      "superfí": 5014,
      "estrang": 5015,
      "feita": 5016,
      "tima": 5017,
      "terial": 5018,
      "anex": 5019,
      "cula": 5020,
      "ww": 5021,
      "sucesso": 5022,
      "Rússia": 5023,
      "referi": 5024,
      "formações": 5025,
      "possuem": 5026,
      "Câmara": 5027,
      "arque": 5028,
      "ES": 5029,
      "lugares": 5030,
      "ual": 5031,
      "damente": 5032,
      "inaugu": 5033,
      "pírito": 5034,
      "anças": 5035,
      "ed": 5036,
      "velo": 5037,
      "sentido": 5038,
      "tradicional": 5039,
      "1930": 5040,
      "trabalha": 5041,
      "pontos": 5042,
      "estilo": 5043,
      "consegui": 5044,
      "técni": 5045,
      "capacidade": 5046,
      "ws": 5047,
      "sofre": 5048,
      "incluem": 5049,
      "guel": 5050,
      "põ": 5051,
      "quar": 5052,
      "nes": 5053,
      "enos": 5054,
      "novos": 5055,
      "2019": 5056,
      "leo": 5057,
      "sociais": 5058,
      "Mart": 5059,
      "tian": 5060,
      "Agos": 5061,
      "tradição": 5062,
      "Depois": 5063,
      "gência": 5064,
      "industri": 5065,
      "bate": 5066,
      "criada": 5067,
      "levou": 5068,
      "Desde": 5069,
      "estuda": 5070,
      "atividades": 5071,
      "Alguns": 5072,
      "Ara": 5073,
      "our": 5074,
      "teratura": 5075,
      "semelha": 5076,
      "bastante": 5077,
      "organiza": 5078,
      "meses": 5079,
      "fol": 5080,
      "extra": 5081,
      "ígen": 5082,
      "embleia": 5083,
      "titude": 5084,
      "políticas": 5085,
      "tino": 5086,
      "ídos": 5087,
      "gara": 5088,
      "jogador": 5089,
      "Jesus": 5090,
      "hidro": 5091,
      "mentação": 5092,
      "adores": 5093,
      "ami": 5094,
      "ceito": 5095,
      "tú": 5096,
      "nça": 5097,
      "pequena": 5098,
      "quantidade": 5099,
      "osofia": 5100,
      "problemas": 5101,
      "termin": 5102,
      "assum": 5103,
      "primeiras": 5104,
      "destru": 5105,
      "tadores": 5106,
      "1997": 5107,
      "estavam": 5108,
      "viz": 5109,
      "atividade": 5110,
      "ricas": 5111,
      "Conselho": 5112,
      "media": 5113,
      "turas": 5114,
      "deci": 5115,
      "ônica": 5116,
      "idência": 5117,
      "jos": 5118,
      "aumento": 5119,
      "quele": 5120,
      "CO": 5121,
      "Era": 5122,
      "comb": 5123,
      "sta": 5124,
      "ória": 5125,
      "sicos": 5126,
      "imb": 5127,
      "recebeu": 5128,
      "36": 5129,
      "descre": 5130,
      "Men": 5131,
      "Social": 5132,
      "taxa": 5133,
      "teiro": 5134,
      "vídu": 5135,
      "IV": 5136,
      "anal": 5137,
      "Federal": 5138,
      "taram": 5139,
      "mulheres": 5140,
      "momento": 5141,
      "1996": 5142,
      "Atl": 5143,
      "2015": 5144,
      "%;": 5145,
      "escola": 5146,
      "zer": 5147,
      "diu": 5148,
      "viam": 5149,
      "missão": 5150,
      "Res": 5151,
      "ly": 5152,
      "zon": 5153,
      "dispu": 5154,
      "Ce": 5155,
      "educação": 5156,
      "Polí": 5157,
      "lago": 5158,
      "trica": 5159,
      "tio": 5160,
      "chu": 5161,
      "reti": 5162,
      "tero": 5163,
      "ware": 5164,
      "2017": 5165,
      "empresas": 5166,
      "interpre": 5167,
      "última": 5168,
      "Ana": 5169,
      "ãs": 5170,
      "sequência": 5171,
      "metade": 5172,
      "domínio": 5173,
      "Augu": 5174,
      "filóso": 5175,
      "indivídu": 5176,
      "².": 5177,
      "serem": 5178,
      "Henrique": 5179,
      "legisla": 5180,
      "ixa": 5181,
      "ficos": 5182,
      "2016": 5183,
      "decis": 5184,
      "catego": 5185,
      "rinho": 5186,
      "zam": 5187,
      "superfície": 5188,
      "especial": 5189,
      "direitos": 5190,
      "cinema": 5191,
      "Presidente": 5192,
      "ade": 5193,
      "vir": 5194,
      "Índia": 5195,
      "remo": 5196,
      "naturais": 5197,
      "Miguel": 5198,
      "eventos": 5199,
      "êmio": 5200,
      "Parque": 5201,
      "permiti": 5202,
      "agricultura": 5203,
      "artes": 5204,
      "forme": 5205,
      "física": 5206,
      "gora": 5207,
      "Hi": 5208,
      "sto": 5209,
      "37": 5210,
      "infe": 5211,
      "ceram": 5212,
      "visi": 5213,
      "aten": 5214,
      "bair": 5215,
      "fes": 5216,
      "continua": 5217,
      "influen": 5218,
      "instala": 5219,
      "Mil": 5220,
      "hum": 5221,
      "pá": 5222,
      "propor": 5223,
      "estar": 5224,
      "peonato": 5225,
      "udo": 5226,
      "suces": 5227,
      "dual": 5228,
      "1994": 5229,
      "isa": 5230,
      "invas": 5231,
      "atingi": 5232,
      "soli": 5233,
      "acredita": 5234,
      "conceito": 5235,
      "maneira": 5236,
      "lamento": 5237,
      "dista": 5238,
      "humanos": 5239,
      "Vil": 5240,
      "responsável": 5241,
      "algo": 5242,
      "expres": 5243,
      "ong": 5244,
      "hab": 5245,
      "estudos": 5246,
      "filme": 5247,
      "issão": 5248,
      "dal": 5249,
      "eleições": 5250,
      "diretor": 5251,
      "jornalista": 5252,
      "Bre": 5253,
      "Hu": 5254,
      "deram": 5255,
      "altura": 5256,
      "unca": 5257,
      "empresa": 5258,
      "nidade": 5259,
      "objetivo": 5260,
      "vador": 5261,
      "clima": 5262,
      "1995": 5263,
      "normal": 5264,
      "97": 5265,
      "Clube": 5266,
      "Ame": 5267,
      "Fernando": 5268,
      "gios": 5269,
      "Papa": 5270,
      "berto": 5271,
      "2018": 5272,
      "1993": 5273,
      "indica": 5274,
      "eração": 5275,
      "Mais": 5276,
      "prática": 5277,
      "escolas": 5278,
      "liam": 5279,
      "profis": 5280,
      "neste": 5281,
      "landês": 5282,
      "cru": 5283,
      "tale": 5284,
      "especí": 5285,
      "exer": 5286,
      "essas": 5287,
      "clube": 5288,
      "jogo": 5289,
      "pot": 5290,
      "bos": 5291,
      "fru": 5292,
      "inh": 5293,
      "guer": 5294,
      "onais": 5295,
      "desi": 5296,
      "teca": 5297,
      "len": 5298,
      "Bas": 5299,
      "civil": 5300,
      "pital": 5301,
      "lim": 5302,
      "material": 5303,
      "fonte": 5304,
      "chega": 5305,
      "crá": 5306,
      "romano": 5307,
      "1989": 5308,
      "cá": 5309,
      "dres": 5310,
      "ingles": 5311,
      "Mer": 5312,
      "cuja": 5313,
      "líder": 5314,
      "partido": 5315,
      "acei": 5316,
      "tária": 5317,
      "Central": 5318,
      "criado": 5319,
      "zando": 5320,
      "visita": 5321,
      "acima": 5322,
      "caracteri": 5323,
      "escal": 5324,
      "álise": 5325,
      "(\"": 5326,
      "recursos": 5327,
      "Seu": 5328,
      "çar": 5329,
      "oce": 5330,
      "cicl": 5331,
      "conhecidos": 5332,
      "Cristo": 5333,
      "licos": 5334,
      "eladas": 5335,
      "usu": 5336,
      "gênio": 5337,
      "agens": 5338,
      "nomes": 5339,
      "etc": 5340,
      "plantas": 5341,
      "ara": 5342,
      "ato": 5343,
      "considerada": 5344,
      "ung": 5345,
      "ára": 5346,
      "plas": 5347,
      "itos": 5348,
      "gando": 5349,
      "ue": 5350,
      "ncipe": 5351,
      "romana": 5352,
      "planeta": 5353,
      "1992": 5354,
      "russo": 5355,
      "âmica": 5356,
      "Antônio": 5357,
      "XVIII": 5358,
      "pô": 5359,
      "inação": 5360,
      "gráfico": 5361,
      "vens": 5362,
      "ardo": 5363,
      "Quinta": 5364,
      "Real": 5365,
      "Ros": 5366,
      "lema": 5367,
      "44": 5368,
      "portanto": 5369,
      "Bahia": 5370,
      "sam": 5371,
      "Revolução": 5372,
      "Liv": 5373,
      "diminu": 5374,
      "Fili": 5375,
      "mação": 5376,
      "símb": 5377,
      "línguas": 5378,
      "trá": 5379,
      "agre": 5380,
      "últimos": 5381,
      "lé": 5382,
      "Geral": 5383,
      "Novo": 5384,
      "pesquisa": 5385,
      "Mes": 5386,
      "nº": 5387,
      "alo": 5388,
      "menta": 5389,
      "chegou": 5390,
      "ólogo": 5391,
      "baixo": 5392,
      "oli": 5393,
      "rigi": 5394,
      "Mel": 5395,
      "Bel": 5396,
      "bun": 5397,
      "liga": 5398,
      "ios": 5399,
      "nunca": 5400,
      "Região": 5401,
      "Gr": 5402,
      "tador": 5403,
      "cade": 5404,
      "filhos": 5405,
      "Ang": 5406,
      "New": 5407,
      "Já": 5408,
      "vá": 5409,
      "ísmo": 5410,
      "Freguesia": 5411,
      "tida": 5412,
      "Char": 5413,
      "tropas": 5414,
      "William": 5415,
      "Jorge": 5416,
      "Pu": 5417,
      "Aus": 5418,
      "tempos": 5419,
      "posteriormente": 5420,
      "38": 5421,
      "riamente": 5422,
      "49": 5423,
      "ps": 5424,
      "casos": 5425,
      "ântico": 5426,
      "defen": 5427,
      "cros": 5428,
      "ames": 5429,
      "PIB": 5430,
      "venção": 5431,
      "Fl": 5432,
      "dendo": 5433,
      "ambiente": 5434,
      "ajuda": 5435,
      "anas": 5436,
      "direção": 5437,
      "extinta": 5438,
      "AR": 5439,
      "ização": 5440,
      "arca": 5441,
      "manu": 5442,
      "US": 5443,
      "indígen": 5444,
      "Sch": 5445,
      "Copa": 5446,
      "toneladas": 5447,
      "núcleo": 5448,
      "Sh": 5449,
      "Antigas": 5450,
      "fá": 5451,
      "2020": 5452,
      "Domin": 5453,
      "Jú": 5454,
      "cabe": 5455,
      "46": 5456,
      "nave": 5457,
      "físico": 5458,
      ".\"": 5459,
      "setor": 5460,
      "pis": 5461,
      "fosse": 5462,
      "32": 5463,
      "gro": 5464,
      "povos": 5465,
      "ficada": 5466,
      "músico": 5467,
      "psi": 5468,
      "pequeno": 5469,
      "lis": 5470,
      "assina": 5471,
      "perto": 5472,
      "radi": 5473,
      "musi": 5474,
      "regime": 5475,
      "antigos": 5476,
      "comunidade": 5477,
      "ys": 5478,
      "Nações": 5479,
      "equ": 5480,
      "medida": 5481,
      "estruturas": 5482,
      "bilh": 5483,
      "econômica": 5484,
      "Sob": 5485,
      "75": 5486,
      "profess": 5487,
      "|-": 5488,
      "automo": 5489,
      "Lin": 5490,
      "mentais": 5491,
      "gias": 5492,
      "Essa": 5493,
      "relativamente": 5494,
      "argent": 5495,
      "fícios": 5496,
      "britânica": 5497,
      "Pri": 5498,
      "dre": 5499,
      "vege": 5500,
      "agrí": 5501,
      "ambos": 5502,
      "interesse": 5503,
      "179": 5504,
      "1940": 5505,
      "48": 5506,
      "sicas": 5507,
      "portugueses": 5508,
      "OS": 5509,
      "ya": 5510,
      "divisão": 5511,
      "Bal": 5512,
      "ideia": 5513,
      "pessoa": 5514,
      "taman": 5515,
      "nado": 5516,
      "Organ": 5517,
      "sete": 5518,
      "sus": 5519,
      "Lista": 5520,
      "dada": 5521,
      "aspec": 5522,
      "funções": 5523,
      "Ponte": 5524,
      "1945": 5525,
      "Assembleia": 5526,
      "68": 5527,
      "lias": 5528,
      "portes": 5529,
      "coro": 5530,
      "nças": 5531,
      "multi": 5532,
      "acadê": 5533,
      "espécie": 5534,
      "territo": 5535,
      "cargo": 5536,
      "Soviética": 5537,
      "compara": 5538,
      "cê": 5539,
      "mado": 5540,
      "conserva": 5541,
      "Primeira": 5542,
      "Alexand": 5543,
      "frente": 5544,
      "província": 5545,
      "agora": 5546,
      "lidera": 5547,
      "políticos": 5548,
      "tável": 5549,
      "registada": 5550,
      "pole": 5551,
      "transporte": 5552,
      "calendário": 5553,
      "pt": 5554,
      "casas": 5555,
      "1985": 5556,
      "âmbi": 5557,
      "autori": 5558,
      "tornando": 5559,
      "fronteira": 5560,
      "cau": 5561,
      "Castro": 5562,
      "denominada": 5563,
      "dí": 5564,
      "costu": 5565,
      "Ali": 5566,
      "mora": 5567,
      "cias": 5568,
      "demons": 5569,
      "America": 5570,
      "reino": 5571,
      "Medi": 5572,
      "diplo": 5573,
      "tus": 5574,
      "registra": 5575,
      "situação": 5576,
      "AN": 5577,
      "Oliv": 5578,
      "vita": 5579,
      "primi": 5580,
      "mês": 5581,
      "vid": 5582,
      "polita": 5583,
      "cum": 5584,
      "):": 5585,
      "xico": 5586,
      "argu": 5587,
      "rael": 5588,
      "1920": 5589,
      "olí": 5590,
      "riedade": 5591,
      "humana": 5592,
      "Gar": 5593,
      "unidade": 5594,
      "general": 5595,
      "humano": 5596,
      "judeus": 5597,
      "Minas": 5598,
      "Governo": 5599,
      "zonas": 5600,
      "peito": 5601,
      "competi": 5602,
      "qualidade": 5603,
      "nucle": 5604,
      "Vol": 5605,
      "vidas": 5606,
      "Ferreira": 5607,
      "ocupação": 5608,
      "cris": 5609,
      "dedi": 5610,
      "frequentemente": 5611,
      "automobi": 5612,
      "postas": 5613,
      "zados": 5614,
      "1988": 5615,
      "bril": 5616,
      "elemento": 5617,
      "mãe": 5618,
      "Tratado": 5619,
      "áticas": 5620,
      "edição": 5621,
      "resol": 5622,
      "membro": 5623,
      "solo": 5624,
      "Salvador": 5625,
      "cujo": 5626,
      "mãos": 5627,
      "composta": 5628,
      "sidades": 5629,
      "respec": 5630,
      "vando": 5631,
      "suge": 5632,
      "leis": 5633,
      "guai": 5634,
      "contem": 5635,
      "revel": 5636,
      "montan": 5637,
      "tornar": 5638,
      "Edu": 5639,
      "tant": 5640,
      "didos": 5641,
      "picos": 5642,
      "43": 5643,
      "eia": 5644,
      "Isso": 5645,
      "utilizado": 5646,
      "$$": 5647,
      "âmbito": 5648,
      "mag": 5649,
      "tic": 5650,
      "abor": 5651,
      "NU": 5652,
      "formado": 5653,
      "patri": 5654,
      "francesa": 5655,
      "moderna": 5656,
      "ocor": 5657,
      "1974": 5658,
      "homen": 5659,
      "dando": 5660,
      "comporta": 5661,
      "culdade": 5662,
      "tude": 5663,
      "bou": 5664,
      "existi": 5665,
      "riano": 5666,
      "econó": 5667,
      "íram": 5668,
      "empen": 5669,
      "óis": 5670,
      "vadas": 5671,
      "bispo": 5672,
      "recu": 5673,
      "panhia": 5674,
      "ulares": 5675,
      "poderia": 5676,
      "téria": 5677,
      "cund": 5678,
      "classe": 5679,
      "próximo": 5680,
      "suce": 5681,
      "Sebas": 5682,
      "nesta": 5683,
      "1982": 5684,
      "imbra": 5685,
      "décadas": 5686,
      "ks": 5687,
      "into": 5688,
      "visto": 5689,
      "filosofia": 5690,
      "//": 5691,
      "Cidade": 5692,
      "disti": 5693,
      "BN": 5694,
      "gh": 5695,
      "deles": 5696,
      "conver": 5697,
      "Grupo": 5698,
      "gás": 5699,
      "bum": 5700,
      "unidades": 5701,
      "Cata": 5702,
      "chefe": 5703,
      "palavras": 5704,
      "rás": 5705,
      "one": 5706,
      "Dist": 5707,
      "Hol": 5708,
      "by": 5709,
      "Guil": 5710,
      "Londres": 5711,
      "ritos": 5712,
      "federa": 5713,
      "azul": 5714,
      "ínas": 5715,
      "fontes": 5716,
      "Oliveira": 5717,
      "Har": 5718,
      "efe": 5719,
      "essen": 5720,
      "ica": 5721,
      "meados": 5722,
      "ventos": 5723,
      "Existem": 5724,
      "und": 5725,
      "trí": 5726,
      "internacionais": 5727,
      "rol": 5728,
      "dir": 5729,
      "Argent": 5730,
      "rápi": 5731,
      "ídas": 5732,
      "ânico": 5733,
      "Ka": 5734,
      "figura": 5735,
      "1981": 5736,
      "trou": 5737,
      "organismos": 5738,
      "Trans": 5739,
      "47": 5740,
      "zu": 5741,
      "Geografia": 5742,
      "Tur": 5743,
      "abando": 5744,
      "Portugues": 5745,
      "Vas": 5746,
      "mann": 5747,
      "Média": 5748,
      "1979": 5749,
      "vados": 5750,
      "provo": 5751,
      "divis": 5752,
      "pintor": 5753,
      "58": 5754,
      "Ger": 5755,
      "números": 5756,
      "Den": 5757,
      "plement": 5758,
      "33": 5759,
      "inclui": 5760,
      "Isa": 5761,
      "novamente": 5762,
      "ftware": 5763,
      "avi": 5764,
      "ró": 5765,
      "gam": 5766,
      "Fin": 5767,
      "semana": 5768,
      "química": 5769,
      "referência": 5770,
      "digo": 5771,
      "paz": 5772,
      "Ita": 5773,
      "Ur": 5774,
      "ocorreu": 5775,
      "instituições": 5776,
      "Econo": 5777,
      "esquer": 5778,
      "haria": 5779,
      "verde": 5780,
      "carre": 5781,
      "PS": 5782,
      "oito": 5783,
      "dela": 5784,
      "usada": 5785,
      "histórico": 5786,
      "padrão": 5787,
      "cesa": 5788,
      "1975": 5789,
      "linhas": 5790,
      "FA": 5791,
      "enten": 5792,
      "Universi": 5793,
      "gramas": 5794,
      "1986": 5795,
      "Agosto": 5796,
      "web": 5797,
      "Frei": 5798,
      "disse": 5799,
      "encontram": 5800,
      "Idade": 5801,
      "serviço": 5802,
      "Cla": 5803,
      "tações": 5804,
      "japonês": 5805,
      "bres": 5806,
      "culares": 5807,
      "vari": 5808,
      "56": 5809,
      "Sim": 5810,
      "Mat": 5811,
      "oro": 5812,
      "ligação": 5813,
      "Ab": 5814,
      "imigra": 5815,
      "ampla": 5816,
      "Pla": 5817,
      "conclu": 5818,
      "autor": 5819,
      "://": 5820,
      "VI": 5821,
      "informação": 5822,
      "imagem": 5823,
      "profissi": 5824,
      "Pas": 5825,
      "Saúde": 5826,
      "econômico": 5827,
      "composto": 5828,
      "reais": 5829,
      "perce": 5830,
      "htt": 5831,
      "afe": 5832,
      "tuais": 5833,
      "posições": 5834,
      "literatura": 5835,
      "Ob": 5836,
      "rapi": 5837,
      "bras": 5838,
      "independente": 5839,
      "efeito": 5840,
      "reno": 5841,
      "plano": 5842,
      "gina": 5843,
      "ji": 5844,
      "estação": 5845,
      "ciclo": 5846,
      "campos": 5847,
      "funciona": 5848,
      "linguagem": 5849,
      "hão": 5850,
      "ky": 5851,
      "vios": 5852,
      "oficiais": 5853,
      "objetos": 5854,
      "versário": 5855,
      "aparece": 5856,
      "jei": 5857,
      "deiras": 5858,
      "exporta": 5859,
      "Ribeira": 5860,
      "processos": 5861,
      "tamanho": 5862,
      "original": 5863,
      "mito": 5864,
      "envi": 5865,
      "acom": 5866,
      "femin": 5867,
      "oxi": 5868,
      "ISBN": 5869,
      "velocidade": 5870,
      "178": 5871,
      "colas": 5872,
      "XVI": 5873,
      "Mou": 5874,
      "dências": 5875,
      "hores": 5876,
      "segurança": 5877,
      "médico": 5878,
      "vê": 5879,
      "cracia": 5880,
      "localidade": 5881,
      "oficialmente": 5882,
      "nero": 5883,
      "von": 5884,
      "águas": 5885,
      "propriedade": 5886,
      "filósofo": 5887,
      "âncias": 5888,
      "Bru": 5889,
      "exto": 5890,
      "escrita": 5891,
      "sou": 5892,
      "nais": 5893,
      "culturais": 5894,
      "amente": 5895,
      "lização": 5896,
      "Coimbra": 5897,
      "bert": 5898,
      "adap": 5899,
      "Europeia": 5900,
      "contr": 5901,
      "Tal": 5902,
      "ema": 5903,
      "1983": 5904,
      "escreveu": 5905,
      "bilhões": 5906,
      "ún": 5907,
      "industrial": 5908,
      "lares": 5909,
      "pros": 5910,
      "tiça": 5911,
      "espi": 5912,
      "ico": 5913,
      "Carval": 5914,
      "comunicação": 5915,
      "CA": 5916,
      "tiveram": 5917,
      "descen": 5918,
      "atmos": 5919,
      "Sistema": 5920,
      "aqui": 5921,
      "feira": 5922,
      "mentar": 5923,
      "valores": 5924,
      "dele": 5925,
      "porâne": 5926,
      "México": 5927,
      "busca": 5928,
      "escravos": 5929,
      "Cl": 5930,
      "caval": 5931,
      "magn": 5932,
      "normalmente": 5933,
      "53": 5934,
      "blo": 5935,
      "Espírito": 5936,
      "ideias": 5937,
      "ardim": 5938,
      "vidos": 5939,
      "mida": 5940,
      "seguir": 5941,
      "algum": 5942,
      "1976": 5943,
      "rações": 5944,
      "partí": 5945,
      "Congresso": 5946,
      "regra": 5947,
      "Brasileiro": 5948,
      "tecnologia": 5949,
      "Va": 5950,
      "compreen": 5951,
      "Ainda": 5952,
      "sue": 5953,
      "Var": 5954,
      "çul": 5955,
      "comuns": 5956,
      "ológico": 5957,
      "razão": 5958,
      "sust": 5959,
      "peças": 5960,
      "vai": 5961,
      "inastia": 5962,
      "Educação": 5963,
      "nico": 5964,
      "Cultural": 5965,
      "çulma": 5966,
      "houve": 5967,
      "don": 5968,
      "vitória": 5969,
      "passado": 5970,
      "arquitetura": 5971,
      "tron": 5972,
      "juntamente": 5973,
      "sona": 5974,
      "tróleo": 5975,
      "cele": 5976,
      "terceiro": 5977,
      "Gerais": 5978,
      "bé": 5979,
      "ocidental": 5980,
      "exclu": 5981,
      "metal": 5982,
      "Argentina": 5983,
      "romanos": 5984,
      "Sebasti": 5985,
      "provavelmente": 5986,
      "ncial": 5987,
      "Dez": 5988,
      "Arqui": 5989,
      "Demo": 5990,
      "musical": 5991,
      "públicas": 5992,
      "eio": 5993,
      "Está": 5994,
      "secre": 5995,
      "Fonte": 5996,
      "gica": 5997,
      "mba": 5998,
      "Mundo": 5999,
      "dice": 6000,
      "ans": 6001,
      "livros": 6002,
      "formal": 6003,
      "evolução": 6004,
      "Ste": 6005,
      "dimento": 6006,
      "Cés": 6007,
      "sele": 6008,
      "pico": 6009,
      "1984": 6010,
      "territórios": 6011,
      "cidente": 6012,
      "demonstra": 6013,
      "Sam": 6014,
      "Cató": 6015,
      "ington": 6016,
      "ficiente": 6017,
      "ocas": 6018,
      "devem": 6019,
      "mbu": 6020,
      "PC": 6021,
      "favor": 6022,
      "estraté": 6023,
      "jogos": 6024,
      "istão": 6025,
      "Gui": 6026,
      "estival": 6027,
      "administração": 6028,
      "radas": 6029,
      "micro": 6030,
      "manifesta": 6031,
      "atores": 6032,
      "alia": 6033,
      "Julho": 6034,
      "pers": 6035,
      "ticamente": 6036,
      "poten": 6037,
      "Robert": 6038,
      "descobri": 6039,
      "Jean": 6040,
      "automobilista": 6041,
      "Bis": 6042,
      "1978": 6043,
      "iago": 6044,
      "comercial": 6045,
      "análise": 6046,
      "noi": 6047,
      "identes": 6048,
      "Verde": 6049,
      "gueira": 6050,
      "ológica": 6051,
      "baixa": 6052,
      "cy": 6053,
      "eda": 6054,
      "produto": 6055,
      "publicado": 6056,
      "gor": 6057,
      "demais": 6058,
      "necess": 6059,
      "rec": 6060,
      "quial": 6061,
      "istério": 6062,
      "candida": 6063,
      "54": 6064,
      "espera": 6065,
      "tz": 6066,
      "Romano": 6067,
      "informações": 6068,
      "usados": 6069,
      "ustria": 6070,
      "inspi": 6071,
      "...": 6072,
      "UN": 6073,
      "Maio": 6074,
      "1987": 6075,
      "Wi": 6076,
      "escu": 6077,
      "sobrevi": 6078,
      "liberdade": 6079,
      "1973": 6080,
      "manter": 6081,
      "ôno": 6082,
      "volucion": 6083,
      "religiosa": 6084,
      "localizado": 6085,
      "expressão": 6086,
      "europeus": 6087,
      "César": 6088,
      "34": 6089,
      "ará": 6090,
      "carbo": 6091,
      "Unidas": 6092,
      "Matriz": 6093,
      "wn": 6094,
      "armas": 6095,
      "álbum": 6096,
      "quei": 6097,
      "passando": 6098,
      "movimentos": 6099,
      "core": 6100,
      "reinado": 6101,
      "timo": 6102,
      "Jose": 6103,
      "cili": 6104,
      "neo": 6105,
      "David": 6106,
      "Hit": 6107,
      "desempen": 6108,
      "muçulma": 6109,
      "perman": 6110,
      "abaixo": 6111,
      "500": 6112,
      "ilus": 6113,
      "Rodri": 6114,
      "fundamental": 6115,
      "propriedades": 6116,
      "extensão": 6117,
      "sejam": 6118,
      "municipal": 6119,
      "urbana": 6120,
      "abran": 6121,
      "fundada": 6122,
      "Bibliografia": 6123,
      "ash": 6124,
      "1900": 6125,
      "estrelas": 6126,
      "horas": 6127,
      "Chris": 6128,
      "batalha": 6129,
      "terres": 6130,
      "Catarina": 6131,
      "decreto": 6132,
      "aram": 6133,
      "assin": 6134,
      "distin": 6135,
      "Ilha": 6136,
      "Jus": 6137,
      "istros": 6138,
      "tianismo": 6139,
      "Abril": 6140,
      "ff": 6141,
      "ill": 6142,
      "diretamente": 6143,
      "unha": 6144,
      "Coreia": 6145,
      "alguma": 6146,
      "hol": 6147,
      "madas": 6148,
      "branco": 6149,
      "expansão": 6150,
      "67": 6151,
      "ristas": 6152,
      "põe": 6153,
      "igual": 6154,
      "indivi": 6155,
      "Entretanto": 6156,
      "aç": 6157,
      "realizado": 6158,
      "pp": 6159,
      "lação": 6160,
      "diante": 6161,
      "Conde": 6162,
      "equipe": 6163,
      "Cou": 6164,
      "Ásia": 6165,
      "câ": 6166,
      "destes": 6167,
      "governador": 6168,
      "Vo": 6169,
      "mudança": 6170,
      "reser": 6171,
      "filha": 6172,
      "pequenas": 6173,
      "tres": 6174,
      "carta": 6175,
      "herme": 6176,
      "reconhe": 6177,
      "máxi": 6178,
      "eroporto": 6179,
      "99": 6180,
      "1964": 6181,
      "Sí": 6182,
      "andes": 6183,
      "desses": 6184,
      "Dis": 6185,
      "ascen": 6186,
      "culturas": 6187,
      "cologia": 6188,
      "povoação": 6189,
      "%),": 6190,
      "Eles": 6191,
      "Organização": 6192,
      "crise": 6193,
      "Futebol": 6194,
      "vice": 6195,
      "menores": 6196,
      "defesa": 6197,
      "alemã": 6198,
      "princípio": 6199,
      "luta": 6200,
      "vale": 6201,
      "conflito": 6202,
      "Gol": 6203,
      "criar": 6204,
      "orias": 6205,
      "caminho": 6206,
      "meno": 6207,
      "Ani": 6208,
      "antigas": 6209,
      "permite": 6210,
      "Sousa": 6211,
      "Sebastião": 6212,
      "roman": 6213,
      "falta": 6214,
      "1962": 6215,
      "Az": 6216,
      "idos": 6217,
      "redes": 6218,
      "facto": 6219,
      "Campo": 6220,
      "crianças": 6221,
      "cará": 6222,
      "historiador": 6223,
      "envolvimento": 6224,
      "Áustria": 6225,
      "altitude": 6226,
      "%.": 6227,
      "edu": 6228,
      "litos": 6229,
      "1969": 6230,
      "Constituição": 6231,
      "dito": 6232,
      "reito": 6233,
      "contrário": 6234,
      "\")": 6235,
      "petróleo": 6236,
      "obri": 6237,
      "protesta": 6238,
      "peão": 6239,
      "amos": 6240,
      "orient": 6241,
      "realizada": 6242,
      "ork": 6243,
      "trabalhos": 6244,
      "Praia": 6245,
      "ric": 6246,
      "vias": 6247,
      "fazem": 6248,
      "Tho": 6249,
      "Porém": 6250,
      "fazendo": 6251,
      "ec": 6252,
      "letra": 6253,
      "conhecidas": 6254,
      "Augusto": 6255,
      "Rus": 6256,
      "solar": 6257,
      "descoberta": 6258,
      "Atualmente": 6259,
      "texto": 6260,
      "médio": 6261,
      "Gré": 6262,
      "ds": 6263,
      "portivo": 6264,
      "Junho": 6265,
      "categoria": 6266,
      "preci": 6267,
      "construída": 6268,
      "Gre": 6269,
      "ílias": 6270,
      "Sab": 6271,
      "preser": 6272,
      "prepara": 6273,
      "James": 6274,
      "reto": 6275,
      "ges": 6276,
      "Campeonato": 6277,
      "are": 6278,
      "tradicionais": 6279,
      "bul": 6280,
      "roquial": 6281,
      "ramente": 6282,
      "Estes": 6283,
      "Aç": 6284,
      "entrada": 6285,
      "ane": 6286,
      "estí": 6287,
      "neu": 6288,
      "irmão": 6289,
      "será": 6290,
      "matéria": 6291,
      "dividido": 6292,
      "IN": 6293,
      "liano": 6294,
      "primento": 6295,
      "cópi": 6296,
      "operação": 6297,
      "cores": 6298,
      "nimo": 6299,
      "xas": 6300,
      "caop": 6301,
      "respeito": 6302,
      "ficial": 6303,
      "método": 6304,
      "150": 6305,
      "57": 6306,
      "”,": 6307,
      "turismo": 6308,
      "tenção": 6309,
      "Il": 6310,
      "defin": 6311,
      "sobretudo": 6312,
      "51": 6313,
      "conseguiu": 6314,
      "tema": 6315,
      "restri": 6316,
      "explica": 6317,
      "Guilherme": 6318,
      "assu": 6319,
      "DE": 6320,
      "mata": 6321,
      "olos": 6322,
      "Ve": 6323,
      "ião": 6324,
      "aldeia": 6325,
      "destaque": 6326,
      "avan": 6327,
      "1967": 6328,
      "Outubro": 6329,
      "Huma": 6330,
      "iné": 6331,
      "sovi": 6332,
      "usando": 6333,
      "funcion": 6334,
      "escolh": 6335,
      "1971": 6336,
      "problema": 6337,
      "isas": 6338,
      "chamados": 6339,
      "Rich": 6340,
      "tanha": 6341,
      "teriais": 6342,
      "semi": 6343,
      "seguida": 6344,
      "cações": 6345,
      "compon": 6346,
      "Comuni": 6347,
      "mudanças": 6348,
      "gó": 6349,
      "íns": 6350,
      "subst": 6351,
      "ônico": 6352,
      "George": 6353,
      "grafo": 6354,
      "Ag": 6355,
      "nambu": 6356,
      "adqui": 6357,
      "apoia": 6358,
      "ala": 6359,
      "longa": 6360,
      "fenô": 6361,
      "berg": 6362,
      "177": 6363,
      "perial": 6364,
      "equipa": 6365,
      "turo": 6366,
      "grejas": 6367,
      "XVII": 6368,
      "Grécia": 6369,
      "Jer": 6370,
      "comando": 6371,
      "níveis": 6372,
      "Esse": 6373,
      "semelhante": 6374,
      "suí": 6375,
      "religioso": 6376,
      "Charles": 6377,
      "fór": 6378,
      "urban": 6379,
      "quilô": 6380,
      "Ocidental": 6381,
      "dam": 6382,
      "rez": 6383,
      "Atlântico": 6384,
      "Pereira": 6385,
      "pecu": 6386,
      "populares": 6387,
      "tidos": 6388,
      "nações": 6389,
      "Portuguesa": 6390,
      "abora": 6391,
      "secund": 6392,
      "dirigi": 6393,
      "canadense": 6394,
      "áticos": 6395,
      "profun": 6396,
      "iva": 6397,
      "tens": 6398,
      "1951": 6399,
      "dependência": 6400,
      "Ela": 6401,
      "modi": 6402,
      "continente": 6403,
      "Gonç": 6404,
      "gel": 6405,
      "line": 6406,
      "1968": 6407,
      "filmes": 6408,
      "Enquanto": 6409,
      "ínsula": 6410,
      "Até": 6411,
      "gí": 6412,
      "”.": 6413,
      "arre": 6414,
      "sau": 6415,
      "eletr": 6416,
      "1944": 6417,
      "Tro": 6418,
      "distância": 6419,
      "Flo": 6420,
      "Vis": 6421,
      "capita": 6422,
      "efeitos": 6423,
      "dora": 6424,
      "constituição": 6425,
      "objeto": 6426,
      "rapidamente": 6427,
      "Del": 6428,
      "esfor": 6429,
      "contexto": 6430,
      "ficados": 6431,
      "famílias": 6432,
      "escala": 6433,
      "chas": 6434,
      "Liber": 6435,
      "cânica": 6436,
      "quês": 6437,
      "Grã": 6438,
      "52": 6439,
      "midade": 6440,
      "evento": 6441,
      "tein": 6442,
      "veri": 6443,
      "históricos": 6444,
      "ides": 6445,
      "terr": 6446,
      "definição": 6447,
      "lógica": 6448,
      "começaram": 6449,
      "captura": 6450,
      "elec": 6451,
      "Arte": 6452,
      "ét": 6453,
      "questão": 6454,
      "liza": 6455,
      "vermelho": 6456,
      "1977": 6457,
      "esquerda": 6458,
      "oposição": 6459,
      "compro": 6460,
      "Leo": 6461,
      "Católica": 6462,
      "inhas": 6463,
      "ultra": 6464,
      "1961": 6465,
      "ctor": 6466,
      "íba": 6467,
      "Vicente": 6468,
      "introduzi": 6469,
      "Hitler": 6470,
      "localizada": 6471,
      "sexu": 6472,
      "ântica": 6473,
      "agregada": 6474,
      "professor": 6475,
      "Egi": 6476,
      "Gil": 6477,
      "logos": 6478,
      "Ind": 6479,
      "ude": 6480,
      "plant": 6481,
      "cristãos": 6482,
      "participação": 6483,
      "Jac": 6484,
      "capela": 6485,
      "amea": 6486,
      "Branco": 6487,
      "imedia": 6488,
      "ev": 6489,
      "dicos": 6490,
      "Fundação": 6491,
      "oteca": 6492,
      "nios": 6493,
      "1972": 6494,
      "absolu": 6495,
      "1936": 6496,
      "mbo": 6497,
      "elevada": 6498,
      "veni": 6499,
      "pensamento": 6500,
      "matemático": 6501,
      "contemporâne": 6502,
      "éticos": 6503,
      "taria": 6504,
      "bido": 6505,
      "pessoal": 6506,
      "Política": 6507,
      "seres": 6508,
      "nomeado": 6509,
      "1939": 6510,
      "ológicos": 6511,
      "fabe": 6512,
      "argentino": 6513,
      "manti": 6514,
      "sui": 6515,
      "televisão": 6516,
      "42": 6517,
      "tese": 6518,
      "1963": 6519,
      "Sub": 6520,
      "Torre": 6521,
      "formada": 6522,
      "alemães": 6523,
      "sivamente": 6524,
      "tratado": 6525,
      "molé": 6526,
      "unos": 6527,
      "Natura": 6528,
      "meios": 6529,
      "diferente": 6530,
      "Senhor": 6531,
      "Outras": 6532,
      "mática": 6533,
      "66": 6534,
      "bene": 6535,
      "caça": 6536,
      "1965": 6537,
      "Carta": 6538,
      "deixou": 6539,
      "ok": 6540,
      "tindo": 6541,
      "Nobel": 6542,
      "od": 6543,
      "liter": 6544,
      "invasão": 6545,
      "Economia": 6546,
      "altera": 6547,
      "passaram": 6548,
      "indígenas": 6549,
      "Feira": 6550,
      "talidade": 6551,
      "materiais": 6552,
      "concei": 6553,
      "98": 6554,
      "químico": 6555,
      "Alexandre": 6556,
      "ava": 6557,
      "trata": 6558,
      "nobre": 6559,
      "lide": 6560,
      "1966": 6561,
      "Thomas": 6562,
      "1918": 6563,
      "evolu": 6564,
      "contém": 6565,
      "bens": 6566,
      "ína": 6567,
      "1941": 6568,
      "neer": 6569,
      "Brasileira": 6570,
      "bairro": 6571,
      "gente": 6572,
      "RA": 6573,
      "campanha": 6574,
      "Exército": 6575,
      "clí": 6576,
      "tismo": 6577,
      "culto": 6578,
      "bac": 6579,
      "Che": 6580,
      "inse": 6581,
      "inva": 6582,
      "Prêmio": 6583,
      "tir": 6584,
      "difí": 6585,
      "doutri": 6586,
      "hal": 6587,
      "lândia": 6588,
      "Vitória": 6589,
      "crítica": 6590,
      "difi": 6591,
      "nega": 6592,
      "usar": 6593,
      "Administra": 6594,
      "ferências": 6595,
      "rainha": 6596,
      "partida": 6597,
      "brasileiros": 6598,
      "aju": 6599,
      "ld": 6600,
      "ward": 6601,
      "sivo": 6602,
      "triz": 6603,
      "Países": 6604,
      "necessidade": 6605,
      "interna": 6606,
      "fundação": 6607,
      "composição": 6608,
      "software": 6609,
      "sangue": 6610,
      "vino": 6611,
      "âng": 6612,
      "pequenos": 6613,
      "Bor": 6614,
      "Almei": 6615,
      "destaca": 6616,
      "EE": 6617,
      "cober": 6618,
      "inferior": 6619,
      "Cri": 6620,
      "Nu": 6621,
      "dol": 6622,
      "necessário": 6623,
      "distribuição": 6624,
      "vidade": 6625,
      "mete": 6626,
      "bara": 6627,
      "aria": 6628,
      "diam": 6629,
      "confir": 6630,
      "lome": 6631,
      "Concei": 6632,
      "mexi": 6633,
      "rel": 6634,
      "rele": 6635,
      "ísticos": 6636,
      "1948": 6637,
      "acabou": 6638,
      "Dezembro": 6639,
      "garo": 6640,
      "térias": 6641,
      "litoral": 6642,
      "pedra": 6643,
      "posa": 6644,
      "sagra": 6645,
      "hu": 6646,
      "estões": 6647,
      "inicialmente": 6648,
      "citos": 6649,
      "nterior": 6650,
      "1933": 6651,
      "incorpo": 6652,
      "compostos": 6653,
      "mante": 6654,
      "Estra": 6655,
      "fabrica": 6656,
      "alterna": 6657,
      "Braga": 6658,
      "artistas": 6659,
      "Beira": 6660,
      "queda": 6661,
      "cruz": 6662,
      "latim": 6663,
      "resultados": 6664,
      "comerciais": 6665,
      "Ku": 6666,
      "prata": 6667,
      "memória": 6668,
      "iniciou": 6669,
      "indivíduos": 6670,
      "símbolo": 6671,
      "GE": 6672,
      "TV": 6673,
      "UA": 6674,
      "pesca": 6675,
      "poucos": 6676,
      "floresta": 6677,
      "Lat": 6678,
      "dólares": 6679,
      "gãos": 6680,
      "1958": 6681,
      "Bio": 6682,
      "emo": 6683,
      "corrente": 6684,
      "empresário": 6685,
      "idio": 6686,
      "técnicas": 6687,
      "Pan": 6688,
      "cál": 6689,
      "sant": 6690,
      "Ferro": 6691,
      "Israel": 6692,
      "Ox": 6693,
      "gênero": 6694,
      "processa": 6695,
      "quilômetros": 6696,
      "Neste": 6697,
      "ben": 6698,
      "Jogos": 6699,
      "mono": 6700,
      "terceira": 6701,
      "obser": 6702,
      "didas": 6703,
      "presentes": 6704,
      "determin": 6705,
      "Filipe": 6706,
      "Egito": 6707,
      "%,": 6708,
      "atle": 6709,
      "certo": 6710,
      "Dar": 6711,
      "Dou": 6712,
      "Sar": 6713,
      "Algumas": 6714,
      "veio": 6715,
      "Alto": 6716,
      "Vir": 6717,
      "foto": 6718,
      "públicos": 6719,
      "íbli": 6720,
      "cidas": 6721,
      "1946": 6722,
      "Mili": 6723,
      "construído": 6724,
      "morreu": 6725,
      "Joaqu": 6726,
      "deiro": 6727,
      "resposta": 6728,
      "ford": 6729,
      "unidense": 6730,
      "infra": 6731,
      "tis": 6732,
      "dese": 6733,
      "AD": 6734,
      "rino": 6735,
      "gradu": 6736,
      "Bro": 6737,
      "Mc": 6738,
      "enças": 6739,
      "lados": 6740,
      "Muitos": 6741,
      "dãos": 6742,
      "né": 6743,
      "enor": 6744,
      "prí": 6745,
      "Setembro": 6746,
      "pósi": 6747,
      "pin": 6748,
      "tantes": 6749,
      "Poli": 6750,
      "1943": 6751,
      "Hel": 6752,
      "hel": 6753,
      "dessas": 6754,
      "resistência": 6755,
      "advo": 6756,
      "madeira": 6757,
      "dição": 6758,
      "escrito": 6759,
      "extrema": 6760,
      "homenagem": 6761,
      "criou": 6762,
      "americanos": 6763,
      "capaz": 6764,
      "riz": 6765,
      "líqui": 6766,
      "tornaram": 6767,
      "polis": 6768,
      "procu": 6769,
      "Sociedade": 6770,
      "encontrar": 6771,
      "celebra": 6772,
      "2022": 6773,
      "disco": 6774,
      "1959": 6775,
      "planta": 6776,
      "tentativa": 6777,
      "sel": 6778,
      "sive": 6779,
      "tenista": 6780,
      "Bur": 6781,
      "1911": 6782,
      "nascimento": 6783,
      "nenhum": 6784,
      "bunal": 6785,
      "politana": 6786,
      "nesse": 6787,
      "íb": 6788,
      "prov": 6789,
      "formando": 6790,
      "jovens": 6791,
      "ker": 6792,
      "tua": 6793,
      "autores": 6794,
      "estima": 6795,
      "estadual": 6796,
      "ataque": 6797,
      "raram": 6798,
      "impa": 6799,
      "Desenvolvimento": 6800,
      "exterior": 6801,
      "dispon": 6802,
      "landa": 6803,
      "tropi": 6804,
      "chado": 6805,
      "1942": 6806,
      "pôs": 6807,
      "Gen": 6808,
      "óxi": 6809,
      "vais": 6810,
      "acompanha": 6811,
      "teatro": 6812,
      "estrela": 6813,
      "termina": 6814,
      "Festa": 6815,
      "we": 6816,
      "desenvolveu": 6817,
      "máqu": 6818,
      "ted": 6819,
      "comportamento": 6820,
      "41": 6821,
      "Hos": 6822,
      "topo": 6823,
      "inicial": 6824,
      "código": 6825,
      "cabeça": 6826,
      "jul": 6827,
      "conju": 6828,
      "fix": 6829,
      "filos": 6830,
      "Cabo": 6831,
      "Vene": 6832,
      "seca": 6833,
      "prima": 6834,
      "celular": 6835,
      "apresentam": 6836,
      "Popular": 6837,
      "ciclista": 6838,
      "espal": 6839,
      "95": 6840,
      "Espa": 6841,
      "íssi": 6842,
      "bru": 6843,
      "reduzi": 6844,
      "Capi": 6845,
      "Leon": 6846,
      "drama": 6847,
      "Cant": 6848,
      "1947": 6849,
      "austra": 6850,
      "ílio": 6851,
      "nego": 6852,
      "consumo": 6853,
      "Junta": 6854,
      "monar": 6855,
      "AC": 6856,
      ".)": 6857,
      "proto": 6858,
      "tribu": 6859,
      "guitar": 6860,
      "design": 6861,
      "88": 6862,
      "Anto": 6863,
      "Plan": 6864,
      "formam": 6865,
      "jovem": 6866,
      "Palácio": 6867,
      "uí": 6868,
      "Ál": 6869,
      "enfre": 6870,
      "Oce": 6871,
      "fundado": 6872,
      "austrí": 6873,
      "adá": 6874,
      "surgiu": 6875,
      "realidade": 6876,
      "casamento": 6877,
      "partamento": 6878,
      "atraves": 6879,
      "ati": 6880,
      "hipó": 6881,
      "Lar": 6882,
      "Ilhas": 6883,
      "Gi": 6884,
      "Ke": 6885,
      "Geo": 6886,
      "cú": 6887,
      "tratamento": 6888,
      "impres": 6889,
      "Civil": 6890,
      "teó": 6891,
      "fiz": 6892,
      "ficando": 6893,
      "computador": 6894,
      "Sta": 6895,
      "Paran": 6896,
      "1938": 6897,
      "07": 6898,
      "Wash": 6899,
      "partilha": 6900,
      "grega": 6901,
      "Isto": 6902,
      "partículas": 6903,
      "teis": 6904,
      "guarda": 6905,
      "aspectos": 6906,
      "esca": 6907,
      "produzir": 6908,
      "fusão": 6909,
      "ânio": 6910,
      "proi": 6911,
      "persona": 6912,
      "colonial": 6913,
      "árabe": 6914,
      "win": 6915,
      "reta": 6916,
      "1932": 6917,
      "diversidade": 6918,
      "armaz": 6919,
      "apren": 6920,
      "alimentos": 6921,
      "1949": 6922,
      "André": 6923,
      "71": 6924,
      "guar": 6925,
      "variedade": 6926,
      "posse": 6927,
      "Santiago": 6928,
      "IP": 6929,
      "Int": 6930,
      "cipl": 6931,
      "império": 6932,
      "monu": 6933,
      "soldados": 6934,
      "Solar": 6935,
      "franceses": 6936,
      "ativa": 6937,
      "ritual": 6938,
      "éis": 6939,
      "conforme": 6940,
      "implement": 6941,
      "matemática": 6942,
      "influenci": 6943,
      "ón": 6944,
      "centros": 6945,
      "Baix": 6946,
      "coisas": 6947,
      "Washington": 6948,
      "iás": 6949,
      "quete": 6950,
      "Alfre": 6951,
      "nasceu": 6952,
      "segue": 6953,
      "tradições": 6954,
      "Richard": 6955,
      "han": 6956,
      "1937": 6957,
      "rodo": 6958,
      "viagem": 6959,
      "corte": 6960,
      "Duque": 6961,
      "trabalhadores": 6962,
      "padro": 6963,
      "extin": 6964,
      "vore": 6965,
      "urgo": 6966,
      "classificação": 6967,
      "1922": 6968,
      "Faculdade": 6969,
      "dança": 6970,
      "animal": 6971,
      "Av": 6972,
      "Jor": 6973,
      "eix": 6974,
      "úr": 6975,
      "face": 6976,
      "Cada": 6977,
      "ER": 6978,
      "aves": 6979,
      "expli": 6980,
      "mortos": 6981,
      "transi": 6982,
      "melhores": 6983,
      "entos": 6984,
      "simb": 6985,
      "crescente": 6986,
      "Oriental": 6987,
      "científica": 6988,
      "atmosfera": 6989,
      "naval": 6990,
      "bora": 6991,
      "Bretanha": 6992,
      "Eduardo": 6993,
      "plu": 6994,
      "ampli": 6995,
      "edifício": 6996,
      "%)": 6997,
      "programas": 6998,
      "ganhou": 6999,
      "Teatro": 7000,
      "lançado": 7001,
      "www": 7002,
      "Uru": 7003,
      "pus": 7004,
      "unda": 7005,
      "Estas": 7006,
      "Lago": 7007,
      "princípios": 7008,
      "Isabel": 7009,
      "riais": 7010,
      "futuro": 7011,
      "judi": 7012,
      "constituído": 7013,
      "Almeida": 7014,
      "1956": 7015,
      "encontrados": 7016,
      "Pin": 7017,
      "dy": 7018,
      "Canadá": 7019,
      "rões": 7020,
      "vesse": 7021,
      "circun": 7022,
      "constante": 7023,
      "artigo": 7024,
      "golpe": 7025,
      "deres": 7026,
      "alfabe": 7027,
      "Loc": 7028,
      "moderno": 7029,
      "terminou": 7030,
      "Distrito": 7031,
      "bat": 7032,
      "inci": 7033,
      "peu": 7034,
      "Wor": 7035,
      "cismo": 7036,
      "mero": 7037,
      "passar": 7038,
      "Acade": 7039,
      "ório": 7040,
      "regional": 7041,
      "medie": 7042,
      "particularmente": 7043,
      "legal": 7044,
      "1934": 7045,
      "geração": 7046,
      "alte": 7047,
      "1914": 7048,
      "chos": 7049,
      "consum": 7050,
      "consiste": 7051,
      "Nesse": 7052,
      "delas": 7053,
      "baseada": 7054,
      "fale": 7055,
      "amor": 7056,
      "esposa": 7057,
      "navios": 7058,
      "federal": 7059,
      "feitas": 7060,
      "mistura": 7061,
      "existentes": 7062,
      "Irlanda": 7063,
      "eligi": 7064,
      "''": 7065,
      "69": 7066,
      "ID": 7067,
      "Prí": 7068,
      "civi": 7069,
      "chel": 7070,
      "rib": 7071,
      "Que": 7072,
      "vistas": 7073,
      "écia": 7074,
      "inú": 7075,
      "ciências": 7076,
      "SA": 7077,
      "ku": 7078,
      "conte": 7079,
      "votos": 7080,
      "age": 7081,
      "eleição": 7082,
      "Conceição": 7083,
      "Dias": 7084,
      "portos": 7085,
      "1926": 7086,
      "Contudo": 7087,
      "tários": 7088,
      "áu": 7089,
      "cidadãos": 7090,
      "prensa": 7091,
      "Marco": 7092,
      "Pernambu": 7093,
      "Jardim": 7094,
      "aste": 7095,
      "confi": 7096,
      "1925": 7097,
      "anual": 7098,
      "dizer": 7099,
      "papa": 7100,
      "totalmente": 7101,
      "Wal": 7102,
      "cara": 7103,
      "diferenças": 7104,
      "continuou": 7105,
      "Colo": 7106,
      "Th": 7107,
      "utilizada": 7108,
      "cológi": 7109,
      "oceano": 7110,
      "concor": 7111,
      "museu": 7112,
      "nenhuma": 7113,
      "recupera": 7114,
      "dig": 7115,
      "consequ": 7116,
      "paró": 7117,
      "preten": 7118,
      "questões": 7119,
      "vermel": 7120,
      "Peter": 7121,
      "1901": 7122,
      "elétrica": 7123,
      "técnica": 7124,
      "Kar": 7125,
      "tista": 7126,
      "digi": 7127,
      "Secre": 7128,
      "jes": 7129,
      "rock": 7130,
      "gamento": 7131,
      "discipl": 7132,
      "ácido": 7133,
      "deos": 7134,
      "doeste": 7135,
      "comanda": 7136,
      "ory": 7137,
      "emer": 7138,
      "religiosas": 7139,
      "Constant": 7140,
      "apoi": 7141,
      "europeia": 7142,
      "ms": 7143,
      "vinho": 7144,
      "simil": 7145,
      "bios": 7146,
      "Caval": 7147,
      "nordeste": 7148,
      "restau": 7149,
      "lite": 7150,
      "terá": 7151,
      "Ministério": 7152,
      "cô": 7153,
      "quela": 7154,
      "aqueles": 7155,
      "ficações": 7156,
      "Devido": 7157,
      "religiões": 7158,
      "Metro": 7159,
      "limites": 7160,
      "Sha": 7161,
      "pto": 7162,
      "Est": 7163,
      "ganha": 7164,
      "próprios": 7165,
      "1917": 7166,
      "adamente": 7167,
      "1957": 7168,
      "dge": 7169,
      "class": 7170,
      "Cruzeiro": 7171,
      "acadêmico": 7172,
      "respectivamente": 7173,
      "flo": 7174,
      "camada": 7175,
      "proce": 7176,
      "Companhia": 7177,
      "volume": 7178,
      "partidos": 7179,
      "exploração": 7180,
      "nis": 7181,
      "polon": 7182,
      "direita": 7183,
      "Oriente": 7184,
      "engenheiro": 7185,
      "Religi": 7186,
      "nciou": 7187,
      "carreira": 7188,
      "centemente": 7189,
      "mônio": 7190,
      "inclusive": 7191,
      "fins": 7192,
      "haviam": 7193,
      "autoridade": 7194,
      "cta": 7195,
      "sent": 7196,
      "cora": 7197,
      "troca": 7198,
      "métodos": 7199,
      "cão": 7200,
      "emora": 7201,
      "comprimento": 7202,
      "atuais": 7203,
      "computadores": 7204,
      "],": 7205,
      "entrou": 7206,
      "Pesso": 7207,
      "vindo": 7208,
      "Povo": 7209,
      "Joaquim": 7210,
      "Ai": 7211,
      "Ko": 7212,
      "revista": 7213,
      "Nordeste": 7214,
      "tional": 7215,
      "itas": 7216,
      "grau": 7217,
      "assem": 7218,
      "Frank": 7219,
      "ológicas": 7220,
      "eixo": 7221,
      "1910": 7222,
      "expul": 7223,
      "procura": 7224,
      "1928": 7225,
      "gança": 7226,
      "Artes": 7227,
      "1929": 7228,
      "Mus": 7229,
      "anar": 7230,
      "milhares": 7231,
      "ízes": 7232,
      "textos": 7233,
      "doenças": 7234,
      "bida": 7235,
      "admi": 7236,
      "temperaturas": 7237,
      "Açores": 7238,
      "Cro": 7239,
      "tava": 7240,
      "Gas": 7241,
      "Via": 7242,
      "top": 7243,
      "nomia": 7244,
      "fogo": 7245,
      "()": 7246,
      "nias": 7247,
      "1954": 7248,
      "59": 7249,
      "ciano": 7250,
      "bibli": 7251,
      "trias": 7252,
      "histórica": 7253,
      "pobre": 7254,
      "nização": 7255,
      "color": 7256,
      "Academia": 7257,
      "Sy": 7258,
      "fatores": 7259,
      "ensa": 7260,
      "culação": 7261,
      "considerados": 7262,
      "projetos": 7263,
      "instituição": 7264,
      "Nú": 7265,
      "ferra": 7266,
      "renda": 7267,
      "naz": 7268,
      "encontrado": 7269,
      "Cli": 7270,
      "Ki": 7271,
      "Públi": 7272,
      "igrejas": 7273,
      "nove": 7274,
      "cher": 7275,
      "mensa": 7276,
      "gir": 7277,
      "Estu": 7278,
      "chegar": 7279,
      "300": 7280,
      "Ior": 7281,
      "finais": 7282,
      "áto": 7283,
      "ntou": 7284,
      "experiência": 7285,
      "Dr": 7286,
      "1953": 7287,
      "polo": 7288,
      "rural": 7289,
      "frag": 7290,
      "Press": 7291,
      "Cali": 7292,
      "Lam": 7293,
      "xes": 7294,
      "teorias": 7295,
      "1955": 7296,
      "elim": 7297,
      "ney": 7298,
      "consul": 7299,
      "obs": 7300,
      "Praça": 7301,
      "revolucion": 7302,
      "1935": 7303,
      "elabora": 7304,
      "documentos": 7305,
      "Lan": 7306,
      "XXI": 7307,
      "pont": 7308,
      "táveis": 7309,
      "Festival": 7310,
      "pat": 7311,
      "taleza": 7312,
      "çam": 7313,
      "divul": 7314,
      "tronomia": 7315,
      "Março": 7316,
      "ped": 7317,
      "inar": 7318,
      "conven": 7319,
      "verão": 7320,
      "honra": 7321,
      "1864": 7322,
      "Paraná": 7323,
      "formou": 7324,
      "célula": 7325,
      "lâ": 7326,
      "él": 7327,
      "1924": 7328,
      "anteriores": 7329,
      "xim": 7330,
      "1919": 7331,
      "Luz": 7332,
      "IA": 7333,
      "Tr": 7334,
      "nicos": 7335,
      "1890": 7336,
      "garant": 7337,
      "http": 7338,
      "Bat": 7339,
      "revolução": 7340,
      "Suécia": 7341,
      "Mis": 7342,
      "égio": 7343,
      "adul": 7344,
      "tânico": 7345,
      "comunidades": 7346,
      "união": 7347,
      "tér": 7348,
      "construir": 7349,
      "proteínas": 7350,
      "quarto": 7351,
      "açú": 7352,
      "pira": 7353,
      "sustent": 7354,
      "onda": 7355,
      "destas": 7356,
      "Editora": 7357,
      "SP": 7358,
      "proxi": 7359,
      "urbano": 7360,
      "derrota": 7361,
      "estrangeiros": 7362,
      "MA": 7363,
      "mista": 7364,
      "xá": 7365,
      "yer": 7366,
      "trons": 7367,
      "Boa": 7368,
      "equival": 7369,
      "organizações": 7370,
      "estem": 7371,
      "77": 7372,
      "Cel": 7373,
      "obter": 7374,
      "Barcel": 7375,
      "dinheiro": 7376,
      "doença": 7377,
      "ânicas": 7378,
      "divisões": 7379,
      "invent": 7380,
      "gadas": 7381,
      "160": 7382,
      "membra": 7383,
      "noite": 7384,
      "Histó": 7385,
      "ches": 7386,
      "lím": 7387,
      "Micha": 7388,
      "fundador": 7389,
      "Dio": 7390,
      "Novembro": 7391,
      "Guarda": 7392,
      "transferi": 7393,
      "Tom": 7394,
      "estrada": 7395,
      "associ": 7396,
      "refle": 7397,
      "Hospital": 7398,
      "Trabal": 7399,
      "mandato": 7400,
      "arro": 7401,
      "ore": 7402,
      "çando": 7403,
      "Federa": 7404,
      "Castela": 7405,
      "Dina": 7406,
      "atrás": 7407,
      "diferença": 7408,
      "situada": 7409,
      "niano": 7410,
      "espec": 7411,
      "1927": 7412,
      "completamente": 7413,
      "imigrantes": 7414,
      "difícil": 7415,
      "compra": 7416,
      "vera": 7417,
      "acaba": 7418,
      "situa": 7419,
      "possibilidade": 7420,
      "\"),": 7421,
      "ânicos": 7422,
      "deias": 7423,
      "praticamente": 7424,
      "sho": 7425,
      "Paz": 7426,
      "campeão": 7427,
      "Português": 7428,
      "tinho": 7429,
      "reação": 7430,
      "rotei": 7431,
      "umin": 7432,
      "Outro": 7433,
      "clássica": 7434,
      "procla": 7435,
      "uns": 7436,
      "finalmente": 7437,
      "1931": 7438,
      "anato": 7439,
      "tério": 7440,
      "Parlamento": 7441,
      "Paraíba": 7442,
      "Internet": 7443,
      "University": 7444,
      "gno": 7445,
      "república": 7446,
      "residência": 7447,
      "hada": 7448,
      "reiros": 7449,
      "poderes": 7450,
      "Dani": 7451,
      "Tim": 7452,
      "nologia": 7453,
      "destacam": 7454,
      "gráficas": 7455,
      "Glo": 7456,
      "espanhola": 7457,
      "educa": 7458,
      "Ac": 7459,
      "Mem": 7460,
      "redo": 7461,
      "rebel": 7462,
      "deslo": 7463,
      "rosa": 7464,
      "províncias": 7465,
      "dominante": 7466,
      "Carvalho": 7467,
      "Joseph": 7468,
      "78": 7469,
      "Bol": 7470,
      "Lima": 7471,
      "1952": 7472,
      "populações": 7473,
      "Bus": 7474,
      "gon": 7475,
      "esia": 7476,
      "clusão": 7477,
      "Miran": 7478,
      "significado": 7479,
      "Pó": 7480,
      "coração": 7481,
      "faixa": 7482,
      "íam": 7483,
      "decisão": 7484,
      "reformas": 7485,
      "moda": 7486,
      "anteriormente": 7487,
      "regras": 7488,
      "Militar": 7489,
      "Douro": 7490,
      "EN": 7491,
      "Elei": 7492,
      "passagem": 7493,
      "Henri": 7494,
      "negó": 7495,
      "católicos": 7496,
      "moléculas": 7497,
      "fla": 7498,
      "sabe": 7499,
      "corpos": 7500,
      "religiosos": 7501,
      "63": 7502,
      "tística": 7503,
      "trico": 7504,
      "Johan": 7505,
      "conceitos": 7506,
      "marí": 7507,
      "Pou": 7508,
      "redor": 7509,
      "nau": 7510,
      "my": 7511,
      "noroeste": 7512,
      "Iorque": 7513,
      "Ol": 7514,
      "gico": 7515,
      "Campos": 7516,
      "órgãos": 7517,
      "duzir": 7518,
      "ny": 7519,
      "imagens": 7520,
      "istia": 7521,
      "burgo": 7522,
      "Martinho": 7523,
      "epi": 7524,
      "expedi": 7525,
      "roso": 7526,
      "milhão": 7527,
      "Bento": 7528,
      "IC": 7529,
      "margem": 7530,
      "possibili": 7531,
      "mus": 7532,
      "fiel": 7533,
      "entretanto": 7534,
      "1923": 7535,
      "solução": 7536,
      "Príncipe": 7537,
      "altas": 7538,
      "assinado": 7539,
      "meros": 7540,
      "deo": 7541,
      "resto": 7542,
      "Comun": 7543,
      "clássico": 7544,
      "carbono": 7545,
      "ameaça": 7546,
      "Pernambuco": 7547,
      "king": 7548,
      "erre": 7549,
      "riado": 7550,
      "alizada": 7551,
      "Todos": 7552,
      "ght": 7553,
      "yle": 7554,
      "CD": 7555,
      "Pena": 7556,
      "Comissão": 7557,
      "britânicos": 7558,
      "Vasco": 7559,
      "príncipe": 7560,
      "fós": 7561,
      "endas": 7562,
      "consequência": 7563,
      "dividida": 7564,
      "Michael": 7565,
      "Oeste": 7566,
      "tto": 7567,
      "sado": 7568,
      "bai": 7569,
      "ncio": 7570,
      "práticas": 7571,
      "Município": 7572,
      "agrícola": 7573,
      "120": 7574,
      "levando": 7575,
      "ricamente": 7576,
      "comemora": 7577,
      "viária": 7578,
      "propa": 7579,
      "recom": 7580,
      "predomin": 7581,
      "meia": 7582,
      "global": 7583,
      "caráter": 7584,
      "absor": 7585,
      "açúcar": 7586,
      "líderes": 7587,
      "dentre": 7588,
      "Maior": 7589,
      "infant": 7590,
      "ústrias": 7591,
      "rita": 7592,
      "emis": 7593,
      "viu": 7594,
      "correntes": 7595,
      "constitui": 7596,
      "1º": 7597,
      "Mário": 7598,
      "pun": 7599,
      "mascul": 7600,
      "denominado": 7601,
      "estígios": 7602,
      "terrâne": 7603,
      "Fra": 7604,
      "Mul": 7605,
      "encer": 7606,
      "seriam": 7607,
      "bomb": 7608,
      "Ciências": 7609,
      "Ribeiro": 7610,
      "Ze": 7611,
      "afas": 7612,
      "elevado": 7613,
      "Alberto": 7614,
      "Desambi": 7615,
      "utilizados": 7616,
      "Roberto": 7617,
      "classes": 7618,
      "Bla": 7619,
      "suficiente": 7620,
      "enses": 7621,
      "ônias": 7622,
      "som": 7623,
      "carne": 7624,
      "exemplos": 7625,
      "constituída": 7626,
      "aplicação": 7627,
      "Eventos": 7628,
      "escritos": 7629,
      "deveria": 7630,
      "Baixos": 7631,
      "perda": 7632,
      "ficaram": 7633,
      "estabeleceu": 7634,
      "Primeiro": 7635,
      "aces": 7636,
      "mbia": 7637,
      "austríaco": 7638,
      "dinastia": 7639,
      "chegada": 7640,
      "libera": 7641,
      "62": 7642,
      "Olím": 7643,
      "zas": 7644,
      "nutri": 7645,
      "apa": 7646,
      "uras": 7647,
      "regular": 7648,
      "órgão": 7649,
      "ambas": 7650,
      "aboli": 7651,
      "apli": 7652,
      "transmi": 7653,
      "potencial": 7654,
      "Pré": 7655,
      "gy": 7656,
      "destina": 7657,
      "intelec": 7658,
      "1921": 7659,
      "Engen": 7660,
      "bom": 7661,
      "emprego": 7662,
      "Bras": 7663,
      "hei": 7664,
      "temente": 7665,
      "TA": 7666,
      "rência": 7667,
      "nicas": 7668,
      "Espe": 7669,
      "abs": 7670,
      "melhora": 7671,
      "Constantino": 7672,
      "Fol": 7673,
      "Lín": 7674,
      "recor": 7675,
      "estatu": 7676,
      "certos": 7677,
      "venida": 7678,
      "baseado": 7679,
      "povoado": 7680,
      "ordena": 7681,
      "Velha": 7682,
      "hando": 7683,
      "alunos": 7684,
      "ances": 7685,
      "cui": 7686,
      "edifícios": 7687,
      "depu": 7688,
      "dimen": 7689,
      "siona": 7690,
      "Sac": 7691,
      "preside": 7692,
      "actual": 7693,
      "concentração": 7694,
      "deuses": 7695,
      "evitar": 7696,
      "realizar": 7697,
      "Cur": 7698,
      "condição": 7699,
      "semanas": 7700,
      "aé": 7701,
      "sobera": 7702,
      "Gomes": 7703,
      "republi": 7704,
      "peça": 7705,
      "atis": 7706,
      "culdades": 7707,
      "calor": 7708,
      "máticas": 7709,
      "advogado": 7710,
      "teles": 7711,
      "característica": 7712,
      "risco": 7713,
      "medidas": 7714,
      "fizeram": 7715,
      "rejei": 7716,
      "cionado": 7717,
      "Hou": 7718,
      "Esses": 7719,
      "rosso": 7720,
      "Leão": 7721,
      "representação": 7722,
      "destino": 7723,
      "fortes": 7724,
      "imperial": 7725,
      "Ph": 7726,
      "cista": 7727,
      "éticas": 7728,
      "Mato": 7729,
      "Angra": 7730,
      "utilização": 7731,
      "conflitos": 7732,
      "nuclear": 7733,
      "profissional": 7734,
      "roteirista": 7735,
      "rádio": 7736,
      "regula": 7737,
      "Angola": 7738,
      "Densidade": 7739,
      "hes": 7740,
      "Bragança": 7741,
      "vence": 7742,
      "Pel": 7743,
      "complexo": 7744,
      "SS": 7745,
      "bela": 7746,
      "vina": 7747,
      "sudoeste": 7748,
      "Bair": 7749,
      "mantém": 7750,
      "Austrá": 7751,
      "gestão": 7752,
      "hún": 7753,
      "soma": 7754,
      "próxima": 7755,
      "lida": 7756,
      "moni": 7757,
      "escritora": 7758,
      "flores": 7759,
      "agra": 7760,
      "carga": 7761,
      "certa": 7762,
      "espanhóis": 7763,
      "Fla": 7764,
      "guidade": 7765,
      "externa": 7766,
      "chegaram": 7767,
      "gregos": 7768,
      "dinamar": 7769,
      "well": 7770,
      "1912": 7771,
      "Inf": 7772,
      "Dom": 7773,
      "voltou": 7774,
      "Uruguai": 7775,
      "moto": 7776,
      "Pico": 7777,
      "proteção": 7778,
      "61": 7779,
      "inver": 7780,
      "tit": 7781,
      "Napole": 7782,
      "Marcel": 7783,
      "Pode": 7784,
      "quin": 7785,
      "fortemente": 7786,
      "títulos": 7787,
      "Rodrigues": 7788,
      "mula": 7789,
      "incent": 7790,
      "vora": 7791,
      "genera": 7792,
      "frequência": 7793,
      "crática": 7794,
      "aborda": 7795,
      "cerdo": 7796,
      "Desta": 7797,
      "leu": 7798,
      "tenham": 7799,
      "italiana": 7800,
      "manteve": 7801,
      "Austrália": 7802,
      "ek": 7803,
      "proposta": 7804,
      "Faz": 7805,
      "Aris": 7806,
      "sá": 7807,
      "altos": 7808,
      "terem": 7809,
      "IBGE": 7810,
      "cristã": 7811,
      "colh": 7812,
      "Martins": 7813,
      "Sá": 7814,
      "Van": 7815,
      "York": 7816,
      "ther": 7817,
      "comu": 7818,
      "irmã": 7819,
      "ónia": 7820,
      "Marinha": 7821,
      "conteú": 7822,
      "Estadual": 7823,
      "inglesa": 7824,
      "Hor": 7825,
      "alu": 7826,
      "gador": 7827,
      "influencia": 7828,
      "precipi": 7829,
      "Latina": 7830,
      "Tre": 7831,
      "nessa": 7832,
      "yo": 7833,
      "moeda": 7834,
      "ficam": 7835,
      "sexual": 7836,
      "cristianismo": 7837,
      "descendentes": 7838,
      "neerlandês": 7839,
      "quistas": 7840,
      "tização": 7841,
      "hado": 7842,
      "letras": 7843,
      "ficamente": 7844,
      "lhes": 7845,
      "assumiu": 7846,
      "UE": 7847,
      "esten": 7848,
      "democracia": 7849,
      "atório": 7850,
      "89": 7851,
      "trato": 7852,
      "adequ": 7853,
      "Essas": 7854,
      "Mau": 7855,
      "cles": 7856,
      "peixes": 7857,
      "indivíduo": 7858,
      "componentes": 7859,
      "Reis": 7860,
      "engenharia": 7861,
      "heiros": 7862,
      "ônicos": 7863,
      "indústrias": 7864,
      "artista": 7865,
      "Alegre": 7866,
      "domini": 7867,
      "Sin": 7868,
      "entais": 7869,
      "time": 7870,
      "ulação": 7871,
      "CP": 7872,
      "zadas": 7873,
      "famili": 7874,
      "79": 7875,
      "reci": 7876,
      "rua": 7877,
      "Nesta": 7878,
      "disposi": 7879,
      "far": 7880,
      "Paroquial": 7881,
      "chamadas": 7882,
      "usadas": 7883,
      "Palm": 7884,
      "ficadas": 7885,
      "possuía": 7886,
      "Coro": 7887,
      "filosó": 7888,
      "asta": 7889,
      "pado": 7890,
      "ntese": 7891,
      "Mari": 7892,
      "divin": 7893,
      "pélago": 7894,
      "responsa": 7895,
      "abertura": 7896,
      "sueco": 7897,
      "demi": 7898,
      "reconhecimento": 7899,
      "receber": 7900,
      "mall": 7901,
      "planí": 7902,
      "Bandeira": 7903,
      "09": 7904,
      "fundo": 7905,
      "Pá": 7906,
      "enso": 7907,
      "atenção": 7908,
      "podendo": 7909,
      "opini": 7910,
      "contato": 7911,
      "Fam": 7912,
      "Mú": 7913,
      "bon": 7914,
      "trôno": 7915,
      "limite": 7916,
      "econômicas": 7917,
      "Tribunal": 7918,
      "planetas": 7919,
      "asi": 7920,
      "antro": 7921,
      "sada": 7922,
      "Concel": 7923,
      "adquiri": 7924,
      "gelo": 7925,
      "Fevereiro": 7926,
      "licas": 7927,
      "branca": 7928,
      "amplamente": 7929,
      "cai": 7930,
      "Direito": 7931,
      "numer": 7932,
      "ataques": 7933,
      "guerras": 7934,
      "aque": 7935,
      "vér": 7936,
      "piter": 7937,
      "aliment": 7938,
      "auxi": 7939,
      "Def": 7940,
      "veí": 7941,
      "EUA": 7942,
      "ONU": 7943,
      "jar": 7944,
      "ers": 7945,
      "mudou": 7946,
      "cidentais": 7947,
      "Biblioteca": 7948,
      "Antes": 7949,
      "Aeroporto": 7950,
      "ativo": 7951,
      "mê": 7952,
      "rota": 7953,
      "Servi": 7954,
      "pica": 7955,
      "Mace": 7956,
      "gene": 7957,
      "rense": 7958,
      "ntar": 7959,
      "desemb": 7960,
      "Escó": 7961,
      "vilh": 7962,
      "biologia": 7963,
      "alizado": 7964,
      "On": 7965,
      "ramento": 7966,
      "recentemente": 7967,
      "mecânica": 7968,
      "Berlim": 7969,
      "permaneceu": 7970,
      "corresponde": 7971,
      "Jan": 7972,
      "vigor": 7973,
      "parlamento": 7974,
      "Lua": 7975,
      "agrícolas": 7976,
      "Fá": 7977,
      "conec": 7978,
      "oriental": 7979,
      "Ini": 7980,
      "ling": 7981,
      "refor": 7982,
      "lido": 7983,
      "vivos": 7984,
      "exposição": 7985,
      "Anterior": 7986,
      "odos": 7987,
      "reis": 7988,
      "planeja": 7989,
      "Dinamarca": 7990,
      "vinte": 7991,
      "tração": 7992,
      "consider": 7993,
      "controla": 7994,
      "óxido": 7995,
      "bin": 7996,
      "nota": 7997,
      "doutrina": 7998,
      "ire": 7999,
      "zant": 8000,
      "consoli": 8001,
      "famoso": 8002,
      "nê": 8003,
      "civis": 8004,
      "dimentos": 8005,
      "obrig": 8006,
      "ring": 8007,
      "capazes": 8008,
      "We": 8009,
      "ose": 8010,
      "mecan": 8011,
      "completa": 8012,
      "Ermida": 8013,
      "saté": 8014,
      "monte": 8015,
      "determinado": 8016,
      "chinês": 8017,
      "Velho": 8018,
      "desenvolvido": 8019,
      "integrado": 8020,
      "declarou": 8021,
      "Amb": 8022,
      "festas": 8023,
      "adora": 8024,
      "Independência": 8025,
      "Outra": 8026,
      "modernos": 8027,
      "semelhantes": 8028,
      "Ouro": 8029,
      "sudeste": 8030,
      "mith": 8031,
      "Sara": 8032,
      "aberto": 8033,
      "extinção": 8034,
      "exão": 8035,
      "serra": 8036,
      "aumentar": 8037,
      "inaugurado": 8038,
      "individu": 8039,
      "voa": 8040,
      "Moder": 8041,
      "Casal": 8042,
      "vírus": 8043,
      "costuma": 8044,
      "87": 8045,
      "Ira": 8046,
      "estabelecer": 8047,
      "400": 8048,
      "Ap": 8049,
      "pura": 8050,
      "Estação": 8051,
      "montanhas": 8052,
      "terrestre": 8053,
      "impacto": 8054,
      "astrôno": 8055,
      "combus": 8056,
      "situado": 8057,
      "pecuária": 8058,
      "UF": 8059,
      "small": 8060,
      "Convento": 8061,
      "geiros": 8062,
      "teira": 8063,
      "realizaram": 8064,
      "afirmou": 8065,
      "coroa": 8066,
      "Lí": 8067,
      "istos": 8068,
      "governos": 8069,
      "Rainha": 8070,
      "surgimento": 8071,
      "Hon": 8072,
      "residentes": 8073,
      "Camp": 8074,
      "responsáveis": 8075,
      "MS": 8076,
      "Norue": 8077,
      "mole": 8078,
      "wo": 8079,
      "eru": 8080,
      "cabo": 8081,
      "vivem": 8082,
      "prefeito": 8083,
      "cífico": 8084,
      "inimi": 8085,
      "Auto": 8086,
      "Escócia": 8087,
      "teu": 8088,
      "paral": 8089,
      "templo": 8090,
      "Liga": 8091,
      "ônimo": 8092,
      "Peru": 8093,
      "fossem": 8094,
      "escravi": 8095,
      "muçulmanos": 8096,
      "1916": 8097,
      "eletro": 8098,
      "minas": 8099,
      "simplesmente": 8100,
      "Guimar": 8101,
      "\").": 8102,
      "diram": 8103,
      "fante": 8104,
      "modelos": 8105,
      "enorme": 8106,
      "paul": 8107,
      "federação": 8108,
      "84": 8109,
      "Inte": 8110,
      "1915": 8111,
      "Alente": 8112,
      "feitura": 8113,
      "Hung": 8114,
      "acer": 8115,
      "estações": 8116,
      "person": 8117,
      "estende": 8118,
      "graças": 8119,
      "jurí": 8120,
      "Die": 8121,
      "espacial": 8122,
      "germ": 8123,
      "Pelo": 8124,
      "permitiu": 8125,
      "ntemente": 8126,
      "alves": 8127,
      "peso": 8128,
      "tórias": 8129,
      "Gua": 8130,
      "íbrio": 8131,
      "Oli": 8132,
      "Rela": 8133,
      "Cara": 8134,
      "Teoria": 8135,
      "liberal": 8136,
      "Oceano": 8137,
      "Brasília": 8138,
      "pilo": 8139,
      "índice": 8140,
      "Fal": 8141,
      "recente": 8142,
      "ruas": 8143,
      "guaio": 8144,
      "Tec": 8145,
      "padrões": 8146,
      "seguindo": 8147,
      "Pierre": 8148,
      "riqueza": 8149,
      "Louis": 8150,
      "Guimarães": 8151,
      "cionar": 8152,
      "sing": 8153,
      "vores": 8154,
      "chal": 8155,
      "infini": 8156,
      "limitado": 8157,
      "ancestra": 8158,
      "Wa": 8159,
      "ginas": 8160,
      "ulado": 8161,
      "Escri": 8162,
      "velas": 8163,
      "Hungria": 8164,
      "legi": 8165,
      "Maia": 8166,
      "fala": 8167,
      "europeu": 8168,
      "xad": 8169,
      "viário": 8170,
      "bandas": 8171,
      "ficiência": 8172,
      "valia": 8173,
      "Bom": 8174,
      "pesquisas": 8175,
      "competição": 8176,
      "Gonçalves": 8177,
      "Abra": 8178,
      "Júpiter": 8179,
      "Eleições": 8180,
      "ciam": 8181,
      "mir": 8182,
      "cartas": 8183,
      "universal": 8184,
      "disputa": 8185,
      "transição": 8186,
      "PE": 8187,
      "milho": 8188,
      "síntese": 8189,
      "aquele": 8190,
      "dinâmica": 8191,
      "arquiteto": 8192,
      "ritmo": 8193,
      "compa": 8194,
      "bases": 8195,
      "seguido": 8196,
      "belga": 8197,
      "próprias": 8198,
      "Sobre": 8199,
      "marin": 8200,
      "proveni": 8201,
      "fazia": 8202,
      "crítico": 8203,
      "Lau": 8204,
      "acel": 8205,
      "usam": 8206,
      "atô": 8207,
      "feros": 8208,
      "jogadores": 8209,
      "africanos": 8210,
      "Cine": 8211,
      "ctos": 8212,
      "redução": 8213,
      "exo": 8214,
      "bati": 8215,
      "florestas": 8216,
      "riados": 8217,
      "rup": 8218,
      "trabalhar": 8219,
      "Exem": 8220,
      "originalmente": 8221,
      "Banco": 8222,
      "vestígios": 8223,
      "dens": 8224,
      "traz": 8225,
      "metria": 8226,
      "períodos": 8227,
      "1895": 8228,
      "cientistas": 8229,
      "produzido": 8230,
      "Americana": 8231,
      "Pequ": 8232,
      "publicou": 8233,
      "lançamento": 8234,
      "sofreu": 8235,
      "extremamente": 8236,
      "BR": 8237,
      "daquele": 8238,
      "discu": 8239,
      "Figu": 8240,
      "Hoje": 8241,
      "dramatur": 8242,
      "podemos": 8243,
      "científico": 8244,
      "alcança": 8245,
      "suíço": 8246,
      "gíp": 8247,
      "Pl": 8248,
      "nciais": 8249,
      "conside": 8250,
      "universidades": 8251,
      "extinto": 8252,
      "instrumentos": 8253,
      "paróquia": 8254,
      "isol": 8255,
      "encar": 8256,
      "seg": 8257,
      "1913": 8258,
      "existente": 8259,
      "comerci": 8260,
      "Mosteiro": 8261,
      "enzi": 8262,
      "saber": 8263,
      "més": 8264,
      "bil": 8265,
      "dismo": 8266,
      "Avenida": 8267,
      "clubes": 8268,
      "Juan": 8269,
      "crença": 8270,
      "desenvolver": 8271,
      "1908": 8272,
      "quistão": 8273,
      "vant": 8274,
      "parla": 8275,
      "cessão": 8276,
      "Santana": 8277,
      "localização": 8278,
      "Aniversário": 8279,
      "medieval": 8280,
      "86": 8281,
      "PR": 8282,
      "Prin": 8283,
      "epis": 8284,
      "combate": 8285,
      "Windo": 8286,
      "ari": 8287,
      "imprensa": 8288,
      "publicação": 8289,
      "Fí": 8290,
      "Sau": 8291,
      "escul": 8292,
      "ensina": 8293,
      "esteve": 8294,
      "interno": 8295,
      "ud": 8296,
      "rai": 8297,
      "moral": 8298,
      "centra": 8299,
      "Suí": 8300,
      "decidiu": 8301,
      "ximos": 8302,
      "historiadores": 8303,
      "Noruega": 8304,
      "Só": 8305,
      "yn": 8306,
      "preende": 8307,
      "hite": 8308,
      "distritos": 8309,
      "turno": 8310,
      "ocorrem": 8311,
      "83": 8312,
      "ácidos": 8313,
      "viria": 8314,
      "gais": 8315,
      "Vida": 8316,
      "Smith": 8317,
      "êm": 8318,
      "roco": 8319,
      "musica": 8320,
      "Aldeia": 8321,
      "nomeadamente": 8322,
      "russa": 8323,
      "põem": 8324,
      "UR": 8325,
      "hard": 8326,
      "revolta": 8327,
      "sof": 8328,
      "cerim": 8329,
      "lançou": 8330,
      "cineasta": 8331,
      "colonização": 8332,
      "esas": 8333,
      "ux": 8334,
      "esto": 8335,
      "rena": 8336,
      "direta": 8337,
      "universidade": 8338,
      "estudantes": 8339,
      "bairros": 8340,
      "Madeira": 8341,
      "baixas": 8342,
      "operações": 8343,
      "santo": 8344,
      "170": 8345,
      "96": 8346,
      "Bíbli": 8347,
      "Maran": 8348,
      "Reci": 8349,
      "%).": 8350,
      "Ponta": 8351,
      "medicina": 8352,
      "1898": 8353,
      "Funda": 8354,
      "documento": 8355,
      "FI": 8356,
      "estando": 8357,
      "formato": 8358,
      "realização": 8359,
      "çambi": 8360,
      "impul": 8361,
      "hipótese": 8362,
      "72": 8363,
      "Sér": 8364,
      "completo": 8365,
      "Concelho": 8366,
      "DNA": 8367,
      "Tol": 8368,
      "ceiros": 8369,
      "fich": 8370,
      "Recre": 8371,
      "acum": 8372,
      "1906": 8373,
      "coleção": 8374,
      "med": 8375,
      "fronteiras": 8376,
      "justi": 8377,
      "regionais": 8378,
      "substa": 8379,
      "escrever": 8380,
      "negro": 8381,
      "Br": 8382,
      "sacerdo": 8383,
      "temas": 8384,
      "reiv": 8385,
      "Silv": 8386,
      "Hal": 8387,
      "entra": 8388,
      "profunda": 8389,
      "intra": 8390,
      "Fortaleza": 8391,
      "Wo": 8392,
      "domés": 8393,
      "Mac": 8394,
      "Paraguai": 8395,
      "Polônia": 8396,
      "rápido": 8397,
      "Comi": 8398,
      "fluxo": 8399,
      "Cuba": 8400,
      "acontece": 8401,
      "Federação": 8402,
      "Histo": 8403,
      "Max": 8404,
      "PA": 8405,
      "fatos": 8406,
      "citar": 8407,
      "cipais": 8408,
      "Programa": 8409,
      "avança": 8410,
      "hidrogênio": 8411,
      "árabes": 8412,
      "Ata": 8413,
      "ridas": 8414,
      "ret": 8415,
      "matriz": 8416,
      "Han": 8417,
      "Tan": 8418,
      "apel": 8419,
      "sivas": 8420,
      "agru": 8421,
      "designação": 8422,
      "autoridades": 8423,
      "romance": 8424,
      "peda": 8425,
      "vere": 8426,
      "Alentejo": 8427,
      "SD": 8428,
      "significativa": 8429,
      "Napoleão": 8430,
      "dg": 8431,
      "lógico": 8432,
      "rador": 8433,
      "envia": 8434,
      "voto": 8435,
      "Terceira": 8436,
      "Ceará": 8437,
      "92": 8438,
      "duras": 8439,
      "Louren": 8440,
      "Família": 8441,
      "estro": 8442,
      "tível": 8443,
      "protestantes": 8444,
      "tropical": 8445,
      "BA": 8446,
      "equil": 8447,
      "recentes": 8448,
      "habi": 8449,
      "metá": 8450,
      "contudo": 8451,
      "inteli": 8452,
      "World": 8453,
      "Bon": 8454,
      "mentas": 8455,
      "arquipélago": 8456,
      "Comunidade": 8457,
      "radio": 8458,
      "vações": 8459,
      "Mata": 8460,
      "eleitos": 8461,
      "Antiga": 8462,
      "manutenção": 8463,
      "Festas": 8464,
      "dú": 8465,
      "viver": 8466,
      "giu": 8467,
      "contras": 8468,
      "facili": 8469,
      "zuela": 8470,
      "monarquia": 8471,
      "associado": 8472,
      "GP": 8473,
      "vinha": 8474,
      "presidência": 8475,
      "eiramente": 8476,
      "espaços": 8477,
      "Lourenço": 8478,
      "Clas": 8479,
      "Pacífico": 8480,
      "Domingos": 8481,
      "inco": 8482,
      "Alves": 8483,
      "tentou": 8484,
      "Mesmo": 8485,
      "ble": 8486,
      "notas": 8487,
      "erar": 8488,
      "órdia": 8489,
      "estradas": 8490,
      "Lopes": 8491,
      "negros": 8492,
      "igualmente": 8493,
      "vizinhos": 8494,
      "Un": 8495,
      "diale": 8496,
      "mobili": 8497,
      "risto": 8498,
      "Juli": 8499,
      "1889": 8500,
      "aumentou": 8501,
      "relevo": 8502,
      "Sem": 8503,
      "cobre": 8504,
      "inverno": 8505,
      "organismo": 8506,
      "Nascimentos": 8507,
      "Cerca": 8508,
      "ingleses": 8509,
      "musicais": 8510,
      "Fé": 8511,
      "lou": 8512,
      "espor": 8513,
      "conteúdo": 8514,
      "bado": 8515,
      "arran": 8516,
      "diosos": 8517,
      "Chile": 8518,
      "LA": 8519,
      "cardo": 8520,
      "correr": 8521,
      "Henry": 8522,
      "Len": 8523,
      "ramo": 8524,
      "recei": 8525,
      "quente": 8526,
      "ourinho": 8527,
      "giga": 8528,
      "Guiné": 8529,
      "1905": 8530,
      "Windows": 8531,
      "taxas": 8532,
      "ciário": 8533,
      "Forças": 8534,
      "japonesa": 8535,
      "liderança": 8536,
      "og": 8537,
      "releva": 8538,
      "timas": 8539,
      "transformação": 8540,
      "Júlio": 8541,
      "Daniel": 8542,
      "detec": 8543,
      "ciente": 8544,
      "compartilha": 8545,
      "duque": 8546,
      "mm": 8547,
      "altamente": 8548,
      "levar": 8549,
      "impe": 8550,
      "Luiz": 8551,
      "neros": 8552,
      "nós": 8553,
      "talvez": 8554,
      "passageiros": 8555,
      "definido": 8556,
      "pintura": 8557,
      "Ren": 8558,
      "Stal": 8559,
      "uru": 8560,
      "ói": 8561,
      "marx": 8562,
      "químicos": 8563,
      "usuários": 8564,
      "ângulo": 8565,
      "Antonio": 8566,
      "egíp": 8567,
      "ril": 8568,
      "Superior": 8569,
      "73": 8570,
      "Gali": 8571,
      "Grosso": 8572,
      "élio": 8573,
      "ander": 8574,
      "gual": 8575,
      "últimas": 8576,
      "Segurança": 8577,
      "identidade": 8578,
      "Africa": 8579,
      "setores": 8580,
      "notí": 8581,
      "versões": 8582,
      "genética": 8583,
      "ônicas": 8584,
      "relacionados": 8585,
      "interpretação": 8586,
      "Póvoa": 8587,
      "sita": 8588,
      "prisão": 8589,
      "Três": 8590,
      "82": 8591,
      "timologia": 8592,
      "referir": 8593,
      "Flor": 8594,
      "independentes": 8595,
      "Venezuela": 8596,
      "rur": 8597,
      "1907": 8598,
      "Suíça": 8599,
      "vali": 8600,
      "cadeia": 8601,
      "progres": 8602,
      "mblé": 8603,
      "reiras": 8604,
      "1909": 8605,
      "figuras": 8606,
      "aplicações": 8607,
      "Ei": 8608,
      "múlti": 8609,
      "Francesa": 8610,
      "praia": 8611,
      "povoamento": 8612,
      "jeito": 8613,
      "tical": 8614,
      "lios": 8615,
      "mios": 8616,
      "terna": 8617,
      "Baixo": 8618,
      "deixando": 8619,
      "executivo": 8620,
      "surgiram": 8621,
      "Turismo": 8622,
      "violência": 8623,
      "bata": 8624,
      "Muitas": 8625,
      "artística": 8626,
      "Zona": 8627,
      "esque": 8628,
      "assegu": 8629,
      "reinos": 8630,
      "tali": 8631,
      "bactérias": 8632,
      "equilíbrio": 8633,
      "astro": 8634,
      "ordin": 8635,
      "terreno": 8636,
      "pio": 8637,
      "implant": 8638,
      "etários": 8639,
      "longe": 8640,
      "constituem": 8641,
      "verdadeira": 8642,
      "Karl": 8643,
      "Bolí": 8644,
      "cali": 8645,
      "condu": 8646,
      "realizadas": 8647,
      "temos": 8648,
      "abaste": 8649,
      "criando": 8650,
      "ntade": 8651,
      "aprovei": 8652,
      "Metropolitana": 8653,
      "Equ": 8654,
      "TP": 8655,
      "url": 8656,
      "Proje": 8657,
      "cresceu": 8658,
      "Bíblia": 8659,
      "oportu": 8660,
      "associação": 8661,
      "refu": 8662,
      "cimo": 8663,
      "tendência": 8664,
      "interesses": 8665,
      "regres": 8666,
      "próximos": 8667,
      "norue": 8668,
      "Península": 8669,
      "Frie": 8670,
      "Ul": 8671,
      "sias": 8672,
      "morf": 8673,
      "andês": 8674,
      "representam": 8675,
      "brica": 8676,
      "origens": 8677,
      "Estádio": 8678,
      "proibi": 8679,
      "Gus": 8680,
      "Gale": 8681,
      "voo": 8682,
      "Seus": 8683,
      "Ala": 8684,
      "gista": 8685,
      "nista": 8686,
      "wan": 8687,
      "arquivo": 8688,
      "levaram": 8689,
      "Leste": 8690,
      "rer": 8691,
      "possa": 8692,
      "Algar": 8693,
      "1878": 8694,
      "Filho": 8695,
      "ridi": 8696,
      "persegui": 8697,
      "Marga": 8698,
      "larga": 8699,
      "descoberto": 8700,
      "mexicano": 8701,
      "ace": 8702,
      "etano": 8703,
      "separação": 8704,
      "ocasi": 8705,
      "fecha": 8706,
      "restantes": 8707,
      "Livro": 8708,
      "Bá": 8709,
      "ondas": 8710,
      "consel": 8711,
      "Miranda": 8712,
      "meras": 8713,
      "assenta": 8714,
      "inscri": 8715,
      "pertence": 8716,
      "atingiu": 8717,
      "Gor": 8718,
      "reorganização": 8719,
      "resi": 8720,
      "assassina": 8721,
      "Marx": 8722,
      "Histórico": 8723,
      "ligações": 8724,
      "critica": 8725,
      "evidências": 8726,
      "ME": 8727,
      "big": 8728,
      "acres": 8729,
      "passo": 8730,
      "colônia": 8731,
      "bandeiras": 8732,
      "católica": 8733,
      "fenômeno": 8734,
      "raízes": 8735,
      "quistou": 8736,
      "frota": 8737,
      "cata": 8738,
      "visível": 8739,
      "tár": 8740,
      "leite": 8741,
      "1904": 8742,
      "cussão": 8743,
      "phy": 8744,
      "industria": 8745,
      "Coroa": 8746,
      "dt": 8747,
      "Movimento": 8748,
      "âncer": 8749,
      "permanente": 8750,
      "gentes": 8751,
      "una": 8752,
      "Natal": 8753,
      "árvores": 8754,
      "Recife": 8755,
      "Tele": 8756,
      "cento": 8757,
      "vismo": 8758,
      "espírito": 8759,
      "traduzi": 8760,
      "polonês": 8761,
      "74": 8762,
      "94": 8763,
      "Mira": 8764,
      "hin": 8765,
      "mesmos": 8766,
      "perspec": 8767,
      "Stu": 8768,
      "af": 8769,
      "bano": 8770,
      "recus": 8771,
      "etário": 8772,
      "Ricardo": 8773,
      "Ciência": 8774,
      "drich": 8775,
      "símbolos": 8776,
      "xemb": 8777,
      "tricas": 8778,
      "Martin": 8779,
      "Soci": 8780,
      "Torres": 8781,
      "Paulista": 8782,
      "Corte": 8783,
      "gl": 8784,
      "rituais": 8785,
      "logias": 8786,
      "impostos": 8787,
      "bola": 8788,
      "resultou": 8789,
      "peias": 8790,
      "XIII": 8791,
      "emas": 8792,
      "notável": 8793,
      "ensões": 8794,
      "fundou": 8795,
      "basquete": 8796,
      "realizou": 8797,
      "Música": 8798,
      "Supre": 8799,
      "Comunista": 8800,
      "76": 8801,
      "Econ": 8802,
      "tions": 8803,
      "licen": 8804,
      "sítio": 8805,
      "determinada": 8806,
      "extremo": 8807,
      "Arquite": 8808,
      "guia": 8809,
      "Art": 8810,
      "representantes": 8811,
      "deiros": 8812,
      "património": 8813,
      "Jerus": 8814,
      "Estrada": 8815,
      "riti": 8816,
      "alvo": 8817,
      "muda": 8818,
      "simul": 8819,
      "zip": 8820,
      "encontradas": 8821,
      "custo": 8822,
      "africana": 8823,
      "Indo": 8824,
      "Mol": 8825,
      "TE": 8826,
      "fér": 8827,
      "tidas": 8828,
      "potência": 8829,
      "vegetação": 8830,
      "1F": 8831,
      "tradução": 8832,
      "estres": 8833,
      "Ped": 8834,
      "ambiental": 8835,
      "CE": 8836,
      "Forte": 8837,
      "gr": 8838,
      "ução": 8839,
      "centenas": 8840,
      "tribos": 8841,
      "Imperador": 8842,
      "universo": 8843,
      "guitarrista": 8844,
      "cese": 8845,
      "diais": 8846,
      "Barra": 8847,
      "permitindo": 8848,
      "Germ": 8849,
      "Maranhão": 8850,
      "industriais": 8851,
      "lip": 8852,
      "usos": 8853,
      "interessa": 8854,
      "céu": 8855,
      "teiros": 8856,
      "conquistou": 8857,
      "produtores": 8858,
      "ordens": 8859,
      "radiação": 8860,
      "poderiam": 8861,
      "fornece": 8862,
      "Bairro": 8863,
      "abunda": 8864,
      "cílio": 8865,
      "Gama": 8866,
      "africano": 8867,
      "funcionamento": 8868,
      "assuntos": 8869,
      "alterações": 8870,
      "negócios": 8871,
      "filo": 8872,
      "saída": 8873,
      "margens": 8874,
      "dispo": 8875,
      "capitão": 8876,
      "monarca": 8877,
      "quantidades": 8878,
      "exceção": 8879,
      "territorio": 8880,
      "moradores": 8881,
      "ilustra": 8882,
      "idioma": 8883,
      "Cria": 8884,
      "jan": 8885,
      "haver": 8886,
      "veja": 8887,
      "obteve": 8888,
      "transmissão": 8889,
      "sinal": 8890,
      "clínio": 8891,
      "ach": 8892,
      "dedica": 8893,
      "ponte": 8894,
      "plás": 8895,
      "representado": 8896,
      "continental": 8897,
      "Água": 8898,
      "úlio": 8899,
      "entrar": 8900,
      "livres": 8901,
      "índios": 8902,
      "document": 8903,
      "introdução": 8904,
      "Aires": 8905,
      "Am": 8906,
      "ax": 8907,
      "aer": 8908,
      "ocidentais": 8909,
      "usou": 8910,
      "definida": 8911,
      "execução": 8912,
      "Possui": 8913,
      "dgterritorio": 8914,
      "asse": 8915,
      "rich": 8916,
      "aut": 8917,
      "cena": 8918,
      "2013_": 8919,
      "estabelecimento": 8920,
      "deriva": 8921,
      "caop_": 8922,
      "site": 8923,
      "folhas": 8924,
      "Dan": 8925,
      "XII": 8926,
      "naquele": 8927,
      "terro": 8928,
      "pele": 8929,
      "complement": 8930,
      "sinais": 8931,
      "isó": 8932,
      "bral": 8933,
      "Franco": 8934,
      "1903": 8935,
      "barra": 8936,
      "técnico": 8937,
      "profissionais": 8938,
      "estatuto": 8939,
      "TO": 8940,
      "acha": 8941,
      "mestre": 8942,
      "deal": 8943,
      "consciência": 8944,
      "celulares": 8945,
      "quesa": 8946,
      "timos": 8947,
      "istente": 8948,
      "derru": 8949,
      "autonomia": 8950,
      "móveis": 8951,
      "93": 8952,
      "aço": 8953,
      "afro": 8954,
      "fê": 8955,
      "imi": 8956,
      "pion": 8957,
      "Cabe": 8958,
      "artigos": 8959,
      "australiano": 8960,
      "Lá": 8961,
      "Pass": 8962,
      "camadas": 8963,
      "vivo": 8964,
      "motivo": 8965,
      "verna": 8966,
      "começo": 8967,
      "constitucional": 8968,
      "artístico": 8969,
      "associados": 8970,
      "máximo": 8971,
      "Jerusalém": 8972,
      "My": 8973,
      "cs": 8974,
      "arco": 8975,
      "sexo": 8976,
      "fias": 8977,
      "apresentou": 8978,
      "poucas": 8979,
      "Bél": 8980,
      "VII": 8981,
      "quen": 8982,
      "perdeu": 8983,
      "Guer": 8984,
      "xias": 8985,
      "Turquia": 8986,
      "Aveiro": 8987,
      "deser": 8988,
      "vontade": 8989,
      "órbita": 8990,
      "gráficos": 8991,
      "programação": 8992,
      "designada": 8993,
      "Bélgica": 8994,
      "iti": 8995,
      "consideradas": 8996,
      "fisi": 8997,
      "possíveis": 8998,
      "conservação": 8999,
      "bó": 9000,
      "quali": 9001,
      "ramos": 9002,
      "impedi": 9003,
      "style": 9004,
      "MP": 9005,
      "Pia": 9006,
      "jão": 9007,
      "Pedra": 9008,
      "designa": 9009,
      "Justiça": 9010,
      "Ens": 9011,
      "esla": 9012,
      "ligados": 9013,
      "turistas": 9014,
      "castel": 9015,
      "substâncias": 9016,
      "reo": 9017,
      "tomou": 9018,
      "estrei": 9019,
      "intervenção": 9020,
      "Viena": 9021,
      "Soares": 9022,
      "anuncia": 9023,
      "Corpo": 9024,
      "zonte": 9025,
      "domingo": 9026,
      "computação": 9027,
      "Mendes": 9028,
      "equipamentos": 9029,
      "terrâneo": 9030,
      "dramaturgo": 9031,
      "Blo": 9032,
      "tomar": 9033,
      "destruição": 9034,
      "crático": 9035,
      "Pat": 9036,
      "lum": 9037,
      "rização": 9038,
      "protes": 9039,
      "presa": 9040,
      "irmãos": 9041,
      "auxili": 9042,
      "Get": 9043,
      "massas": 9044,
      "dissol": 9045,
      "Cambri": 9046,
      "amigo": 9047,
      "Princi": 9048,
      "territorial": 9049,
      "Bár": 9050,
      "Fel": 9051,
      "quinta": 9052,
      "partid": 9053,
      "pertencente": 9054,
      "combina": 9055,
      "sugeri": 9056,
      "iano": 9057,
      "kh": 9058,
      "canos": 9059,
      "discurso": 9060,
      "Viet": 9061,
      "deixar": 9062,
      "amare": 9063,
      "essencialmente": 9064,
      "mitologia": 9065,
      "81": 9066,
      "ceria": 9067,
      "ideal": 9068,
      "chegando": 9069,
      "gases": 9070,
      "publicada": 9071,
      "estabelecido": 9072,
      "minutos": 9073,
      "possivelmente": 9074,
      "satis": 9075,
      "testem": 9076,
      "certas": 9077,
      "Michel": 9078,
      "senhor": 9079,
      "denominação": 9080,
      "produzidos": 9081,
      "War": 9082,
      "etas": 9083,
      "án": 9084,
      "fila": 9085,
      "cionada": 9086,
      "estudiosos": 9087,
      "humanidade": 9088,
      "apresentar": 9089,
      "ville": 9090,
      "ausência": 9091,
      "esforços": 9092,
      "Califór": 9093,
      "Din": 9094,
      "Opera": 9095,
      "daí": 9096,
      "alma": 9097,
      "ligada": 9098,
      "hori": 9099,
      "Machado": 9100,
      "ciações": 9101,
      "recém": 9102,
      "substância": 9103,
      "átomos": 9104,
      "responsabilidade": 9105,
      "crenças": 9106,
      "brancos": 9107,
      "secundário": 9108,
      "grado": 9109,
      "minerais": 9110,
      "Carl": 9111,
      "transferência": 9112,
      "associada": 9113,
      "hã": 9114,
      "elândia": 9115,
      "navio": 9116,
      "confro": 9117,
      "cea": 9118,
      "Vermelho": 9119,
      "críticas": 9120,
      "tecidos": 9121,
      "eirão": 9122,
      "corrida": 9123,
      "Califórnia": 9124,
      "dicas": 9125,
      "teus": 9126,
      "excel": 9127,
      "unes": 9128,
      "brasileiras": 9129,
      "Logo": 9130,
      "Médio": 9131,
      "superiores": 9132,
      "máquina": 9133,
      "Adol": 9134,
      "dever": 9135,
      "rurais": 9136,
      "vermelha": 9137,
      "tti": 9138,
      "cujos": 9139,
      "brasão": 9140,
      "brilha": 9141,
      "1836": 9142,
      "seleção": 9143,
      "Lagoa": 9144,
      "\"|": 9145,
      "RE": 9146,
      "jou": 9147,
      "chil": 9148,
      "bacia": 9149,
      "fundamentais": 9150,
      "Wiki": 9151,
      "Indus": 9152,
      "mamí": 9153,
      "doso": 9154,
      "Decreto": 9155,
      "Ami": 9156,
      "quebra": 9157,
      "nacion": 9158,
      "ones": 9159,
      "piração": 9160,
      "ísta": 9161,
      "colônias": 9162,
      "Foram": 9163,
      "Pará": 9164,
      "1855": 9165,
      "atingir": 9166,
      "zinho": 9167,
      "bió": 9168,
      "torre": 9169,
      "Colégio": 9170,
      "iniciativa": 9171,
      "comparação": 9172,
      "incenti": 9173,
      "veículos": 9174,
      "Cra": 9175,
      "zz": 9176,
      "Reforma": 9177,
      "Pomb": 9178,
      "Leg": 9179,
      "anualmente": 9180,
      "aspecto": 9181,
      "equivalente": 9182,
      "elh": 9183,
      "preocupa": 9184,
      "ixas": 9185,
      "elétrons": 9186,
      "Monu": 9187,
      "Renas": 9188,
      "sores": 9189,
      "esfera": 9190,
      "quisição": 9191,
      "XIV": 9192,
      "produziu": 9193,
      "necessária": 9194,
      "considerável": 9195,
      "ranos": 9196,
      "líquido": 9197,
      "disponíveis": 9198,
      "Fór": 9199,
      "declínio": 9200,
      "Mara": 9201,
      "deixa": 9202,
      "expedição": 9203,
      "Rosa": 9204,
      "renos": 9205,
      "diversi": 9206,
      "anunciou": 9207,
      "gerais": 9208,
      "argument": 9209,
      "aliados": 9210,
      "cções": 9211,
      "ômbia": 9212,
      "caram": 9213,
      "sedi": 9214,
      "impera": 9215,
      "municipais": 9216,
      "Regional": 9217,
      "precisa": 9218,
      "núcleos": 9219,
      "chinesa": 9220,
      "ricórdia": 9221,
      "ates": 9222,
      "cídio": 9223,
      "1896": 9224,
      "fracas": 9225,
      "Romana": 9226,
      "Colômbia": 9227,
      "jornais": 9228,
      "usuário": 9229,
      "Pela": 9230,
      "Phi": 9231,
      "Pinto": 9232,
      "avalia": 9233,
      "fel": 9234,
      "ália": 9235,
      "reconhecido": 9236,
      "ligado": 9237,
      "preto": 9238,
      "surge": 9239,
      "1891": 9240,
      "Agri": 9241,
      "infraestrutura": 9242,
      "dominical": 9243,
      "Ken": 9244,
      "iros": 9245,
      "tativa": 9246,
      "ônimos": 9247,
      "Tai": 9248,
      "escolha": 9249,
      "Cir": 9250,
      "edo": 9251,
      "nciar": 9252,
      "atas": 9253,
      "parta": 9254,
      "aliança": 9255,
      "depende": 9256,
      "utilizando": 9257,
      "Bul": 9258,
      "Área": 9259,
      "serve": 9260,
      "planos": 9261,
      "Dois": 9262,
      "Nicola": 9263,
      "agrupa": 9264,
      "\";": 9265,
      "Air": 9266,
      "suporte": 9267,
      "ganda": 9268,
      "Mary": 9269,
      "Olímpicos": 9270,
      "ofer": 9271,
      "queira": 9272,
      "credi": 9273,
      "seguiu": 9274,
      "morto": 9275,
      "apresentação": 9276,
      "realizados": 9277,
      "Amaz": 9278,
      "civilização": 9279,
      "matando": 9280,
      "provis": 9281,
      "rupção": 9282,
      "quias": 9283,
      "gere": 9284,
      "bilidades": 9285,
      "mídia": 9286,
      "câncer": 9287,
      "dônia": 9288,
      "lor": 9289,
      "doce": 9290,
      "contí": 9291,
      "çada": 9292,
      "Reg": 9293,
      "campeonato": 9294,
      "tomano": 9295,
      "reunião": 9296,
      "fenômenos": 9297,
      "pobreza": 9298,
      "91": 9299,
      "phi": 9300,
      "caiu": 9301,
      "meda": 9302,
      "parque": 9303,
      "Andra": 9304,
      "soviético": 9305,
      "similar": 9306,
      "cobri": 9307,
      "metais": 9308,
      "titudes": 9309,
      "galá": 9310,
      "circu": 9311,
      "Medicina": 9312,
      "espiritual": 9313,
      "evang": 9314,
      "Mur": 9315,
      "mistas": 9316,
      "2023": 9317,
      "prece": 9318,
      "direto": 9319,
      "anglo": 9320,
      "dimensões": 9321,
      "Branca": 9322,
      ".:": 9323,
      "Linha": 9324,
      "quicas": 9325,
      "Rock": 9326,
      "inete": 9327,
      "encontrada": 9328,
      "1870": 9329,
      "endere": 9330,
      "promover": 9331,
      "Stalin": 9332,
      "DB": 9333,
      "fator": 9334,
      "zel": 9335,
      "ãe": 9336,
      "onos": 9337,
      "Paço": 9338,
      "landesa": 9339,
      "1897": 9340,
      "próximas": 9341,
      "General": 9342,
      "Sur": 9343,
      "pação": 9344,
      "velho": 9345,
      "paisagem": 9346,
      "limitada": 9347,
      "geográfica": 9348,
      "sobreviv": 9349,
      "aristo": 9350,
      "pso": 9351,
      "repeti": 9352,
      "erro": 9353,
      "Micros": 9354,
      "1888": 9355,
      "Ministro": 9356,
      "Aten": 9357,
      "tologia": 9358,
      "ous": 9359,
      "bits": 9360,
      "implica": 9361,
      "intit": 9362,
      "Cari": 9363,
      "envolve": 9364,
      "histórias": 9365,
      "críticos": 9366,
      "ries": 9367,
      "Adri": 9368,
      "pper": 9369,
      "convo": 9370,
      "privada": 9371,
      "chen": 9372,
      "fati": 9373,
      "Rede": 9374,
      "Hori": 9375,
      "tecido": 9376,
      "Luis": 9377,
      "europeias": 9378,
      "máxima": 9379,
      "Iraque": 9380,
      "Mao": 9381,
      "Sto": 9382,
      "aí": 9383,
      "compe": 9384,
      "pobres": 9385,
      "preços": 9386,
      "Ará": 9387,
      "Existe": 9388,
      "famosa": 9389,
      "ânea": 9390,
      "imediatamente": 9391,
      "Largo": 9392,
      "membrana": 9393,
      "episó": 9394,
      "Feli": 9395,
      "Gabri": 9396,
      "bendo": 9397,
      "rculo": 9398,
      "Moçambi": 9399,
      "objetivos": 9400,
      "Bernar": 9401,
      "integração": 9402,
      "ferramentas": 9403,
      "tolome": 9404,
      "foral": 9405,
      "económica": 9406,
      "Aristó": 9407,
      "disponi": 9408,
      "600": 9409,
      "compi": 9410,
      "sivos": 9411,
      "Congo": 9412,
      "venda": 9413,
      "venceu": 9414,
      "fertili": 9415,
      "tíveis": 9416,
      "influências": 9417,
      "históricas": 9418,
      "distas": 9419,
      "olhos": 9420,
      "latino": 9421,
      "observação": 9422,
      "descrição": 9423,
      "feminino": 9424,
      "Teix": 9425,
      "lus": 9426,
      "coisa": 9427,
      "companhia": 9428,
      "onha": 9429,
      "portiva": 9430,
      "gido": 9431,
      "pedido": 9432,
      "Arth": 9433,
      "desenvolve": 9434,
      "Alfredo": 9435,
      "Pelourinho": 9436,
      "Fis": 9437,
      "câmara": 9438,
      "mari": 9439,
      "teza": 9440,
      "cultivo": 9441,
      "Tejo": 9442,
      "católico": 9443,
      "provável": 9444,
      "Belo": 9445,
      "Ev": 9446,
      "fan": 9447,
      "ls": 9448,
      "nel": 9449,
      "entro": 9450,
      "quio": 9451,
      "poesia": 9452,
      "durou": 9453,
      "nascido": 9454,
      "geno": 9455,
      "génio": 9456,
      "Pesquis": 9457,
      "alfabeto": 9458,
      "húngaro": 9459,
      "comumente": 9460,
      "</": 9461,
      "Cunha": 9462,
      "ye": 9463,
      "aconteceu": 9464,
      "precipitação": 9465,
      "Industri": 9466,
      "IX": 9467,
      "uário": 9468,
      "cario": 9469,
      "non": 9470,
      "param": 9471,
      "chan": 9472,
      "localidades": 9473,
      "Georg": 9474,
      "relacionadas": 9475,
      "Melo": 9476,
      "mulo": 9477,
      "doze": 9478,
      "tane": 9479,
      "Departamento": 9480,
      "checo": 9481,
      "Musi": 9482,
      "1902": 9483,
      "ocorrer": 9484,
      "compositora": 9485,
      "Amazonas": 9486,
      "Publi": 9487,
      "Pessoa": 9488,
      "Dentre": 9489,
      "SE": 9490,
      "ingu": 9491,
      "alizados": 9492,
      "guações": 9493,
      "estilos": 9494,
      "utilizar": 9495,
      "Fernandes": 9496,
      "Greg": 9497,
      "Mãe": 9498,
      "Oficial": 9499,
      "PP": 9500,
      "Pelé": 9501,
      "Wol": 9502,
      "tã": 9503,
      "rever": 9504,
      "compreende": 9505,
      "trigo": 9506,
      "físicos": 9507,
      "ventude": 9508,
      "descreve": 9509,
      "sexuais": 9510,
      "Mise": 9511,
      "frá": 9512,
      "rent": 9513,
      "Marte": 9514,
      "Literatura": 9515,
      "comunicações": 9516,
      "Newton": 9517,
      "suspen": 9518,
      "formalmente": 9519,
      "Desambiguações": 9520,
      "Ibé": 9521,
      "liana": 9522,
      "fotos": 9523,
      "antas": 9524,
      "contendo": 9525,
      "minal": 9526,
      "genes": 9527,
      "Roy": 9528,
      "actividade": 9529,
      "passam": 9530,
      "atleta": 9531,
      "Ram": 9532,
      "retra": 9533,
      "café": 9534,
      "registro": 9535,
      "diferencia": 9536,
      "solini": 9537,
      "ditadura": 9538,
      "Pinheiro": 9539,
      "notáveis": 9540,
      "Carac": 9541,
      "Estatística": 9542,
      "especiais": 9543,
      "econômicos": 9544,
      "emigra": 9545,
      "1894": 9546,
      "necessidades": 9547,
      "Socialista": 9548,
      "distintas": 9549,
      "rápida": 9550,
      "candidato": 9551,
      "Mussolini": 9552,
      "deusa": 9553,
      "escas": 9554,
      "economista": 9555,
      "utilizadas": 9556,
      "Estudos": 9557,
      "Andrade": 9558,
      "ônibus": 9559,
      "bordo": 9560,
      "exceto": 9561,
      "Sco": 9562,
      "ádio": 9563,
      "demanda": 9564,
      "torial": 9565,
      "sacri": 9566,
      "Alta": 9567,
      "representando": 9568,
      "democra": 9569,
      "Vargas": 9570,
      "Moçambique": 9571,
      "ucra": 9572,
      "nato": 9573,
      "propósi": 9574,
      "perfei": 9575,
      "relativa": 9576,
      "ajudar": 9577,
      "lenda": 9578,
      "ênio": 9579,
      "supera": 9580,
      "cionalmente": 9581,
      "Qui": 9582,
      "Suas": 9583,
      "variação": 9584,
      "oferece": 9585,
      "indígena": 9586,
      "dinamarquês": 9587,
      "opinião": 9588,
      "degra": 9589,
      "lig": 9590,
      "lau": 9591,
      "Padre": 9592,
      "canções": 9593,
      "Club": 9594,
      "amigos": 9595,
      "Flores": 9596,
      "Eng": 9597,
      "Tex": 9598,
      "gs": 9599,
      "jun": 9600,
      "médicos": 9601,
      "quarta": 9602,
      "analis": 9603,
      "Dé": 9604,
      "ualmente": 9605,
      "astero": 9606,
      "fortale": 9607,
      "marcada": 9608,
      "portuguesas": 9609,
      "desapare": 9610,
      "descobriu": 9611,
      "Naturais": 9612,
      "Engenharia": 9613,
      "Física": 9614,
      "Bárbara": 9615,
      "Pinh": 9616,
      "facil": 9617,
      "permitem": 9618,
      "padre": 9619,
      "status": 9620,
      "espalha": 9621,
      "reza": 9622,
      "die": 9623,
      "nativos": 9624,
      "sais": 9625,
      "cujas": 9626,
      "península": 9627,
      "tricidade": 9628,
      "internet": 9629,
      "orixá": 9630,
      "ziam": 9631,
      "Verão": 9632,
      "1899": 9633,
      "determinar": 9634,
      "Borg": 9635,
      "Far": 9636,
      "bana": 9637,
      "sepul": 9638,
      "viveu": 9639,
      "restante": 9640,
      "Goiás": 9641,
      "Leiria": 9642,
      "ficientes": 9643,
      "instrumento": 9644,
      "Edward": 9645,
      "acreditava": 9646,
      "Plu": 9647,
      "pão": 9648,
      "âmetro": 9649,
      "detal": 9650,
      "nito": 9651,
      "plata": 9652,
      "Força": 9653,
      "químicas": 9654,
      "cientista": 9655,
      "desenho": 9656,
      "facilmente": 9657,
      "camento": 9658,
      "disper": 9659,
      "escritores": 9660,
      "significativo": 9661,
      "Có": 9662,
      "Tar": 9663,
      "duração": 9664,
      "particulares": 9665,
      "socialismo": 9666,
      "circulação": 9667,
      "sucessor": 9668,
      "vitamina": 9669,
      "mamíferos": 9670,
      "cari": 9671,
      "proemin": 9672,
      "vela": 9673,
      "quilo": 9674,
      "ciedades": 9675,
      "representar": 9676,
      "Toda": 9677,
      "1801": 9678,
      "ascensão": 9679,
      "arroz": 9680,
      "Ran": 9681,
      "ot": 9682,
      "xás": 9683,
      "dirig": 9684,
      "primária": 9685,
      "cionados": 9686,
      "permanece": 9687,
      "individual": 9688,
      "ote": 9689,
      "italianos": 9690,
      "reserva": 9691,
      "Gusta": 9692,
      "tory": 9693,
      "tânica": 9694,
      "encontrou": 9695,
      "equação": 9696,
      "cumpri": 9697,
      "br": 9698,
      "aldeias": 9699,
      "Santar": 9700,
      "transporta": 9701,
      "estudar": 9702,
      "resultando": 9703,
      "abriga": 9704,
      "túr": 9705,
      "Aristóteles": 9706,
      "Ambi": 9707,
      "Ima": 9708,
      "bir": 9709,
      "orig": 9710,
      "capitalismo": 9711,
      "Legisla": 9712,
      "portar": 9713,
      "chave": 9714,
      "desenvolvidos": 9715,
      "renu": 9716,
      "Sala": 9717,
      "declara": 9718,
      "verdadeiro": 9719,
      "assunto": 9720,
      "conjuntos": 9721,
      "Dinastia": 9722,
      "reprodução": 9723,
      "nobres": 9724,
      "conduzi": 9725,
      "Letras": 9726,
      "urbanos": 9727,
      "dificuldades": 9728,
      "Arthur": 9729,
      "Nessa": 9730,
      "gni": 9731,
      "inária": 9732,
      "homos": 9733,
      "çamento": 9734,
      "claro": 9735,
      "intenção": 9736,
      "tolomeu": 9737,
      "Ton": 9738,
      "tivesse": 9739,
      "tomada": 9740,
      "comunistas": 9741,
      "mênia": 9742,
      "Misericórdia": 9743,
      "duto": 9744,
      "Proví": 9745,
      "referem": 9746,
      "concepção": 9747,
      "carrega": 9748,
      "manifestações": 9749,
      "Natural": 9750,
      "Getúlio": 9751,
      "800": 9752,
      "hino": 9753,
      "entado": 9754,
      "vive": 9755,
      "sujei": 9756,
      "file": 9757,
      "terrenos": 9758,
      "registros": 9759,
      "Pie": 9760,
      "Bern": 9761,
      "Irã": 9762,
      "Bap": 9763,
      "iner": 9764,
      "casou": 9765,
      "Quí": 9766,
      "Luxemb": 9767,
      "produzem": 9768,
      "proporção": 9769,
      "Vilar": 9770,
      "fósseis": 9771,
      "iria": 9772,
      "fic": 9773,
      "gil": 9774,
      "socialista": 9775,
      "astrônomo": 9776,
      "acervo": 9777,
      "acrescent": 9778,
      "Ensino": 9779,
      "AL": 9780,
      "Etimologia": 9781,
      "codi": 9782,
      "gura": 9783,
      "mér": 9784,
      "mático": 9785,
      "estratégia": 9786,
      "dimensão": 9787,
      "didade": 9788,
      "contam": 9789,
      "negra": 9790,
      "muita": 9791,
      "sala": 9792,
      "norma": 9793,
      "Kim": 9794,
      "kin": 9795,
      "ícios": 9796,
      "encontro": 9797,
      "tios": 9798,
      "Vieira": 9799,
      "canal": 9800,
      "míni": 9801,
      "posteriores": 9802,
      "visitantes": 9803,
      "érios": 9804,
      "viano": 9805,
      "autár": 9806,
      "reações": 9807,
      "Lutero": 9808,
      "dependente": 9809,
      "Cinema": 9810,
      "tta": 9811,
      "respei": 9812,
      "back": 9813,
      "Senado": 9814,
      "1880": 9815,
      "narra": 9816,
      "esforço": 9817,
      "personagem": 9818,
      "VIII": 9819,
      "canção": 9820,
      "apont": 9821,
      "Mortes": 9822,
      "oxigênio": 9823,
      "Madri": 9824,
      "ônios": 9825,
      "operacional": 9826,
      "pertencia": 9827,
      "aberta": 9828,
      "descobertas": 9829,
      "Bispo": 9830,
      "Cat": 9831,
      "derico": 9832,
      "ntismo": 9833,
      "vira": 9834,
      "aglome": 9835,
      "Aé": 9836,
      "ence": 9837,
      "variam": 9838,
      "agro": 9839,
      "oft": 9840,
      "combinação": 9841,
      "permitir": 9842,
      "https": 9843,
      "SI": 9844,
      "alimentação": 9845,
      "marcado": 9846,
      "beleza": 9847,
      "desafi": 9848,
      "magni": 9849,
      "ocasião": 9850,
      "presidencial": 9851,
      "RO": 9852,
      "grou": 9853,
      "labora": 9854,
      "Cima": 9855,
      "Posterior": 9856,
      "escudo": 9857,
      "Jacques": 9858,
      "cên": 9859,
      "convida": 9860,
      "adver": 9861,
      "entidades": 9862,
      "legislativo": 9863,
      "funcionários": 9864,
      "pano": 9865,
      "debate": 9866,
      "down": 9867,
      "lie": 9868,
      "individuais": 9869,
      "Stan": 9870,
      "esporte": 9871,
      "bizant": 9872,
      "Assu": 9873,
      "Rodo": 9874,
      "1853": 9875,
      "Teixeira": 9876,
      "Industrial": 9877,
      "alar": 9878,
      "podia": 9879,
      "carros": 9880,
      "físicas": 9881,
      "1892": 9882,
      "Cristó": 9883,
      "orientação": 9884,
      "bg": 9885,
      "raios": 9886,
      "tensão": 9887,
      "visões": 9888,
      "Saint": 9889,
      "pouca": 9890,
      "tinos": 9891,
      "Lob": 9892,
      "pés": 9893,
      "Quanto": 9894,
      "punk": 9895,
      "cirur": 9896,
      "sociedades": 9897,
      "mila": 9898,
      "tricos": 9899,
      "liados": 9900,
      "humanas": 9901,
      "experiências": 9902,
      "investigação": 9903,
      "MI": 9904,
      "Tó": 9905,
      "aeroporto": 9906,
      "hen": 9907,
      "hães": 9908,
      "nismo": 9909,
      "sando": 9910,
      "realmente": 9911,
      "tabela": 9912,
      "Marquês": 9913,
      "causas": 9914,
      "wal": 9915,
      "patro": 9916,
      "Lib": 9917,
      "Europeu": 9918,
      "Linux": 9919,
      "exportação": 9920,
      "desejo": 9921,
      "infantil": 9922,
      "Cru": 9923,
      "ciosa": 9924,
      "comunista": 9925,
      "justiça": 9926,
[...]
