{
  "version": "1.0",
  "truncation": null,
  "padding": null,
  "added_tokens": [
    {
      "id": 0,
      "content": "<s>",
      "single_word": false,
      "lstrip": false,
      "rstrip": false,
      "normalized": true,
      "special": true
    },
    {
      "id": 1,
      "content": "</s>",
      "single_word": false,
      "lstrip": false,
      "rstrip": false,
      "normalized": true,
      "special": true
    },
    {
      "id": 2,
      "content": "<pad>",
      "single_word": false,
      "lstrip": false,
      "rstrip": false,
      "normalized": true,
      "special": true
    },
    {
      "id": 3,
      "content": "<unk>",
      "single_word": false,
      "lstrip": false,
      "rstrip": false,
      "normalized": true,
      "special": true
    },
    {
      "id": 4,
      "content": "<mask>",
      "single_word": false,
      "lstrip": true,
      "rstrip": false,
      "normalized": false,
      "special": true
    }
  ],
  "normalizer": null,
  "pre_tokenizer": {
    "type": "ByteLevel",
    "add_prefix_space": false,
    "trim_offsets": true,
    "use_regex": true
  },
  "post_processor": {
    "type": "RobertaProcessing",
    "sep": [
      "</s>",
      1
    ],
    "cls": [
      "<s>",
      0
    ],
    "trim_offsets": true,
    "add_prefix_space": false
  },
  "decoder": {
    "type": "ByteLevel",
    "add_prefix_space": true,
    "trim_offsets": true,
    "use_regex": true
  },
  "model": {
    "type": "BPE",
    "dropout": null,
    "unk_token": null,
    "continuing_subword_prefix": "",
    "end_of_word_suffix": "",
    "fuse_unk": false,
    "byte_fallback": false,
    "ignore_merges": false,
    "vocab": {
      "<s>": 0,
      "</s>": 1,
      "<pad>": 2,
      "<unk>": 3,
      "<mask>": 4,
      "!": 5,
      "\"": 6,
      "#": 7,
      "$": 8,
      "%": 9,
      "&": 10,
      "'": 11,
      "(": 12,
      ")": 13,
      "*": 14,
      "+": 15,
      ",": 16,
      "-": 17,
      ".": 18,
      "/": 19,
      "0": 20,
      "1": 21,
      "2": 22,
      "3": 23,
      "4": 24,
      "5": 25,
      "6": 26,
      "7": 27,
      "8": 28,
      "9": 29,
      ":": 30,
      ";": 31,
      "<": 32,
      "=": 33,
      ">": 34,
      "?": 35,
      "@": 36,
      "A": 37,
      "B": 38,
      "C": 39,
      "D": 40,
      "E": 41,
      "F": 42,
      "G": 43,
      "H": 44,
      "I": 45,
      "J": 46,
      "K": 47,
      "L": 48,
      "M": 49,
      "N": 50,
      "O": 51,
      "P": 52,
      "Q": 53,
      "R": 54,
      "S": 55,
      "T": 56,
      "U": 57,
      "V": 58,
      "W": 59,
      "X": 60,
      "Y": 61,
      "Z": 62,
      "[": 63,
      "\\": 64,
      "]": 65,
      "_": 66,
      "`": 67,
      "a": 68,
      "b": 69,
      "c": 70,
      "d": 71,
      "e": 72,
      "f": 73,
      "g": 74,
      "h": 75,
      "i": 76,
      "j": 77,
      "k": 78,
      "l": 79,
      "m": 80,
      "n": 81,
      "o": 82,
      "p": 83,
      "q": 84,
      "r": 85,
      "s": 86,
      "t": 87,
      "u": 88,
      "v": 89,
      "w": 90,
      "x": 91,
      "y": 92,
      "z": 93,
      "{": 94,
      "|": 95,
      "}": 96,
      "~": 97,
      "§": 98,
      "©": 99,
      "«": 100,
      "®": 101,
      "°": 102,
      "±": 103,
      "²": 104,
      "³": 105,
      "´": 106,
      "µ": 107,
      "·": 108,
      "¹": 109,
      "»": 110,
      "À": 111,
      "Á": 112,
      "Â": 113,
      "Ä": 114,
      "Å": 115,
      "Æ": 116,
      "Ç": 117,
      "É": 118,
      "Ì": 119,
      "Í": 120,
      "Î": 121,
      "Ò": 122,
      "Ó": 123,
      "Ô": 124,
      "Õ": 125,
      "Ö": 126,
      "×": 127,
      "Ù": 128,
      "Ú": 129,
      "Ü": 130,
      "Ý": 131,
      "Þ": 132,
      "ß": 133,
      "à": 134,
      "á": 135,
      "â": 136,
      "ã": 137,
      "ä": 138,
      "å": 139,
      "æ": 140,
      "ç": 141,
      "è": 142,
      "é": 143,
      "ê": 144,
      "ë": 145,
      "ì": 146,
      "í": 147,
      "î": 148,
      "ï": 149,
      "ð": 150,
      "ñ": 151,
      "ò": 152,
      "ó": 153,
      "ô": 154,
      "õ": 155,
      "ö": 156,
      "ø": 157,
      "ù": 158,
      "ú": 159,
      "û": 160,
      "ü": 161,
      "ý": 162,
      "Ā": 163,
      "ā": 164,
      "ă": 165,
      "ą": 166,
      "Ć": 167,
      "ć": 168,
      "č": 169,
      "Đ": 170,
      "Ē": 171,
      "ē": 172,
      "ĕ": 173,
      "ė": 174,
      "ę": 175,
      "ě": 176,
      "Ğ": 177,
      "ğ": 178,
      "ħ": 179,
      "ĩ": 180,
      "Ī": 181,
      "ī": 182,
      "ĭ": 183,
      "İ": 184,
      "ı": 185,
      "Ķ": 186,
      "Ļ": 187,
      "ļ": 188,
      "ŀ": 189,
      "Ł": 190,
      "ł": 191,
      "ń": 192,
      "Ņ": 193,
      "ņ": 194,
      "Ň": 195,
      "ň": 196,
      "ŋ": 197,
      "Ō": 198,
      "ō": 199,
      "ŏ": 200,
      "ő": 201,
      "Œ": 202,
      "œ": 203,
      "Ŗ": 204,
      "ŗ": 205,
      "ř": 206,
      "Ś": 207,
      "ś": 208,
      "Ş": 209,
      "ş": 210,
      "Š": 211,
      "š": 212,
      "ţ": 213,
      "Ŧ": 214,
      "Ũ": 215,
      "ũ": 216,
      "Ū": 217,
      "ū": 218,
      "ŵ": 219,
      "ŷ": 220,
      "Ÿ": 221,
      "ż": 222,
      "Ž": 223,
      "ž": 224,
      "Ə": 225,
      "ƛ": 226,
      "ư": 227,
      "ǀ": 228,
      "ǁ": 229,
      "ǂ": 230,
      "ǎ": 231,
      "ǐ": 232,
      "ǒ": 233,
      "ǔ": 234,
      "ǘ": 235,
      "ǝ": 236,
      "Ǟ": 237,
      "ǟ": 238,
      "ǧ": 239,
      "ǰ": 240,
      "Ș": 241,
      "ș": 242,
      "Ț": 243,
      "ț": 244,
      "Ȫ": 245,
      "ȫ": 246,
      "Ȭ": 247,
      "ȭ": 248,
      "Ȯ": 249,
      "ȯ": 250,
      "Ȱ": 251,
      "ȱ": 252,
      "Ȳ": 253,
      "ȳ": 254,
      "ɐ": 255,
      "ɑ": 256,
      "ɔ": 257,
      "ɖ": 258,
      "ɘ": 259,
      "ə": 260,
      "ɛ": 261,
      "ɡ": 262,
      "ɥ": 263,
      "ɪ": 264,
      "ɫ": 265,
      "ɬ": 266,
      "ɱ": 267,
      "ɲ": 268,
      "ɶ": 269,
      "ɹ": 270,
      "ɺ": 271,
      "ɽ": 272,
      "ɾ": 273,
      "ʁ": 274,
      "ʃ": 275,
      "ʈ": 276,
      "ʊ": 277,
      "ʌ": 278,
      "ʎ": 279,
      "ʒ": 280,
      "ʔ": 281,
      "ʜ": 282,
      "ʤ": 283,
      "ʦ": 284,
      "ʧ": 285,
      "ʰ": 286,
      "ʲ": 287,
      "ʷ": 288,
      "ʻ": 289,
      "ʾ": 290,
      "ˁ": 291,
      "ˈ": 292,
      "ˌ": 293,
      "ː": 294,
      "ˑ": 295,
      "ˠ": 296,
      "̀": 297,
      "́": 298,
      "̄": 299,
      "̉": 300,
      "̓": 301,
      "̕": 302,
      "̚": 303,
      "̞": 304,
      "̟": 305,
      "̣": 306,
      "̥": 307,
      "̩": 308,
      "̪": 309,
      "̱": 310,
      "̲": 311,
      "͡": 312,
      "΄": 313,
      "Α": 314,
      "Β": 315,
      "Γ": 316,
      "Δ": 317,
      "Ε": 318,
      "Ζ": 319,
      "Η": 320,
      "Ι": 321,
      "Κ": 322,
      "Μ": 323,
      "Ν": 324,
      "Ο": 325,
      "Π": 326,
      "Σ": 327,
      "Τ": 328,
      "Υ": 329,
      "Ω": 330,
      "ά": 331,
      "έ": 332,
      "ή": 333,
      "ί": 334,
      "α": 335,
      "β": 336,
      "γ": 337,
      "δ": 338,
      "ε": 339,
      "ζ": 340,
      "η": 341,
      "θ": 342,
      "ι": 343,
      "κ": 344,
      "λ": 345,
      "μ": 346,
      "ν": 347,
      "ξ": 348,
      "ο": 349,
      "π": 350,
      "ρ": 351,
      "ς": 352,
      "σ": 353,
      "τ": 354,
      "υ": 355,
      "φ": 356,
      "χ": 357,
      "ψ": 358,
      "ω": 359,
      "ό": 360,
      "ύ": 361,
      "ώ": 362,
      "ϐ": 363,
      "Ћ": 364,
      "Ў": 365,
      "А": 366,
      "Б": 367,
      "В": 368,
      "Г": 369,
      "Д": 370,
      "Е": 371,
      "Ж": 372,
      "З": 373,
      "И": 374,
      "Й": 375,
      "К": 376,
      "Л": 377,
      "М": 378,
      "Н": 379,
      "О": 380,
      "П": 381,
      "Р": 382,
      "С": 383,
      "Т": 384,
      "У": 385,
      "Ф": 386,
      "Х": 387,
      "Ч": 388,
      "Ш": 389,
      "Ы": 390,
      "Ь": 391,
      "Э": 392,
      "Ю": 393,
      "Я": 394,
      "а": 395,
      "б": 396,
      "в": 397,
      "г": 398,
      "д": 399,
      "е": 400,
      "ж": 401,
      "з": 402,
      "и": 403,
      "й": 404,
      "к": 405,
      "л": 406,
      "м": 407,
      "н": 408,
      "о": 409,
      "п": 410,
      "р": 411,
      "с": 412,
      "т": 413,
      "у": 414,
      "ф": 415,
      "х": 416,
      "ц": 417,
      "ч": 418,
      "ш": 419,
      "щ": 420,
      "ы": 421,
      "ь": 422,
      "э": 423,
      "ю": 424,
      "я": 425,
      "ё": 426,
      "і": 427,
      "ј": 428,
      "Ѳ": 429,
      "ѳ": 430,
      "Ғ": 431,
      "ғ": 432,
      "Җ": 433,
      "җ": 434,
      "Қ": 435,
      "қ": 436,
      "ҝ": 437,
      "Ң": 438,
      "ң": 439,
      "Ҫ": 440,
      "ҫ": 441,
      "Ү": 442,
      "ү": 443,
      "Ұ": 444,
      "ұ": 445,
      "ҷ": 446,
      "ҹ": 447,
      "Һ": 448,
      "һ": 449,
      "Ӑ": 450,
      "ӑ": 451,
      "Ӗ": 452,
      "ӗ": 453,
      "Ә": 454,
      "ә": 455,
      "Ӝ": 456,
      "Ӟ": 457,
      "ӣ": 458,
      "ӧ": 459,
      "Ө": 460,
      "ө": 461,
      "Ӳ": 462,
      "ӳ": 463,
      "Ӵ": 464,
      "ְ": 465,
      "ֱ": 466,
      "ֲ": 467,
      "ֳ": 468,
      "ִ": 469,
      "ֵ": 470,
      "ֶ": 471,
      "ַ": 472,
      "ָ": 473,
      "ֹ": 474,
      "ֻ": 475,
      "ּ": 476,
      "ׁ": 477,
      "ׂ": 478,
      "א": 479,
      "ב": 480,
      "ג": 481,
      "ד": 482,
      "ה": 483,
      "ו": 484,
      "ח": 485,
      "ט": 486,
      "י": 487,
      "ך": 488,
      "כ": 489,
      "ל": 490,
      "ם": 491,
      "מ": 492,
      "ן": 493,
      "נ": 494,
      "ס": 495,
      "ף": 496,
      "פ": 497,
      "ץ": 498,
      "צ": 499,
      "ק": 500,
      "ר": 501,
      "ש": 502,
      "ת": 503,
      "״": 504,
      "ء": 505,
      "آ": 506,
      "أ": 507,
      "ئ": 508,
      "ا": 509,
      "ب": 510,
      "ة": 511,
      "ت": 512,
      "ث": 513,
      "ج": 514,
      "ح": 515,
      "خ": 516,
      "د": 517,
      "ر": 518,
      "ز": 519,
      "س": 520,
      "ش": 521,
      "ص": 522,
      "ط": 523,
      "ع": 524,
      "غ": 525,
      "ف": 526,
      "ق": 527,
      "ك": 528,
      "ل": 529,
      "م": 530,
      "ن": 531,
      "ه": 532,
      "و": 533,
      "ى": 534,
      "ي": 535,
      "َ": 536,
      "ِ": 537,
      "ّ": 538,
      "ْ": 539,
      "ڌ": 540,
      "ک": 541,
      "ی": 542,
      "ێ": 543,
      "ې": 544,
      "ە": 545,
      "ޜ": 546,
      "ं": 547,
      "ः": 548,
      "क": 549,
      "ग": 550,
      "ङ": 551,
      "च": 552,
      "ज": 553,
      "ड": 554,
      "ण": 555,
      "त": 556,
      "द": 557,
      "ध": 558,
      "न": 559,
      "प": 560,
      "ब": 561,
      "भ": 562,
      "म": 563,
      "य": 564,
      "र": 565,
      "ल": 566,
      "ळ": 567,
      "व": 568,
      "श": 569,
      "ष": 570,
      "स": 571,
      "ह": 572,
      "ा": 573,
      "ि": 574,
      "ी": 575,
      "ु": 576,
      "ृ": 577,
      "े": 578,
      "ो": 579,
      "ौ": 580,
      "्": 581,
      "ॡ": 582,
      "ਂ": 583,
      "ਃ": 584,
      "ਅ": 585,
      "ਕ": 586,
      "ਖ": 587,
      "ਗ": 588,
      "ਜ": 589,
      "ਪ": 590,
      "ਬ": 591,
      "ਮ": 592,
      "ਰ": 593,
      "ਾ": 594,
      "ੀ": 595,
      "ੁ": 596,
      "੍": 597,
      "੦": 598,
      "੧": 599,
      "੨": 600,
      "੩": 601,
      "੪": 602,
      "੫": 603,
      "੬": 604,
      "੭": 605,
      "੮": 606,
      "੯": 607,
      "ੰ": 608,
      "ੱ": 609,
      "ੲ": 610,
      "ੳ": 611,
      "ੴ": 612,
      "ક": 613,
      "ગ": 614,
      "જ": 615,
      "ત": 616,
      "ર": 617,
      "ા": 618,
      "ી": 619,
      "ુ": 620,
      "ଆ": 621,
      "ଓ": 622,
      "ଡ": 623,
      "଼": 624,
      "ି": 625,
      "க": 626,
      "த": 627,
      "ம": 628,
      "ய": 629,
      "ற": 630,
      "வ": 631,
      "ா": 632,
      "ி": 633,
      "ே": 634,
      "்": 635,
      "ಂ": 636,
      "ಃ": 637,
      "ಅ": 638,
      "ಆ": 639,
      "ಇ": 640,
      "ಈ": 641,
      "ಉ": 642,
      "ಊ": 643,
      "ಋ": 644,
      "ಎ": 645,
      "ಏ": 646,
      "ಐ": 647,
      "ಒ": 648,
      "ಓ": 649,
      "ಔ": 650,
      "ಕ": 651,
      "ಖ": 652,
      "ಗ": 653,
      "ಘ": 654,
      "ಙ": 655,
      "ಚ": 656,
      "ಛ": 657,
      "ಜ": 658,
      "ಝ": 659,
      "ಞ": 660,
      "ಟ": 661,
      "ಠ": 662,
      "ಡ": 663,
      "ಢ": 664,
      "ಣ": 665,
      "ತ": 666,
      "ಥ": 667,
      "ದ": 668,
      "ಧ": 669,
      "ನ": 670,
      "ಪ": 671,
      "ಫ": 672,
      "ಬ": 673,
      "ಭ": 674,
      "ಮ": 675,
      "ಯ": 676,
      "ರ": 677,
      "ಲ": 678,
      "ಳ": 679,
      "ವ": 680,
      "ಶ": 681,
      "ಷ": 682,
      "ಸ": 683,
      "ಹ": 684,
      "ೠ": 685,
      "೦": 686,
      "೧": 687,
      "೨": 688,
      "೩": 689,
      "೪": 690,
      "೫": 691,
      "೬": 692,
      "೭": 693,
      "೮": 694,
      "೯": 695,
      "ක": 696,
      "ත": 697,
      "න": 698,
      "ප": 699,
      "ය": 700,
      "ර": 701,
      "ස": 702,
      "්": 703,
      "ා": 704,
      "ි": 705,
      "ก": 706,
      "ข": 707,
      "ค": 708,
      "ง": 709,
      "ช": 710,
      "ญ": 711,
      "ณ": 712,
      "ต": 713,
      "ท": 714,
      "น": 715,
      "บ": 716,
      "ป": 717,
      "พ": 718,
      "ภ": 719,
      "ม": 720,
      "ย": 721,
      "ร": 722,
      "ล": 723,
      "ว": 724,
      "ษ": 725,
      "ส": 726,
      "ห": 727,
      "อ": 728,
      "ะ": 729,
      "ั": 730,
      "า": 731,
      "ำ": 732,
      "ิ": 733,
      "ุ": 734,
      "ู": 735,
      "เ": 736,
      "แ": 737,
      "ไ": 738,
      "่": 739,
      "์": 740,
      "ກ": 741,
      "ພ": 742,
      "ລ": 743,
      "ວ": 744,
      "ສ": 745,
      "າ": 746,
      "་": 747,
      "ཊ": 748,
      "ཋ": 749,
      "ཌ": 750,
      "ཎ": 751,
      "ད": 752,
      "བ": 753,
      "ཥ": 754,
      "ས": 755,
      "ོ": 756,
      "ྐ": 757,
      "က": 758,
      "ယ": 759,
      "အ": 760,
      "ဣ": 761,
      "ဤ": 762,
      "ဥ": 763,
      "ဦ": 764,
      "ဧ": 765,
      "ဩ": 766,
      "ာ": 767,
      "ိ": 768,
      "ီ": 769,
      "ု": 770,
      "ူ": 771,
      "ေ": 772,
      "ဲ": 773,
      "ံ": 774,
      "့": 775,
      "း": 776,
      "္": 777,
      "၁": 778,
      "ა": 779,
      "დ": 780,
      "ე": 781,
      "ი": 782,
      "ლ": 783,
      "მ": 784,
      "რ": 785,
      "უ": 786,
      "ქ": 787,
      "ც": 788,
      "ხ": 789,
      "ሀ": 790,
      "ሁ": 791,
      "ሂ": 792,
      "ሃ": 793,
      "ሄ": 794,
      "ህ": 795,
      "ሆ": 796,
      "ለ": 797,
      "ሉ": 798,
      "ሊ": 799,
      "ላ": 800,
      "ሌ": 801,
      "ል": 802,
      "ሎ": 803,
      "ሐ": 804,
      "ሑ": 805,
      "ሒ": 806,
      "ሓ": 807,
      "ሔ": 808,
      "ሕ": 809,
      "ሖ": 810,
      "መ": 811,
      "ሙ": 812,
      "ሚ": 813,
      "ማ": 814,
      "ሜ": 815,
      "ም": 816,
      "ሞ": 817,
      "ረ": 818,
      "ሩ": 819,
      "ሪ": 820,
      "ራ": 821,
      "ሬ": 822,
      "ር": 823,
      "ሮ": 824,
      "ሰ": 825,
      "ሱ": 826,
      "ሲ": 827,
      "ሳ": 828,
      "ሴ": 829,
      "ስ": 830,
      "ሶ": 831,
      "ሸ": 832,
      "ሹ": 833,
      "ሺ": 834,
      "ሻ": 835,
      "ሼ": 836,
      "ሽ": 837,
      "ሾ": 838,
      "ቀ": 839,
      "ቁ": 840,
      "ቂ": 841,
      "ቃ": 842,
      "ቄ": 843,
      "ቅ": 844,
      "ቆ": 845,
      "በ": 846,
      "ቡ": 847,
      "ቢ": 848,
      "ባ": 849,
      "ቤ": 850,
      "ብ": 851,
      "ቦ": 852,
      "ተ": 853,
      "ቱ": 854,
      "ቲ": 855,
      "ታ": 856,
      "ቴ": 857,
      "ት": 858,
      "ቶ": 859,
      "ቸ": 860,
      "ቹ": 861,
      "ቺ": 862,
      "ቻ": 863,
      "ቼ": 864,
      "ች": 865,
      "ቾ": 866,
      "ነ": 867,
      "ኑ": 868,
      "ኒ": 869,
      "ና": 870,
      "ኔ": 871,
      "ን": 872,
      "ኖ": 873,
      "ኘ": 874,
      "ኙ": 875,
      "ኚ": 876,
      "ኛ": 877,
      "ኜ": 878,
      "ኝ": 879,
      "ኞ": 880,
      "አ": 881,
      "ኡ": 882,
      "ኢ": 883,
      "ኣ": 884,
      "ኤ": 885,
      "እ": 886,
      "ኦ": 887,
      "ከ": 888,
      "ኩ": 889,
      "ኪ": 890,
      "ካ": 891,
      "ኬ": 892,
      "ክ": 893,
      "ኮ": 894,
      "ኸ": 895,
      "ኹ": 896,
      "ኺ": 897,
      "ኻ": 898,
      "ኼ": 899,
      "ኽ": 900,
      "ኾ": 901,
      "ወ": 902,
      "ዉ": 903,
      "ዊ": 904,
      "ዋ": 905,
      "ዌ": 906,
      "ው": 907,
      "ዎ": 908,
      "ዘ": 909,
      "ዙ": 910,
      "ዚ": 911,
      "ዛ": 912,
      "ዜ": 913,
      "ዝ": 914,
      "ዞ": 915,
      "ዠ": 916,
      "ዡ": 917,
      "ዢ": 918,
      "ዣ": 919,
      "ዤ": 920,
      "ዥ": 921,
      "ዦ": 922,
      "የ": 923,
      "ዩ": 924,
      "ዪ": 925,
      "ያ": 926,
      "ዬ": 927,
      "ይ": 928,
      "ዮ": 929,
      "ደ": 930,
      "ዱ": 931,
      "ዲ": 932,
      "ዳ": 933,
      "ዴ": 934,
      "ድ": 935,
      "ዶ": 936,
      "ጀ": 937,
      "ጁ": 938,
      "ጂ": 939,
      "ጃ": 940,
      "ጄ": 941,
      "ጅ": 942,
      "ጆ": 943,
      "ገ": 944,
      "ጉ": 945,
      "ጊ": 946,
      "ጋ": 947,
      "ጌ": 948,
      "ግ": 949,
      "ጎ": 950,
      "ጠ": 951,
      "ጡ": 952,
      "ጢ": 953,
      "ጣ": 954,
      "ጤ": 955,
      "ጥ": 956,
      "ጦ": 957,
      "ጨ": 958,
      "ጩ": 959,
      "ጪ": 960,
      "ጫ": 961,
      "ጬ": 962,
      "ጭ": 963,
      "ጮ": 964,
      "ጰ": 965,
      "ጱ": 966,
      "ጲ": 967,
      "ጳ": 968,
      "ጴ": 969,
      "ጵ": 970,
      "ጶ": 971,
      "ጸ": 972,
      "ጹ": 973,
      "ጺ": 974,
      "ጻ": 975,
      "ጼ": 976,
      "ጽ": 977,
      "ጾ": 978,
      "ፈ": 979,
      "ፉ": 980,
      "ፊ": 981,
      "ፋ": 982,
      "ፌ": 983,
      "ፍ": 984,
      "ፎ": 985,
      "ፐ": 986,
      "ፑ": 987,
      "ፒ": 988,
      "ፓ": 989,
      "ፔ": 990,
      "ፕ": 991,
      "ፖ": 992,
      "፩": 993,
      "፪": 994,
      "፫": 995,
      "፬": 996,
      "፭": 997,
      "፮": 998,
      "፯": 999,
      "፰": 1000,
      "፱": 1001,
      "፲": 1002,
      "፳": 1003,
      "፴": 1004,
      "፵": 1005,
      "፶": 1006,
      "፷": 1007,
      "፸": 1008,
      "፹": 1009,
      "፺": 1010,
      "፻": 1011,
      "፼": 1012,
      "Ꮙ": 1013,
      "Ꮝ": 1014,
      "Ꮞ": 1015,
      "Ꮟ": 1016,
      "Ꮿ": 1017,
      "ᐃ": 1018,
      "ᑎ": 1019,
      "ᑐ": 1020,
      "ᑦ": 1021,
      "ᒃ": 1022,
      "ᓄ": 1023,
      "ក": 1024,
      "ខ": 1025,
      "ង": 1026,
      "ជ": 1027,
      "ញ": 1028,
      "ត": 1029,
      "ន": 1030,
      "ផ": 1031,
      "ព": 1032,
      "ភ": 1033,
      "ម": 1034,
      "យ": 1035,
      "រ": 1036,
      "ស": 1037,
      "អ": 1038,
      "ា": 1039,
      "ិ": 1040,
      "ួ": 1041,
      "ើ": 1042,
      "េ": 1043,
      "ំ": 1044,
      "ៈ": 1045,
      "័": 1046,
      "្": 1047,
      "ᱛ": 1048,
      "ᱟ": 1049,
      "ᱤ": 1050,
      "ᱥ": 1051,
      "ᱱ": 1052,
      "ᱲ": 1053,
      "ḍ": 1054,
      "ḏ": 1055,
      "Ḑ": 1056,
      "ḑ": 1057,
      "ḗ": 1058,
      "ḡ": 1059,
      "ḥ": 1060,
      "ḫ": 1061,
      "ḳ": 1062,
      "ḵ": 1063,
      "ḷ": 1064,
      "ḹ": 1065,
      "ṃ": 1066,
      "ṇ": 1067,
      "ṛ": 1068,
      "ṝ": 1069,
      "ṣ": 1070,
      "ṭ": 1071,
      "ṯ": 1072,
      "ẁ": 1073,
      "ẓ": 1074,
      "ẖ": 1075,
      "Ạ": 1076,
      "ạ": 1077,
      "ả": 1078,
      "ấ": 1079,
      "ậ": 1080,
      "ẹ": 1081,
      "ẽ": 1082,
      "ễ": 1083,
      "ệ": 1084,
      "ỉ": 1085,
      "ọ": 1086,
      "ồ": 1087,
      "ộ": 1088,
      "ờ": 1089,
      "ủ": 1090,
      "ứ": 1091,
      "ἀ": 1092,
      "ἁ": 1093,
      "ἄ": 1094,
      "ἕ": 1095,
      "Ἑ": 1096,
      "ἱ": 1097,
      "Ἱ": 1098,
      "Ὀ": 1099,
      "ὰ": 1100,
      "ᾠ": 1101,
      "ᾶ": 1102,
      "ῆ": 1103,
      "ῖ": 1104,
      "Ῥ": 1105,
      "ῳ": 1106,
      "ῶ": 1107,
      "‐": 1108,
      "–": 1109,
      "—": 1110,
      "‖": 1111,
      "‘": 1112,
      "’": 1113,
      "‚": 1114,
      "“": 1115,
      "”": 1116,
      "„": 1117,
      "†": 1118,
      "•": 1119,
      "…": 1120,
      "₂": 1121,
      "€": 1122,
      "→": 1123,
      "−": 1124,
      "≈": 1125,
      "♦": 1126,
      "✝": 1127,
      "か": 1128,
      "さ": 1129,
      "し": 1130,
      "た": 1131,
      "っ": 1132,
      "べ": 1133,
      "ま": 1134,
      "ゃ": 1135,
      "ゅ": 1136,
      "ょ": 1137,
      "ら": 1138,
      "り": 1139,
      "ん": 1140,
      "゛": 1141,
      "゜": 1142,
      "ア": 1143,
      "イ": 1144,
      "ク": 1145,
      "タ": 1146,
      "テ": 1147,
      "ヌ": 1148,
      "ヒ": 1149,
      "ビ": 1150,
      "レ": 1151,
      "ー": 1152,
      "不": 1153,
      "东": 1154,
      "书": 1155,
      "五": 1156,
      "人": 1157,
      "介": 1158,
      "仮": 1159,
      "休": 1160,
      "位": 1161,
      "侯": 1162,
      "利": 1163,
      "制": 1164,
      "功": 1165,
      "化": 1166,
      "十": 1167,
      "半": 1168,
      "单": 1169,
      "博": 1170,
      "反": 1171,
      "名": 1172,
      "吐": 1173,
      "嗎": 1174,
      "噸": 1175,
      "国": 1176,
      "國": 1177,
      "大": 1178,
      "头": 1179,
      "女": 1180,
      "媽": 1181,
      "字": 1182,
      "学": 1183,
      "學": 1184,
      "家": 1185,
      "密": 1186,
      "平": 1187,
      "志": 1188,
      "応": 1189,
      "思": 1190,
      "想": 1191,
      "應": 1192,
      "我": 1193,
      "所": 1194,
      "手": 1195,
      "拼": 1196,
      "政": 1197,
      "日": 1198,
      "是": 1199,
      "月": 1200,
      "有": 1201,
      "本": 1202,
      "李": 1203,
      "正": 1204,
      "武": 1205,
      "死": 1206,
      "毛": 1207,
      "氏": 1208,
      "氣": 1209,
      "汉": 1210,
      "法": 1211,
      "泽": 1212,
      "洪": 1213,
      "漢": 1214,
      "濁": 1215,
      "点": 1216,
      "燁": 1217,
      "片": 1218,
      "玄": 1219,
      "王": 1220,
      "略": 1221,
      "的": 1222,
      "神": 1223,
      "端": 1224,
      "罵": 1225,
      "聖": 1226,
      "聲": 1227,
      "肸": 1228,
      "藏": 1229,
      "西": 1230,
      "詞": 1231,
      "語": 1232,
      "諱": 1233,
      "讳": 1234,
      "词": 1235,
      "语": 1236,
      "豢": 1237,
      "貫": 1238,
      "貴": 1239,
      "赤": 1240,
      "軍": 1241,
      "輕": 1242,
      "輪": 1243,
      "轮": 1244,
      "这": 1245,
      "送": 1246,
      "都": 1247,
      "鈦": 1248,
      "錫": 1249,
      "門": 1250,
      "际": 1251,
      "雙": 1252,
      "霜": 1253,
      "靡": 1254,
      "音": 1255,
      "頓": 1256,
      "風": 1257,
      "食": 1258,
      "馬": 1259,
      "魏": 1260,
      "魚": 1261,
      "麻": 1262,
      "간": 1263,
      "ﺡ": 1264,
      "ﺪ": 1265,
      "ﺳ": 1266,
      "ﻕ": 1267,
      "ﻴ": 1268,
      "：": 1269,
      "an": 1270,
      "ar": 1271,
      "en": 1272,
      "ez": 1273,
      "er": 1274,
      "et": 1275,
      "ou": 1276,
      "où": 1277,
      "el": 1278,
      "enn": 1279,
      "re": 1280,
      "ezh": 1281,
      "al": 1282,
      "on": 1283,
      "ha": 1284,
      "ur": 1285,
      "ad": 1286,
      "di": 1287,
      "st": 1288,
      "añ": 1289,
      "ant": 1290,
      "ev": 1291,
      "eg": 1292,
      "zh": 1293,
      "ri": 1294,
      "eu": 1295,
      "ro": 1296,
      "in": 1297,
      "da": 1298,
      "sk": 1299,
      "ra": 1300,
      "vez": 1301,
      "li": 1302,
      "em": 1303,
      "or": 1304,
      "ed": 1305,
      "gant": 1306,
      "at": 1307,
      "ek": 1308,
      "un": 1309,
      "eo": 1310,
      "am": 1311,
      "eus": 1312,
      "ol": 1313,
      "it": 1314,
      "av": 1315,
      "hag": 1316,
      "ioù": 1317,
      "iz": 1318,
      "oa": 1319,
      "19": 1320,
      "as": 1321,
      "om": 1322,
      "all": 1323,
      "war": 1324,
      "bet": 1325,
      "es": 1326,
      "ent": 1327,
      "ch": 1328,
      "yezh": 1329,
      "pe": 1330,
      "our": 1331,
      "ennoù": 1332,
      "la": 1333,
      "zo": 1334,
      "is": 1335,
      "il": 1336,
      "de": 1337,
      "he": 1338,
      "adur": 1339,
      "ell": 1340,
      "se": 1341,
      "evit": 1342,
      "ao": 1343,
      "ag": 1344,
      "vo": 1345,
      "ik": 1346,
      "le": 1347,
      "ann": 1348,
      "rei": 1349,
      "lo": 1350,
      "ont": 1351,
      "ma": 1352,
      "eri": 1353,
      "eur": 1354,
      "out": 1355,
      "im": 1356,
      "ud": 1357,
      "Ar": 1358,
      "evel": 1359,
      "iv": 1360,
      "skri": 1361,
      "gw": 1362,
      "br": 1363,
      "ob": 1364,
      "00": 1365,
      "pa": 1366,
      "oc": 1367,
      "dre": 1368,
      "ne": 1369,
      "ket": 1370,
      "um": 1371,
      "oar": 1372,
      "ia": 1373,
      "reizh": 1374,
      "ab": 1375,
      "ger": 1376,
      "An": 1377,
      "us": 1378,
      "iezh": 1379,
      "ka": 1380,
      "anv": 1381,
      "ouzh": 1382,
      "ti": 1383,
      "ll": 1384,
      "voe": 1385,
      "gou": 1386,
      "oll": 1387,
      "benn": 1388,
      "St": 1389,
      "rou": 1390,
      "ivez": 1391,
      "ist": 1392,
      "aoz": 1393,
      "ñv": 1394,
      "ouri": 1395,
      ").": 1396,
      "adoù": 1397,
      "amm": 1398,
      "skriv": 1399,
      "ig": 1400,
      "penn": 1401,
      "),": 1402,
      "ir": 1403,
      "ouez": 1404,
      "yezhoù": 1405,
      "ken": 1406,
      "ezhon": 1407,
      "son": 1408,
      "lij": 1409,
      "red": 1410,
      "ren": 1411,
      "arn": 1412,
      "Un": 1413,
      "plij": 1414,
      "iñ": 1415,
      "est": 1416,
      "ul": 1417,
      "sav": 1418,
      "og": 1419,
      "emb": 1420,
      "uz": 1421,
      "erzh": 1422,
      "Breizh": 1423,
      "roll": 1424,
      "az": 1425,
      "ras": 1426,
      "erezh": 1427,
      "etre": 1428,
      "aou": 1429,
      "Yezh": 1430,
      "Gw": 1431,
      "ep": 1432,
      "tre": 1433,
      "ak": 1434,
      "holl": 1435,
      "kent": 1436,
      "ot": 1437,
      "od": 1438,
      "oli": 1439,
      "dro": 1440,
      "vi": 1441,
      "and": 1442,
      "ok": 1443,
      "vro": 1444,
      "ret": 1445,
      "ober": 1446,
      "mañ": 1447,
      "dig": 1448,
      "of": 1449,
      "lev": 1450,
      "implij": 1451,
      "hin": 1452,
      "met": 1453,
      "arzh": 1454,
      "omz": 1455,
      "os": 1456,
      "ran": 1457,
      "oare": 1458,
      "18": 1459,
      "Al": 1460,
      "Yezhoù": 1461,
      "En": 1462,
      "res": 1463,
      "diwar": 1464,
      "her": 1465,
      "gall": 1466,
      "lec": 1467,
      "hi": 1468,
      "sp": 1469,
      "mar": 1470,
      "Li": 1471,
      "skou": 1472,
      "brezhon": 1473,
      "erien": 1474,
      "doare": 1475,
      "ezhioù": 1476,
      "ug": 1477,
      "bl": 1478,
      "ion": 1479,
      "laka": 1480,
      "ver": 1481,
      "hall": 1482,
      "deus": 1483,
      "ec": 1484,
      "anezh": 1485,
      "Bro": 1486,
      "ic": 1487,
      "Sk": 1488,
      "hell": 1489,
      "men": 1490,
      "ian": 1491,
      "lenn": 1492,
      "ern": 1493,
      "iver": 1494,
      "unan": 1495,
      "hini": 1496,
      "200": 1497,
      "In": 1498,
      "gra": 1499,
      "êr": 1500,
      "rann": 1501,
      "bro": 1502,
      "op": 1503,
      "bez": 1504,
      "Ur": 1505,
      "hel": 1506,
      "alc": 1507,
      "dud": 1508,
      "du": 1509,
      "han": 1510,
      "ve": 1511,
      "agn": 1512,
      "ta": 1513,
      "lav": 1514,
      "zer": 1515,
      "ost": 1516,
      "ui": 1517,
      "pl": 1518,
      "id": 1519,
      "saoz": 1520,
      "hen": 1521,
      "ezel": 1522,
      "zher": 1523,
      "kem": 1524,
      "oud": 1525,
      "ing": 1526,
      "mer": 1527,
      "oazh": 1528,
      "añs": 1529,
      "kentañ": 1530,
      "20": 1531,
      "hoar": 1532,
      "iel": 1533,
      "umm": 1534,
      "meur": 1535,
      "199": 1536,
      "brezhoneg": 1537,
      "ac": 1538,
      "oul": 1539,
      "orn": 1540,
      "dou": 1541,
      "div": 1542,
      "Di": 1543,
      "tro": 1544,
      "stroll": 1545,
      "zi": 1546,
      "bed": 1547,
      "skouer": 1548,
      "Mar": 1549,
      "implijet": 1550,
      "bezañ": 1551,
      "ech": 1552,
      "fe": 1553,
      "int": 1554,
      "niver": 1555,
      "oaz": 1556,
      "Unan": 1557,
      "den": 1558,
      "ouriezh": 1559,
      "dis": 1560,
      "evez": 1561,
      "komz": 1562,
      "der": 1563,
      "reiz": 1564,
      "dan": 1565,
      "kav": 1566,
      "adenn": 1567,
      "Lenn": 1568,
      "..": 1569,
      "graet": 1570,
      "ali": 1571,
      "stag": 1572,
      "lizher": 1573,
      "har": 1574,
      "daou": 1575,
      "betek": 1576,
      "vezañ": 1577,
      "bras": 1578,
      "dezh": 1579,
      "tra": 1580,
      "gal": 1581,
      "lavar": 1582,
      "egezh": 1583,
      "denn": 1584,
      "skrivañ": 1585,
      "barzh": 1586,
      "me": 1587,
      "neg": 1588,
      "ina": 1589,
      "ij": 1590,
      "amzer": 1591,
      "elet": 1592,
      "man": 1593,
      "for": 1594,
      "var": 1595,
      "adel": 1596,
      "lab": 1597,
      "ñvel": 1598,
      "oz": 1599,
      "tik": 1600,
      "ilh": 1601,
      "si": 1602,
      "198": 1603,
      "per": 1604,
      "ber": 1605,
      "amant": 1606,
      "par": 1607,
      "diouzh": 1608,
      "197": 1609,
      "Liamm": 1610,
      "olog": 1611,
      "euz": 1612,
      "savet": 1613,
      "ori": 1614,
      "tu": 1615,
      "even": 1616,
      "reist": 1617,
      "vet": 1618,
      "hep": 1619,
      "lu": 1620,
      "ved": 1621,
      "heñvel": 1622,
      "ili": 1623,
      "tur": 1624,
      "rak": 1625,
      "aez": 1626,
      "din": 1627,
      "embann": 1628,
      "gen": 1629,
      "nem": 1630,
      "get": 1631,
      "viz": 1632,
      "194": 1633,
      "reas": 1634,
      "ard": 1635,
      "ang": 1636,
      "van": 1637,
      "ub": 1638,
      "The": 1639,
      "ap": 1640,
      "rez": 1641,
      "eil": 1642,
      "pro": 1643,
      "emañ": 1644,
      "15": 1645,
      "hervez": 1646,
      "iri": 1647,
      "obl": 1648,
      "aet": 1649,
      "mor": 1650,
      "adeg": 1651,
      "ut": 1652,
      "vel": 1653,
      "ke": 1654,
      "udi": 1655,
      "ourien": 1656,
      "bi": 1657,
      "urt": 1658,
      "veze": 1659,
      "196": 1660,
      "Eur": 1661,
      "blo": 1662,
      "arz": 1663,
      "kan": 1664,
      "digezh": 1665,
      "nemet": 1666,
      "orzh": 1667,
      "oniezh": 1668,
      "Em": 1669,
      "Her": 1670,
      "ana": 1671,
      "chom": 1672,
      "esk": 1673,
      "antel": 1674,
      "Br": 1675,
      "pezh": 1676,
      "hent": 1677,
      "wel": 1678,
      "ofis": 1679,
      "strollad": 1680,
      "17": 1681,
      "hou": 1682,
      "tr": 1683,
      "ala": 1684,
      "reg": 1685,
      "olitik": 1686,
      "dreist": 1687,
      "mui": 1688,
      "na": 1689,
      "tud": 1690,
      "ski": 1691,
      "mat": 1692,
      "ter": 1693,
      "Er": 1694,
      "je": 1695,
      "alam": 1696,
      "lask": 1697,
      "anvet": 1698,
      "bloav": 1699,
      "qu": 1700,
      "renn": 1701,
      "kel": 1702,
      "ouezh": 1703,
      "diaz": 1704,
      "saozneg": 1705,
      "seurt": 1706,
      "neb": 1707,
      "komzet": 1708,
      "wezh": 1709,
      "adurioù": 1710,
      "ko": 1711,
      "goude": 1712,
      "eb": 1713,
      "kant": 1714,
      "vogal": 1715,
      "Ma": 1716,
      "Sant": 1717,
      "ck": 1718,
      "ier": 1719,
      "vras": 1720,
      "lizherenn": 1721,
      "Pa": 1722,
      "dra": 1723,
      "ton": 1724,
      "adennoù": 1725,
      "enez": 1726,
      "pep": 1727,
      "omp": 1728,
      "ofisiel": 1729,
      "Euro": 1730,
      "16": 1731,
      "Le": 1732,
      "ho": 1733,
      "10": 1734,
      "Gou": 1735,
      "avaez": 1736,
      "gerioù": 1737,
      "embre": 1738,
      "diazez": 1739,
      "gan": 1740,
      "hant": 1741,
      "deu": 1742,
      "pad": 1743,
      "Ker": 1744,
      "dal": 1745,
      "tal": 1746,
      "diavaez": 1747,
      "eul": 1748,
      "lies": 1749,
      "nebeu": 1750,
      "stumm": 1751,
      "te": 1752,
      "Europa": 1753,
      "ast": 1754,
      "oñ": 1755,
      "kev": 1756,
      "ich": 1757,
      "Im": 1758,
      "mm": 1759,
      "kas": 1760,
      "dia": 1761,
      "rioù": 1762,
      "14": 1763,
      "studi": 1764,
      "kar": 1765,
      "lat": 1766,
      "raok": 1767,
      "distag": 1768,
      "roet": 1769,
      "hoazh": 1770,
      "eun": 1771,
      "lakaet": 1772,
      "Meur": 1773,
      "erc": 1774,
      "rank": 1775,
      "rist": 1776,
      "Liammoù": 1777,
      "bloavezhioù": 1778,
      "lez": 1779,
      "hed": 1780,
      "hañ": 1781,
      "lakaat": 1782,
      "hez": 1783,
      "doa": 1784,
      "Unanet": 1785,
      "adurezh": 1786,
      "Da": 1787,
      "oun": 1788,
      "ennet": 1789,
      "ort": 1790,
      "dez": 1791,
      "peur": 1792,
      "emp": 1793,
      "deg": 1794,
      "douar": 1795,
      "rat": 1796,
      "istor": 1797,
      "remañ": 1798,
      "aer": 1799,
      "galleg": 1800,
      "euze": 1801,
      "doù": 1802,
      "nevez": 1803,
      "teu": 1804,
      "195": 1805,
      "aneg": 1806,
      "ser": 1807,
      "uk": 1808,
      "skol": 1809,
      "000": 1810,
      "13": 1811,
      "Mor": 1812,
      "Par": 1813,
      "gar": 1814,
      "Stadoù": 1815,
      "ubli": 1816,
      "kantved": 1817,
      "ebet": 1818,
      "krou": 1819,
      "au": 1820,
      "ial": 1821,
      "disk": 1822,
      "iet": 1823,
      "Ev": 1824,
      "latin": 1825,
      "fon": 1826,
      "skrivet": 1827,
      "pennañ": 1828,
      "deuet": 1829,
      "rom": 1830,
      "politik": 1831,
      "II": 1832,
      "kal": 1833,
      "neuze": 1834,
      "ank": 1835,
      "gel": 1836,
      "anezho": 1837,
      "ster": 1838,
      "umun": 1839,
      "uhez": 1840,
      "izi": 1841,
      "ge": 1842,
      "verb": 1843,
      "vor": 1844,
      "eget": 1845,
      "Ne": 1846,
      "bar": 1847,
      "vr": 1848,
      "kavet": 1849,
      "ce": 1850,
      "Sina": 1851,
      "the": 1852,
      "alies": 1853,
      "gav": 1854,
      "hw": 1855,
      "Gwelet": 1856,
      "elf": 1857,
      "uhel": 1858,
      "emer": 1859,
      "iat": 1860,
      "klo": 1861,
      "seven": 1862,
      "ianeg": 1863,
      "broadel": 1864,
      "olo": 1865,
      "fra": 1866,
      "gour": 1867,
      "wech": 1868,
      "urzh": 1869,
      "Dou": 1870,
      "Kembre": 1871,
      "str": 1872,
      "avat": 1873,
      "12": 1874,
      "Gant": 1875,
      "perzh": 1876,
      "Roazh": 1877,
      "kre": 1878,
      "Roazhon": 1879,
      "izh": 1880,
      "tamm": 1881,
      "stri": 1882,
      "Ab": 1883,
      "sin": 1884,
      "mare": 1885,
      "fri": 1886,
      "het": 1887,
      "ublik": 1888,
      "sevel": 1889,
      "ennañ": 1890,
      "anezhañ": 1891,
      "labour": 1892,
      "Ist": 1893,
      "La": 1894,
      "veur": 1895,
      "ya": 1896,
      "disheñvel": 1897,
      "th": 1898,
      "etu": 1899,
      "aoe": 1900,
      "ornô": 1901,
      "rest": 1902,
      "ba": 1903,
      "tri": 1904,
      "goun": 1905,
      "...": 1906,
      "dezhañ": 1907,
      "ologiezh": 1908,
      "gent": 1909,
      "mont": 1910,
      "193": 1911,
      "ñver": 1912,
      "dindan": 1913,
      "ornôg": 1914,
      "ened": 1915,
      "pell": 1916,
      "evre": 1917,
      "go": 1918,
      "wan": 1919,
      "ika": 1920,
      "kement": 1921,
      "ien": 1922,
      "skrivagn": 1923,
      "sonerezh": 1924,
      "hoari": 1925,
      "192": 1926,
      "bep": 1927,
      "eiz": 1928,
      "werzh": 1929,
      "eng": 1930,
      "gantañ": 1931,
      "Dre": 1932,
      "liamm": 1933,
      "gwir": 1934,
      "Su": 1935,
      "eneg": 1936,
      "roue": 1937,
      "Istor": 1938,
      "pala": 1939,
      "rel": 1940,
      "su": 1941,
      "iek": 1942,
      "diz": 1943,
      "ivel": 1944,
      "skritur": 1945,
      "tron": 1946,
      "klask": 1947,
      "lin": 1948,
      "dalc": 1949,
      "Rou": 1950,
      "darn": 1951,
      "fed": 1952,
      "ie": 1953,
      "oned": 1954,
      "ation": 1955,
      "heller": 1956,
      "Fran": 1957,
      "ach": 1958,
      "ale": 1959,
      "skiant": 1960,
      "hom": 1961,
      "iad": 1962,
      "rock": 1963,
      "bihan": 1964,
      "Fr": 1965,
      "fer": 1966,
      "reer": 1967,
      "had": 1968,
      "omun": 1969,
      "vije": 1970,
      "lerc": 1971,
      "tion": 1972,
      "fin": 1973,
      "miz": 1974,
      "evr": 1975,
      "Kan": 1976,
      "bloaz": 1977,
      "bev": 1978,
      "kreiz": 1979,
      "las": 1980,
      "atal": 1981,
      "Am": 1982,
      "Gen": 1983,
      "po": 1984,
      "walc": 1985,
      "oneg": 1986,
      "erion": 1987,
      "embannet": 1988,
      "11": 1989,
      "levr": 1990,
      "\",": 1991,
      "udet": 1992,
      "diwezh": 1993,
      "iziv": 1994,
      "lod": 1995,
      "brezel": 1996,
      "mili": 1997,
      "elek": 1998,
      "oni": 1999,
      "che": 2000,
      "Penn": 2001,
      "kozh": 2002,
      "Kem": 2003,
      "to": 2004,
      "skeu": 2005,
      "atom": 2006,
      "IS": 2007,
      "led": 2008,
      "arouez": 2009,
      "Enez": 2010,
      "kalz": 2011,
      "nig": 2012,
      "anavez": 2013,
      "Frañs": 2014,
      "cha": 2015,
      "voud": 2016,
      "enep": 2017,
      "aouenn": 2018,
      "Je": 2019,
      "Tre": 2020,
      "aned": 2021,
      "raeg": 2022,
      "Roll": 2023,
      "Rep": 2024,
      "aj": 2025,
      "fam": 2026,
      "chenn": 2027,
      "Stad": 2028,
      "ign": 2029,
      "lavaret": 2030,
      "forc": 2031,
      "Evit": 2032,
      "vogalenn": 2033,
      "Bi": 2034,
      "ezon": 2035,
      "gentañ": 2036,
      "Saoz": 2037,
      "Setu": 2038,
      "ire": 2039,
      "disp": 2040,
      "anvioù": 2041,
      "Stroll": 2042,
      "Jo": 2043,
      "ay": 2044,
      "idi": 2045,
      "alamour": 2046,
      "nebeud": 2047,
      "’)": 2048,
      "Skol": 2049,
      "krouet": 2050,
      "les": 2051,
      "sell": 2052,
      "vefe": 2053,
      "\".": 2054,
      "gre": 2055,
      "ust": 2056,
      "izik": 2057,
      "dar": 2058,
      "Not": 2059,
      "va": 2060,
      "resis": 2061,
      "Bri": 2062,
      "Ti": 2063,
      "dour": 2064,
      "sant": 2065,
      "reiñ": 2066,
      "lodenn": 2067,
      "estr": 2068,
      "Skri": 2069,
      "Dis": 2070,
      "mon": 2071,
      "lizherenneg": 2072,
      "reol": 2073,
      "abaoe": 2074,
      "familh": 2075,
      "Pl": 2076,
      "adurel": 2077,
      "hioù": 2078,
      "ijin": 2079,
      "angu": 2080,
      "vrezhon": 2081,
      "Daou": 2082,
      "antelezh": 2083,
      "levezon": 2084,
      "kaset": 2085,
      "kloz": 2086,
      "glev": 2087,
      "loaz": 2088,
      "mo": 2089,
      "elezh": 2090,
      "gwiri": 2091,
      "termen": 2092,
      "sa": 2093,
      "dior": 2094,
      "itar": 2095,
      "Alam": 2096,
      "bout": 2097,
      "kont": 2098,
      "Lec": 2099,
      "Sp": 2100,
      "kêr": 2101,
      "eriadur": 2102,
      "hienn": 2103,
      "Republik": 2104,
      "Na": 2105,
      "aat": 2106,
      "pet": 2107,
      "ere": 2108,
      "At": 2109,
      "hor": 2110,
      "mem": 2111,
      "diforc": 2112,
      "omm": 2113,
      "labenn": 2114,
      "ouzhpenn": 2115,
      "Bret": 2116,
      "bod": 2117,
      "hir": 2118,
      "roman": 2119,
      "istan": 2120,
      "sonenn": 2121,
      "Ret": 2122,
      "don": 2123,
      "kad": 2124,
      "oull": 2125,
      "stad": 2126,
      "190": 2127,
      "keñver": 2128,
      "Ch": 2129,
      "lâ": 2130,
      "skoli": 2131,
      "ow": 2132,
      "traoù": 2133,
      "milion": 2134,
      "io": 2135,
      "vogalennoù": 2136,
      "vioù": 2137,
      "aos": 2138,
      "muioc": 2139,
      "vrasañ": 2140,
      "Ren": 2141,
      "rumm": 2142,
      "zu": 2143,
      "rog": 2144,
      "Du": 2145,
      "Kar": 2146,
      "War": 2147,
      "eeun": 2148,
      "gomz": 2149,
      "zeu": 2150,
      "emm": 2151,
      "Yann": 2152,
      "bobl": 2153,
      "part": 2154,
      "dev": 2155,
      "ff": 2156,
      "kañ": 2157,
      "tost": 2158,
      "alek": 2159,
      "stêr": 2160,
      "sket": 2161,
      "brezhonek": 2162,
      "India": 2163,
      "(\"": 2164,
      "Amer": 2165,
      "Ken": 2166,
      "rannvro": 2167,
      "=\"": 2168,
      "Ba": 2169,
      "Veur": 2170,
      "pen": 2171,
      "gwelet": 2172,
      "treuz": 2173,
      "silabenn": 2174,
      "30": 2175,
      "Pro": 2176,
      "ru": 2177,
      "eno": 2178,
      "riz": 2179,
      "embraeg": 2180,
      "kaver": 2181,
      "(‘": 2182,
      "bu": 2183,
      "bezh": 2184,
      "ded": 2185,
      "des": 2186,
      "ts": 2187,
      "tek": 2188,
      "ous": 2189,
      "rig": 2190,
      "Jean": 2191,
      "hiziv": 2192,
      "koul": 2193,
      "vont": 2194,
      "avet": 2195,
      "tiek": 2196,
      "orin": 2197,
      "relij": 2198,
      "\")": 2199,
      "atur": 2200,
      "dalvez": 2201,
      "politikel": 2202,
      "ine": 2203,
      "sonennoù": 2204,
      "Hen": 2205,
      "êrioù": 2206,
      "ong": 2207,
      "edoù": 2208,
      "doareoù": 2209,
      "liesañ": 2210,
      "Implij": 2211,
      "fem": 2212,
      "tenn": 2213,
      "abalamour": 2214,
      "hepken": 2215,
      "Hervez": 2216,
      "idigezh": 2217,
      "istem": 2218,
      "arnamant": 2219,
      "Az": 2220,
      "Se": 2221,
      "touez": 2222,
      "vremañ": 2223,
      "reder": 2224,
      "189": 2225,
      "heul": 2226,
      "arm": 2227,
      "liz": 2228,
      "varv": 2229,
      "risten": 2230,
      "ip": 2231,
      "ement": 2232,
      "amp": 2233,
      "depart": 2234,
      "broioù": 2235,
      "zisk": 2236,
      "dezho": 2237,
      "oñj": 2238,
      "ieg": 2239,
      "tan": 2240,
      "rae": 2241,
      "gaver": 2242,
      "eas": 2243,
      "fi": 2244,
      "kat": 2245,
      "mod": 2246,
      "vev": 2247,
      "abeg": 2248,
      "uli": 2249,
      "alarn": 2250,
      "dam": 2251,
      "Unaniezh": 2252,
      "elektron": 2253,
      "departamant": 2254,
      "bouez": 2255,
      "vat": 2256,
      "vloaz": 2257,
      "oueg": 2258,
      "que": 2259,
      "50": 2260,
      "Ro": 2261,
      "Rom": 2262,
      "ca": 2263,
      "kin": 2264,
      "pat": 2265,
      "stour": 2266,
      "evar": 2267,
      "lizherennoù": 2268,
      "lusk": 2269,
      "anavezet": 2270,
      "lâret": 2271,
      "Bed": 2272,
      "Ou": 2273,
      "pouez": 2274,
      "êri": 2275,
      "ile": 2276,
      "bret": 2277,
      "kentoc": 2278,
      "hengoun": 2279,
      "ph": 2280,
      "sistem": 2281,
      "ill": 2282,
      "digezhioù": 2283,
      "Gall": 2284,
      "diñ": 2285,
      "rin": 2286,
      "unvan": 2287,
      "uzul": 2288,
      "taol": 2289,
      "Notennoù": 2290,
      "Iliz": 2291,
      "bo": 2292,
      "norzh": 2293,
      "ered": 2294,
      "ital": 2295,
      "log": 2296,
      "pac": 2297,
      "olik": 2298,
      "marc": 2299,
      "frika": 2300,
      "Lo": 2301,
      "Nor": 2302,
      "peo": 2303,
      "brudet": 2304,
      "Brest": 2305,
      "do": 2306,
      "gres": 2307,
      "zel": 2308,
      "antoù": 2309,
      "zhet": 2310,
      "eriezh": 2311,
      "skrid": 2312,
      "bennak": 2313,
      "Nevez": 2314,
      "ku": 2315,
      "ker": 2316,
      "ry": 2317,
      "ue": 2318,
      "amañ": 2319,
      "lot": 2320,
      "anezhi": 2321,
      "nebeut": 2322,
      "Amerika": 2323,
      "Mer": 2324,
      "Meneg": 2325,
      "fizik": 2326,
      "Gweng": 2327,
      "skrivagner": 2328,
      "Strollad": 2329,
      "memes": 2330,
      "skolioù": 2331,
      "Implijet": 2332,
      "Mont": 2333,
      "ee": 2334,
      "mp": 2335,
      "teg": 2336,
      "ener": 2337,
      "vezont": 2338,
      "age": 2339,
      "maez": 2340,
      "etrebroadel": 2341,
      "rannyezh": 2342,
      "wechoù": 2343,
      "urzhiat": 2344,
      "co": 2345,
      "22": 2346,
      "Is": 2347,
      "bann": 2348,
      "vuhez": 2349,
      "wa": 2350,
      "deiz": 2351,
      "strolladoù": 2352,
      "hornôg": 2353,
      "tour": 2354,
      "amer": 2355,
      "leur": 2356,
      "Brezel": 2357,
      "Bez": 2358,
      "gitar": 2359,
      "kemer": 2360,
      "omunour": 2361,
      "hu": 2362,
      "heu": 2363,
      "natur": 2364,
      "vui": 2365,
      "elloù": 2366,
      "danvez": 2367,
      "Ha": 2368,
      "berzh": 2369,
      "pp": 2370,
      "»,": 2371,
      "ouek": 2372,
      "dibenn": 2373,
      "aoueg": 2374,
      "be": 2375,
      "sen": 2376,
      "gouarnamant": 2377,
      "palaeriezh": 2378,
      "hn": 2379,
      "erioù": 2380,
      "enni": 2381,
      "riñ": 2382,
      "adegoù": 2383,
      "fraz": 2384,
      "Douar": 2385,
      "Meneger": 2386,
      "BN": 2387,
      "dek": 2388,
      "mas": 2389,
      "pobl": 2390,
      "ada": 2391,
      "gwel": 2392,
      "vij": 2393,
      "okial": 2394,
      "harz": 2395,
      "ompren": 2396,
      "Goude": 2397,
      "Tibet": 2398,
      "Alamagn": 2399,
      "Ber": 2400,
      "bel": 2401,
      "land": 2402,
      "adalek": 2403,
      "stum": 2404,
      "rag": 2405,
      "emglev": 2406,
      "evredigezh": 2407,
      "Ad": 2408,
      "ht": 2409,
      "ks": 2410,
      "soñj": 2411,
      "yn": 2412,
      "ezet": 2413,
      "ourion": 2414,
      "daoust": 2415,
      "brasañ": 2416,
      "Naoned": 2417,
      "21": 2418,
      "dif": 2419,
      "edel": 2420,
      "reter": 2421,
      "hoarvez": 2422,
      "vrezhonek": 2423,
      "Oli": 2424,
      "Rann": 2425,
      "Rus": 2426,
      "bremañ": 2427,
      "tez": 2428,
      "skoude": 2429,
      "elfennoù": 2430,
      "Levr": 2431,
      "ron": 2432,
      "rad": 2433,
      "are": 2434,
      "ari": 2435,
      "rek": 2436,
      "aouennoù": 2437,
      "deroù": 2438,
      "skeudenn": 2439,
      "Rop": 2440,
      "distaget": 2441,
      "Gan": 2442,
      "Tro": 2443,
      "hon": 2444,
      "ugale": 2445,
      "stourm": 2446,
      "Gwengolo": 2447,
      "Mo": 2448,
      "erez": 2449,
      "Diwan": 2450,
      "Emsav": 2451,
      "keltiek": 2452,
      "Genver": 2453,
      "gwirion": 2454,
      "Dav": 2455,
      "Gra": 2456,
      "dr": 2457,
      "ga": 2458,
      "gêr": 2459,
      "let": 2460,
      "mil": 2461,
      "mir": 2462,
      "ois": 2463,
      "arc": 2464,
      "diab": 2465,
      "egel": 2466,
      "emon": 2467,
      "spered": 2468,
      "hanter": 2469,
      "gelaouenn": 2470,
      "elfenn": 2471,
      "sina": 2472,
      "erz": 2473,
      "live": 2474,
      "emsav": 2475,
      "breton": 2476,
      "diabarzh": 2477,
      "Norzh": 2478,
      "bour": 2479,
      "nek": 2480,
      "tit": 2481,
      "ys": 2482,
      "ouz": 2483,
      "stan": 2484,
      "linenn": 2485,
      "ISBN": 2486,
      "Hemon": 2487,
      "Per": 2488,
      "bell": 2489,
      "pal": 2490,
      "zouez": 2491,
      "art": 2492,
      "rol": 2493,
      "dave": 2494,
      "raz": 2495,
      "levrioù": 2496,
      "labou": 2497,
      "diazezet": 2498,
      "emeret": 2499,
      "24": 2500,
      "El": 2501,
      "Lu": 2502,
      "frank": 2503,
      "gev": 2504,
      "giz": 2505,
      "langu": 2506,
      "so": 2507,
      "eveu": 2508,
      "Azia": 2509,
      "Re": 2510,
      "You": 2511,
      "bia": 2512,
      "gor": 2513,
      "sur": 2514,
      "tred": 2515,
      "has": 2516,
      "renk": 2517,
      "ingu": 2518,
      "empred": 2519,
      "Dont": 2520,
      "hres": 2521,
      "ozh": 2522,
      "ée": 2523,
      "ganti": 2524,
      "izel": 2525,
      "isp": 2526,
      "2000": 2527,
      "Here": 2528,
      "ganet": 2529,
      "test": 2530,
      "rik": 2531,
      "rizi": 2532,
      "oberenn": 2533,
      "galloud": 2534,
      "Int": 2535,
      "Kerzu": 2536,
      "ukle": 2537,
      "sevenadur": 2538,
      "Reter": 2539,
      "He": 2540,
      "min": 2541,
      "zont": 2542,
      "|-": 2543,
      "gante": 2544,
      "ikan": 2545,
      "ester": 2546,
      "lezenn": 2547,
      "relijion": 2548,
      "Roparz": 2549,
      "Gal": 2550,
      "Kel": 2551,
      "Vreizh": 2552,
      "fur": 2553,
      "hont": 2554,
      "hog": 2555,
      "sik": 2556,
      "soud": 2557,
      "hat": 2558,
      "desk": 2559,
      "aouank": 2560,
      "garg": 2561,
      "perzhioù": 2562,
      "werzhon": 2563,
      "diorroet": 2564,
      "Gu": 2565,
      "Ital": 2566,
      "Miz": 2567,
      "gas": 2568,
      "enin": 2569,
      "stali": 2570,
      "eol": 2571,
      "diwezhañ": 2572,
      "penaos": 2573,
      "Sa": 2574,
      "So": 2575,
      "bou": 2576,
      "buhez": 2577,
      "veg": 2578,
      "dachenn": 2579,
      "teuas": 2580,
      "Pariz": 2581,
      "Spagn": 2582,
      "bom": 2583,
      "con": 2584,
      "nukle": 2585,
      "skin": 2586,
      "roued": 2587,
      "ugent": 2588,
      "ernoz": 2589,
      "turk": 2590,
      "produ": 2591,
      "Brezhon": 2592,
      "Kemper": 2593,
      "John": 2594,
      "Evel": 2595,
      "Of": 2596,
      "Tur": 2597,
      "kor": 2598,
      "nerzh": 2599,
      "tor": 2600,
      "ñch": 2601,
      "digor": 2602,
      "apan": 2603,
      "gresianeg": 2604,
      "23": 2605,
      "Jez": 2606,
      "Me": 2607,
      "bre": 2608,
      "fr": 2609,
      "gu": 2610,
      "hevel": 2611,
      "lêri": 2612,
      "ni": 2613,
      "sel": 2614,
      "yezhoniezh": 2615,
      "ress": 2616,
      "morfem": 2617,
      "mmoù": 2618,
      "kreñv": 2619,
      "tekn": 2620,
      "patrom": 2621,
      "urzhiataer": 2622,
      "vuiañ": 2623,
      "soudard": 2624,
      "27": 2625,
      "Lou": 2626,
      "ban": 2627,
      "bek": 2628,
      "gin": 2629,
      "mell": 2630,
      "mouezh": 2631,
      "pla": 2632,
      "val": 2633,
      "vil": 2634,
      "end": 2635,
      "one": 2636,
      "azi": 2637,
      "Gouere": 2638,
      "New": 2639,
      "Mezh": 2640,
      "Pêr": 2641,
      "pevar": 2642,
      "sokial": 2643,
      "vod": 2644,
      "leiz": 2645,
      "viedel": 2646,
      "haller": 2647,
      "idant": 2648,
      "kelenn": 2649,
      "peurliesañ": 2650,
      "armerzh": 2651,
      "heuli": 2652,
      "Mal": 2653,
      "no": 2654,
      "not": 2655,
      "ezenn": 2656,
      "liv": 2657,
      "izili": 2658,
      "lennegezh": 2659,
      "darempred": 2660,
      "hevelep": 2661,
      "Dist": 2662,
      "Ge": 2663,
      "Man": 2664,
      "Uhel": 2665,
      "ask": 2666,
      "bin": 2667,
      "col": 2668,
      "com": 2669,
      "far": 2670,
      "gevredigezh": 2671,
      "we": 2672,
      "yaouank": 2673,
      "ziv": 2674,
      "ikel": 2675,
      "skridoù": 2676,
      "doue": 2677,
      "Mae": 2678,
      "kevre": 2679,
      "Brezhoneg": 2680,
      "Eus": 2681,
      "Pet": 2682,
      "Ul": 2683,
      "mel": 2684,
      "sit": 2685,
      "illi": 2686,
      "hec": 2687,
      "agne": 2688,
      "renket": 2689,
      "diviz": 2690,
      "servij": 2691,
      "koulz": 2692,
      "80": 2693,
      "Afrika": 2694,
      "Kreiz": 2695,
      "Tad": 2696,
      "Vi": 2697,
      "deo": 2698,
      "lam": 2699,
      "sh": 2700,
      "toull": 2701,
      "yr": 2702,
      "cher": 2703,
      "otop": 2704,
      "muiañ": 2705,
      "skrivagnerien": 2706,
      "klozadur": 2707,
      "katolik": 2708,
      "Mezheven": 2709,
      "29": 2710,
      "Bel": 2711,
      "De": 2712,
      "gann": 2713,
      "gumun": 2714,
      "lan": 2715,
      "ment": 2716,
      "seg": 2717,
      "vezh": 2718,
      "yle": 2719,
      "alou": 2720,
      "dir": 2721,
      "isial": 2722,
      "gwech": 2723,
      "brel": 2724,
      "dremen": 2725,
      "tiri": 2726,
      "gouest": 2727,
      "2005": 2728,
      "Den": 2729,
      "Ger": 2730,
      "Izel": 2731,
      "lar": 2732,
      "neu": 2733,
      "rus": 2734,
      "ure": 2735,
      "ze": 2736,
      "ão": 2737,
      "arez": 2738,
      "liester": 2739,
      "lavarout": 2740,
      "astell": 2741,
      "displ": 2742,
      "ziskouez": 2743,
      "Tud": 2744,
      "jenn": 2745,
      "nij": 2746,
      "tab": 2747,
      "vest": 2748,
      "oleg": 2749,
      "mab": 2750,
      "europ": 2751,
      "uzuli": 2752,
      "marv": 2753,
      "eskob": 2754,
      "hentañ": 2755,
      "oung": 2756,
      "Rouantelezh": 2757,
      "atomek": 2758,
      "ijinet": 2759,
      "eveureg": 2760,
      "ispisial": 2761,
      "Dia": 2762,
      "Ebrel": 2763,
      "Tri": 2764,
      "eñ": 2765,
      "kaoz": 2766,
      "pred": 2767,
      "ар": 2768,
      "arao": 2769,
      "etrez": 2770,
      "dik": 2771,
      "sko": 2772,
      "olek": 2773,
      "outañ": 2774,
      "tres": 2775,
      "pleu": 2776,
      "merket": 2777,
      "divyezh": 2778,
      "derc": 2779,
      "berr": 2780,
      "luc": 2781,
      "alaman": 2782,
      "Meurzh": 2783,
      "Doue": 2784,
      "ational": 2785,
      "dispar": 2786,
      "reolennoù": 2787,
      "boutin": 2788,
      "Intern": 2789,
      "rouedad": 2790,
      "''": 2791,
      "Div": 2792,
      "Les": 2793,
      "Mao": 2794,
      "Sc": 2795,
      "Tra": 2796,
      "Young": 2797,
      "geriadur": 2798,
      "henn": 2799,
      "kim": 2800,
      "krog": 2801,
      "oant": 2802,
      "pemp": 2803,
      "ral": 2804,
      "tak": 2805,
      "onia": 2806,
      "dib": 2807,
      "dastum": 2808,
      "ema": 2809,
      "itivel": 2810,
      "kaout": 2811,
      "rener": 2812,
      "Gwalarn": 2813,
      "187": 2814,
      "1980": 2815,
      "houarn": 2816,
      "kinnig": 2817,
      "Rusia": 2818,
      "25": 2819,
      "88": 2820,
      "Bar": 2821,
      "Ed": 2822,
      "Eil": 2823,
      "Etre": 2824,
      "Vall": 2825,
      "aw": 2826,
      "dennoù": 2827,
      "ida": 2828,
      "kumun": 2829,
      "prez": 2830,
      "elioù": 2831,
      "enne": 2832,
      "añv": 2833,
      "ith": 2834,
      "zoken": 2835,
      "iva": 2836,
      "rouantelezh": 2837,
      "pennad": 2838,
      "vare": 2839,
      "weler": 2840,
      "rummad": 2841,
      "Italia": 2842,
      "Met": 2843,
      "Po": 2844,
      "ja": 2845,
      "net": 2846,
      "pin": 2847,
      "style": 2848,
      "ativel": 2849,
      "laer": 2850,
      "aozet": 2851,
      "rannet": 2852,
      "troet": 2853,
      "rennamzer": 2854,
      "Impalaeriezh": 2855,
      "Daoust": 2856,
      "luskad": 2857,
      "Soviedel": 2858,
      "Doare": 2859,
      "Har": 2860,
      "gemer": 2861,
      "hev": 2862,
      "km": 2863,
      "kembraeg": 2864,
      "mi": 2865,
      "niv": 2866,
      "sint": 2867,
      "ezhomm": 2868,
      "dian": 2869,
      "dist": 2870,
      "dibar": 2871,
      "ganto": 2872,
      "izotop": 2873,
      "aot": 2874,
      "aget": 2875,
      "gwell": 2876,
      "trec": 2877,
      "pleg": 2878,
      "Bretagne": 2879,
      "kadarn": 2880,
      "Ouzh": 2881,
      "logiezh": 2882,
      "frazenn": 2883,
      "31": 2884,
      "Char": 2885,
      "Vro": 2886,
      "ben": 2887,
      "dont": 2888,
      "mant": 2889,
      "laz": 2890,
      "annez": 2891,
      "impala": 2892,
      "mesk": 2893,
      "gensonenn": 2894,
      "Franç": 2895,
      "skiantoù": 2896,
      "Atl": 2897,
      "amerikan": 2898,
      "labourat": 2899,
      "Kal": 2900,
      "Pobl": 2901,
      "ai": 2902,
      "bri": 2903,
      "kom": 2904,
      "menn": 2905,
      "nolog": 2906,
      "von": 2907,
      "arg": 2908,
      "atav": 2909,
      "olenn": 2910,
      "ive": 2911,
      "kevatal": 2912,
      "politikerezh": 2913,
      "hengounel": 2914,
      "90": 2915,
      "Co": 2916,
      "Dan": 2917,
      "Lod": 2918,
      "Pal": 2919,
      "Sal": 2920,
      "Ter": 2921,
      "gwar": 2922,
      "heg": 2923,
      "sez": 2924,
      "zeg": 2925,
      "org": 2926,
      "ork": 2927,
      "ass": 2928,
      "renet": 2929,
      "vihan": 2930,
      "spes": 2931,
      "spagn": 2932,
      "anezhe": 2933,
      "alamaneg": 2934,
      "strizh": 2935,
      "liammet": 2936,
      "Treuz": 2937,
      "fiñv": 2938,
      "Jezuz": 2939,
      "60": 2940,
      "Col": 2941,
      "Iwerzhon": 2942,
      "bra": 2943,
      "if": 2944,
      "jik": 2945,
      "pre": 2946,
      "vent": 2947,
      "aset": 2948,
      "ourr": 2949,
      "zoare": 2950,
      "ikoù": 2951,
      "gwenn": 2952,
      "aozadur": 2953,
      "ander": 2954,
      "vroadel": 2955,
      "1960": 2956,
      "houde": 2957,
      "dizalc": 2958,
      "voudoù": 2959,
      "kuit": 2960,
      "Bo": 2961,
      "Ben": 2962,
      "Geriadur": 2963,
      "Min": 2964,
      "On": 2965,
      "hal": 2966,
      "hun": 2967,
      "ienn": 2968,
      "nag": 2969,
      "pr": 2970,
      "sañ": 2971,
      "zen": 2972,
      "antouek": 2973,
      "ros": 2974,
      "ink": 2975,
      "gwall": 2976,
      "tremen": 2977,
      "lennadur": 2978,
      "hoariva": 2979,
      "dezhi": 2980,
      "Leon": 2981,
      "Gane": 2982,
      "Ouzhpenn": 2983,
      "François": 2984,
      "Be": 2985,
      "Kern": 2986,
      "Peur": 2987,
      "aes": 2988,
      "breizh": 2989,
      "glask": 2990,
      "hoù": 2991,
      "kou": 2992,
      "mez": 2993,
      "eta": 2994,
      "reont": 2995,
      "lost": 2996,
      "kenañ": 2997,
      "hollek": 2998,
      "185": 2999,
      "ugarez": 3000,
      "Disk": 3001,
      "forzh": 3002,
      "arzourien": 3003,
      "hanternoz": 3004,
      "ichen": 3005,
      "III": 3006,
      "evrer": 3007,
      "cheñch": 3008,
      "Bu": 3009,
      "ces": 3010,
      "gad": 3011,
      "kl": 3012,
      "kristen": 3013,
      "nes": 3014,
      "etik": 3015,
      "ela": 3016,
      "dirak": 3017,
      "stat": 3018,
      "eusk": 3019,
      "lazhet": 3020,
      "savas": 3021,
      "lennegel": 3022,
      "2001": 3023,
      "Kanada": 3024,
      "Graet": 3025,
      "Breiz": 3026,
      "Ho": 3027,
      "Kumun": 3028,
      "Ober": 3029,
      "Te": 3030,
      "Tal": 3031,
      "Ver": 3032,
      "iañ": 3033,
      "leun": 3034,
      "nez": 3035,
      "nac": 3036,
      "vamm": 3037,
      "zek": 3038,
      "areg": 3039,
      "yezhadur": 3040,
      "ages": 3041,
      "gallek": 3042,
      "Lizher": 3043,
      "1970": 3044,
      "Paul": 3045,
      "stummoù": 3046,
      "sevenadurel": 3047,
      "gouren": 3048,
      "levezonet": 3049,
      "peogwir": 3050,
      "leurenn": 3051,
      "gwirionez": 3052,
      "Turk": 3053,
      "Ganedigezhioù": 3054,
      "28": 3055,
      "35": 3056,
      "Aost": 3057,
      "ER": 3058,
      "Eth": 3059,
      "Grennamzer": 3060,
      "Kent": 3061,
      "Koul": 3062,
      "Kavet": 3063,
      "Pont": 3064,
      "dad": 3065,
      "drou": 3066,
      "fet": 3067,
      "gont": 3068,
      "tin": 3069,
      "welet": 3070,
      "albom": 3071,
      "ata": 3072,
      "ish": 3073,
      "ourioù": 3074,
      "Ski": 3075,
      "2006": 3076,
      "Indez": 3077,
      "sellet": 3078,
      "Breton": 3079,
      "26": 3080,
      "Car": 3081,
      "Lev": 3082,
      "Press": 3083,
      "del": 3084,
      "kichen": 3085,
      "mek": 3086,
      "oe": 3087,
      "pri": 3088,
      "ted": 3089,
      "sking": 3090,
      "eder": 3091,
      "ambl": 3092,
      "1990": 3093,
      "kavout": 3094,
      "orioù": 3095,
      "Embann": 3096,
      "degemeret": 3097,
      "Levrlennadur": 3098,
      "Youenn": 3099,
      "Ofis": 3100,
      "Eost": 3101,
      "Langu": 3102,
      "Test": 3103,
      "beg": 3104,
      "fenn": 3105,
      "pel": 3106,
      "oniel": 3107,
      "indez": 3108,
      "ors": 3109,
      "aodoù": 3110,
      "leñv": 3111,
      "gouz": 3112,
      "goulenn": 3113,
      "implijout": 3114,
      "1999": 3115,
      "Diwar": 3116,
      "distagañ": 3117,
      "ortug": 3118,
      "diskouez": 3119,
      "horf": 3120,
      "bourc": 3121,
      "inguist": 3122,
      "hogen": 3123,
      "Ethnolog": 3124,
      "Frank": 3125,
      "Kon": 3126,
      "Komz": 3127,
      "Mich": 3128,
      "Si": 3129,
      "fa": 3130,
      "forn": 3131,
      "kompren": 3132,
      "teo": 3133,
      "ues": 3134,
      "ym": 3135,
      "ers": 3136,
      "rev": 3137,
      "skoaz": 3138,
      "los": 3139,
      "reizhiad": 3140,
      "droad": 3141,
      "okrat": 3142,
      "menez": 3143,
      "echu": 3144,
      "niverenn": 3145,
      "bert": 3146,
      "1940": 3147,
      "teir": 3148,
      "boblañs": 3149,
      "ipt": 3150,
      "naturel": 3151,
      "sintezel": 3152,
      "Con": 3153,
      "Cha": 3154,
      "Japan": 3155,
      "Pier": 3156,
      "Willi": 3157,
      "boud": 3158,
      "kornôg": 3159,
      "nam": 3160,
      "tont": 3161,
      "eneb": 3162,
      "erger": 3163,
      "oas": 3164,
      "imiezh": 3165,
      "gwan": 3166,
      "ogra": 3167,
      "rannyezhoù": 3168,
      "1994": 3169,
      "1998": 3170,
      "bloavezh": 3171,
      "eben": 3172,
      "hwevrer": 3173,
      "Skriv": 3174,
      "staliet": 3175,
      "darempredoù": 3176,
      "70": 3177,
      "Ara": 3178,
      "Ko": 3179,
      "Ri": 3180,
      "ais": 3181,
      "bon": 3182,
      "fil": 3183,
      "kro": 3184,
      "evezh": 3185,
      "skourr": 3186,
      "arnod": 3187,
      "Liger": 3188,
      "kemm": 3189,
      "Marvioù": 3190,
      "reisteiz": 3191,
      "1945": 3192,
      "Olier": 3193,
      "Atlantel": 3194,
      "Adal": 3195,
      "Go": 3196,
      "Krou": 3197,
      "Krist": 3198,
      "Sing": 3199,
      "ds": 3200,
      "vugale": 3201,
      "alt": 3202,
      "stil": 3203,
      "emokrat": 3204,
      "omin": 3205,
      "Studi": 3206,
      "Gwel": 3207,
      "blant": 3208,
      "2003": 3209,
      "tapet": 3210,
      "plant": 3211,
      "dispac": 3212,
      "olitikerezh": 3213,
      "Bibl": 3214,
      "zeuas": 3215,
      "tredan": 3216,
      "Ethnologue": 3217,
      "40": 3218,
      "As": 3219,
      "Bon": 3220,
      "Mon": 3221,
      "fell": 3222,
      "feur": 3223,
      "kern": 3224,
      "avel": 3225,
      "loc": 3226,
      "eurt": 3227,
      "istr": 3228,
      "Gwened": 3229,
      "2002": 3230,
      "1977": 3231,
      "kevrenn": 3232,
      "oniour": 3233,
      "Dispac": 3234,
      "rizienn": 3235,
      ".:": 3236,
      "Nep": 3237,
      "Pol": 3238,
      "Ser": 3239,
      "Sam": 3240,
      "Xvet": 3241,
      "bat": 3242,
      "ly": 3243,
      "nor": 3244,
      "sol": 3245,
      "ses": 3246,
      "uj": 3247,
      "arme": 3248,
      "egile": 3249,
      "skign": 3250,
      "atoc": 3251,
      "ole": 3252,
      "renadenn": 3253,
      "vroioù": 3254,
      "2004": 3255,
      "niveroù": 3256,
      "verboù": 3257,
      "Amzer": 3258,
      "Bihan": 3259,
      "gresk": 3260,
      "buan": 3261,
      "kemeret": 3262,
      "Vallée": 3263,
      "William": 3264,
      "Dar": 3265,
      "Rober": 3266,
      "bur": 3267,
      "ji": 3268,
      "komunour": 3269,
      "nañ": 3270,
      "tennañ": 3271,
      "vouezh": 3272,
      "zis": 3273,
      "arvest": 3274,
      "oue": 3275,
      "skra": 3276,
      "asambl": 3277,
      "dreuz": 3278,
      "tic": 3279,
      "igoù": 3280,
      "188": 3281,
      "1991": 3282,
      "person": 3283,
      "silabenneg": 3284,
      "harzoù": 3285,
      "divyezhek": 3286,
      "ortugal": 3287,
      "59": 3288,
      "Komunour": 3289,
      "Mat": 3290,
      "SI": 3291,
      "XV": 3292,
      "bad": 3293,
      "bol": 3294,
      "glot": 3295,
      "publik": 3296,
      "tou": 3297,
      "uilh": 3298,
      "ves": 3299,
      "vout": 3300,
      "viñ": 3301,
      "anek": 3302,
      "arall": 3303,
      "envez": 3304,
      "vezout": 3305,
      "ama": 3306,
      "loened": 3307,
      "oberi": 3308,
      "ice": 3309,
      "saoznek": 3310,
      "sifr": 3311,
      "rennlavar": 3312,
      "Kerne": 3313,
      "hwec": 3314,
      "Dave": 3315,
      "drugarez": 3316,
      "sañskri": 3317,
      "Koulskoude": 3318,
      "Komzet": 3319,
      "Pierre": 3320,
      "Adalek": 3321,
      "Ac": 3322,
      "Mil": 3323,
      "XI": 3324,
      "can": 3325,
      "nann": 3326,
      "porzh": 3327,
      "sim": 3328,
      "ven": 3329,
      "àr": 3330,
      "arvar": 3331,
      "enroll": 3332,
      "oug": 3333,
      "enneg": 3334,
      "añch": 3335,
      "emdez": 3336,
      "brez": 3337,
      "oberennoù": 3338,
      "186": 3339,
      "ugida": 3340,
      "ostez": 3341,
      "1981": 3342,
      "genoù": 3343,
      "douaroù": 3344,
      "istorel": 3345,
      "Frañsez": 3346,
      "Loeiz": 3347,
      "teze": 3348,
      "Louis": 3349,
      "impalaer": 3350,
      ".,": 3351,
      "Fañch": 3352,
      "OR": 3353,
      "Pen": 3354,
      "Sell": 3355,
      "Savet": 3356,
      "aeg": 3357,
      "ft": 3358,
      "geo": 3359,
      "iadoù": 3360,
      "keg": 3361,
      "klas": 3362,
      "ld": 3363,
      "lenin": 3364,
      "peg": 3365,
      "vre": 3366,
      "enklask": 3367,
      "antad": 3368,
      "emat": 3369,
      "ley": 3370,
      "annad": 3371,
      "benna": 3372,
      "kensonenn": 3373,
      "redennoù": 3374,
      "Univer": 3375,
      "digenvez": 3376,
      "ics": 3377,
      "Skos": 3378,
      "Marc": 3379,
      "1950": 3380,
      "tions": 3381,
      "ISO": 3382,
      "ledan": 3383,
      "Strolladoù": 3384,
      "kevrennek": 3385,
      "Nepal": 3386,
      ");": 3387,
      "Bre": 3388,
      "Lon": 3389,
      "Mab": 3390,
      "ci": 3391,
      "fall": 3392,
      "geri": 3393,
      "isk": 3394,
      "pos": 3395,
      "ré": 3396,
      "sek": 3397,
      "».": 3398,
      "ан": 3399,
      "anda": 3400,
      "stank": 3401,
      "roas": 3402,
      "inoù": 3403,
      "iss": 3404,
      "hier": 3405,
      "unanenn": 3406,
      "ideo": 3407,
      "hoarioù": 3408,
      "1997": 3409,
      "ques": 3410,
      "uhelañ": 3411,
      "skeudennoù": 3412,
      "turkek": 3413,
      "Skrivagn": 3414,
      "asambles": 3415,
      "36": 3416,
      "78": 3417,
      "Dig": 3418,
      "Il": 3419,
      "Jak": 3420,
      "Ka": 3421,
      "Menez": 3422,
      "No": 3423,
      "Th": 3424,
      "kos": 3425,
      "lad": 3426,
      "mu": 3427,
      "mik": 3428,
      "mestr": 3429,
      "ner": 3430,
      "ruz": 3431,
      "ouer": 3432,
      "ris": 3433,
      "goul": 3434,
      "ianed": 3435,
      "aliforn": 3436,
      "iliz": 3437,
      "nemetken": 3438,
      "regiñ": 3439,
      "Erwan": 3440,
      "distagadur": 3441,
      "diskwel": 3442,
      "omunouriezh": 3443,
      "Douaroniezh": 3444,
      "gaout": 3445,
      "prezidant": 3446,
      "spagnoleg": 3447,
      "):": 3448,
      "Braz": 3449,
      "Om": 3450,
      "Sun": 3451,
      "To": 3452,
      "Tim": 3453,
      "UA": 3454,
      "bantouek": 3455,
      "cy": 3456,
      "hemañ": 3457,
      "kiri": 3458,
      "pes": 3459,
      "alin": 3460,
      "dilenn": 3461,
      "raoueg": 3462,
      "ite": 3463,
      "eson": 3464,
      "laezh": 3465,
      "iki": 3466,
      "sport": 3467,
      "plas": 3468,
      "dezhe": 3469,
      "studiañ": 3470,
      "peurunvan": 3471,
      "liammoù": 3472,
      "Ameri": 3473,
      "Brieg": 3474,
      "soudarded": 3475,
      "alifornia": 3476,
      "Eg": 3477,
      "Hu": 3478,
      "Jac": 3479,
      "Ke": 3480,
      "Nam": 3481,
      "Pat": 3482,
      "York": 3483,
      "bal": 3484,
      "beri": 3485,
      "bac": 3486,
      "dorn": 3487,
      "fologiezh": 3488,
      "gat": 3489,
      "hem": 3490,
      "wrizienn": 3491,
      "xt": 3492,
      "êt": 3493,
      "ans": 3494,
      "strat": 3495,
      "vorig": 3496,
      "Arvorig": 3497,
      "hing": 3498,
      "blues": 3499,
      "hend": 3500,
      "1992": 3501,
      "kanaouennoù": 3502,
      "skiantel": 3503,
      "Meurvor": 3504,
      "fonem": 3505,
      "romant": 3506,
      "Brit": 3507,
      "sinaat": 3508,
      "displeg": 3509,
      "kinniget": 3510,
      "statud": 3511,
      "skingomz": 3512,
      "Testamant": 3513,
      "bennaket": 3514,
      "Aber": 3515,
      "Lab": 3516,
      "Politikerezh": 3517,
      "Son": 3518,
      "Ta": 3519,
      "ki": 3520,
      "kerzh": 3521,
      "mamm": 3522,
      "tch": 3523,
      "vol": 3524,
      "üs": 3525,
      "andir": 3526,
      "ark": 3527,
      "roc": 3528,
      "dazont": 3529,
      "aod": 3530,
      "Anv": 3531,
      "Stumm": 3532,
      "obererezh": 3533,
      "1993": 3534,
      "1996": 3535,
      "embreger": 3536,
      "klasket": 3537,
      "koulskoude": 3538,
      "pouezus": 3539,
      "pleustr": 3540,
      "viñs": 3541,
      "84": 3542,
      "Bras": 3543,
      "Desk": 3544,
      "Fizik": 3545,
      "Kastell": 3546,
      "Vret": 3547,
      "Vic": 3548,
      "fol": 3549,
      "hoc": 3550,
      "hembraeg": 3551,
      "oad": 3552,
      "poz": 3553,
      "preder": 3554,
      "tad": 3555,
      "varn": 3556,
      "ww": 3557,
      "zet": 3558,
      "enno": 3559,
      "stra": 3560,
      "lif": 3561,
      "lit": 3562,
      "emren": 3563,
      "ese": 3564,
      "oute": 3565,
      "tisk": 3566,
      "hern": 3567,
      "hiet": 3568,
      "1975": 3569,
      "chomet": 3570,
      "gwechall": 3571,
      "Peurliesañ": 3572,
      "sañskriteg": 3573,
      "Skrivagnerien": 3574,
      "Dek": 3575,
      "Gre": 3576,
      "Hor": 3577,
      "Hiziv": 3578,
      "Lan": 3579,
      "Roc": 3580,
      "Sha": 3581,
      "pas": 3582,
      "poli": 3583,
      "sal": 3584,
      "zha": 3585,
      "arab": 3586,
      "arbenn": 3587,
      "enkloz": 3588,
      "etek": 3589,
      "dic": 3590,
      "digant": 3591,
      "sklaer": 3592,
      "Ang": 3593,
      "trede": 3594,
      "Inizi": 3595,
      "oulz": 3596,
      "divink": 3597,
      "apaneg": 3598,
      "hentoù": 3599,
      "talvoud": 3600,
      "lezennoù": 3601,
      "pelloc": 3602,
      "Roue": 3603,
      "Pennadoù": 3604,
      "Henamzer": 3605,
      "europek": 3606,
      "33": 3607,
      "75": 3608,
      "Gour": 3609,
      "Holl": 3610,
      "Ni": 3611,
      "Porzh": 3612,
      "Qu": 3613,
      "UE": 3614,
      "fran": 3615,
      "hskeudenn": 3616,
      "ius": 3617,
      "ked": 3618,
      "ler": 3619,
      "tennet": 3620,
      "yd": 3621,
      "endro": 3622,
      "revel": 3623,
      "orge": 3624,
      "roud": 3625,
      "kendalc": 3626,
      "Alan": 3627,
      "meneg": 3628,
      "merkañ": 3629,
      "1995": 3630,
      "niverus": 3631,
      "staget": 3632,
      "meiz": 3633,
      "1985": 3634,
      "ologel": 3635,
      "1944": 3636,
      "1967": 3637,
      "Abaoe": 3638,
      "veuriat": 3639,
      "poent": 3640,
      "vrezhoneg": 3641,
      "relijiel": 3642,
      "Roma": 3643,
      "seniñ": 3644,
      "sikour": 3645,
      "plaen": 3646,
      "Skiantoù": 3647,
      "Jakez": 3648,
      "Vretoned": 3649,
      "',": 3650,
      "AR": 3651,
      "Kevre": 3652,
      "Mel": 3653,
      "Ph": 3654,
      "Pon": 3655,
      "TO": 3656,
      "barn": 3657,
      "cis": 3658,
      "giezh": 3659,
      "jed": 3660,
      "koll": 3661,
      "lann": 3662,
      "mes": 3663,
      "pont": 3664,
      "za": 3665,
      "ens": 3666,
      "enet": 3667,
      "hañv": 3668,
      "emz": 3669,
      "orld": 3670,
      "unander": 3671,
      "chennoù": 3672,
      "gwerzh": 3673,
      "dres": 3674,
      "ushan": 3675,
      "184": 3676,
      "unanat": 3677,
      "Diouzh": 3678,
      "1989": 3679,
      "1972": 3680,
      "stadunanat": 3681,
      "vevañ": 3682,
      "danvezioù": 3683,
      "gorre": 3684,
      "deskadurezh": 3685,
      "melestr": 3686,
      "emokratel": 3687,
      "74": 3688,
      "95": 3689,
      "Katal": 3690,
      "Linguist": 3691,
      "Yezhon": 3692,
      "fun": 3693,
      "kra": 3694,
      "moù": 3695,
      "pennoù": 3696,
      "varzh": 3697,
      "anag": 3698,
      "anaou": 3699,
      "arabeg": 3700,
      "ene": 3701,
      "onneg": 3702,
      "stur": 3703,
      "stêrioù": 3704,
      "ins": 3705,
      "rael": 3706,
      "aotre": 3707,
      "Arm": 3708,
      "pailh": 3709,
      "isto": 3710,
      "skrivadur": 3711,
      "Alban": 3712,
      "ianek": 3713,
      "hensonennoù": 3714,
      "echedoù": 3715,
      "feiz": 3716,
      "Lennegezh": 3717,
      "1969": 3718,
      "lizherennet": 3719,
      "Imbourc": 3720,
      "Even": 3721,
      "hwez": 3722,
      "poell": 3723,
      "korf": 3724,
      "International": 3725,
      "Krouet": 3726,
      "Universit": 3727,
      "500": 3728,
      "Deg": 3729,
      "Fin": 3730,
      "Ouz": 3731,
      "Pemp": 3732,
      "Rel": 3733,
      "Rich": 3734,
      "Seven": 3735,
      "aon": 3736,
      "aerezh": 3737,
      "dor": 3738,
      "ew": 3739,
      "fl": 3740,
      "grou": 3741,
      "pour": 3742,
      "setu": 3743,
      "tol": 3744,
      "vadenn": 3745,
      "ezklozadur": 3746,
      "resk": 3747,
      "reuz": 3748,
      "dieu": 3749,
      "diern": 3750,
      "ord": 3751,
      "ourel": 3752,
      "seizh": 3753,
      "lestr": 3754,
      "Gwil": 3755,
      "hellfe": 3756,
      "reizhat": 3757,
      "barzhoneg": 3758,
      "labous": 3759,
      "progra": 3760,
      "Paris": 3761,
      "fonetik": 3762,
      "framm": 3763,
      "kresk": 3764,
      "hombod": 3765,
      "Jose": 3766,
      "Rannvro": 3767,
      "frankiz": 3768,
      "boued": 3769,
      "nukleüs": 3770,
      "Belg": 3771,
      "dremenet": 3772,
      "Charles": 3773,
      "Robert": 3774,
      "Af": 3775,
      "Bur": 3776,
      "CO": 3777,
      "Gres": 3778,
      "Kri": 3779,
      "Kalifornia": 3780,
      "Lat": 3781,
      "Or": 3782,
      "Ori": 3783,
      "Ron": 3784,
      "Yves": 3785,
      "bit": 3786,
      "glo": 3787,
      "hemm": 3788,
      "kêrioù": 3789,
      "pol": 3790,
      "pao": 3791,
      "uma": 3792,
      "upl": 3793,
      "”,": 3794,
      "ardivink": 3795,
      "etr": 3796,
      "ever": 3797,
      "itek": 3798,
      "lao": 3799,
      "seblant": 3800,
      "aozer": 3801,
      "pennadoù": 3802,
      "savadur": 3803,
      "uzev": 3804,
      "verk": 3805,
      "2008": 3806,
      "merk": 3807,
      "añset": 3808,
      "harp": 3809,
      "traoñ": 3810,
      "medi": 3811,
      "skipailh": 3812,
      "dalv": 3813,
      "karg": 3814,
      "degouezh": 3815,
      "oloet": 3816,
      "Laka": 3817,
      "gwirioù": 3818,
      "romanek": 3819,
      "Tadjik": 3820,
      "Diaz": 3821,
      "kimiek": 3822,
      "takad": 3823,
      "sifroù": 3824,
      "anagari": 3825,
      "Ouzbek": 3826,
      "\").": 3827,
      "')": 3828,
      "32": 3829,
      "Klask": 3830,
      "Kuzul": 3831,
      "Lit": 3832,
      "Mir": 3833,
      "Pevar": 3834,
      "Rumm": 3835,
      "bugale": 3836,
      "ei": 3837,
      "jet": 3838,
      "just": 3839,
      "japaneg": 3840,
      "mé": 3841,
      "post": 3842,
      "ude": 3843,
      "vit": 3844,
      "wiri": 3845,
      "ère": 3846,
      "ree": 3847,
      "steu": 3848,
      "egezhioù": 3849,
      "yezhadurel": 3850,
      "laou": 3851,
      "ism": 3852,
      "gwerz": 3853,
      "tibet": 3854,
      "oglif": 3855,
      "aoued": 3856,
      "odoù": 3857,
      "Eno": 3858,
      "helenn": 3859,
      "merc": 3860,
      "troc": 3861,
      "ford": 3862,
      "foran": 3863,
      "1987": 3864,
      "1988": 3865,
      "rakger": 3866,
      "houlenn": 3867,
      "enezenn": 3868,
      "kevred": 3869,
      "diaes": 3870,
      "gelenn": 3871,
      "niglot": 3872,
      "languages": 3873,
      "Distaget": 3874,
      "George": 3875,
      "zivout": 3876,
      "Viêt": 3877,
      "Doareoù": 3878,
      "Kalz": 3879,
      "spesad": 3880,
      "prantad": 3881,
      "Turkia": 3882,
      "skoazell": 3883,
      "peseurt": 3884,
      "Albania": 3885,
      "100": 3886,
      "34": 3887,
      "Alies": 3888,
      "Dil": 3889,
      "Dic": 3890,
      "Fon": 3891,
      "Hag": 3892,
      "Kêr": 3893,
      "Mag": 3894,
      "Neil": 3895,
      "Pep": 3896,
      "SUA": 3897,
      "Ubu": 3898,
      "Val": 3899,
      "afrika": 3900,
      "bab": 3901,
      "dug": 3902,
      "huzul": 3903,
      "jont": 3904,
      "lon": 3905,
      "pezhioù": 3906,
      "ty": 3907,
      "ен": 3908,
      "ania": 3909,
      "onom": 3910,
      "ati": 3911,
      "brud": 3912,
      "sonioù": 3913,
      "erzhioù": 3914,
      "ica": 3915,
      "ingal": 3916,
      "Marie": 3917,
      "tramant": 3918,
      "1941": 3919,
      "1962": 3920,
      "hentiñ": 3921,
      "ranker": 3922,
      "1928": 3923,
      "France": 3924,
      "Renk": 3925,
      "Gallout": 3926,
      "eeee": 3927,
      "ksouriezh": 3928,
      "testennoù": 3929,
      "gargañ": 3930,
      "morfemoù": 3931,
      "toullad": 3932,
      "neutron": 3933,
      "uzuliañ": 3934,
      "teori": 3935,
      "Single": 3936,
      "Omniglot": 3937,
      "//": 3938,
      "Bev": 3939,
      "Bern": 3940,
      "BOR": 3941,
      "Din": 3942,
      "Des": 3943,
      "DER": 3944,
      "HO": 3945,
      "Pe": 3946,
      "Red": 3947,
      "San": 3948,
      "Tu": 3949,
      "Tost": 3950,
      "Viet": 3951,
      "Was": 3952,
      "ae": 3953,
      "biz": 3954,
      "gred": 3955,
      "horn": 3956,
      "hwezh": 3957,
      "jin": 3958,
      "none": 3959,
      "pik": 3960,
      "tp": 3961,
      "tet": 3962,
      "tam": 3963,
      "zig": 3964,
      "én": 3965,
      "ür": 3966,
      "ary": 3967,
      "reoù": 3968,
      "ham": 3969,
      "dienn": 3970,
      "roaz": 3971,
      "skad": 3972,
      "lig": 3973,
      "lioù": 3974,
      "desket": 3975,
      "outi": 3976,
      "Arc": 3977,
      "ñveri": 3978,
      "kenetrez": 3979,
      "ulennoù": 3980,
      "akt": 3981,
      "levrenn": 3982,
      "rans": 3983,
      "180": 3984,
      "2007": 3985,
      "tachenn": 3986,
      "danev": 3987,
      "1946": 3988,
      "keit": 3989,
      "striv": 3990,
      "Suis": 3991,
      "ferenn": 3992,
      "atomoù": 3993,
      "Saozon": 3994,
      "Romaned": 3995,
      "Ouest": 3996,
      "peotramant": 3997,
      "sinaeg": 3998,
      "Belgia": 3999,
      "medium": 4000,
      "Tadjikistan": 4001,
      "BORDER": 4002,
      "</": 4003,
      "Bou": 4004,
      "Bour": 4005,
      "ES": 4006,
      "Ex": 4007,
      "Rev": 4008,
      "Ram": 4009,
      "SS": 4010,
      "boas": 4011,
      "darzh": 4012,
      "devez": 4013,
      "gos": 4014,
      "ies": 4015,
      "kil": 4016,
      "kannad": 4017,
      "oeg": 4018,
      "tat": 4019,
      "uc": 4020,
      "uel": 4021,
      "dija": 4022,
      "stenn": 4023,
      "stit": 4024,
      "stand": 4025,
      "liñ": 4026,
      "ory": 4027,
      "ung": 4028,
      "chen": 4029,
      "outo": 4030,
      "impalaeriezh": 4031,
      "abugida": 4032,
      "aozañ": 4033,
      "Marv": 4034,
      "derez": 4035,
      "amzerioù": 4036,
      "1986": 4037,
      "1973": 4038,
      "1976": 4039,
      "1978": 4040,
      "1968": 4041,
      "tudennoù": 4042,
      "peurvuiañ": 4043,
      "fonologiezh": 4044,
      "gozh": 4045,
      "diwezhatoc": 4046,
      "nebeutoc": 4047,
      "frazennoù": 4048,
      "pobloù": 4049,
      "http": 4050,
      "lostger": 4051,
      "Levrioù": 4052,
      "Brazil": 4053,
      "istoire": 4054,
      "University": 4055,
      "38": 4056,
      "://": 4057,
      "Cam": 4058,
      "Heol": 4059,
      "Jam": 4060,
      "Pri": 4061,
      "Preder": 4062,
      "ain": 4063,
      "breizhat": 4064,
      "dost": 4065,
      "eier": 4066,
      "fent": 4067,
      "fred": 4068,
      "gy": 4069,
      "gompren": 4070,
      "hour": 4071,
      "hik": 4072,
      "hevre": 4073,
      "ju": 4074,
      "kt": 4075,
      "kouezh": 4076,
      "kleiz": 4077,
      "mou": 4078,
      "mal": 4079,
      "ezed": 4080,
      "ditions": 4081,
      "stlenn": 4082,
      "ria": 4083,
      "indi": 4084,
      "ineg": 4085,
      "das": 4086,
      "daolenn": 4087,
      "ola": 4088,
      "ave": 4089,
      "ess": 4090,
      "pedia": 4091,
      "Arz": 4092,
      "Stêr": 4093,
      "vicher": 4094,
      "levraoueg": 4095,
      "metr": 4096,
      "Broadel": 4097,
      "kemmet": 4098,
      "disoc": 4099,
      "ding": 4100,
      "proses": 4101,
      "hoant": 4102,
      "uktur": 4103,
      "geñver": 4104,
      "broadelour": 4105,
      "Abalamour": 4106,
      "Suafrika": 4107,
      "Genrouedad": 4108,
      "Plou": 4109,
      "italianeg": 4110,
      "nebeutañ": 4111,
      "hontrol": 4112,
      "Maloù": 4113,
      "Eusa": 4114,
      "tiriad": 4115,
      "ralia": 4116,
      "pinvi": 4117,
      "Aostralia": 4118,
      "Language": 4119,
      "kerneveureg": 4120,
      "hieroglif": 4121,
      "Pondi": 4122,
      "46": 4123,
      "Dug": 4124,
      "ML": 4125,
      "Mi": 4126,
      "Nat": 4127,
      "Priz": 4128,
      "Tr": 4129,
      "World": 4130,
      "bern": 4131,
      "drez": 4132,
      "ef": 4133,
      "efed": 4134,
      "fo": 4135,
      "hann": 4136,
      "mad": 4137,
      "mun": 4138,
      "ned": 4139,
      "tar": 4140,
      "vag": 4141,
      "yen": 4142,
      "anz": 4143,
      "enek": 4144,
      "rea": 4145,
      "onet": 4146,
      "lise": 4147,
      "cho": 4148,
      "Unvan": 4149,
      "marvet": 4150,
      "marteze": 4151,
      "2009": 4152,
      "1979": 4153,
      "Emgann": 4154,
      "liesseurt": 4155,
      "Skritur": 4156,
      "titut": 4157,
      "bellgargañ": 4158,
      "armerzhel": 4159,
      "binvioù": 4160,
      "aloub": 4161,
      "aotrou": 4162,
      "breizhveuriat": 4163,
      "Kumunioù": 4164,
      "Lizherenneg": 4165,
      "gouzout": 4166,
      "Michel": 4167,
      "Egipt": 4168,
      "TOP": 4169,
      "Ouzbekistan": 4170,
      "/.": 4171,
      "39": 4172,
      "AC": 4173,
      "AN": 4174,
      "Buhez": 4175,
      "Cor": 4176,
      "Cla": 4177,
      "Lin": 4178,
      "Sav": 4179,
      "Tour": 4180,
      "ble": 4181,
      "eal": 4182,
      "gl": 4183,
      "ique": 4184,
      "kig": 4185,
      "krenn": 4186,
      "mich": 4187,
      "pan": 4188,
      "qui": 4189,
      "tao": 4190,
      "tout": 4191,
      "vou": 4192,
      "well": 4193,
      "zist": 4194,
      "envel": 4195,
      "enklozadur": 4196,
      "aled": 4197,
      "rit": 4198,
      "rien": 4199,
      "yezhel": 4200,
      "voc": 4201,
      "loen": 4202,
      "nep": 4203,
      "kaer": 4204,
      "tizhet": 4205,
      "kensonennoù": 4206,
      "savadurioù": 4207,
      "oks": 4208,
      "gallout": 4209,
      "Broioù": 4210,
      "2011": 4211,
      "hoarier": 4212,
      "1983": 4213,
      "perc": 4214,
      "profed": 4215,
      "materi": 4216,
      "astum": 4217,
      "uktitut": 4218,
      "krouiñ": 4219,
      "elektronoù": 4220,
      "elektronek": 4221,
      "gevret": 4222,
      "Saint": 4223,
      "kevredigezh": 4224,
      "araog": 4225,
      "Treuzlizherennet": 4226,
      "euskareg": 4227,
      "menezioù": 4228,
      "film": 4229,
      "leninouriezh": 4230,
      "geriadurioù": 4231,
      "onneged": 4232,
      "Washing": 4233,
      "-,": 4234,
      ".),": 4235,
      "37": 4236,
      "44": 4237,
      "Deu": 4238,
      "Dam": 4239,
      "For": 4240,
      "Hy": 4241,
      "Hant": 4242,
      "Iañ": 4243,
      "Lang": 4244,
      "Nic": 4245,
      "Sid": 4246,
      "Thom": 4247,
      "cu": 4248,
      "degezh": 4249,
      "ex": 4250,
      "eien": 4251,
      "fen": 4252,
      "fard": 4253,
      "gaz": 4254,
      "gristen": 4255,
      "klev": 4256,
      "komp": 4257,
      "kregiñ": 4258,
      "sw": 4259,
      "ten": 4260,
      "tel": 4261,
      "zitivel": 4262,
      "ano": 4263,
      "riez": 4264,
      "inizi": 4265,
      "dasp": 4266,
      "skoazh": 4267,
      "lid": 4268,
      "listri": 4269,
      "esh": 4270,
      "chich": 4271,
      "ision": 4272,
      "leizh": 4273,
      "udennoù": 4274,
      "Arvor": 4275,
      "gwalarn": 4276,
      "abil": 4277,
      "kafe": 4278,
      "aktour": 4279,
      "tachennoù": 4280,
      "pladennoù": 4281,
      "ozadur": 4282,
      "1984": 4283,
      "1971": 4284,
      "ture": 4285,
      "proton": 4286,
      "1965": 4287,
      "Brudet": 4288,
      "170": 4289,
      "178": 4290,
      "talvez": 4291,
      "studiet": 4292,
      "1959": 4293,
      "disklêri": 4294,
      "struktur": 4295,
      "tammig": 4296,
      "1923": 4297,
      "Disheñvel": 4298,
      "rign": 4299,
      "energiezh": 4300,
      "difenn": 4301,
      "deskiñ": 4302,
      "teknikoù": 4303,
      "krogas": 4304,
      "benveg": 4305,
      "annezidi": 4306,
      "Kernev": 4307,
      "klasel": 4308,
      "Deskadurezh": 4309,
      "folk": 4310,
      "polis": 4311,
      "gwerzhet": 4312,
      "Washington": 4313,
      ";\"": 4314,
      "Cel": 4315,
      "Dev": 4316,
      "Kaz": 4317,
      "Lez": 4318,
      "Mad": 4319,
      "Ruz": 4320,
      "Vol": 4321,
      "Ya": 4322,
      "bec": 4323,
      "breder": 4324,
      "lamant": 4325,
      "ng": 4326,
      "sc": 4327,
      "soc": 4328,
      "sak": 4329,
      "vad": 4330,
      "vin": 4331,
      "wenn": 4332,
      "ennel": 4333,
      "ste": 4334,
      "eut": 4335,
      "daegezh": 4336,
      "lion": 4337,
      "emgann": 4338,
      "unvez": 4339,
      "avar": 4340,
      "1900": 4341,
      "asant": 4342,
      "entez": 4343,
      "agu": 4344,
      "dreñv": 4345,
      "tiez": 4346,
      "llek": 4347,
      "Stalin": 4348,
      "ourist": 4349,
      "kenwerzh": 4350,
      "ranzitivel": 4351,
      "skoul": 4352,
      "ional": 4353,
      "Instit": 4354,
      "vesk": 4355,
      "1982": 4356,
      "1943": 4357,
      "chomas": 4358,
      "179": 4359,
      "ience": 4360,
      "varvas": 4361,
      "modern": 4362,
      "difennet": 4363,
      "Kentañ": 4364,
      "arvesterien": 4365,
      "ideologiezh": 4366,
      "American": 4367,
      "Yezhoniezh": 4368,
      "55": 4369,
      "66": 4370,
      "AD": 4371,
      "Bod": 4372,
      "Cym": 4373,
      "Est": 4374,
      "Hent": 4375,
      "Iran": 4376,
      "Kev": 4377,
      "Kyr": 4378,
      "Mus": 4379,
      "Pak": 4380,
      "Sened": 4381,
      "Zap": 4382,
      "ael": 4383,
      "dle": 4384,
      "dañs": 4385,
      "eet": 4386,
      "heol": 4387,
      "hreisteiz": 4388,
      "iom": 4389,
      "iadur": 4390,
      "priz": 4391,
      "pemdez": 4392,
      "wezhioù": 4393,
      "ence": 4394,
      "rem": 4395,
      "stok": 4396,
      "ateg": 4397,
      "ekaet": 4398,
      "chu": 4399,
      "iken": 4400,
      "imo": 4401,
      "anvadurezh": 4402,
      "bennañ": 4403,
      "hallaoued": 4404,
      "2010": 4405,
      "2013": 4406,
      "harr": 4407,
      "ijion": 4408,
      "varc": 4409,
      "perak": 4410,
      "parrez": 4411,
      "1974": 4412,
      "raktres": 4413,
      "1948": 4414,
      "kaner": 4415,
      "orth": 4416,
      "degaset": 4417,
      "vrudet": 4418,
      "aliesoc": 4419,
      "...)": 4420,
      "ledenez": 4421,
      "diorro": 4422,
      "horseg": 4423,
      "Bae": 4424,
      "Israel": 4425,
      "beli": 4426,
      "beleg": 4427,
      "gevred": 4428,
      "mouezhiet": 4429,
      "Internet": 4430,
      "koshañ": 4431,
      "Ronan": 4432,
      "James": 4433,
      ".)": 4434,
      "54": 4435,
      "AM": 4436,
      "BU": 4437,
      "Can": 4438,
      "Com": 4439,
      "Chi": 4440,
      "Del": 4441,
      "Eri": 4442,
      "Fer": 4443,
      "Gi": 4444,
      "Hel": 4445,
      "Kant": 4446,
      "Kat": 4447,
      "Kam": 4448,
      "Lezenn": 4449,
      "Mc": 4450,
      "Sar": 4451,
      "Sim": 4452,
      "Ton": 4453,
      "azh": 4454,
      "afer": 4455,
      "bir": 4456,
      "falt": 4457,
      "gaoz": 4458,
      "hol": 4459,
      "hêr": 4460,
      "hrog": 4461,
      "ix": 4462,
      "jennoù": 4463,
      "jener": 4464,
      "kon": 4465,
      "korn": 4466,
      "noz": 4467,
      "éc": 4468,
      "anez": 4469,
      "etenn": 4470,
      "alad": 4471,
      "ado": 4472,
      "dil": 4473,
      "dit": 4474,
      "diennoù": 4475,
      "stell": 4476,
      "zhout": 4477,
      "ini": 4478,
      "ino": 4479,
      "ram": 4480,
      "raek": 4481,
      "emdro": 4482,
      "edo": 4483,
      "ita": 4484,
      "1920": 4485,
      "yezhoniel": 4486,
      "ille": 4487,
      "dec": 4488,
      "deskrivañ": 4489,
      "oarvat": 4490,
      "ulenn": 4491,
      "azz": 4492,
      "hollad": 4493,
      "hollouez": 4494,
      "resev": 4495,
      "here": 4496,
      "ico": 4497,
      "meneget": 4498,
      "henc": 4499,
      "ilhoù": 4500,
      "1947": 4501,
      "1966": 4502,
      "nemeti": 4503,
      "matemat": 4504,
      "tonennoù": 4505,
      "text": 4506,
      "1951": 4507,
      "skolaj": 4508,
      "fonadur": 4509,
      "frammoù": 4510,
      "sinet": 4511,
      "bevañ": 4512,
      "Treger": 4513,
      "Christ": 4514,
      "Karaez": 4515,
      "italian": 4516,
      "Mervel": 4517,
      "tezennoù": 4518,
      "nukleel": 4519,
      "skinwel": 4520,
      "ginnig": 4521,
      "ville": 4522,
      "Petra": 4523,
      "aloubet": 4524,
      "tiriadoù": 4525,
      "8859": 4526,
      "gwellañ": 4527,
      "gwelloc": 4528,
      "leñved": 4529,
      "kirillek": 4530,
      "Huon": 4531,
      "Rock": 4532,
      "Relijion": 4533,
      "Joseph": 4534,
      "Zappa": 4535,
      "64": 4536,
      "Alask": 4537,
      "Chom": 4538,
      "Don": 4539,
      "Dim": 4540,
      "Geo": 4541,
      "Goul": 4542,
      "Gerioù": 4543,
      "Jim": 4544,
      "Kol": 4545,
      "Mé": 4546,
      "Mas": 4547,
      "Nob": 4548,
      "Pouez": 4549,
      "Pred": 4550,
      "Sm": 4551,
      "Sur": 4552,
      "Trans": 4553,
      "Van": 4554,
      "XXvet": 4555,
      "bolitik": 4556,
      "ey": 4557,
      "feul": 4558,
      "gol": 4559,
      "hy": 4560,
      "hos": 4561,
      "iennoù": 4562,
      "ifi": 4563,
      "jañ": 4564,
      "katal": 4565,
      "lañs": 4566,
      "moull": 4567,
      "pid": 4568,
      "samm": 4569,
      "tis": 4570,
      "ñs": 4571,
      "ün": 4572,
      "anat": 4573,
      "hazh": 4574,
      "hachich": 4575,
      "adal": 4576,
      "dat": 4577,
      "oret": 4578,
      "ekonom": 4579,
      "1911": 4580,
      "ombia": 4581,
      "chi": 4582,
      "lagad": 4583,
      "gwin": 4584,
      "tibetek": 4585,
      "rouezh": 4586,
      "skrivas": 4587,
      "ult": 4588,
      "Albert": 4589,
      "divouezh": 4590,
      "Martin": 4591,
      "silab": 4592,
      "proviñs": 4593,
      "eskop": 4594,
      "diazezer": 4595,
      "Francis": 4596,
      "arouezenn": 4597,
      "arouezennoù": 4598,
      "darvoudoù": 4599,
      "estradurezh": 4600,
      "Skrivet": 4601,
      "petra": 4602,
      "devanagari": 4603,
      "treuzkas": 4604,
      "tennad": 4605,
      "bretonne": 4606,
      "Luc": 4607,
      "notennoù": 4608,
      "Izelvroioù": 4609,
      "disparti": 4610,
      "spesadoù": 4611,
      "gatolik": 4612,
      "displegañ": 4613,
      "barzhonegoù": 4614,
      "laboused": 4615,
      "neutronoù": 4616,
      "kenetreze": 4617,
      "taolioù": 4618,
      "Pakistan": 4619,
      "Alaska": 4620,
      "300": 4621,
      "Do": 4622,
      "Feur": 4623,
      "Hun": 4624,
      "Jos": 4625,
      "Kin": 4626,
      "Kont": 4627,
      "Kimiezh": 4628,
      "Mong": 4629,
      "Vari": 4630,
      "clo": 4631,
      "glas": 4632,
      "kw": 4633,
      "meg": 4634,
      "med": 4635,
      "pop": 4636,
      "sy": 4637,
      "té": 4638,
      "tañ": 4639,
      "via": 4640,
      "yek": 4641,
      "ennadur": 4642,
      "rec": 4643,
      "align": 4644,
      "evn": 4645,
      "egoù": 4646,
      "left": 4647,
      "gwag": 4648,
      "german": 4649,
      "Anton": 4650,
      "gouel": 4651,
      "roudoù": 4652,
      "istori": 4653,
      "ogn": 4654,
      "otho": 4655,
      "implijer": 4656,
      "arzhet": 4657,
      "osferenn": 4658,
      "hili": 4659,
      "ugel": 4660,
      "helle": 4661,
      "menadur": 4662,
      "rannañ": 4663,
      "Urzh": 4664,
      "tap": 4665,
      "plu": 4666,
      "2016": 4667,
      "inter": 4668,
      "stagañ": 4669,
      "ology": 4670,
      "embannadur": 4671,
      "ute": 4672,
      "arzoù": 4673,
      "drama": 4674,
      "ganaouenn": 4675,
      "hantved": 4676,
      "studioù": 4677,
      "diskar": 4678,
      "werzhoneg": 4679,
      "arouezioù": 4680,
      "chas": 4681,
      "Trede": 4682,
      "gwelout": 4683,
      "miret": 4684,
      "produiñ": 4685,
      "digoret": 4686,
      "izotopoù": 4687,
      "zegas": 4688,
      "mekan": 4689,
      "indezeuropek": 4690,
      "kroget": 4691,
      "ortugaleg": 4692,
      "Daveoù": 4693,
      "enrollet": 4694,
      "brezeg": 4695,
      "dilennet": 4696,
      "Oriant": 4697,
      "\"),": 4698,
      "(<": 4699,
      "(†": 4700,
      ".-": 4701,
      "Au": 4702,
      "Bremañ": 4703,
      "CD": 4704,
      "Cent": 4705,
      "Corn": 4706,
      "Diz": 4707,
      "Ga": 4708,
      "Gr": 4709,
      "Gar": 4710,
      "Geri": 4711,
      "HT": 4712,
      "IP": 4713,
      "Ijin": 4714,
      "Jan": 4715,
      "Kozh": 4716,
      "Lenin": 4717,
      "Mac": 4718,
      "Neb": 4719,
      "Pell": 4720,
      "Ros": 4721,
      "Sin": 4722,
      "Sent": 4723,
      "V2": 4724,
      "by": 4725,
      "boaz": 4726,
      "dy": 4727,
      "gem": 4728,
      "greiz": 4729,
      "gomp": 4730,
      "gleiz": 4731,
      "louz": 4732,
      "mann": 4733,
      "moarvat": 4734,
      "por": 4735,
      "sem": 4736,
      "tle": 4737,
      "tesk": 4738,
      "wi": 4739,
      "wall": 4740,
      "web": 4741,
      "Éditions": 4742,
      "çais": 4743,
      "és": 4744,
      "ör": 4745,
      "ай": 4746,
      "он": 4747,
      "arvor": 4748,
      "ena": 4749,
      "eziñ": 4750,
      "alioù": 4751,
      "dister": 4752,
      "ditour": 4753,
      "skorn": 4754,
      "ato": 4755,
      "iti": 4756,
      "ome": 4757,
      "ward": 4758,
      "pec": 4759,
      "lak": 4760,
      "ocol": 4761,
      "Anj": 4762,
      "istri": 4763,
      "estren": 4764,
      "embraek": 4765,
      "Gwir": 4766,
      "hidro": 4767,
      "bled": 4768,
      "bladenn": 4769,
      "rannel": 4770,
      "henwerzh": 4771,
      "2015": 4772,
      "2014": 4773,
      "disin": 4774,
      "partik": 4775,
      "embannas": 4776,
      "chome": 4777,
      "Gouel": 4778,
      "ound": 4779,
      "serriñ": 4780,
      "vorfem": 4781,
      "1939": 4782,
      "pellañ": 4783,
      "ustum": 4784,
      "termenet": 4785,
      "bodet": 4786,
      "devoa": 4787,
      "rannvroel": 4788,
      "dalvezout": 4789,
      "Seizh": 4790,
      "ampre": 4791,
      "urzhiataerezh": 4792,
      "selaou": 4793,
      "Peter": 4794,
      "displeget": 4795,
      "taboul": 4796,
      "arguz": 4797,
      "prevez": 4798,
      "Talvezout": 4799,
      "diskouezet": 4800,
      "Gwelit": 4801,
      "posupl": 4802,
      "arabek": 4803,
      "paotr": 4804,
      "gyz": 4805,
      "Kyrgyz": 4806,
      "hrogad": 4807,
      "Nobel": 4808,
      "41": 4809,
      "47": 4810,
      "56": 4811,
      "58": 4812,
      "Eu": 4813,
      "Hon": 4814,
      "IV": 4815,
      "JK": 4816,
      "Kir": 4817,
      "Led": 4818,
      "Mic": 4819,
      "Mala": 4820,
      "Off": 4821,
      "Soc": 4822,
      "UR": 4823,
      "Vr": 4824,
      "Var": 4825,
      "Vin": 4826,
      "blij": 4827,
      "boul": 4828,
      "hreiz": 4829,
      "jazz": 4830,
      "kostez": 4831,
      "lé": 4832,
      "my": 4833,
      "ple": 4834,
      "piv": 4835,
      "peder": 4836,
      "san": 4837,
      "sed": 4838,
      "sil": 4839,
      "up": 4840,
      "vuzuliañ": 4841,
      "yuzev": 4842,
      "ção": 4843,
      "ía": 4844,
      "ona": 4845,
      "onek": 4846,
      "roadennoù": 4847,
      "ordin": 4848,
      "warnañ": 4849,
      "maen": 4850,
      "outh": 4851,
      "gwaz": 4852,
      "bronneged": 4853,
      "gerzh": 4854,
      "tiegezh": 4855,
      "kenderc": 4856,
      "estra": 4857,
      "retour": 4858,
      "span": 4859,
      "mervent": 4860,
      "2018": 4861,
      "2020": 4862,
      "2022": 4863,
      "hoariet": 4864,
      "skouerioù": 4865,
      "brasoc": 4866,
      "euzioù": 4867,
      "150": 4868,
      "oblañs": 4869,
      "bidigezh": 4870,
      "1963": 4871,
      "arzhañ": 4872,
      "kanet": 4873,
      "Emren": 4874,
      "houn": 4875,
      "kelennet": 4876,
      "Max": 4877,
      "peurrest": 4878,
      "ratozh": 4879,
      "politikour": 4880,
      "struj": 4881,
      "1936": 4882,
      "moire": 4883,
      "diorren": 4884,
      "rannvroioù": 4885,
      "silabennek": 4886,
      "Rosko": 4887,
      "Guy": 4888,
      "color": 4889,
      "araok": 4890,
      "hennezh": 4891,
      "netra": 4892,
      "Kumuniezh": 4893,
      "Oberennoù": 4894,
      "skignet": 4895,
      "Vici": 4896,
      "straed": 4897,
      "herneveureg": 4898,
      "français": 4899,
      "emzalc": 4900,
      "anaoudegezh": 4901,
      "dieub": 4902,
      "amprevan": 4903,
      "67": 4904,
      "99": 4905,
      "Cal": 4906,
      "Dy": 4907,
      "Emañ": 4908,
      "Hum": 4909,
      "Jer": 4910,
      "Kad": 4911,
      "Kornôg": 4912,
      "Lann": 4913,
      "Ru": 4914,
      "Sw": 4915,
      "UBU": 4916,
      "Win": 4917,
      "bag": 4918,
      "bred": 4919,
      "but": 4920,
      "flam": 4921,
      "grog": 4922,
      "hiz": 4923,
      "hig": 4924,
      "leg": 4925,
      "lennoù": 4926,
      "luz": 4927,
      "moul": 4928,
      "poù": 4929,
      "tomm": 4930,
      "tocol": 4931,
      "vab": 4932,
      "vir": 4933,
      "yin": 4934,
      "yec": 4935,
      "zar": 4936,
      "ón": 4937,
      "arch": 4938,
      "ero": 4939,
      "ouzer": 4940,
      "dioù": 4941,
      "stadoù": 4942,
      "lish": 4943,
      "laat": 4944,
      "destenn": 4945,
      "elle": 4946,
      "ellek": 4947,
      "ago": 4948,
      "lex": 4949,
      "aber": 4950,
      "gouizi": 4951,
      "ultur": 4952,
      "otek": 4953,
      "spis": 4954,
      "lakaas": 4955,
      "vern": 4956,
      "hellont": 4957,
      "Dior": 4958,
      "para": 4959,
      "vedenn": 4960,
      "1942": 4961,
      "eskement": 4962,
      "Maur": 4963,
      "drammoù": 4964,
      "astenn": 4965,
      "oñienn": 4966,
      "dezrannel": 4967,
      "1957": 4968,
      "skolveur": 4969,
      "kalon": 4970,
      "stered": 4971,
      "seveniñ": 4972,
      "Karl": 4973,
      "Norveg": 4974,
      "brudetañ": 4975,
      "hoarvezet": 4976,
      "language": 4977,
      "furm": 4978,
      "turkeg": 4979,
      "dastumet": 4980,
      "leñvedoù": 4981,
      "solut": 4982,
      "Darvoudoù": 4983,
      "arbennik": 4984,
      "enklozet": 4985,
      "meizad": 4986,
      "kollet": 4987,
      "Linguistics": 4988,
      "aotreet": 4989,
      "Lakaet": 4990,
      "Diazezet": 4991,
      "mémoire": 4992,
      "diorroadur": 4993,
      "\"|": 4994,
      "(*": 4995,
      ".).": 4996,
      "43": 4997,
      "53": 4998,
      "Aodoù": 4999,
      "Aozadur": 5000,
      "Brez": 5001,
      "CE": 5002,
      "Che": 5003,
      "Demokratel": 5004,
      "Gon": 5005,
      "Gev": 5006,
      "Hi": 5007,
      "Ja": 5008,
      "Luk": 5009,
      "Nn": 5010,
      "Niver": 5011,
      "Rag": 5012,
      "Sokial": 5013,
      "Tab": 5014,
      "Vo": 5015,
      "Wiki": 5016,
      "briñ": 5017,
      "dent": 5018,
      "fal": 5019,
      "from": 5020,
      "frouezh": 5021,
      "ged": 5022,
      "heson": 5023,
      "houlz": 5024,
      "iwerzhoneg": 5025,
      "japan": 5026,
      "kam": 5027,
      "leu": 5028,
      "mǝ": 5029,
      "phi": 5030,
      "sand": 5031,
      "tech": 5032,
      "vé": 5033,
      "zez": 5034,
      "zou": 5035,
      "zro": 5036,
      "zil": 5037,
      "endalc": 5038,
      "enniñ": 5039,
      "reget": 5040,
      "ald": 5041,
      "die": 5042,
      "añj": 5043,
      "rienn": 5044,
      "eoded": 5045,
      "itch": 5046,
      "1910": 5047,
      "1914": 5048,
      "warni": 5049,
      "isi": 5050,
      "udenn": 5051,
      "gwezh": 5052,
      "Anvet": 5053,
      "skriver": 5054,
      "ight": 5055,
      "renkañ": 5056,
      "Gwen": 5057,
      "olia": 5058,
      "oko": 5059,
      "off": 5060,
      "respont": 5061,
      "gallaoueg": 5062,
      "Skeu": 5063,
      "Ina": 5064,
      "ziwezh": 5065,
      "niverel": 5066,
      "media": 5067,
      "labourioù": 5068,
      "nemetañ": 5069,
      "eskemm": 5070,
      "Brun": 5071,
      "1790": 5072,
      "regezh": 5073,
      "enezeg": 5074,
      "oñs": 5075,
      "degemer": 5076,
      "1955": 5077,
      "aux": 5078,
      "kreolek": 5079,
      "sinoù": 5080,
      "gounez": 5081,
      "1934": 5082,
      "bihanoc": 5083,
      "Saozneg": 5084,
      "idik": 5085,
      "Notenn": 5086,
      "monc": 5087,
      "familhoù": 5088,
      "1907": 5089,
      "Protocol": 5090,
      "inea": 5091,
      "damez": 5092,
      "Norzha": 5093,
      "beaj": 5094,
      "landeg": 5095,
      "Ganet": 5096,
      "milourel": 5097,
      "titl": 5098,
      "Heñvel": 5099,
      "Galia": 5100,
      "produet": 5101,
      "Georg": 5102,
      "Gerdarzh": 5103,
      "rusianeg": 5104,
      "europat": 5105,
      "predenek": 5106,
      "geriadurour": 5107,
      "emaint": 5108,
      "distro": 5109,
      "Coop": 5110,
      "Daniel": 5111,
      "Aostria": 5112,
      "prim": 5113,
      "enebour": 5114,
      "Korea": 5115,
      "Britann": 5116,
      "embregerezh": 5117,
      "gorread": 5118,
      "Richard": 5119,
      "Pondivi": 5120,
      "Thomas": 5121,
      "Celtic": 5122,
      "faltazi": 5123,
      "silabennoù": 5124,
      "partikulennoù": 5125,
      "Vicious": 5126,
      "48": 5127,
      "Aet": 5128,
      "Amañ": 5129,
      "Alex": 5130,
      "Bag": 5131,
      "Bot": 5132,
      "Der": 5133,
      "Dour": 5134,
      "Ez": 5135,
      "Hin": 5136,
      "Hab": 5137,
      "Kre": 5138,
      "Kra": 5139,
      "Kim": 5140,
      "Lé": 5141,
      "Lam": 5142,
      "Men": 5143,
      "National": 5144,
      "Prez": 5145,
      "Rez": 5146,
      "Sez": 5147,
      "Tch": 5148,
      "Vog": 5149,
      "Zim": 5150,
      "big": 5151,
      "cal": 5152,
      "dri": 5153,
      "fiz": 5154,
      "fiel": 5155,
      "gr": 5156,
      "gro": 5157,
      "gom": 5158,
      "hêrioù": 5159,
      "hskeudennoù": 5160,
      "kred": 5161,
      "mag": 5162,
      "nav": 5163,
      "pi": 5164,
      "psik": 5165,
      "sat": 5166,
      "sub": 5167,
      "treiñ": 5168,
      "xha": 5169,
      "ye": 5170,
      "zout": 5171,
      "erru": 5172,
      "ouenn": 5173,
      "ennad": 5174,
      "alennoù": 5175,
      "hafe": 5176,
      "ador": 5177,
      "diba": 5178,
      "anterezh": 5179,
      "empenn": 5180,
      "orel": 5181,
      "organ": 5182,
      "ekaat": 5183,
      "ity": 5184,
      "ité": 5185,
      "itour": 5186,
      "pesk": 5187,
      "vojenn": 5188,
      "imp": 5189,
      "pakañ": 5190,
      "Andre": 5191,
      "usañ": 5192,
      "iezhioù": 5193,
      "spont": 5194,
      "hallek": 5195,
      "halloud": 5196,
      "ick": 5197,
      "ical": 5198,
      "Skou": 5199,
      "ident": 5200,
      "kempl": 5201,
      "2012": 5202,
      "doug": 5203,
      "Mark": 5204,
      "uheloc": 5205,
      "krediñ": 5206,
      "sinifi": 5207,
      "gounezet": 5208,
      "1930": 5209,
      "ations": 5210,
      "hadour": 5211,
      "chennaoueg": 5212,
      "vogalennek": 5213,
      "Alamaned": 5214,
      "dever": 5215,
      "departamantoù": 5216,
      "êriadenn": 5217,
      "Norman": 5218,
      "mpek": 5219,
      "hual": 5220,
      "soñjal": 5221,
      "daveennoù": 5222,
      "Keltiek": 5223,
      "urzhiataerioù": 5224,
      "heuliad": 5225,
      "servijoù": 5226,
      "dastumad": 5227,
      "mennozh": 5228,
      "Beat": 5229,
      "mezi": 5230,
      "cheñchet": 5231,
      "Hoxha": 5232,
      "Verb": 5233,
      "droug": 5234,
      "ergerzh": 5235,
      "oberiant": 5236,
      "Sellet": 5237,
      "Londrez": 5238,
      "mikro": 5239,
      "cyclo": 5240,
      "www": 5241,
      "revelezh": 5242,
      "Phil": 5243,
      "ushaned": 5244,
      "Sevenadur": 5245,
      "programm": 5246,
      "wirion": 5247,
      "prosesor": 5248,
      "pinvidik": 5249,
      "hieroglifoù": 5250,
      "micher": 5251,
      "Deuet": 5252,
      "stein": 5253,
      "jeneral": 5254,
      "matematik": 5255,
      "Smith": 5256,
      "HTML": 5257,
      "taboulinoù": 5258,
      "Vrezhon": 5259,
      "1000": 5260,
      "77": 5261,
      "Gel": 5262,
      "Ginea": 5263,
      "Hog": 5264,
      "Heb": 5265,
      "Kas": 5266,
      "Mec": 5267,
      "Neven": 5268,
      "Orin": 5269,
      "Pap": 5270,
      "Perzhioù": 5271,
      "Sek": 5272,
      "Tor": 5273,
      "bg": 5274,
      "baz": 5275,
      "bugel": 5276,
      "dt": 5277,
      "hout": 5278,
      "hanvadurezh": 5279,
      "ient": 5280,
      "iwerzhon": 5281,
      "jar": 5282,
      "joù": 5283,
      "koù": 5284,
      "mao": 5285,
      "moc": 5286,
      "magn": 5287,
      "ox": 5288,
      "pu": 5289,
      "ront": 5290,
      "sent": 5291,
      "uan": 5292,
      "vis": 5293,
      "vak": 5294,
      "werz": 5295,
      "yeas": 5296,
      "zenn": 5297,
      "án": 5298,
      "ín": 5299,
      "ин": 5300,
      "arle": 5301,
      "ouell": 5302,
      "elec": 5303,
      "ennek": 5304,
      "redi": 5305,
      "hastell": 5306,
      "adoz": 5307,
      "zhun": 5308,
      "zhier": 5309,
      "dafar": 5310,
      "vezer": 5311,
      "ath": 5312,
      "ataet": 5313,
      "ekologiezh": 5314,
      "aval": 5315,
      "1919": 5316,
      "omb": 5317,
      "lain": 5318,
      "maouez": 5319,
      "nec": 5320,
      "Anvioù": 5321,
      "Stat": 5322,
      "Step": 5323,
      "soner": 5324,
      "azia": 5325,
      "Gwech": 5326,
      "ott": 5327,
      "hiañ": 5328,
      "blas": 5329,
      "duc": 5330,
      "plom": 5331,
      "denel": 5332,
      "form": 5333,
      "amantoù": 5334,
      "aezet": 5335,
      "Europ": 5336,
      "draoù": 5337,
      "eulzi": 5338,
      "ortoz": 5339,
      "douaroniezh": 5340,
      "krouidigezh": 5341,
      "hwit": 5342,
      "1925": 5343,
      "Kement": 5344,
      "anavezout": 5345,
      "anedenn": 5346,
      "greun": 5347,
      "donez": 5348,
      "=\"#": 5349,
      "Baarle": 5350,
      "abegoù": 5351,
      "boent": 5352,
      "fizikour": 5353,
      "riñs": 5354,
      "Berlin": 5355,
      "mirout": 5356,
      "ministr": 5357,
      "Galiz": 5358,
      "sokialour": 5359,
      "heuliañ": 5360,
      "takadoù": 5361,
      "lazhañ": 5362,
      "brid": 5363,
      "Teir": 5364,
      "personel": 5365,
      "Penaos": 5366,
      "pegen": 5367,
      "London": 5368,
      "gouloù": 5369,
      "beria": 5370,
      "Labour": 5371,
      "Taolenn": 5372,
      "pozitivel": 5373,
      "steuñv": 5374,
      "Unvaniezh": 5375,
      "Kolombia": 5376,
      "Preden": 5377,
      "eskopti": 5378,
      "Mongolia": 5379,
      "Kyrgyzstan": 5380,
      "flamen": 5381,
      "Skouerioù": 5382,
      "bgcolor": 5383,
      ".\"": 5384,
      "400": 5385,
      "65": 5386,
      "85": 5387,
      "97": 5388,
      "Ap": 5389,
      "Bet": 5390,
      "Bas": 5391,
      "Barzh": 5392,
      "Bang": 5393,
      "Es": 5394,
      "Fri": 5395,
      "Flo": 5396,
      "Gushaned": 5397,
      "Hou": 5398,
      "Hom": 5399,
      "Histoire": 5400,
      "Kav": 5401,
      "Krennlavar": 5402,
      "Levez": 5403,
      "North": 5404,
      "PC": 5405,
      "RA": 5406,
      "Rad": 5407,
      "Rak": 5408,
      "Reun": 5409,
      "Sch": 5410,
      "Santel": 5411,
      "bor": 5412,
      "bil": 5413,
      "bemdez": 5414,
      "eizh": 5415,
      "ghan": 5416,
      "humun": 5417,
      "kir": 5418,
      "lamm": 5419,
      "nev": 5420,
      "portugaleg": 5421,
      "sou": 5422,
      "sac": 5423,
      "tes": 5424,
      "tennoù": 5425,
      "tag": 5426,
      "tret": 5427,
      "ux": 5428,
      "vour": 5429,
      "wer": 5430,
      "weg": 5431,
      "you": 5432,
      "zesk": 5433,
      "ал": 5434,
      "ennes": 5435,
      "alese": 5436,
      "ones": 5437,
      "dije": 5438,
      "dieeun": 5439,
      "antez": 5440,
      "riad": 5441,
      "rich": 5442,
      "inuktitut": 5443,
      "vezet": 5444,
      "ektenn": 5445,
      "its": 5446,
      "ited": 5447,
      "izet": 5448,
      "allet": 5449,
      "chet": 5450,
      "yezhoniour": 5451,
      "ourn": 5452,
      "sec": 5453,
      "reier": 5454,
      "eriñ": 5455,
      "Ark": 5456,
      "nepell": 5457,
      "Ana": 5458,
      "Angel": 5459,
      "kaz": 5460,
      "sonaozer": 5461,
      "aouiñ": 5462,
      "trevadenn": 5463,
      "aked": 5464,
      "ota": 5465,
      "otel": 5466,
      "vilion": 5467,
      "digemm": 5468,
      "mark": 5469,
      "skouarn": 5470,
      "kempenn": 5471,
      "2017": 5472,
      "aco": 5473,
      "komzer": 5474,
      "harbon": 5475,
      "1949": 5476,
      "Brud": 5477,
      "May": 5478,
      "dramm": 5479,
      "talvezout": 5480,
      "1956": 5481,
      "garia": 5482,
      "klok": 5483,
      "1929": 5484,
      "Kemener": 5485,
      "aroueziet": 5486,
      "mond": 5487,
      "mong": 5488,
      "1901": 5489,
      "René": 5490,
      "Renket": 5491,
      "Sein": 5492,
      "poblañs": 5493,
      "gweled": 5494,
      "Davies": 5495,
      "emsavadeg": 5496,
      "Hein": 5497,
      "relijionoù": 5498,
      "furnez": 5499,
      "staliañ": 5500,
      "skinoù": 5501,
      "colspan": 5502,
      "divizoù": 5503,
      "dibab": 5504,
      "hever": 5505,
      "Kernow": 5506,
      "Disklêri": 5507,
      "komprenet": 5508,
      "Williams": 5509,
      "simbol": 5510,
      "Jacques": 5511,
      "melestradurel": 5512,
      "Degemeret": 5513,
      "hiko": 5514,
      "Hanternoz": 5515,
      "klevet": 5516,
      "Kazak": 5517,
      "brederouriezh": 5518,
      "sakr": 5519,
      "katalaneg": 5520,
      "Kirgiz": 5521,
      "Norzhamer": 5522,
      "Vogalennoù": 5523,
      "field": 5524,
      "Beatles": 5525,
      "45": 5526,
      "978": 5527,
      "BB": 5528,
      "ET": 5529,
      "Evan": 5530,
      "Eizh": 5531,
      "Fil": 5532,
      "Gri": 5533,
      "Ivet": 5534,
      "Juli": 5535,
      "Kor": 5536,
      "Kaset": 5537,
      "KCO": 5538,
      "Lavar": 5539,
      "Moul": 5540,
      "Mouezh": 5541,
      "Miss": 5542,
      "Nomin": 5543,
      "Pla": 5544,
      "Res": 5545,
      "Rec": 5546,
      "Ray": 5547,
      "Sper": 5548,
      "US": 5549,
      "chañ": 5550,
      "fest": 5551,
      "farz": 5552,
      "gostez": 5553,
      "homp": 5554,
      "ide": 5555,
      "kod": 5556,
      "ore": 5557,
      "pt": 5558,
      "ped": 5559,
      "peri": 5560,
      "pren": 5561,
      "rent": 5562,
      "rud": 5563,
      "sion": 5564,
      "são": 5565,
      "tt": 5566,
      "tourist": 5567,
      "vann": 5568,
      "yeg": 5569,
      "ziz": 5570,
      "zia": 5571,
      "ép": 5572,
      "ος": 5573,
      "би": 5574,
      "ур": 5575,
      "ыр": 5576,
      "arre": 5577,
      "reed": 5578,
      "divro": 5579,
      "dileur": 5580,
      "stabil": 5581,
      "egin": 5582,
      "damm": 5583,
      "une": 5584,
      "ols": 5585,
      "entin": 5586,
      "islam": 5587,
      "debr": 5588,
      "eria": 5589,
      "pak": 5590,
      "paket": 5591,
      "reizhel": 5592,
      "kazi": 5593,
      "tizhout": 5594,
      "ista": 5595,
      "istère": 5596,
      "arnenez": 5597,
      "kentelioù": 5598,
      "viet": 5599,
      "oberoù": 5600,
      "Alfred": 5601,
      "bleu": 5602,
      "verkañ": 5603,
      "hiniennel": 5604,
      "Indian": 5605,
      "dudenn": 5606,
      "taiek": 5607,
      "kemmesk": 5608,
      "2021": 5609,
      "Mari": 5610,
      "Marksouriezh": 5611,
      "manac": 5612,
      "sizhun": 5613,
      "diouzhtu": 5614,
      "Emglev": 5615,
      "Herri": 5616,
      "hentenn": 5617,
      "Paol": 5618,
      "hantina": 5619,
      "karget": 5620,
      "lezet": 5621,
      "oundek": 5622,
      "1954": 5623,
      "Mordiern": 5624,
      "gavas": 5625,
      "fram": 5626,
      "bae": 5627,
      "1935": 5628,
      "1937": 5629,
      "elektro": 5630,
      "ISKCO": 5631,
      "ignon": 5632,
      "Plant": 5633,
      "klozadurioù": 5634,
      "kontrol": 5635,
      "Galleg": 5636,
      "book": 5637,
      "mpouezh": 5638,
      "Rannet": 5639,
      "radio": 5640,
      "titour": 5641,
      "Luskad": 5642,
      "hresian": 5643,
      "testant": 5644,
      "galloudoù": 5645,
      "deorienn": 5646,
      "gouestlet": 5647,
      "predeneg": 5648,
      "etrezo": 5649,
      "awenet": 5650,
      "hevandir": 5651,
      "Palest": 5652,
      "ograf": 5653,
      "Studies": 5654,
      "Polonia": 5655,
      "skignañ": 5656,
      "skramm": 5657,
      "XIXvet": 5658,
      "Stummoù": 5659,
      "Angus": 5660,
      "Katalonia": 5661,
      "ewid": 5662,
      "Gwilen": 5663,
      "Rummad": 5664,
      "ñveriañ": 5665,
      "danevell": 5666,
      "gazetenn": 5667,
      "Cymru": 5668,
      "aferioù": 5669,
      "holloueziadur": 5670,
      "feulster": 5671,
      "pluenn": 5672,
      "mekanik": 5673,
      "Brezoneg": 5674,
      "gounezerezh": 5675,
      "Prezidant": 5676,
      "Nevenoe": 5677,
      "Stephen": 5678,
      "Norzhamerika": 5679,
      "ISKCON": 5680,
      "/,": 5681,
      "83": 5682,
      "Ali": 5683,
      "Blo": 5684,
      "Bill": 5685,
      "Betek": 5686,
      "Cop": 5687,
      "Comm": 5688,
      "Denez": 5689,
      "EN": 5690,
      "Et": 5691,
      "Ein": 5692,
      "Fur": 5693,
      "Gor": 5694,
      "Greg": 5695,
      "Hir": 5696,
      "Jul": 5697,
      "Land": 5698,
      "Lama": 5699,
      "Mez": 5700,
      "Malc": 5701,
      "Plo": 5702,
      "Portugal": 5703,
      "Rob": 5704,
      "V4": 5705,
      "Vis": 5706,
      "We": 5707,
      "Wil": 5708,
      "West": 5709,
      "Wened": 5710,
      "aq": 5711,
      "bla": 5712,
      "bak": 5713,
      "borzh": 5714,
      "cel": 5715,
      "dur": 5716,
      "dreiñ": 5717,
      "demokratel": 5718,
      "faz": 5719,
      "fazi": 5720,
      "gam": 5721,
      "gron": 5722,
      "glaou": 5723,
      "gudenn": 5724,
      "hl": 5725,
      "hr": 5726,
      "hlas": 5727,
      "iar": 5728,
      "iou": 5729,
      "kg": 5730,
      "kreisteiz": 5731,
      "lü": 5732,
      "leusk": 5733,
      "meul": 5734,
      "nu": 5735,
      "oet": 5736,
      "tem": 5737,
      "tom": 5738,
      "vas": 5739,
      "vao": 5740,
      "vlo": 5741,
      "wy": 5742,
      "win": 5743,
      "wint": 5744,
      "zan": 5745,
      "»)": 5746,
      "Óg": 5747,
      "ém": 5748,
      "ыз": 5749,
      "eni": 5750,
      "ets": 5751,
      "ouizi": 5752,
      "hab": 5753,
      "eve": 5754,
      "egor": 5755,
      "rop": 5756,
      "indian": 5757,
      "amin": 5758,
      "ambia": 5759,
      "old": 5760,
      "chal": 5761,
      "deizi": 5762,
      "heb": 5763,
      "ellout": 5764,
      "euro": 5765,
      "gwez": 5766,
      "gwask": 5767,
      "ume": 5768,
      "abadenn": 5769,
      "tif": 5770,
      "tieg": 5771,
      "roulez": 5772,
      "sonerien": 5773,
      "renad": 5774,
      "save": 5775,
      "savidigezh": 5776,
      "rolloù": 5777,
      "odek": 5778,
      "Encyclo": 5779,
      "herioù": 5780,
      "Lieskement": 5781,
      "uganda": 5782,
      "unanet": 5783,
      "merde": 5784,
      "ouloueg": 5785,
      "harlu": 5786,
      "medisin": 5787,
      "euzet": 5788,
      "hepmu": 5789,
      "embanner": 5790,
      "1961": 5791,
      "1964": 5792,
      "kanañ": 5793,
      "try": 5794,
      "Ern": 5795,
      "koad": 5796,
      "160": 5797,
      "1953": 5798,
      "Parlamant": 5799,
      "1931": 5800,
      "darvoud": 5801,
      "kontelezh": 5802,
      "memestra": 5803,
      "gomzerion": 5804,
      "Henri": 5805,
      "damheñvel": 5806,
      "gresian": 5807,
      "fizikel": 5808,
      "wazh": 5809,
      "emsaver": 5810,
      "Perou": 5811,
      "kelenner": 5812,
      "heuliet": 5813,
      "farouell": 5814,
      "diktat": 5815,
      "pleust": 5816,
      "Science": 5817,
      "kumunioù": 5818,
      "gemeras": 5819,
      "brav": 5820,
      "pelec": 5821,
      "felle": 5822,
      "mestrc": 5823,
      "embregerezhioù": 5824,
      "menegiñ": 5825,
      "Armerzh": 5826,
      "Finistère": 5827,
      "laosk": 5828,
      "harpañ": 5829,
      "Mirdi": 5830,
      "udeur": 5831,
      "babwe": 5832,
      "eeeeee": 5833,
      "Bernard": 5834,
      "aotroun": 5835,
      "bolitikel": 5836,
      "dramaour": 5837,
      "URSS": 5838,
      "Norvegia": 5839,
      "Gevred": 5840,
      "ziwezhañ": 5841,
      "Zimbabwe": 5842,
      "Gelted": 5843,
      "Galiza": 5844,
      "Spered": 5845,
      "hepmuiken": 5846,
      "86": 5847,
      "?)": 5848,
      "Añ": 5849,
      "Aer": 5850,
      "All": 5851,
      "Aug": 5852,
      "Bos": 5853,
      "Cour": 5854,
      "Catal": 5855,
      "Dala": 5856,
      "Fili": 5857,
      "Gembre": 5858,
      "Ham": 5859,
      "Jor": 5860,
      "Kro": 5861,
      "Kevredigezh": 5862,
      "Komunouriezh": 5863,
      "Liv": 5864,
      "My": 5865,
      "Mod": 5866,
      "Moz": 5867,
      "Merc": 5868,
      "NA": 5869,
      "Natur": 5870,
      "Sh": 5871,
      "Siz": 5872,
      "Sil": 5873,
      "Slo": 5874,
      "Sevel": 5875,
      "TB": 5876,
      "Ty": 5877,
      "Tom": 5878,
      "Venez": 5879,
      "Wal": 5880,
      "Wat": 5881,
      "]]": 5882,
      "car": 5883,
      "cont": 5884,
      "det": 5885,
      "dom": 5886,
      "gi": 5887,
      "gur": 5888,
      "hiezh": 5889,
      "hrou": 5890,
      "idigezhioù": 5891,
      "jan": 5892,
      "kri": 5893,
      "nÓg": 5894,
      "ov": 5895,
      "prest": 5896,
      "prenet": 5897,
      "set": 5898,
      "sam": 5899,
      "sis": 5900,
      "sank": 5901,
      "top": 5902,
      "teul": 5903,
      "venn": 5904,
      "vantouek": 5905,
      "wis": 5906,
      "yak": 5907,
      "êra": 5908,
      "ία": 5909,
      "ер": 5910,
      "ani": 5911,
      "ance": 5912,
      "reak": 5913,
      "republik": 5914,
      "onoù": 5915,
      "hai": 5916,
      "hamm": 5917,
      "hasa": 5918,
      "distruj": 5919,
      "stro": 5920,
      "start": 5921,
      "anteg": 5922,
      "egiezh": 5923,
      "iner": 5924,
      "dag": 5925,
      "dak": 5926,
      "rac": 5927,
      "ekroaz": 5928,
      "amann": 5929,
      "choaz": 5930,
      "ourg": 5931,
      "ise": 5932,
      "isrannet": 5933,
      "debriñ": 5934,
      "heñ": 5935,
      "vot": 5936,
      "maout": 5937,
      "umber": 5938,
      "gern": 5939,
      "Ant": 5940,
      "Anna": 5941,
      "usoc": 5942,
      "Stank": 5943,
      "redek": 5944,
      "oga": 5945,
      "Gwerz": 5946,
      "oth": 5947,
      "olioù": 5948,
      "droidigezh": 5949,
      "1850": 5950,
      "Alj": 5951,
      "Lidoù": 5952,
      "blanedenn": 5953,
      "gravit": 5954,
      "tax": 5955,
      "ider": 5956,
      "ideg": 5957,
      "2019": 5958,
      "dougen": 5959,
      "trovan": 5960,
      "troidigezh": 5961,
      "hard": 5962,
      "traje": 5963,
      "galet": 5964,
      "varksouriezh": 5965,
      "getket": 5966,
      "morfologiezh": 5967,
      "kehentiñ": 5968,
      "anaat": 5969,
      "chomlec": 5970,
      "Bru": 5971,
      "jediñ": 5972,
      "kelaouenn": 5973,
      "dalvoud": 5974,
      "talbenn": 5975,
      "liessintezel": 5976,
      "peurgetket": 5977,
      "istory": 5978,
      "barrek": 5979,
      "aliesañ": 5980,
      "sinema": 5981,
      "yae": 5982,
      "1922": 5983,
      "omunourion": 5984,
      "lesanvet": 5985,
      "greantel": 5986,
      "moneiz": 5987,
      "reolenn": 5988,
      "saout": 5989,
      "devezh": 5990,
      "armoù": 5991,
      "logod": 5992,
      "kuzh": 5993,
      "Montroulez": 5994,
      "amerika": 5995,
      "langue": 5996,
      "hresianeg": 5997,
      "lezennel": 5998,
      "breur": 5999,
      "teknologiezh": 6000,
      "yaouankiz": 6001,
      "divizet": 6002,
      "divizout": 6003,
      "Kreizdouar": 6004,
      "zehoù": 6005,
      "Scott": 6006,
      "Edward": 6007,
      "prezeg": 6008,
      "gwarellek": 6009,
      "breizhek": 6010,
      "Pontekroaz": 6011,
      "Kongo": 6012,
      "batrom": 6013,
      "enklozadurioù": 6014,
      "hskeudennerezh": 6015,
      "Latin": 6016,
      "tibetat": 6017,
      "Dindan": 6018,
      "Cambrid": 6019,
      "disklêriet": 6020,
      "emdroadur": 6021,
      "ditouroù": 6022,
      "Office": 6023,
      "amprevaned": 6024,
      "Georges": 6025,
      "Vrezhoned": 6026,
      "Kazakstan": 6027,
      "Evans": 6028,
      "titouroù": 6029,
      "Dalai": 6030,
      "Cambridge": 6031,
      "('": 6032,
      "(-": 6033,
      "-)": 6034,
      "1añ": 6035,
      "42": 6036,
      "61": 6037,
      "Bra": 6038,
      "Bob": 6039,
      "Comp": 6040,
      "DP": 6041,
      "Dom": 6042,
      "Esk": 6043,
      "Fren": 6044,
      "Hep": 6045,
      "It": 6046,
      "Jar": 6047,
      "Karn": 6048,
      "Leg": 6049,
      "Lennoù": 6050,
      "Live": 6051,
      "Lhasa": 6052,
      "Mass": 6053,
      "Nik": 6054,
      "Pan": 6055,
      "Rem": 6056,
      "SC": 6057,
      "Sy": 6058,
      "Tar": 6059,
      "Teo": 6060,
      "Web": 6061,
      "Walarn": 6062,
      "Yu": 6063,
      "[[": 6064,
      "aien": 6065,
      "bik": 6066,
      "cor": 6067,
      "cent": 6068,
      "foar": 6069,
      "fuz": 6070,
      "fologel": 6071,
      "gü": 6072,
      "gon": 6073,
      "gil": 6074,
      "glav": 6075,
      "gevre": 6076,
      "gimiezh": 6077,
      "homz": 6078,
      "hement": 6079,
      "ied": 6080,
      "kh": 6081,
      "kembraek": 6082,
      "lem": 6083,
      "lanv": 6084,
      "neder": 6085,
      "ood": 6086,
      "ps": 6087,
      "pur": 6088,
      "seul": 6089,
      "sañset": 6090,
      "tec": 6091,
      "voul": 6092,
      "wal": 6093,
      "zaou": 6094,
      "éri": 6095,
      "ír": 6096,
      "ır": 6097,
      "ек": 6098,
      "ун": 6099,
      "anal": 6100,
      "andi": 6101,
      "erlec": 6102,
      "ouv": 6103,
      "refer": 6104,
      "hay": 6105,
      "haz": 6106,
      "hadenn": 6107,
      "hatal": 6108,
      "hadoù": 6109,
      "dielf": 6110,
      "difer": 6111,
      "roer": 6112,
      "day": 6113,
      "vezent": 6114,
      "ativ": 6115,
      "ometr": 6116,
      "warno": 6117,
      "yezhegezh": 6118,
      "ourez": 6119,
      "law": 6120,
      "illa": 6121,
      "seau": 6122,
      "evitañ": 6123,
      "anne": 6124,
      "imant": 6125,
      "udd": 6126,
      "Arzh": 6127,
      "Arouez": 6128,
      "dredan": 6129,
      "reizhiadoù": 6130,
      "kazh": 6131,
      "tiñ": 6132,
      "llet": 6133,
      "ñval": 6134,
      "ourin": 6135,
      "igan": 6136,
      "redenn": 6137,
      "estreget": 6138,
      "Yezhadur": 6139,
      "tregont": 6140,
      "oto": 6141,
      "okol": 6142,
      "Enver": 6143,
      "hizhier": 6144,
      "iana": 6145,
      "Indonez": 6146,
      "veda": 6147,
      "taat": 6148,
      "Diwezh": 6149,
      "troad": 6150,
      "zifenn": 6151,
      "galianeg": 6152,
      "lavarenn": 6153,
      "mein": 6154,
      "tika": 6155,
      "siouek": 6156,
      "berg": 6157,
      "ubuilh": 6158,
      "vella": 6159,
      "176": 6160,
      "dravi": 6161,
      "tonoù": 6162,
      "Lewis": 6163,
      "Gouarnamant": 6164,
      "ganistan": 6165,
      "Kervella": 6166,
      "1952": 6167,
      "serr": 6168,
      "Evned": 6169,
      "gelc": 6170,
      "barr": 6171,
      "vrezel": 6172,
      "Douarnenez": 6173,
      "triti": 6174,
      "goad": 6175,
      "1924": 6176,
      "1926": 6177,
      "dizoloet": 6178,
      "lodennoù": 6179,
      "Brig": 6180,
      "ijinañ": 6181,
      "kontet": 6182,
      "ouzhpennet": 6183,
      "hirder": 6184,
      "Chile": 6185,
      "own": 6186,
      "Renadenn": 6187,
      "Duval": 6188,
      "tostoc": 6189,
      "treuzkaset": 6190,
      "harzet": 6191,
      "stummet": 6192,
      "ragana": 6193,
      "ingua": 6194,
      "Johnson": 6195,
      "nerzhioù": 6196,
      "guitar": 6197,
      "teknik": 6198,
      "patromoù": 6199,
      "melldroad": 6200,
      "plac": 6201,
      "rusian": 6202,
      "Diaes": 6203,
      "dianav": 6204,
      "fiñval": 6205,
      "Buan": 6206,
      "Skiant": 6207,
      "teod": 6208,
      "kreskiñ": 6209,
      "Afghan": 6210,
      "Afganistan": 6211,
      "Klasket": 6212,
      "Fonetik": 6213,
      "Redon": 6214,
      "danevelloù": 6215,
      "voudaegezh": 6216,
      "daspegel": 6217,
      "Kinnig": 6218,
      "skolveurieg": 6219,
      "hesonerezh": 6220,
      "dibabet": 6221,
      "hualded": 6222,
      "maoour": 6223,
      "Gwechall": 6224,
      "flamenco": 6225,
      "neves": 6226,
      "Palestina": 6227,
      "Einstein": 6228,
      "August": 6229,
      "hatalaneg": 6230,
      "Afghanistan": 6231,
      "))": 6232,
      "110": 6233,
      "49": 6234,
      "57": 6235,
      "98": 6236,
      "Afri": 6237,
      "Arag": 6238,
      "Akt": 6239,
      "Band": 6240,
      "CI": 6241,
      "Ca": 6242,
      "Cre": 6243,
      "Cast": 6244,
      "DE": 6245,
      "Fo": 6246,
      "Kom": 6247,
      "Kreol": 6248,
      "Kregiñ": 6249,
      "LP": 6250,
      "LT": 6251,
      "Lok": 6252,
      "Mu": 6253,
      "Mamm": 6254,
      "Meven": 6255,
      "Mika": 6256,
      "Oad": 6257,
      "Sou": 6258,
      "Tír": 6259,
      "Vir": 6260,
      "af": 6261,
      "bank": 6262,
      "doc": 6263,
      "dourioù": 6264,
      "eh": 6265,
      "font": 6266,
      "greg": 6267,
      "goloet": 6268,
      "hrennlavar": 6269,
      "histori": 6270,
      "ii": 6271,
      "iez": 6272,
      "jez": 6273,
      "jec": 6274,
      "kit": 6275,
      "kes": 6276,
      "kriz": 6277,
      "krennlavar": 6278,
      "krign": 6279,
      "lor": 6280,
      "linguist": 6281,
      "mand": 6282,
      "moundek": 6283,
      "nd": 6284,
      "nen": 6285,
      "neo": 6286,
      "nazi": 6287,
      "sha": 6288,
      "sort": 6289,
      "tren": 6290,
      "taget": 6291,
      "uy": 6292,
      "wez": 6293,
      "youl": 6294,
      "ès": 6295,
      "ara": 6296,
      "arit": 6297,
      "enor": 6298,
      "etim": 6299,
      "elezhioù": 6300,
      "elouriezh": 6301,
      "ennig": 6302,
      "als": 6303,
      "aleg": 6304,
      "alth": 6305,
      "adra": 6306,
      "adarre": 6307,
      "sta": 6308,
      "stre": 6309,
      "riv": 6310,
      "roe": 6311,
      "ration": 6312,
      "emor": 6313,
      "atia": 6314,
      "ature": 6315,
      "unk": 6316,
      "iteg": 6317,
      "ition": 6318,
      "1913": 6319,
      "1912": 6320,
      "esper": 6321,
      "laj": 6322,
      "laet": 6323,
      "dehou": 6324,
      "deskrivet": 6325,
      "votet": 6326,
      "eriañ": 6327,
      "Arme": 6328,
      "ival": 6329,
      "gwer": 6330,
      "gwened": 6331,
      "gwisk": 6332,
      "broud": 6333,
      "abl": 6334,
      "absolut": 6335,
      "gouarn": 6336,
      "gouezel": 6337,
      "gourien": 6338,
      "aozour": 6339,
      "arnevez": 6340,
      "aze": 6341,
      "erezhioù": 6342,
      "oder": 6343,
      "okeg": 6344,
      "metal": 6345,
      "ranke": 6346,
      "Eng": 6347,
      "splann": 6348,
      "halleg": 6349,
      "lennet": 6350,
      "brotonoù": 6351,
      "veaj": 6352,
      "pladenn": 6353,
      "hoarzh": 6354,
      "ziad": 6355,
      "Marteze": 6356,
      "feal": 6357,
      "Unanennoù": 6358,
      "ders": 6359,
      "dermen": 6360,
      "traou": 6361,
      "negativel": 6362,
      "ilhet": 6363,
      "orica": 6364,
      "morfologel": 6365,
      "biskoazh": 6366,
      "kelc": 6367,
      "Santez": 6368,
      "tonioù": 6369,
      "hoalad": 6370,
      "astennet": 6371,
      "istorour": 6372,
      "1958": 6373,
      "romantoù": 6374,
      "kalet": 6375,
      "gavout": 6376,
      "uhelder": 6377,
      "sevenadurioù": 6378,
      "gourel": 6379,
      "urzhiet": 6380,
      "kresket": 6381,
      "Abugida": 6382,
      "mareoù": 6383,
      "fridi": 6384,
      "thm": 6385,
      "gounit": 6386,
      "1932": 6387,
      "1933": 6388,
      "1938": 6389,
      "bepred": 6390,
      "engu": 6391,
      "liammañ": 6392,
      "dizoue": 6393,
      "fedoù": 6394,
      "Frances": 6395,
      "achet": 6396,
      "mizioù": 6397,
      "elektre": 6398,
      "resisaat": 6399,
      "Sport": 6400,
      "1905": 6401,
      "1908": 6402,
      "skoliad": 6403,
      "gomzer": 6404,
      "Kensonennoù": 6405,
      "Henc": 6406,
      "risteniezh": 6407,
      "amprest": 6408,
      "peoc": 6409,
      "Gwengamp": 6410,
      "banniel": 6411,
      "kemeras": 6412,
      "raganvioù": 6413,
      "ksour": 6414,
      "speredel": 6415,
      "ouzbek": 6416,
      "eveurek": 6417,
      "hresianek": 6418,
      "gumuniezh": 6419,
      "divyezhegezh": 6420,
      "ezhommoù": 6421,
      "mennad": 6422,
      "Danmark": 6423,
      "vihanik": 6424,
      "tremenet": 6425,
      "ishka": 6426,
      "Embannadurioù": 6427,
      "reveulzi": 6428,
      "ergerzher": 6429,
      "ographi": 6430,
      "Monum": 6431,
      "ujoù": 6432,
      "voutin": 6433,
      "vreudeur": 6434,
      "enklaskoù": 6435,
      "koshoc": 6436,
      "tiskouez": 6437,
      "ydd": 6438,
      "Litu": 6439,
      "kevredigezhel": 6440,
      "fardañ": 6441,
      "germanek": 6442,
      "Grand": 6443,
      "Maurice": 6444,
      "Sokialour": 6445,
      "Wikipedia": 6446,
      "substrat": 6447,
      "maouezed": 6448,
      "heverk": 6449,
      "Kirgizstan": 6450,
      "vloav": 6451,
      "wintouek": 6452,
      "êraoz": 6453,
      "Aljeria": 6454,
      "French": 6455,
      "dravidek": 6456,
      "Mikael": 6457,
      "52": 6458,
      "76": 6459,
      "89": 6460,
      "AB": 6461,
      "AP": 6462,
      "Air": 6463,
      "Azer": 6464,
      "Arist": 6465,
      "Bal": 6466,
      "Biz": 6467,
      "Bann": 6468,
      "Bir": 6469,
      "Boli": 6470,
      "Blu": 6471,
      "Bobl": 6472,
      "Dra": 6473,
      "Dol": 6474,
      "Dir": 6475,
      "Deiz": 6476,
      "Domin": 6477,
      "Dastum": 6478,
      "Ec": 6479,
      "Fav": 6480,
      "Feiz": 6481,
      "GP": 6482,
      "Gl": 6483,
      "Gab": 6484,
      "Ideo": 6485,
      "Lak": 6486,
      "Los": 6487,
      "Mell": 6488,
      "Nap": 6489,
      "Peg": 6490,
      "Pin": 6491,
      "Pra": 6492,
      "Pow": 6493,
      "Prad": 6494,
      "Paco": 6495,
      "Rod": 6496,
      "Sak": 6497,
      "Sap": 6498,
      "TF": 6499,
      "Tha": 6500,
      "Tamm": 6501,
      "Ve": 6502,
      "Wh": 6503,
      "],": 6504,
      "aezh": 6505,
      "bus": 6506,
      "cas": 6507,
      "cle": 6508,
      "cia": 6509,
      "fro": 6510,
      "falc": 6511,
      "fizi": 6512,
      "gn": 6513,
      "gle": 6514,
      "gement": 6515,
      "hre": 6516,
      "histoire": 6517,
      "ires": 6518,
      "kao": 6519,
      "lang": 6520,
      "mot": 6521,
      "mut": 6522,
      "now": 6523,
      "ppe": 6524,
      "pres": 6525,
      "sch": 6526,
      "sing": 6527,
      "tav": 6528,
      "tori": 6529,
      "uon": 6530,
      "vezhioù": 6531,
      "zouloueg": 6532,
      "ér": 6533,
      "ódig": 6534,
      "στ": 6535,
      "ки": 6536,
      "лар": 6537,
      "уг": 6538,
      "ane": 6539,
      "ars": 6540,
      "arvez": 6541,
      "enk": 6542,
      "enebet": 6543,
      "ezek": 6544,
      "ouie": 6545,
      "ella": 6546,
      "ref": 6547,
      "ons": 6548,
      "hael": 6549,
      "adkavet": 6550,
      "adstêr": 6551,
      "diouer": 6552,
      "diplom": 6553,
      "stern": 6554,
      "anter": 6555,
      "row": 6556,
      "roz": 6557,
      "daol": 6558,
      "data": 6559,
      "lidoù": 6560,
      "emvod": 6561,
      "olm": 6562,
      "1915": 6563,
      "chim": 6564,
      "isa": 6565,
      "eller": 6566,
      "ellet": 6567,
      "see": 6568,
      "voent": 6569,
      "maer": 6570,
      "eurog": 6571,
      "udoù": 6572,
      "udela": 6573,
      "past": 6574,
      "ock": 6575,
      "drevadenn": 6576,
      "And": 6577,
      "Andr": 6578,
      "kast": 6579,
      "kaat": 6580,
      "tier": 6581,
      "Stour": 6582,
      "kenkoulz": 6583,
      "Unico": 6584,
      "saver": 6585,
      "akal": 6586,
      "viel": 6587,
      "okio": 6588,
      "oft": 6589,
      "ranket": 6590,
      "hiad": 6591,
      "ugh": 6592,
      "ugu": 6593,
      "lakaer": 6594,
      "brogar": 6595,
      "merañ": 6596,
      "mervel": 6597,
      "meuriadoù": 6598,
      "ace": 6599,
      "dous": 6600,
      "douchennaoueg": 6601,
      "divent": 6602,
      "intent": 6603,
      "denoniezh": 6604,
      "reizhañ": 6605,
      "rakgerioù": 6606,
      "genel": 6607,
      "kanoù": 6608,
      "Herve": 6609,
      "ebek": 6610,
      "Mach": 6611,
      "Europe": 6612,
      "dalveze": 6613,
      "stummadur": 6614,
      "teau": 6615,
      "Impala": 6616,
      "130": 6617,
      "fonn": 6618,
      "IIvet": 6619,
      "vorfologiezh": 6620,
      "barrez": 6621,
      "baid": 6622,
      "1921": 6623,
      "1927": 6624,
      "dizolo": 6625,
      "hommon": 6626,
      "miliadoù": 6627,
      "oniourien": 6628,
      "Rolloù": 6629,
      "lesanv": 6630,
      "greanterezh": 6631,
      "usted": 6632,
      "Plan": 6633,
      "ijinerezh": 6634,
      "termenoù": 6635,
      "treuzskrivañ": 6636,
      "Sex": 6637,
      "1896": 6638,
      "1897": 6639,
      "1898": 6640,
      "1899": 6641,
      "Roet": 6642,
      "sistemoù": 6643,
      "berzhioù": 6644,
      "yntax": 6645,
      "David": 6646,
      "bombez": 6647,
      "livour": 6648,
      "wealth": 6649,
      "Kreizenn": 6650,
      "neuhe": 6651,
      "Traoñienn": 6652,
      "dibennoù": 6653,
      "Vroadel": 6654,
      "Ministr": 6655,
      "aesoc": 6656,
      "feti": 6657,
      "Embannet": 6658,
      "Languages": 6659,
      "Michigan": 6660,
      "zispleg": 6661,
      "XIV": 6662,
      "vreur": 6663,
      "Breur": 6664,
      "kiriek": 6665,
      "sportoù": 6666,
      "Jack": 6667,
      "volt": 6668,
      "emrenerezh": 6669,
      "Melestradurezh": 6670,
      "Katalaneg": 6671,
      "Sevenadurel": 6672,
      "grouiñ": 6673,
      "ardivinkoù": 6674,
      "itekt": 6675,
      "Diction": 6676,
      "Valens": 6677,
      "Arzoù": 6678,
      "anzav": 6679,
      "neptu": 6680,
      "araogennoù": 6681,
      "protonoù": 6682,
      "skoulm": 6683,
      "Institute": 6684,
      "vrudetañ": 6685,
      "AMM": 6686,
      "Eric": 6687,
      "ekonomiezh": 6688,
      "othoeg": 6689,
      "Urzhiat": 6690,
      "tapout": 6691,
      "Dylan": 6692,
      "Ragistor": 6693,
      "Habask": 6694,
      "Normandi": 6695,
      "Hogen": 6696,
      "Kavout": 6697,
      "Levezonet": 6698,
      "Anavezet": 6699,
      "Malcolm": 6700,
      "aotrouniezh": 6701,
      "hementad": 6702,
      "Indonezia": 6703,
      "melldroader": 6704,
      "ódigo": 6705,
      "André": 6706,
      "Unicode": 6707,
      "hommonwealth": 6708,
      "\"-": 6709,
      "69": 6710,
      "92": 6711,
      "Aviel": 6712,
      "Beg": 6713,
      "Bla": 6714,
      "Barn": 6715,
      "Barz": 6716,
      "Bay": 6717,
      "Bors": 6718,
      "Cur": 6719,
      "Cas": 6720,
      "Dep": 6721,
      "Dalc": 6722,
      "Devezh": 6723,
      "Dider": 6724,
      "Ek": 6725,
      "Fou": 6726,
      "Fel": 6727,
      "Ful": 6728,
      "Fac": 6729,
      "God": 6730,
      "Kou": 6731,
      "KLT": 6732,
      "Menn": 6733,
      "Maked": 6734,
      "Naz": 6735,
      "Nac": 6736,
      "Neuze": 6737,
      "Oc": 6738,
      "Pas": 6739,
      "Pist": 6740,
      "Pop": 6741,
      "Post": 6742,
      "Ra": 6743,
      "Rh": 6744,
      "SK": 6745,
      "Sel": 6746,
      "TC": 6747,
      "Tel": 6748,
      "Tit": 6749,
      "Tang": 6750,
      "UK": 6751,
      "Ukra": 6752,
      "aek": 6753,
      "aol": 6754,
      "aour": 6755,
      "bas": 6756,
      "cum": 6757,
      "dem": 6758,
      "dog": 6759,
      "eion": 6760,
      "ehan": 6761,
      "fas": 6762,
      "flas": 6763,
      "faos": 6764,
      "gh": 6765,
      "gri": 6766,
      "goll": 6767,
      "gomunouriezh": 6768,
      "hek": 6769,
      "hlo": 6770,
      "hod": 6771,
      "hwel": 6772,
      "hredennoù": 6773,
      "hleñved": 6774,
      "hortoz": 6775,
      "ib": 6776,
      "jañs": 6777,
      "kenn": 6778,
      "kiz": 6779,
      "kot": 6780,
      "koun": 6781,
      "kuzul": 6782,
      "keoded": 6783,
      "loù": 6784,
      "ling": 6785,
      "lemm": 6786,
      "muz": 6787,
      "muzul": 6788,
      "molek": 6789,
      "noblañs": 6790,
      "nadoz": 6791,
      "oek": 6792,
      "pañ": 6793,
      "peu": 6794,
      "pent": 6795,
      "prou": 6796,
      "publi": 6797,
      "sour": 6798,
      "sul": 6799,
      "semb": 6800,
      "santel": 6801,
      "toud": 6802,
      "ution": 6803,
      "yer": 6804,
      "ǝr": 6805,
      "μα": 6806,
      "ат": 6807,
      "ын": 6808,
      "andre": 6809,
      "andin": 6810,
      "arel": 6811,
      "enad": 6812,
      "eztaol": 6813,
      "etikel": 6814,
      "enner": 6815,
      "rejont": 6816,
      "alli": 6817,
      "adem": 6818,
      "dioutañ": 6819,
      "eged": 6820,
      "rian": 6821,
      "indu": 6822,
      "ske": 6823,
      "raed": 6824,
      "raent": 6825,
      "lia": 6826,
      "lien": 6827,
      "emeur": 6828,
      "edd": 6829,
      "ate": 6830,
      "atl": 6831,
      "atek": 6832,
      "atadur": 6833,
      "und": 6834,
      "olf": 6835,
      "1918": 6836,
      "1916": 6837,
      "peare": 6838,
      "zoeg": 6839,
      "seiz": 6840,
      "agan": 6841,
      "iking": 6842,
      "erie": 6843,
      "gwi": 6844,
      "gwad": 6845,
      "paouez": 6846,
      "dreger": 6847,
      "ney": 6848,
      "ump": 6849,
      "abadennoù": 6850,
      "Anne": 6851,
      "gouez": 6852,
      "Stan": 6853,
      "rouz": 6854,
      "aozadurioù": 6855,
      "igh": 6856,
      "penna": 6857,
      "sonadegoù": 6858,
      "ember": 6859,
      "uzativel": 6860,
      "rollet": 6861,
      "azeul": 6862,
      "akana": 6863,
      "droc": 6864,
      "video": 6865,
      "andeg": 6866,
      "1888": 6867,
      "hiroc": 6868,
      "Inter": 6869,
      "rannigoù": 6870,
      "meret": 6871,
      "2023": 6872,
      "doureier": 6873,
      "Dib": 6874,
      "ziwar": 6875,
      "niverennoù": 6876,
      "harpet": 6877,
      "lavarer": 6878,
      "maneg": 6879,
      "mania": 6880,
      "format": 6881,
      "ozik": 6882,
      "parti": 6883,
      "ologie": 6884,
      "lub": 6885,
      "apour": 6886,
      "uter": 6887,
      "bien": 6888,
      "Emgl": 6889,
      "Hert": 6890,
      "eskimo": 6891,
      "Brug": 6892,
      "kanton": 6893,
      "Gouhere": 6894,
      "diazezoù": 6895,
      "oñje": 6896,
      "degoù": 6897,
      "douaroniel": 6898,
      "teue": 6899,
      "serret": 6900,
      "Morfologiezh": 6901,
      "kantvedoù": 6902,
      "hoarierien": 6903,
      "super": 6904,
      "hadur": 6905,
      "poan": 6906,
      "sellout": 6907,
      "Skrid": 6908,
      "Skridoù": 6909,
      "Dishualded": 6910,
      "Ploug": 6911,
      "Alamaneg": 6912,
      "kontadennoù": 6913,
      "1903": 6914,
      "1909": 6915,
      "Henry": 6916,
      "vevenn": 6917,
      "kerent": 6918,
      "Island": 6919,
      "gitarour": 6920,
      "erezioù": 6921,
      "Gram": 6922,
      "bretons": 6923,
      "daveoù": 6924,
      "laboure": 6925,
      "surentez": 6926,
      "lêrias": 6927,
      "Louarn": 6928,
      "vodadeg": 6929,
      "notet": 6930,
      "kevreadel": 6931,
      "uzulioù": 6932,
      "pinyin": 6933,
      "Charlez": 6934,
      "politikerezhioù": 6935,
      "zegouezh": 6936,
      "Benj": 6937,
      "Tex": 6938,
      "Kentelioù": 6939,
      "fetis": 6940,
      "albomoù": 6941,
      "Carl": 6942,
      "loss": 6943,
      "Singapour": 6944,
      "greskiñ": 6945,
      "burmek": 6946,
      "uilhet": 6947,
      "geot": 6948,
      "geoded": 6949,
      "Breujoù": 6950,
      "Digoret": 6951,
      "ladesh": 6952,
      "Timm": 6953,
      "America": 6954,
      "beriodek": 6955,
      "mammenn": 6956,
      "prederour": 6957,
      "Green": 6958,
      "Landreger": 6959,
      "Shame": 6960,
      "Shakes": 6961,
      "Hollved": 6962,
      "ARP": 6963,
      "Linguistic": 6964,
      "pourchas": 6965,
      "tibeteg": 6966,
      "dugelezh": 6967,
      "Renkadur": 6968,
      "teoriennoù": 6969,
      "wellañ": 6970,
      "Francisco": 6971,
      "arguzenn": 6972,
      "Lannuon": 6973,
      "luziet": 6974,
      "añjer": 6975,
      "groñs": 6976,
      "kemplezh": 6977,
      "deveret": 6978,
      "Bangladesh": 6979,
      "gronnet": 6980,
      "vaoouriezh": 6981,
      "hebraeg": 6982,
      "merdeer": 6983,
      "tritiom": 6984,
      "Oadvezh": 6985,
      "elektrek": 6986,
      "amprestet": 6987,
      "Aristotel": 6988,
      "Ideologiezh": 6989,
      "itektouriezh": 6990,
      "Borsley": 6991,
      "Pistols": 6992,
      "andinav": 6993,
      "Emgleo": 6994,
      "Shakespeare": 6995,
      "%),": 6996,
      "'.": 6997,
      "(«": 6998,
      "120": 6999,
      "63": 7000,
      "82": 7001,
      "87": 7002,
      "AL": 7003,
      "Avel": 7004,
      "Alain": 7005,
      "BR": 7006,
      "Ball": 7007,
      "Bout": 7008,
      "Berzh": 7009,
      "Cree": 7010,
      "DC": 7011,
      "Ditour": 7012,
      "Fal": 7013,
      "Hemañ": 7014,
      "Hier": 7015,
      "Heneg": 7016,
      "IB": 7017,
      "Ivon": 7018,
      "Jou": 7019,
      "Journ": 7020,
      "Kaoz": 7021,
      "Kala": 7022,
      "Keng": 7023,
      "Kamer": 7024,
      "Kors": 7025,
      "Lly": 7026,
      "Mes": 7027,
      "NS": 7028,
      "Nem": 7029,
      "Neo": 7030,
      "Nas": 7031,
      "Number": 7032,
      "Ouganda": 7033,
      "PO": 7034,
      "Pé": 7035,
      "Pere": 7036,
      "Prin": 7037,
      "Pelec": 7038,
      "Sad": 7039,
      "Som": 7040,
      "Sir": 7041,
      "Seurt": 7042,
      "Tam": 7043,
      "UP": 7044,
      "VIII": 7045,
      "Video": 7046,
      "Werc": 7047,
      "aire": 7048,
      "boc": 7049,
      "cul": 7050,
      "comp": 7051,
      "coun": 7052,
      "dok": 7053,
      "dañjer": 7054,
      "edigezh": 7055,
      "gǝ": 7056,
      "goa": 7057,
      "gim": 7058,
      "gap": 7059,
      "gêriadenn": 7060,
      "hra": 7061,
      "heri": 7062,
      "hud": 7063,
      "houl": 7064,
      "iro": 7065,
      "iourien": 7066,
      "jad": 7067,
      "kamm": 7068,
      "kredennoù": 7069,
      "lou": 7070,
      "lur": 7071,
      "må": 7072,
      "mala": 7073,
      "male": 7074,
      "mision": 7075,
      "nologiezh": 7076,
      "pou": 7077,
      "pizh": 7078,
      "qq": 7079,
      "sall": 7080,
      "sout": 7081,
      "sus": 7082,
      "til": 7083,
      "tski": 7084,
      "ula": 7085,
      "verzh": 7086,
      "vemor": 7087,
      "wat": 7088,
      "way": 7089,
      "wisk": 7090,
      "zun": 7091,
      "zalc": 7092,
      "zastum": 7093,
      "ût": 7094,
      "ış": 7095,
      "ес": 7096,
      "ол": 7097,
      "’,": 7098,
      "anev": 7099,
      "argerzh": 7100,
      "eze": 7101,
      "ezañs": 7102,
      "erann": 7103,
      "etis": 7104,
      "ette": 7105,
      "etts": 7106,
      "rej": 7107,
      "alta": 7108,
      "onenn": 7109,
      "adsavet": 7110,
      "adsevel": 7111,
      "adembannet": 7112,
      "stal": 7113,
      "stadeg": 7114,
      "anta": 7115,
      "eva": 7116,
      "rick": 7117,
      "ined": 7118,
      "ines": 7119,
      "dae": 7120,
      "ska": 7121,
      "skeul": 7122,
      "ray": 7123,
      "rabeg": 7124,
      "lim": 7125,
      "list": 7126,
      "orbit": 7127,
      "eds": 7128,
      "edenn": 7129,
      "ator": 7130,
      "atiz": 7131,
      "atonek": 7132,
      "eog": 7133,
      "ami": 7134,
      "omon": 7135,
      "ombez": 7136,
      "cht": 7137,
      "char": 7138,
      "chant": 7139,
      "yezhek": 7140,
      "iland": 7141,
      "debret": 7142,
      "ikaned": 7143,
      "eurel": 7144,
      "outiek": 7145,
      "abred": 7146,
      "ouzhpennañ": 7147,
      "tip": 7148,
      "goust": 7149,
      "bennad": 7150,
      "Stra": 7151,
      "rouanez": 7152,
      "igne": 7153,
      "redoù": 7154,
      "estel": 7155,
      "ular": 7156,
      "azas": 7157,
      "aouet": 7158,
      "Gwenn": 7159,
      "treu": 7160,
      "hollved": 7161,
      "ote": 7162,
      "arzhe": 7163,
      "1800": 7164,
      "Alou": 7165,
      "herve": 7166,
      "hiragana": 7167,
      "Lies": 7168,
      "Indi": 7169,
      "rannoù": 7170,
      "bezañs": 7171,
      "helc": 7172,
      "haner": 7173,
      "hanaouennoù": 7174,
      "idenn": 7175,
      "meurvor": 7176,
      "meuriad": 7177,
      "zior": 7178,
      "danzen": 7179,
      "adenniñ": 7180,
      "daouzek": 7181,
      "galian": 7182,
      "mesket": 7183,
      "pergen": 7184,
      "oriad": 7185,
      "embannadurioù": 7186,
      "genad": 7187,
      "gendalc": 7188,
      "ardeg": 7189,
      "prosez": 7190,
      "protestant": 7191,
      "iria": 7192,
      "uther": 7193,
      "velestradurezh": 7194,
      "Eurazia": 7195,
      "kanji": 7196,
      "naire": 7197,
      "quer": 7198,
      "quel": 7199,
      "ebriñ": 7200,
      "Maen": 7201,
      "horo": 7202,
      "hañs": 7203,
      "douarel": 7204,
      "aeroeg": 7205,
      "aergelc": 7206,
      "Morfem": 7207,
      "gareg": 7208,
      "diskwelet": 7209,
      "fonetikel": 7210,
      "geltiek": 7211,
      "vrud": 7212,
      "striñ": 7213,
      "Abherve": 7214,
      "labourerion": 7215,
      "gounid": 7216,
      "...).": 7217,
      "iences": 7218,
      "Suamerika": 7219,
      "relativel": 7220,
      "ivelezh": 7221,
      "skriturioù": 7222,
      "feded": 7223,
      "achu": 7224,
      "finneg": 7225,
      "bevennoù": 7226,
      "bevien": 7227,
      "cheñ": 7228,
      "Pennar": 7229,
      "Tremen": 7230,
      "Biskoazh": 7231,
      "Joan": 7232,
      "dourredenn": 7233,
      "levezonoù": 7234,
      "ereau": 7235,
      "Aten": 7236,
      "rummadoù": 7237,
      "1891": 7238,
      "ampion": 7239,
      "luskadoù": 7240,
      "ring": 7241,
      "unvaniñ": 7242,
      "hoarvezout": 7243,
      "elfennel": 7244,
      "Reiñ": 7245,
      "gorf": 7246,
      "Jezio": 7247,
      "teknikel": 7248,
      "'',": 7249,
      "kimiezh": 7250,
      "1870": 7251,
      "vonreizh": 7252,
      "zegemer": 7253,
      "Book": 7254,
      "Minh": 7255,
      "Levraoueg": 7256,
      "Siberia": 7257,
      "Japaniz": 7258,
      "Riou": 7259,
      "Samzun": 7260,
      "enrollañ": 7261,
      "British": 7262,
      "Gouren": 7263,
      "barnet": 7264,
      "tolod": 7265,
      "etrerann": 7266,
      "Lakaat": 7267,
      "kevredel": 7268,
      "teorikel": 7269,
      "tamallet": 7270,
      "ürk": 7271,
      "standard": 7272,
      "kouezhañ": 7273,
      "Duged": 7274,
      "Claude": 7275,
      "Langleiz": 7276,
      "fardet": 7277,
      "Senedd": 7278,
      "parrezioù": 7279,
      "Pouezus": 7280,
      "moullet": 7281,
      "gwinizh": 7282,
      "gwagennoù": 7283,
      "Nebeut": 7284,
      "gompezenn": 7285,
      "teskad": 7286,
      "Ledenez": 7287,
      "ordinal": 7288,
      "butun": 7289,
      "grogas": 7290,
      "moulet": 7291,
      "Diorren": 7292,
      "Cheñch": 7293,
      "pesked": 7294,
      "Hebreed": 7295,
      "rediet": 7296,
      "RAF": 7297,
      "frammet": 7298,
      "Copiar": 7299,
      "Jules": 7300,
      "Visant": 7301,
      "leuskel": 7302,
      "ouiziegezh": 7303,
      "Añj": 7304,
      "Filipin": 7305,
      "Diwezhatoc": 7306,
      "esperanteg": 7307,
      "Francesc": 7308,
      "ouzbekeg": 7309,
      "Lituania": 7310,
      "Azerbaid": 7311,
      "Bolivia": 7312,
      "Favereau": 7313,
      "eurogomunouriezh": 7314,
      "Stourm": 7315,
      "industri": 7316,
      "Aristoteles": 7317,
      "Ideologiezhioù": 7318,
      "Kameroun": 7319,
      "mål": 7320,
      "etrerannyezhel": 7321,
      "!,": 7322,
      "116": 7323,
      "94": 7324,
      "AT": 7325,
      "Ak": 7326,
      "Aog": 7327,
      "Aot": 7328,
      "Bul": 7329,
      "CN": 7330,
      "Cl": 7331,
      "Dem": 7332,
      "Drez": 7333,
      "Eti": 7334,
      "East": 7335,
      "Fa": 7336,
      "Fir": 7337,
      "Falc": 7338,
      "Fraz": 7339,
      "Gui": 7340,
      "Glann": 7341,
      "Hell": 7342,
      "Him": 7343,
      "Hand": 7344,
      "Irak": 7345,
      "Ku": 7346,
      "Kho": 7347,
      "Kach": 7348,
      "Kip": 7349,
      "Kebek": 7350,
      "Lap": 7351,
      "Mem": 7352,
      "Mol": 7353,
      "MAMM": 7354,
      "Net": 7355,
      "Nav": 7356,
      "Ox": 7357,
      "Out": 7358,
      "Oreg": 7359,
      "Pent": 7360,
      "Perzh": 7361,
      "Poli": 7362,
      "Pos": 7363,
      "Pres": 7364,
      "Pic": 7365,
      "RI": 7366,
      "River": 7367,
      "Sen": 7368,
      "Sat": 7369,
      "Sand": 7370,
      "Sec": 7371,
      "Sved": 7372,
      "Ts": 7373,
      "Tek": 7374,
      "Treg": 7375,
      "TAD": 7376,
      "VI": 7377,
      "Von": 7378,
      "Vod": 7379,
      "Wel": 7380,
      "Wall": 7381,
      "Zed": 7382,
      "].": 7383,
      "braz": 7384,
      "cm": 7385,
      "ced": 7386,
      "clas": 7387,
      "código": 7388,
      "dus": 7389,
      "fel": 7390,
      "foll": 7391,
      "gornôg": 7392,
      "hri": 7393,
      "hil": 7394,
      "hrist": 7395,
      "iot": 7396,
      "lê": 7397,
      "né": 7398,
      "nezh": 7399,
      "nom": 7400,
      "nos": 7401,
      "não": 7402,
      "nikoù": 7403,
      "nomin": 7404,
      "ora": 7405,
      "pital": 7406,
      "prizi": 7407,
      "rug": 7408,
      "sas": 7409,
      "siv": 7410,
      "slav": 7411,
      "trouz": 7412,
      "uer": 7413,
      "weuz": 7414,
      "with": 7415,
      "yan": 7416,
      "Ém": 7417,
      "Écho": 7418,
      "ñvoc": 7419,
      "ölü": 7420,
      "ın": 7421,
      "ǝn": 7422,
      "Ар": 7423,
      "ав": 7424,
      "бі": 7425,
      "ил": 7426,
      "ֵא": 7427,
      "מָ": 7428,
      "enskrivet": 7429,
      "era": 7430,
      "erdi": 7431,
      "ermin": 7432,
      "oua": 7433,
      "real": 7434,
      "alb": 7435,
      "ader": 7436,
      "adian": 7437,
      "diou": 7438,
      "dieg": 7439,
      "diak": 7440,
      "diver": 7441,
      "distri": 7442,
      "dioute": 7443,
      "diouti": 7444,
      "dilezet": 7445,
      "stem": 7446,
      "stalin": 7447,
      "antik": 7448,
      "evet": 7449,
      "event": 7450,
      "evid": 7451,
      "zhiri": 7452,
      "rizh": 7453,
      "inc": 7454,
      "inam": 7455,
      "daoud": 7456,
      "skal": 7457,
      "skeg": 7458,
      "skarzhet": 7459,
      "razh": 7460,
      "lik": 7461,
      "litik": 7462,
      "una": 7463,
      "eozen": 7464,
      "amstrizh": 7465,
      "ambik": 7466,
      "izadur": 7467,
      "oazi": 7468,
      "chou": 7469,
      "chek": 7470,
      "chokol": 7471,
      "isseau": 7472,
      "ileg": 7473,
      "dehoù": 7474,
      "imbourc": 7475,
      "pae": 7476,
      "new": 7477,
      "nest": 7478,
      "neizh": 7479,
      "abad": 7480,
      "gerent": 7481,
      "Ann": 7482,
      "usetts": 7483,
      "kazet": 7484,
      "tig": 7485,
      "tique": 7486,
      "Ste": 7487,
      "isted": 7488,
      "igen": 7489,
      "kenofisiel": 7490,
      "kengerioù": 7491,
      "sonaozour": 7492,
      "plijadur": 7493,
      "ulle": 7494,
      "savboent": 7495,
      "Gwaien": 7496,
      "akeg": 7497,
      "akuzativel": 7498,
      "oteg": 7499,
      "leve": 7500,
      "levrig": 7501,
      "hindou": 7502,
      "hidigezh": 7503,
      "marevezh": 7504,
      "bleun": 7505,
      "Skouer": 7506,
      "Skolioù": 7507,
      "iang": 7508,
      "iano": 7509,
      "unanennoù": 7510,
      "Inu": 7511,
      "Inuktitut": 7512,
      "gram": 7513,
      "brodu": 7514,
      "kemmañ": 7515,
      "Dibet": 7516,
      "troioù": 7517,
      "Maroko": 7518,
      "intern": 7519,
      "daneg": 7520,
      "danış": 7521,
      "adennet": 7522,
      "vari": 7523,
      "oris": 7524,
      "anga": 7525,
      "veli": 7526,
      "bihann": 7527,
      "Emil": 7528,
      "tonenn": 7529,
      "talv": 7530,
      "kevandir": 7531,
      "studier": 7532,
      "ounner": 7533,
      "degas": 7534,
      "Morvan": 7535,
      "gef": 7536,
      "hwi": 7537,
      "iation": 7538,
      "sevenadurezh": 7539,
      "Abeozen": 7540,
      "Laur": 7541,
      "bajenn": 7542,
      "goañv": 7543,
      "Dreger": 7544,
      "klaskas": 7545,
      "Rouaned": 7546,
      "achusetts": 7547,
      "hadennoù": 7548,
      "hadourien": 7549,
      "Kanerien": 7550,
      "Kanishka": 7551,
      "Gener": 7552,
      "onegoù": 7553,
      "ledañ": 7554,
      "Skolaj": 7555,
      "ijinour": 7556,
      "more": 7557,
      "mojennoù": 7558,
      "Atao": 7559,
      "bodad": 7560,
      "1902": 7561,
      "lâr": 7562,
      "rummatadur": 7563,
      "Kartenn": 7564,
      "Amerikaned": 7565,
      "Kenya": 7566,
      "Kendalc": 7567,
      "Baudela": 7568,
      "rizek": 7569,
      "veve": 7570,
      "vevoniezh": 7571,
      "pouezet": 7572,
      "êriadennoù": 7573,
      "hengounioù": 7574,
      "taolenn": 7575,
      "boan": 7576,
      "Loire": 7577,
      "Tibetiz": 7578,
      "stummañ": 7579,
      "difetis": 7580,
      "Olimpek": 7581,
      "hanterenn": 7582,
      "ysia": 7583,
      "palioù": 7584,
      "rolektenn": 7585,
      "Elek": 7586,
      "langues": 7587,
      "hresianed": 7588,
      "Guill": 7589,
      "endom": 7590,
      "vodañ": 7591,
      "kelennadurezh": 7592,
      "binarel": 7593,
      "kevredigezhioù": 7594,
      "kaozeal": 7595,
      "skov": 7596,
      "alamanek": 7597,
      "Maodez": 7598,
      "awouriezh": 7599,
      "impalaerien": 7600,
      "aires": 7601,
      "kome": 7602,
      "Salomon": 7603,
      "gwareziñ": 7604,
      "ific": 7605,
      "gourenerien": 7606,
      "Turkmen": 7607,
      "drouiz": 7608,
      "Presses": 7609,
      "delc": 7610,
      "skingas": 7611,
      "gouzañ": 7612,
      "Franked": 7613,
      "Silabenn": 7614,
      "boudoù": 7615,
      "Arabia": 7616,
      "Roberts": 7617,
      "XVIvet": 7618,
      "brezidant": 7619,
      "kensonennel": 7620,
      "ledanoc": 7621,
      "geriaoueg": 7622,
      "sekretour": 7623,
      "stankell": 7624,
      "hemenn": 7625,
      "pozioù": 7626,
      "Greun": 7627,
      "talvoudus": 7628,
      "função": 7629,
      "programmoù": 7630,
      "umaj": 7631,
      "gwerzioù": 7632,
      "helenner": 7633,
      "gelennadurezh": 7634,
      "Vietnam": 7635,
      "strivoù": 7636,
      "ainoueg": 7637,
      "juche": 7638,
      "indiat": 7639,
      "levraouegoù": 7640,
      "ANET": 7641,
      "Nicol": 7642,
      "aktourez": 7643,
      "1789": 7644,
      "asantet": 7645,
      "gaozeal": 7646,
      "hêrezh": 7647,
      "dilhad": 7648,
      "ekonomikel": 7649,
      "Lucía": 7650,
      "gwagenn": 7651,
      "Gaulle": 7652,
      "greizenn": 7653,
      "Anjev": 7654,
      "hidrogen": 7655,
      "Gonideg": 7656,
      "Lukian": 7657,
      "japanek": 7658,
      "mǝk": 7659,
      "techet": 7660,
      "iwerzhonat": 7661,
      "Krennlavaroù": 7662,
      "Radio": 7663,
      "kirri": 7664,
      "vourc": 7665,
      "Angeles": 7666,
      "Heinz": 7667,
      "kodet": 7668,
      "prenañ": 7669,
      "elektromagn": 7670,
      "Stephens": 7671,
      "medisinerezh": 7672,
      "Modern": 7673,
      "Mozambik": 7674,
      "Sizun": 7675,
      "hammed": 7676,
      "distrujet": 7677,
      "gravitadur": 7678,
      "Massachusetts": 7679,
      "Aragon": 7680,
      "Virgin": 7681,
      "aritmet": 7682,
      "English": 7683,
      "Sportoù": 7684,
      "Sapir": 7685,
      "Impalaer": 7686,
      "Urzhiataerezh": 7687,
      "Depart": 7688,
      "Tangi": 7689,
      "ARPANET": 7690,
      "Journal": 7691,
      "Korsika": 7692,
      "Filipinez": 7693,
      "Azerbaidjan": 7694,
      "Aogust": 7695,
      "Glanndour": 7696,
      "Oxford": 7697,
      "Oregon": 7698,
      "Zedong": 7699,
      "Baudelaire": 7700,
      "250": 7701,
      "62": 7702,
      "96": 7703,
      "Ah": 7704,
      "Av": 7705,
      "Aon": 7706,
      "Avo": 7707,
      "Akad": 7708,
      "App": 7709,
      "Arem": 7710,
      "Bin": 7711,
      "Boas": 7712,
      "Bhout": 7713,
      "Clar": 7714,
      "Drou": 7715,
      "Ecu": 7716,
      "Fra": 7717,
      "Fam": 7718,
      "Gil": 7719,
      "Gristeniezh": 7720,
      "Hol": 7721,
      "Hit": 7722,
      "Izo": 7723,
      "Jon": 7724,
      "Just": 7725,
      "Kle": 7726,
      "Kemer": 7727,
      "Kêrioù": 7728,
      "Kemeret": 7729,
      "Kushan": 7730,
      "Kroaz": 7731,
      "Kloss": 7732,
      "Ll": 7733,
      "Lad": 7734,
      "Lag": 7735,
      "Long": 7736,
      "MI": 7737,
      "NO": 7738,
      "Nir": 7739,
      "Ol": 7740,
      "Our": 7741,
      "Osis": 7742,
      "PS": 7743,
      "Pr": 7744,
      "Pezh": 7745,
      "Por": 7746,
      "Peo": 7747,
      "Pab": 7748,
      "Phili": 7749,
      "Ré": 7750,
      "Reol": 7751,
      "Rennes": 7752,
      "Set": 7753,
      "Sed": 7754,
      "Sik": 7755,
      "Sab": 7756,
      "TH": 7757,
      "Tan": 7758,
      "Tat": 7759,
      "Tak": 7760,
      "Tap": 7761,
      "UN": 7762,
      "UTF": 7763,
      "Whorf": 7764,
      "Ye": 7765,
      "Ys": 7766,
      "Ze": 7767,
      "Zel": 7768,
      "apar": 7769,
      "bzh": 7770,
      "bli": 7771,
      "beur": 7772,
      "bok": 7773,
      "bomm": 7774,
      "briz": 7775,
      "czo": 7776,
      "cell": 7777,
      "cep": 7778,
      "comm": 7779,
      "cago": 7780,
      "demokrat": 7781,
      "eñv": 7782,
      "fezh": 7783,
      "fant": 7784,
      "feu": 7785,
      "flo": 7786,
      "fac": 7787,
      "gé": 7788,
      "genn": 7789,
      "gig": 7790,
      "gop": 7791,
      "gloaz": 7792,
      "gemm": 7793,
      "gustum": 7794,
      "gêraoz": 7795,
      "hlav": 7796,
      "hresk": 7797,
      "hrign": 7798,
      "ias": 7799,
      "ipe": 7800,
      "ium": 7801,
      "kur": 7802,
      "kudennoù": 7803,
      "kogn": 7804,
      "kustum": 7805,
      "lañ": 7806,
      "mezh": 7807,
      "mol": 7808,
      "mour": 7809,
      "muk": 7810,
      "morioù": 7811,
      "ny": 7812,
      "nou": 7813,
      "nas": 7814,
      "oioù": 7815,
      "pá": 7816,
      "pé": 7817,
      "pra": 7818,
      "pem": 7819,
      "peul": 7820,
      "suk": 7821,
      "sothoeg": 7822,
      "tun": 7823,
      "tiv": 7824,
      "tarzh": 7825,
      "venez": 7826,
      "vombez": 7827,
      "wn": 7828,
      "was": 7829,
      "wig": 7830,
      "wir": 7831,
      "xhos": 7832,
      "yez": 7833,
      "yev": 7834,
      "yaz": 7835,
      "zas": 7836,
      "île": 7837,
      "ız": 7838,
      "τα": 7839,
      "ван": 7840,
      "сар": 7841,
      "әр": 7842,
      "өр": 7843,
      "ֹל": 7844,
      "לֵא": 7845,
      "arus": 7846,
      "arver": 7847,
      "ezañ": 7848,
      "erre": 7849,
      "eter": 7850,
      "ougou": 7851,
      "elo": 7852,
      "elour": 7853,
      "alo": 7854,
      "alis": 7855,
      "ond": 7856,
      "direizh": 7857,
      "dilec": 7858,
      "diembann": 7859,
      "diaezet": 7860,
      "staon": 7861,
      "stalioù": 7862,
      "evañ": 7863,
      "evelloù": 7864,
      "rier": 7865,
      "rok": 7866,
      "inek": 7867,
      "inded": 7868,
      "sklav": 7869,
      "skañv": 7870,
      "skarzhañ": 7871,
      "vezioù": 7872,
      "edelek": 7873,
      "ative": 7874,
      "univer": 7875,
      "ito": 7876,
      "esc": 7877,
      "esi": 7878,
      "enteuz": 7879,
      "chev": 7880,
      "cheg": 7881,
      "yezhon": 7882,
      "isek": 7883,
      "hebra": 7884,
      "hehentiñ": 7885,
      "aostri": 7886,
      "voiñ": 7887,
      "loar": 7888,
      "euriz": 7889,
      "ime": 7890,
      "brou": 7891,
      "paour": 7892,
      "paper": 7893,
      "pajenn": 7894,
      "abjad": 7895,
      "Andor": 7896,
      "Stand": 7897,
      "Steve": 7898,
      "Union": 7899,
      "oglos": 7900,
      "etreober": 7901,
      "Gwer": 7902,
      "Gwyn": 7903,
      "otez": 7904,
      "droadur": 7905,
      "vie": 7906,
      "vier": 7907,
      "ando": 7908,
      "oke": 7909,
      "hina": 7910,
      "herm": 7911,
      "lection": 7912,
      "sper": 7913,
      "marksour": 7914,
      "bleg": 7915,
      "ionoù": 7916,
      "hallont": 7917,
      "ecker": 7918,
      "Broadoù": 7919,
      "unaniezh": 7920,
      "opek": 7921,
      "vefent": 7922,
      "agnun": 7923,
      "kemenn": 7924,
      "ings": 7925,
      "Dihun": 7926,
      "zili": 7927,
      "ziforc": 7928,
      "Marsel": 7929,
      "intezel": 7930,
      "haroz": 7931,
      "manag": 7932,
      "label": 7933,
      "parlamant": 7934,
      "embanne": 7935,
      "genidik": 7936,
      "velestr": 7937,
      "kanaouenn": 7938,
      "Emdroadur": 7939,
      "eskell": 7940,
      "hentennoù": 7941,
      "houzout": 7942,
      "seurtad": 7943,
      "Lee": 7944,
      "studiadenn": 7945,
      "istorourien": 7946,
      "latinek": 7947,
      "fonenn": 7948,
      "sterioù": 7949,
      "izidi": 7950,
      "verbes": 7951,
      "Sinaiz": 7952,
      "gourdon": 7953,
      "gourskrid": 7954,
      "urzhiañ": 7955,
      "stral": 7956,
      "izhier": 7957,
      "thur": 7958,
      "goat": 7959,
      "engő": 7960,
      "bihanañ": 7961,
      "bevet": 7962,
      "Pennad": 7963,
      "Kemm": 7964,
      "toros": 7965,
      "skeulenn": 7966,
      "chadenn": 7967,
      "Rolling": 7968,
      "ignoned": 7969,
      "resisoc": 7970,
      "Brian": 7971,
      "Pladennoù": 7972,
      "Daouzek": 7973,
      "termenadur": 7974,
      "termeniñ": 7975,
      "body": 7976,
      "donenn": 7977,
      "1906": 7978,
      "Baol": 7979,
      "Produ": 7980,
      "Proviñs": 7981,
      "1890": 7982,
      "Roy": 7983,
      "italouriezh": 7984,
      "italianek": 7985,
      "kerkent": 7986,
      "rythm": 7987,
      "tegas": 7988,
      "Islam": 7989,
      "Isrannet": 7990,
      "heuilh": 7991,
      "gwellaat": 7992,
      "emglevioù": 7993,
      "Trotski": 7994,
      "Mohammed": 7995,
      "sorabeg": 7996,
      "izelvro": 7997,
      "riziennoù": 7998,
      "Kelenn": 7999,
      "gasas": 8000,
      "rouedadoù": 8001,
      "sokialouriezh": 8002,
      "Distro": 8003,
      "binvi": 8004,
      "tiriadel": 8005,
      "tabut": 8006,
      "treset": 8007,
      "Maoour": 8008,
      "1873": 8009,
      "kumuniezh": 8010,
      "benel": 8011,
      "Poblañs": 8012,
      "komañset": 8013,
      "mennesk": 8014,
      "Term": 8015,
      "Colum": 8016,
      "brah": 8017,
      "prefeti": 8018,
      "Peurvuiañ": 8019,
      "IIIvet": 8020,
      "Bullet": 8021,
      "Talbenn": 8022,
      "drouk": 8023,
      "goulennet": 8024,
      "echuaeg": 8025,
      "kemmoù": 8026,
      "Gwelout": 8027,
      "blantenn": 8028,
      "Samuel": 8029,
      "norveg": 8030,
      "oleiñ": 8031,
      "boldt": 8032,
      "leninour": 8033,
      "pegoulz": 8034,
      "Patrick": 8035,
      "Labou": 8036,
      "Sonic": 8037,
      "obererezhioù": 8038,
      "oadvezh": 8039,
      "vrezhonegerien": 8040,
      "sikouret": 8041,
      "hañval": 8042,
      "dresenn": 8043,
      "varzhoniezh": 8044,
      "Krieg": 8045,
      "kevredadel": 8046,
      "skadi": 8047,
      "Revue": 8048,
      "mouezhioù": 8049,
      "efedoù": 8050,
      "swana": 8051,
      "Devanagari": 8052,
      "agua": 8053,
      "veskañ": 8054,
      "Music": 8055,
      "pemdeziek": 8056,
      "remziad": 8057,
      "chuet": 8058,
      "Chicago": 8059,
      "Hellaz": 8060,
      "Simon": 8061,
      "pidgin": 8062,
      "Hungaria": 8063,
      "José": 8064,
      "tañva": 8065,
      "Geriaoueg": 8066,
      "Ijinet": 8067,
      "semitek": 8068,
      "arvorel": 8069,
      "Anjela": 8070,
      "Euskadi": 8071,
      "Honecker": 8072,
      "Malaysia": 8073,
      "blijadur": 8074,
      "araokadennoù": 8075,
      "Humboldt": 8076,
      "Ruisseau": 8077,
      "Wind": 8078,
      "Luksemb": 8079,
      "japanat": 8080,
      "zouar": 8081,
      "Skeudennoù": 8082,
      "Brunei": 8083,
      "Britannia": 8084,
      "Léon": 8085,
      "bigi": 8086,
      "psikedelek": 8087,
      "identelezh": 8088,
      "Sekretour": 8089,
      "bazenn": 8090,
      "Europiz": 8091,
      "humunioù": 8092,
      "vilionvedenn": 8093,
      "gweledva": 8094,
      "Disklêriadur": 8095,
      "Mouladurioù": 8096,
      "Raymond": 8097,
      "ziazez": 8098,
      "бир": 8099,
      "debrerien": 8100,
      "vietnam": 8101,
      "Gregor": 8102,
      "Jorj": 8103,
      "dalvoudegezh": 8104,
      "referendom": 8105,
      "Arouezioù": 8106,
      "Brigadennoù": 8107,
      "gwenedeg": 8108,
      "hoarzhin": 8109,
      "diplomat": 8110,
      "okioyezhoniezh": 8111,
      "brogarour": 8112,
      "Fulup": 8113,
      "Makedonia": 8114,
      "eskimoek": 8115,
      "superstrat": 8116,
      "Henegipt": 8117,
      "gimiek": 8118,
      "gapitalouriezh": 8119,
      "anevaled": 8120,
      "altaek": 8121,
      "horolaj": 8122,
      "Jezioro": 8123,
      "Welsh": 8124,
      "Émile": 8125,
      "מָלֵא": 8126,
      "diakri": 8127,
      "chokolad": 8128,
      "Turkmenistan": 8129,
      "Akadem": 8130,
      "Ecuador": 8131,
      "Hitler": 8132,
      "Osismi": 8133,
      "hebraek": 8134,
      "Andorra": 8135,
      "Luksembourg": 8136,
      "%)": 8137,
      "/).": 8138,
      "115": 8139,
      "51": 8140,
      "600": 8141,
      "71": 8142,
      "7czo": 8143,
      "81": 8144,
      "91": 8145,
      "Are": 8146,
      "BO": 8147,
      "Bl": 8148,
      "Ban": 8149,
      "Big": 8150,
      "Bost": 8151,
      "Bac": 8152,
      "Bure": 8153,
      "Cad": 8154,
      "Cap": 8155,
      "Das": 8156,
      "Eb": 8157,
      "Fall": 8158,
      "Font": 8159,
      "Fred": 8160,
      "From": 8161,
      "Gouez": 8162,
      "Gölü": 8163,
      "History": 8164,
      "Ill": 8165,
      "Ju": 8166,
      "Job": 8167,
      "Kristen": 8168,
      "Lor": 8169,
      "List": 8170,
      "Lamm": 8171,
      "Lander": 8172,
      "ME": 8173,
      "Mur": 8174,
      "Muzulioù": 8175,
      "Nev": 8176,
      "Nann": 8177,
      "Open": 8178,
      "Oded": 8179,
      "Pur": 8180,
      "Ped": 8181,
      "Pit": 8182,
      "Perc": 8183,
      "Priñs": 8184,
      "RS": 8185,
      "Reg": 8186,
      "Rout": 8187,
      "Raz": 8188,
      "Sri": 8189,
      "Sol": 8190,
      "Sout": 8191,
      "Sul": 8192,
      "Spec": 8193,
      "Sokioyezhoniezh": 8194,
      "Tes": 8195,
      "Tug": 8196,
      "TES": 8197,
      "Tanz": 8198,
      "Up": 8199,
      "VD": 8200,
      "Vor": 8201,
      "Vat": 8202,
      "Viking": 8203,
      "XXI": 8204,
      "Yen": 8205,
      "ah": 8206,
      "afri": 8207,
      "aigne": 8208,
      "ball": 8209,
      "band": 8210,
      "beuz": 8211,
      "bhu": 8212,
      "bolitikerezh": 8213,
      "dj": 8214,
      "dé": 8215,
      "dell": 8216,
      "flusk": 8217,
      "feson": 8218,
      "freuz": 8219,
      "faeroeg": 8220,
      "gembraeg": 8221,
      "gör": 8222,
      "gotek": 8223,
      "heo": 8224,
      "hennoù": 8225,
      "hus": 8226,
      "hrenn": 8227,
      "hleñvedoù": 8228,
      "jo": 8229,
      "jedoù": 8230,
      "kwa": 8231,
      "kron": 8232,
      "kuzuli": 8233,
      "lug": 8234,
      "ml": 8235,
      "madoù": 8236,
      "mignon": 8237,
      "nan": 8238,
      "noù": 8239,
      "oh": 8240,
      "pout": 8241,
      "pret": 8242,
      "priñs": 8243,
      "rum": 8244,
      "sor": 8245,
      "sont": 8246,
      "sened": 8247,
      "sign": 8248,
      "tha": 8249,
      "tev": 8250,
      "ther": 8251,
      "talc": 8252,
      "tourioù": 8253,
      "tole": 8254,
      "vun": 8255,
      "wen": 8256,
      "wokeg": 8257,
      "yalam": 8258,
      "zoull": 8259,
      "zoue": 8260,
      "Île": 8261,
      "ça": 8262,
      "éli": 8263,
      "ël": 8264,
      "öm": 8265,
      "ǝk": 8266,
      "ər": 8267,
      "κα": 8268,
      "να": 8269,
      "ου": 8270,
      "да": 8271,
      "ет": 8272,
      "ик": 8273,
      "үн": 8274,
      "armet": 8275,
      "enoù": 8276,
      "ensavadurioù": 8277,
      "ezklozadurioù": 8278,
      "etañ": 8279,
      "aleu": 8280,
      "alse": 8281,
      "ondis": 8282,
      "haat": 8283,
      "diouto": 8284,
      "diwall": 8285,
      "sto": 8286,
      "stant": 8287,
      "ante": 8288,
      "ego": 8289,
      "rion": 8290,
      "eub": 8291,
      "eum": 8292,
      "eux": 8293,
      "eudi": 8294,
      "roix": 8295,
      "ind": 8296,
      "inañ": 8297,
      "sky": 8298,
      "skor": 8299,
      "sklêri": 8300,
      "liorzh": 8301,
      "oran": 8302,
      "ords": 8303,
      "eksand": 8304,
      "unenn": 8305,
      "amek": 8306,
      "avo": 8307,
      "izeg": 8308,
      "ente": 8309,
      "entil": 8310,
      "ches": 8311,
      "pesket": 8312,
      "iser": 8313,
      "deadurezh": 8314,
      "head": 8315,
      "heim": 8316,
      "hehed": 8317,
      "vorioù": 8318,
      "ontek": 8319,
      "Armen": 8320,
      "Arthur": 8321,
      "bron": 8322,
      "oba": 8323,
      "pazenn": 8324,
      "reizhskrivadur": 8325,
      "abi": 8326,
      "kaet": 8327,
      "Stone": 8328,
      "rous": 8329,
      "rouaned": 8330,
      "iste": 8331,
      "istañs": 8332,
      "istorioù": 8333,
      "skrive": 8334,
      "kenaozet": 8335,
      "renas": 8336,
      "renkad": 8337,
      "estin": 8338,
      "ulu": 8339,
      "Gwern": 8340,
      "Gwiri": 8341,
      "Gwazh": 8342,
      "akrolektenn": 8343,
      "olimpek": 8344,
      "okit": 8345,
      "implijoù": 8346,
      "osen": 8347,
      "Aleksand": 8348,
      "herzel": 8349,
      "hire": 8350,
      "hidi": 8351,
      "splu": 8352,
      "skoueri": 8353,
      "verr": 8354,
      "vers": 8355,
      "lenner": 8356,
      "gramm": 8357,
      "dual": 8358,
      "dudi": 8359,
      "haneg": 8360,
      "tain": 8361,
      "kemend": 8362,
      "añsoù": 8363,
      "douget": 8364,
      "Difenn": 8365,
      "ziouer": 8366,
      "Mary": 8367,
      "disrann": 8368,
      "diswel": 8369,
      "deroet": 8370,
      "galizeg": 8371,
      "barzhoniezh": 8372,
      "varregezh": 8373,
      "berek": 8374,
      "eilad": 8375,
      "kanol": 8376,
      "welout": 8377,
      "tru": 8378,
      "regezhioù": 8379,
      "terioù": 8380,
      "Ergerzh": 8381,
      "quet": 8382,
      "diazad": 8383,
      "Mazh": 8384,
      "hoad": 8385,
      "106": 8386,
      "ganda": 8387,
      "padus": 8388,
      "studiadennoù": 8389,
      "karr": 8390,
      "karrez": 8391,
      "karantez": 8392,
      "dezenn": 8393,
      "empre": 8394,
      "degezhioù": 8395,
      "teufe": 8396,
      "Morvann": 8397,
      "Paragu": 8398,
      "diskan": 8399,
      "izien": 8400,
      "bara": 8401,
      "sevenet": 8402,
      "gourmonc": 8403,
      "kreñvoc": 8404,
      "tammoù": 8405,
      "goût": 8406,
      "hoariadeg": 8407,
      "Dreinded": 8408,
      "suis": 8409,
      "Rous": 8410,
      "ationale": 8411,
      "brezelioù": 8412,
      "Kemmañ": 8413,
      "skeud": 8414,
      "chapel": 8415,
      "ajoù": 8416,
      "aymar": 8417,
      "seller": 8418,
      "reolad": 8419,
      "reoladoù": 8420,
      "Pleg": 8421,
      "mojenn": 8422,
      "kontañ": 8423,
      "ows": 8424,
      "zeue": 8425,
      "1892": 8426,
      "phil": 8427,
      "taolennoù": 8428,
      "boell": 8429,
      "Montaigne": 8430,
      "maezioù": 8431,
      "wask": 8432,
      "sens": 8433,
      "edeleg": 8434,
      "hoarvezas": 8435,
      "Rannyezhoù": 8436,
      "Moskov": 8437,
      "Emsavadeg": 8438,
      "milved": 8439,
      "speredelezh": 8440,
      "bourg": 8441,
      "soviedel": 8442,
      "surf": 8443,
      "renkadoù": 8444,
      "izeloc": 8445,
      "hogozik": 8446,
      "Guil": 8447,
      "korvoiñ": 8448,
      "torfed": 8449,
      "brec": 8450,
      "ginivelezh": 8451,
      "doueez": 8452,
      "site": 8453,
      "deoc": 8454,
      "zebr": 8455,
      "table": 8456,
      "tablez": 8457,
      "idae": 8458,
      "Poell": 8459,
      "annezad": 8460,
      "Termenadur": 8461,
      "ifest": 8462,
      "zoareoù": 8463,
      "huneg": 8464,
      "1856": 8465,
      "gadro": 8466,
      "Chapel": 8467,
      "ergerzha": 8468,
      "Arabat": 8469,
      "Studiet": 8470,
      "Assoc": 8471,
      "Bonreizh": 8472,
      "kerneveurek": 8473,
      "Servij": 8474,
      "armeoù": 8475,
      "oberiañ": 8476,
      "Acad": 8477,
      "Sellout": 8478,
      "ission": 8479,
      "Patrom": 8480,
      "hemennoù": 8481,
      "arkeo": 8482,
      "Victor": 8483,
      "prederouriezh": 8484,
      "tadjik": 8485,
      "Angola": 8486,
      "melestradurezh": 8487,
      "Yezhoniourien": 8488,
      "krampouezh": 8489,
      "anaoudegezhioù": 8490,
      "poellad": 8491,
      "Finland": 8492,
      "traoñienn": 8493,
      "Liter": 8494,
      "Pevare": 8495,
      "wirioù": 8496,
      "Dilennet": 8497,
      "ñveriadenn": 8498,
      "chench": 8499,
      "hevread": 8500,
      "jubenn": 8501,
      "kouezhas": 8502,
      "stlenneg": 8503,
      "Miquel": 8504,
      "Native": 8505,
      "yenisek": 8506,
      "Hanter": 8507,
      "strukturioù": 8508,
      "science": 8509,
      "Institut": 8510,
      "Christian": 8511,
      "golvan": 8512,
      "téra": 8513,
      "evnoniour": 8514,
      "(†)": 8515,
      "Ijinerezh": 8516,
      "arguzennoù": 8517,
      "Varia": 8518,
      "plediñ": 8519,
      "legumaj": 8520,
      "Tchek": 8521,
      "spontus": 8522,
      "mennozhioù": 8523,
      "meziant": 8524,
      "meziantoù": 8525,
      "Papoua": 8526,
      "duction": 8527,
      "meulgan": 8528,
      "Ernod": 8529,
      "Hamlet": 8530,
      "choazet": 8531,
      "Bruce": 8532,
      "Jarry": 8533,
      "gül": 8534,
      "Arzhur": 8535,
      "gregach": 8536,
      "gouezeleg": 8537,
      "Monumantoù": 8538,
      "vloavezhioù": 8539,
      "Pradesh": 8540,
      "Texas": 8541,
      "Ivona": 8542,
      "country": 8543,
      "Levraouegoù": 8544,
      "Añjela": 8545,
      "Aotrou": 8546,
      "Frazennoù": 8547,
      "Satan": 8548,
      "Арван": 8549,
      "Avogadro": 8550,
      "Bhoutan": 8551,
      "Izotop": 8552,
      "Zeland": 8553,
      "kognitivel": 8554,
      "pemzek": 8555,
      "aostrian": 8556,
      "velestradurel": 8557,
      "Bulletin": 8558,
      "diakritek": 8559,
      "Boston": 8560,
      "Landerne": 8561,
      "Tanzania": 8562,
      "heheder": 8563,
      "Morvannou": 8564,
      "Paraguay": 8565,
      "\";": 8566,
      "72": 8567,
      "700": 8568,
      "Ada": 8569,
      "Aut": 8570,
      "Bol": 8571,
      "Bus": 8572,
      "Bep": 8573,
      "Bak": 8574,
      "Bec": 8575,
      "Bleun": 8576,
      "Bloc": 8577,
      "CC": 8578,
      "Cer": 8579,
      "Cli": 8580,
      "Caes": 8581,
      "CGP": 8582,
      "Dez": 8583,
      "Dur": 8584,
      "EA": 8585,
      "ED": 8586,
      "Ep": 8587,
      "Ever": 8588,
      "Eneb": 8589,
      "FI": 8590,
      "FL": 8591,
      "Far": 8592,
      "Fest": 8593,
      "Feder": 8594,
      "Free": 8595,
      "Gat": 8596,
      "Gis": 8597,
      "Gimiezh": 8598,
      "Han": 8599,
      "Henn": 8600,
      "Hug": 8601,
      "Harz": 8602,
      "Histori": 8603,
      "Ia": 8604,
      "Iz": 8605,
      "Itron": 8606,
      "Kun": 8607,
      "Kab": 8608,
      "Krenn": 8609,
      "Klas": 8610,
      "Kembraeg": 8611,
      "Kudennoù": 8612,
      "Let": 8613,
      "Lli": 8614,
      "Log": 8615,
      "Laos": 8616,
      "MT": 8617,
      "Mek": 8618,
      "Mot": 8619,
      "NG": 8620,
      "Ny": 8621,
      "Nun": 8622,
      "Niv": 8623,
      "Noz": 8624,
      "Never": 8625,
      "Oke": 8626,
      "Publi": 8627,
      "Pink": 8628,
      "Rese": 8629,
      "Ruther": 8630,
      "SD": 8631,
      "SO": 8632,
      "Spe": 8633,
      "Sum": 8634,
      "Soud": 8635,
      "Sac": 8636,
      "Soñj": 8637,
      "Sinoù": 8638,
      "South": 8639,
      "Tou": 8640,
      "Tech": 8641,
      "Tiri": 8642,
      "Türk": 8643,
      "Ven": 8644,
      "Vreiz": 8645,
      "Venet": 8646,
      "Wint": 8647,
      "Wood": 8648,
      "Xin": 8649,
      "aas": 8650,
      "bant": 8651,
      "bot": 8652,
      "besk": 8653,
      "bast": 8654,
      "bau": 8655,
      "cet": 8656,
      "civ": 8657,
      "cop": 8658,
      "cio": 8659,
      "dd": 8660,
      "eau": 8661,
      "fla": 8662,
      "fot": 8663,
      "gis": 8664,
      "god": 8665,
      "grenn": 8666,
      "gün": 8667,
      "gomunourion": 8668,
      "him": 8669,
      "hiñ": 8670,
      "hof": 8671,
      "hultur": 8672,
      "iadurioù": 8673,
      "ibia": 8674,
      "iques": 8675,
      "kembre": 8676,
      "lant": 8677,
      "lezel": 8678,
      "lingua": 8679,
      "mit": 8680,
      "mist": 8681,
      "muzuliañ": 8682,
      "mistri": 8683,
      "num": 8684,
      "nouez": 8685,
      "oin": 8686,
      "ores": 8687,
      "over": 8688,
      "phe": 8689,
      "pod": 8690,
      "peuz": 8691,
      "port": 8692,
      "pounner": 8693,
      "rh": 8694,
      "rn": 8695,
      "rê": 8696,
      "ss": 8697,
      "sar": 8698,
      "sut": 8699,
      "soñje": 8700,
      "toù": 8701,
      "tiz": 8702,
      "tuz": 8703,
      "toaz": 8704,
      "temz": 8705,
      "teurel": 8706,
      "vell": 8707,
      "vac": 8708,
      "vadennoù": 8709,
      "voull": 8710,
      "wo": 8711,
      "wet": 8712,
      "wek": 8713,
      "wag": 8714,
      "work": 8715,
      "yod": 8716,
      "zra": 8717,
      "zes": 8718,
      "ène": 8719,
      "élé": 8720,
      "ıq": 8721,
      "ən": 8722,
      "ас": 8723,
      "иг": 8724,
      "ст": 8725,
      "сен": 8726,
      "то": 8727,
      "ул": 8728,
      "וֹל": 8729,
      "קָ": 8730,
      "‘’": 8731,
      "”.": 8732,
      "enc": 8733,
      "enger": 8734,
      "ezeg": 8735,
      "ereg": 8736,
      "eti": 8737,
      "oux": 8738,
      "eleg": 8739,
      "eleze": 8740,
      "alag": 8741,
      "alho": 8742,
      "ura": 8743,
      "ury": 8744,
      "ade": 8745,
      "ados": 8746,
      "adstumm": 8747,
      "adeilad": 8748,
      "dier": 8749,
      "dial": 8750,
      "dira": 8751,
      "direnk": 8752,
      "dimez": 8753,
      "stud": 8754,
      "anted": 8755,
      "evandir": 8756,
      "ribl": 8757,
      "eure": 8758,
      "roi": 8759,
      "rot": 8760,
      "dav": 8761,
      "daonet": 8762,
      "raet": 8763,
      "lip": 8764,
      "liñv": 8765,
      "livet": 8766,
      "lizhiri": 8767,
      "eme": 8768,
      "orsk": 8769,
      "unand": 8770,
      "amper": 8771,
      "avy": 8772,
      "izas": 8773,
      "1917": 8774,
      "omel": 8775,
      "warn": 8776,
      "warne": 8777,
      "enta": 8778,
      "ento": 8779,
      "chel": 8780,
      "peadra": 8781,
      "zow": 8782,
      "iseg": 8783,
      "isme": 8784,
      "issi": 8785,
      "israel": 8786,
      "ild": 8787,
      "ilek": 8788,
      "deskrivadur": 8789,
      "hein": 8790,
      "ellegezh": 8791,
      "seur": 8792,
      "voger": 8793,
      "logel": 8794,
      "onto": 8795,
      "eurvezh": 8796,
      "gwas": 8797,
      "paer": 8798,
      "drec": 8799,
      "Anaon": 8800,
      "gouezh": 8801,
      "Star": 8802,
      "Ster": 8803,
      "Stered": 8804,
      "rouez": 8805,
      "roudenn": 8806,
      "irc": 8807,
      "sonadeg": 8808,
      "rene": 8809,
      "renez": 8810,
      "renerezh": 8811,
      "renerien": 8812,
      "United": 8813,
      "azeri": 8814,
      "aziat": 8815,
      "aouer": 8816,
      "odenn": 8817,
      "vroad": 8818,
      "oberour": 8819,
      "diglos": 8820,
      "digeriñ": 8821,
      "levier": 8822,
      "osa": 8823,
      "hiadur": 8824,
      "hirin": 8825,
      "spi": 8826,
      "marilhet": 8827,
      "martolod": 8828,
      "Life": 8829,
      "halle": 8830,
      "Sking": 8831,
      "mengl": 8832,
      "lenneg": 8833,
      "unaniñ": 8834,
      "opia": 8835,
      "tac": 8836,
      "pled": 8837,
      "idon": 8838,
      "henlabour": 8839,
      "kemennoù": 8840,
      "strollegezhioù": 8841,
      "Mare": 8842,
      "Marx": 8843,
      "Maria": 8844,
      "feizidi": 8845,
      "niveradeg": 8846,
      "harg": 8847,
      "galv": 8848,
      "galon": 8849,
      "ilhez": 8850,
      "berc": 8851,
      "orial": 8852,
      "oriyek": 8853,
      "tual": 8854,
      "irin": 8855,
      "morlu": 8856,
      "kanerien": 8857,
      "Herman": 8858,
      "houmañ": 8859,
      "Ernest": 8860,
      "wezhoù": 8861,
      "Maine": 8862,
      "Past": 8863,
      "omperien": 8864,
      "hodiern": 8865,
      "ganol": 8866,
      "Kerdiz": 8867,
      "Kergoat": 8868,
      "teñval": 8869,
      "kartennoù": 8870,
      "serot": 8871,
      "skolaer": 8872,
      "Mord": 8873,
      "Paran": 8874,
      "iety": 8875,
      "fonetek": 8876,
      "fonologel": 8877,
      "klot": 8878,
      "strad": 8879,
      "struc": 8880,
      "Abstand": 8881,
      "sinek": 8882,
      "Roumania": 8883,
      "iew": 8884,
      "achennoù": 8885,
      "skiantour": 8886,
      "homenad": 8887,
      "finnek": 8888,
      "bevoniezh": 8889,
      "kreizennet": 8890,
      "ledge": 8891,
      "ledanaat": 8892,
      "chat": 8893,
      "chase": 8894,
      "Jeanne": 8895,
      "greñv": 8896,
      "santet": 8897,
      "kêrbenn": 8898,
      "memor": 8899,
      "1904": 8900,
      "skolidi": 8901,
      "tostañ": 8902,
      "Baader": 8903,
      "treuzdougen": 8904,
      "ruj": 8905,
      "tsalag": 8906,
      "right": 8907,
      "1895": 8908,
      "ziskenn": 8909,
      "Merket": 8910,
      "bannoù": 8911,
      "wahili": 8912,
      "waii": 8913,
      "naturour": 8914,
      "ppi": 8915,
      "ragistor": 8916,
      "ynorsk": 8917,
      "erezed": 8918,
      "milour": 8919,
      "mirandeg": 8920,
      "tredeog": 8921,
      "empredoù": 8922,
      "ozhioù": 8923,
      "izelañ": 8924,
      "testen": 8925,
      "Galli": 8926,
      "Kelaouennoù": 8927,
      "deskamant": 8928,
      "nukleonoù": 8929,
      "produioù": 8930,
      "digoradur": 8931,
      "Mein": 8932,
      "pevare": 8933,
      "vodern": 8934,
      "notennet": 8935,
      "Belarus": 8936,
      "lanie": 8937,
      "kaozeet": 8938,
      "Maoouriezh": 8939,
      "Sciences": 8940,
      "dibun": 8941,
      "emaon": 8942,
      "Etrebroadel": 8943,
      "Point": 8944,
      "distreiñ": 8945,
      "Atlant": 8946,
      "Pobloù": 8947,
      "brizh": 8948,
      "Terra": 8949,
      "Termen": 8950,
      "gwarezet": 8951,
      "vihanañ": 8952,
      "Books": 8953,
      "Bengal": 8954,
      "Ontar": 8955,
      "Françoise": 8956,
      "glaske": 8957,
      "1851": 8958,
      "Buff": 8959,
      "Lizherennoù": 8960,
      "drouz": 8961,
      "Konk": 8962,
      "faezh": 8963,
      "badas": 8964,
      "touesk": 8965,
      "Milzoull": 8966,
      "Kaourin": 8967,
      "Keñveriadenn": 8968,
      "Namibia": 8969,
      "strategiezh": 8970,
      "hendadoù": 8971,
      "fonemoù": 8972,
      "Sonerezh": 8973,
      "Kastellin": 8974,
      "talvoudegezh": 8975,
      "meizadoù": 8976,
      "varzhed": 8977,
      "Josep": 8978,
      "Gresianeg": 8979,
      "paotred": 8980,
      "traoñiennoù": 8981,
      "Rummadoù": 8982,
      "gwerzennoù": 8983,
      "teorienn": 8984,
      "Bevoniezh": 8985,
      "Boued": 8986,
      "Ramalho": 8987,
      "gosintezel": 8988,
      "https": 8989,
      "Prederouriezh": 8990,
      "Trugarez": 8991,
      "araogenn": 8992,
      "filmaozer": 8993,
      "Hyperi": 8994,
      "gristeniezh": 8995,
      "swat": 8996,
      "riezoù": 8997,
      "kenwerzhel": 8998,
      "Estonia": 8999,
      "dañsoù": 9000,
      "Christop": 9001,
      "Relijionoù": 9002,
      "Goulc": 9003,
      "Jimmy": 9004,
      "Mélanie": 9005,
      "Surinam": 9006,
      "zegasas": 9007,
      "omedienn": 9008,
      "lakadenn": 9009,
      "Michael": 9010,
      "Soci": 9011,
      "boulc": 9012,
      "eskemmoù": 9013,
      "gombod": 9014,
      "pira": 9015,
      "mikroprosesor": 9016,
      "Toronto": 9017,
      "werzhañ": 9018,
      "States": 9019,
      "kempennet": 9020,
      "mongolek": 9021,
      "BBC": 9022,
      "Herrieu": 9023,
      "Ploeneg": 9024,
      "black": 9025,
      "gambr": 9026,
      "Encyclopedia": 9027,
      "pleustret": 9028,
      "pleustrek": 9029,
      "Kroatia": 9030,
      "Slovak": 9031,
      "TBDP": 9032,
      "gerneveureg": 9033,
      "Stankell": 9034,
      "trovanoù": 9035,
      "trajediennoù": 9036,
      "fuzuilhet": 9037,
      "nederlandeg": 9038,
      "ject": 9039,
      "absolutivel": 9040,
      "Napole": 9041,
      "Sakson": 9042,
      "White": 9043,
      "anterin": 9044,
      "akalpak": 9045,
      "fonnus": 9046,
      "Nazer": 9047,
      "SKN": 9048,
      "TCP": 9049,
      "Ukraina": 9050,
      "molekulennoù": 9051,
      "pentatonek": 9052,
      "Hertog": 9053,
      "IBM": 9054,
      "gǝl": 9055,
      "heriaoueg": 9056,
      "misioner": 9057,
      "Aloub": 9058,
      "cheñcha": 9059,
      "ringfield": 9060,
      "Bulgaria": 9061,
      "Etiopia": 9062,
      "Himala": 9063,
      "Handbook": 9064,
      "Kiprenez": 9065,
      "nominativel": 9066,
      "slavek": 9067,
      "daoudranzitivel": 9068,
      "bleunioù": 9069,
      "bihanniver": 9070,
      "Elektron": 9071,
      "Greunland": 9072,
      "elektromagnet": 9073,
      "Tapet": 9074,
      "gloazet": 9075,
      "sukr": 9076,
      "xhosaeg": 9077,
      "Standard": 9078,
      "management": 9079,
      "Labourat": 9080,
      "Akademiezh": 9081,
      "Vatikan": 9082,
      "Vikinged": 9083,
      "CGPM": 9084,
      "Research": 9085,
      "Rutherford": 9086,
      "hodiernek": 9087,
      "Ontario": 9088,
      "Hypericum": 9089,
      "!!": 9090,
      "\">": 9091,
      "()": 9092,
      "-(": 9093,
      "02": 9094,
      "112": 9095,
      "68": 9096,
      "900": 9097,
      ">.": 9098,
      "Aven": 9099,
      "Astur": 9100,
      "Achuet": 9101,
      "BE": 9102,
      "Bil": 9103,
      "Ble": 9104,
      "Bres": 9105,
      "Bale": 9106,
      "Benin": 9107,
      "Cou": 9108,
      "Cra": 9109,
      "Cont": 9110,
      "Cher": 9111,
      "Chant": 9112,
      "Cru": 9113,
      "Demat": 9114,
      "DVD": 9115,
      "Ef": 9116,
      "Eli": 9117,
      "FE": 9118,
      "Fe": 9119,
      "Fu": 9120,
      "Fen": 9121,
      "Fleur": 9122,
      "Floc": 9123,
      "Gitar": 9124,
      "Gru": 9125,
      "Gold": 9126,
      "Hal": 9127,
      "Had": 9128,
      "His": 9129,
      "Hud": 9130,
      "Hong": 9131,
      "Hindi": 9132,
      "Joz": 9133,
      "Klo": 9134,
      "Kai": 9135,
      "Kler": 9136,
      "LE": 9137,
      "Lar": 9138,
      "Lem": 9139,
      "Lanv": 9140,
      "LME": 9141,
      "Mou": 9142,
      "Mall": 9143,
      "Mik": 9144,
      "Mui": 9145,
      "Neu": 9146,
      "Nass": 9147,
      "Nedeleg": 9148,
      "Ok": 9149,
      "Orig": 9150,
      "Pi": 9151,
      "Pu": 9152,
      "Py": 9153,
      "Pre": 9154,
      "Ple": 9155,
      "Piv": 9156,
      "Pret": 9157,
      "Port": 9158,
      "Publik": 9159,
      "Psy": 9160,
      "Ral": 9161,
      "Run": 9162,
      "Reo": 9163,
      "Ses": 9164,
      "Sound": 9165,
      "Tai": 9166,
      "Trizek": 9167,
      "Une": 9168,
      "Vas": 9169,
      "Vill": 9170,
      "Wis": 9171,
      "Wide": 9172,
      "Yaouank": 9173,
      "Yuzev": 9174,
      "bul": 9175,
      "bezhioù": 9176,
      "bastell": 9177,
      "dos": 9178,
      "dop": 9179,
      "eit": 9180,
      "eding": 9181,
      "frek": 9182,
      "free": 9183,
      "ferzhioù": 9184,
      "foblañs": 9185,
      "gêrioù": 9186,
      "gativel": 9187,
      "gional": 9188,
      "hoaz": 9189,
      "hvet": 9190,
      "hennet": 9191,
      "hennañ": 9192,
      "iour": 9193,
      "ireg": 9194,
      "kus": 9195,
      "kevez": 9196,
      "kizi": 9197,
      "kleñved": 9198,
      "kizhier": 9199,
      "lun": 9200,
      "moa": 9201,
      "mevel": 9202,
      "mus": 9203,
      "mizi": 9204,
      "nde": 9205,
      "nia": 9206,
      "nak": 9207,
      "nost": 9208,
      "neven": 9209,
      "oi": 9210,
      "oan": 9211,
      "odiñ": 9212,
      "pon": 9213,
      "pit": 9214,
      "poul": 9215,
      "punk": 9216,
      "pengő": 9217,
      "siz": 9218,
      "sum": 9219,
      "sia": 9220,
      "sali": 9221,
      "sach": 9222,
      "sci": 9223,
      "tz": 9224,
      "tas": 9225,
      "tus": 9226,
      "taz": 9227,
      "ting": 9228,
      "trenk": 9229,
      "tranzitivel": 9230,
      "uil": 9231,
      "uck": 9232,
      "uela": 9233,
      "vs": 9234,
      "vreizh": 9235,
      "vred": 9236,
      "veneg": 9237,
      "vach": 9238,
      "wid": 9239,
      "wana": 9240,
      "wreg": 9241,
      "xc": 9242,
      "xi": 9243,
      "yo": 9244,
      "yu": 9245,
      "yar": 9246,
      "yon": 9247,
      "yri": 9248,
      "zal": 9249,
      "zep": 9250,
      "zoug": 9251,
      "{{": 9252,
      "ás": 9253,
      "èr": 9254,
      "él": 9255,
      "ís": 9256,
      "ïes": 9257,
      "öz": 9258,
      "бер": 9259,
      "ег": 9260,
      "ты": 9261,
      "ык": 9262,
      "әм": 9263,
      "ار": 9264,
      "anant": 9265,
      "anadenn": 9266,
      "anien": 9267,
      "ario": 9268,
      "aragua": 9269,
      "arlakadenn": 9270,
      "engra": 9271,
      "ensavadur": 9272,
      "enframmet": 9273,
      "etta": 9274,
      "oust": 9275,
      "ouient": 9276,
      "elem": 9277,
      "eliezh": 9278,
      "read": 9279,
      "ezhi": 9280,
      "alenn": 9281,
      "alon": 9282,
      "alem": 9283,
      "alko": 9284,
      "dim": 9285,
      "stom": 9286,
      "antadoù": 9287,
      "evell": 9288,
      "evarz": 9289,
      "egipt": 9290,
      "rius": 9291,
      "rison": 9292,
      "inu": 9293,
      "inois": 9294,
      "daat": 9295,
      "dapas": 9296,
      "skluz": 9297,
      "rain": 9298,
      "rafe": 9299,
      "vezo": 9300,
      "lis": 9301,
      "liter": 9302,
      "livioù": 9303,
      "likoù": 9304,
      "emvo": 9305,
      "emezel": 9306,
      "orado": 9307,
      "atm": 9308,
      "aters": 9309,
      "unders": 9310,
      "ameg": 9311,
      "oled": 9312,
      "itteau": 9313,
      "ava": 9314,
      "avest": 9315,
      "izoglos": 9316,
      "esoc": 9317,
      "ents": 9318,
      "chez": 9319,
      "chtch": 9320,
      "yezhour": 9321,
      "ours": 9322,
      "lah": 9323,
      "laket": 9324,
      "ises": 9325,
      "ilektenn": 9326,
      "ellan": 9327,
      "elles": 9328,
      "sex": 9329,
      "aoc": 9330,
      "aored": 9331,
      "vokad": 9332,
      "maq": 9333,
      "maz": 9334,
      "main": 9335,
      "mailh": 9336,
      "eriet": 9337,
      "Arzel": 9338,
      "evelato": 9339,
      "gwen": 9340,
      "gwiad": 9341,
      "bren": 9342,
      "pab": 9343,
      "umant": 9344,
      "Annez": 9345,
      "usbau": 9346,
      "tist": 9347,
      "gouenn": 9348,
      "goudenn": 9349,
      "Stag": 9350,
      "Stêrioù": 9351,
      "Stones": 9352,
      "renab": 9353,
      "rence": 9354,
      "Under": 9355,
      "andon": 9356,
      "metoù": 9357,
      "osop": 9358,
      "Alpoù": 9359,
      "herent": 9360,
      "hiri": 9361,
      "mard": 9362,
      "blad": 9363,
      "blin": 9364,
      "ions": 9365,
      "verde": 9366,
      "hallfe": 9367,
      "icial": 9368,
      "Skin": 9369,
      "hellas": 9370,
      "rannig": 9371,
      "broadoù": 9372,
      "lavia": 9373,
      "planed": 9374,
      "idoù": 9375,
      "idel": 9376,
      "heni": 9377,
      "henvrezhoneg": 9378,
      "merek": 9379,
      "meurbet": 9380,
      "troidigezhioù": 9381,
      "strollañ": 9382,
      "bedel": 9383,
      "dermenadur": 9384,
      "adennad": 9385,
      "hara": 9386,
      "traezh": 9387,
      "maned": 9388,
      "manuel": 9389,
      "vara": 9390,
      "vard": 9391,
      "ozon": 9392,
      "ozañ": 9393,
      "bered": 9394,
      "park": 9395,
      "pardon": 9396,
      "Liammet": 9397,
      "ological": 9398,
      "heñveladur": 9399,
      "ilis": 9400,
      "genwerzh": 9401,
      "gete": 9402,
      "anglish": 9403,
      "vanced": 9404,
      "1500": 9405,
      "1536": 9406,
      "kej": 9407,
      "kefridi": 9408,
      "kanadian": 9409,
      "Hervé": 9410,
      "anaout": 9411,
      "welas": 9412,
      "1795": 9413,
      "tered": 9414,
      "rennadur": 9415,
      "kelaouennoù": 9416,
      "deut": 9417,
      "deuas": 9418,
      "pada": 9419,
      "kartenn": 9420,
      "rankout": 9421,
      "aerborzh": 9422,
      "teuli": 9423,
      "Morgan": 9424,
      "Parti": 9425,
      "krouas": 9426,
      "diskl": 9427,
      "sterdam": 9428,
      "gehentiñ": 9429,
      "gourc": 9430,
      "urzhioù": 9431,
      "Kembread": 9432,
      "stru": 9433,
      "ström": 9434,
      "strish": 9435,
      "sineg": 9436,
      "baour": 9437,
      "baper": 9438,
      "tric": 9439,
      "...),": 9440,
      "line": 9441,
      "bevar": 9442,
      "kreizenn": 9443,
      "Amsterdam": 9444,
      "poch": 9445,
      "lodek": 9446,
      "miliard": 9447,
      "onidi": 9448,
      "oniourion": 9449,
      "Jeff": 9450,
      "grediñ": 9451,
      "ustentin": 9452,
      "Tiegezh": 9453,
      "dourredennoù": 9454,
      "Pleu": 9455,
      "sail": 9456,
      "kontelezhioù": 9457,
      "Atlas": 9458,
      "bodja": 9459,
      "Châ": 9460,
      "Chem": 9461,
      "milionoù": 9462,
      "Rener": 9463,
      "devoe": 9464,
      "Kenderc": 9465,
      "Kenavo": 9466,
      "peniti": 9467,
      "penoutiek": 9468,
      "treuziñ": 9469,
      "rujet": 9470,
      "desavet": 9471,
      "tsch": 9472,
      "ouseg": 9473,
      "1893": 9474,
      "1894": 9475,
      "ample": 9476,
      "ziskl": 9477,
      "katakana": 9478,
      "damkan": 9479,
      "bouezus": 9480,
      "Roman": 9481,
      "phy": 9482,
      "ills": 9483,
      "vuioc": 9484,
      "Hawaii": 9485,
      "gouarnamantoù": 9486,
      "poblek": 9487,
      "vijent": 9488,
      "Adrian": 9489,
      "html": 9490,
      "soñjer": 9491,
      "soñjet": 9492,
      "Olivier": 9493,
      "tezenn": 9494,
      "Moal": 9495,
      "Emsaverien": 9496,
      "erzenezeg": 9497,
      "liveoù": 9498,
      "emsaverion": 9499,
      "bourzh": 9500,
      "labouras": 9501,
      "furmoù": 9502,
      "Saunders": 9503,
      "produer": 9504,
      "Kemperle": 9505,
      "torret": 9506,
      "sellit": 9507,
      "kreñvaat": 9508,
      "Distrujet": 9509,
      "compar": 9510,
      "farsus": 9511,
      "doueek": 9512,
      "shna": 9513,
      "aloubidigezh": 9514,
      "nijour": 9515,
      "tabou": 9516,
      "araogour": 9517,
      "Lesneven": 9518,
      "dibos": 9519,
      "Etrevroadel": 9520,
      "kumuniezhioù": 9521,
      "Poet": 9522,
      "Harris": 9523,
      "distabil": 9524,
      "meskaj": 9525,
      "Poblek": 9526,
      "Lodenn": 9527,
      "spagnol": 9528,
      "kuitaat": 9529,
      "halan": 9530,
      "lostgerioù": 9531,
      "nesañ": 9532,
      "yezhadurour": 9533,
      "Bretons": 9534,
      "Embanner": 9535,
      "Ofisiel": 9536,
      "Konan": 9537,
      "Champ": 9538,
      "enebiezh": 9539,
      "Arabed": 9540,
      "arnodel": 9541,
      "Good": 9542,
      "Gweltaz": 9543,
      "buanoc": 9544,
      "Darempredoù": 9545,
      "skrapet": 9546,
      "skrapoù": 9547,
      "1886": 9548,
      "badez": 9549,
      "badezet": 9550,
      "Kernewek": 9551,
      "Action": 9552,
      "porzhioù": 9553,
      "simpl": 9554,
      "impalaerouriezh": 9555,
      "Marcel": 9556,
      "Digor": 9557,
      "Thé": 9558,
      "goulennoù": 9559,
      "goullo": 9560,
      "UAL": 9561,
      "Jacob": 9562,
      "pouezusañ": 9563,
      "pozit": 9564,
      "tisklêrias": 9565,
      "Kevreadurezh": 9566,
      "barner": 9567,
      "melestradur": 9568,
      "Gwilun": 9569,
      "Gwilherm": 9570,
      "Krishna": 9571,
      "Latvia": 9572,
      "laosket": 9573,
      "Diazez": 9574,
      "justis": 9575,
      "houlennas": 9576,
      "Fonologiezh": 9577,
      "Bevañ": 9578,
      "Dinan": 9579,
      "zigresk": 9580,
      "kenetrezo": 9581,
      "Review": 9582,
      "deveze": 9583,
      "goshañ": 9584,
      "hevredigezhioù": 9585,
      "Broadelour": 9586,
      "hieroglifek": 9587,
      "Nature": 9588,
      "munut": 9589,
      "aloubiñ": 9590,
      "aloubadeg": 9591,
      "Lizherennegoù": 9592,
      "zistag": 9593,
      "profeded": 9594,
      "Damkan": 9595,
      "Nicaragua": 9596,
      "fenom": 9597,
      "lidet": 9598,
      "Kerneveuriz": 9599,
      "Hentoù": 9600,
      "aeled": 9601,
      "Kanton": 9602,
      "Kambodja": 9603,
      "resevet": 9604,
      "Chomet": 9605,
      "Pouezioù": 9606,
      "feuls": 9607,
      "sammad": 9608,
      "proviñsoù": 9609,
      "dispartiet": 9610,
      "kwo": 9611,
      "recte": 9612,
      "Antoni": 9613,
      "brezegenn": 9614,
      "Cornish": 9615,
      "Leninouriezh": 9616,
      "porc": 9617,
      "vorfemoù": 9618,
      "Maxim": 9619,
      "dieubiñ": 9620,
      "gouiziegezh": 9621,
      "Diorroet": 9622,
      "isiart": 9623,
      "gwezhall": 9624,
      "mediaoù": 9625,
      "Botswana": 9626,
      "Kreñv": 9627,
      "Meneget": 9628,
      "fiziet": 9629,
      "orelaet": 9630,
      "ergerzherien": 9631,
      "formulenn": 9632,
      "Essa": 9633,
      "Floyd": 9634,
      "PCF": 9635,
      "border": 9636,
      "Arktika": 9637,
      "trevadennel": 9638,
      "mongoleg": 9639,
      "BBG": 9640,
      "Lavaret": 9641,
      "Missouri": 9642,
      "Mississi": 9643,
      "Records": 9644,
      "baeañ": 9645,
      "zanvez": 9646,
      "émie": 9647,
      "Ernst": 9648,
      "Venezuela": 9649,
      "Wales": 9650,
      "hrouchtch": 9651,
      "sankenn": 9652,
      "dagog": 9653,
      "Karnag": 9654,
      "homzoù": 9655,
      "dielfennet": 9656,
      "dielfennañ": 9657,
      "ubuilhoù": 9658,
      "Kreolegoù": 9659,
      "mandar": 9660,
      "etimolo": 9661,
      "ographie": 9662,
      "Ecology": 9663,
      "Mellad": 9664,
      "Prabhu": 9665,
      "уга": 9666,
      "enkadenn": 9667,
      "uguay": 9668,
      "Planck": 9669,
      "Barzhaz": 9670,
      "Rhisiart": 9671,
      "pennaennoù": 9672,
      "Jouitteau": 9673,
      "Nemo": 9674,
      "wiskañ": 9675,
      "azasaet": 9676,
      "Kachmir": 9677,
      "Sveden": 9678,
      "Teknikoù": 9679,
      "sivil": 9680,
      "album": 9681,
      "hindouegezh": 9682,
      "Laurent": 9683,
      "General": 9684,
      "gouzañver": 9685,
      "Aremorica": 9686,
      "Philippe": 9687,
      "eñvor": 9688,
      "mukhi": 9689,
      "peulvan": 9690,
      "enteuzel": 9691,
      "agnunezh": 9692,
      "gourdoner": 9693,
      "Columbia": 9694,
      "Illinois": 9695,
      "Routledge": 9696,
      "Tugdual": 9697,
      "dellez": 9698,
      "ohj": 9699,
      "tolead": 9700,
      "aleutek": 9701,
      "alseek": 9702,
      "Gwirioù": 9703,
      "gandaeg": 9704,
      "ergerzhadegoù": 9705,
      "Académie": 9706,
      "Literature": 9707,
      "Caesar": 9708,
      "Gisserot": 9709,
      "Hennezh": 9710,
      "Hugo": 9711,
      "Lliure": 9712,
      "Publis": 9713,
      "kembreat": 9714,
      "Buffalo": 9715,
      "Kaourintin": 9716,
      "Himalaya": 9717,
      "Fleuriot": 9718,
      "Hudson": 9719,
      "Klerg": 9720,
      "Muioc": 9721,
      "Nassau": 9722,
      "emvodoù": 9723,
      "strishoc": 9724,
      "Mississippi": 9725,
      "Prabhupada": 9726,
      "%).": 9727,
      "').": 9728,
      "->": 9729,
      ".\".": 9730,
      "3000": 9731,
      "330": 9732,
      "480": 9733,
      "79": 9734,
      "800": 9735,
      "?,": 9736,
      "Ag": 9737,
      "Alo": 9738,
      "Adam": 9739,
      "Ajañs": 9740,
      "Bor": 9741,
      "Bat": 9742,
      "Bik": 9743,
      "Brou": 9744,
      "Baz": 9745,
      "But": 9746,
      "Bank": 9747,
      "Bloaz": 9748,
      "Balt": 9749,
      "Cri": 9750,
      "Cat": 9751,
      "Carn": 9752,
      "California": 9753,
      "DA": 9754,
      "Dall": 9755,
      "Darn": 9756,
      "Dulenn": 9757,
      "EC": 9758,
      "Eug": 9759,
      "Edou": 9760,
      "Four": 9761,
      "Fau": 9762,
      "Féli": 9763,
      "Gem": 9764,
      "Gwar": 9765,
      "Gent": 9766,
      "Glo": 9767,
[...]
