{"<s>":0,"</s>":1,"<pad>":2,"<unk>":3,"<mask>":4,"!":5,"\"":6,"#":7,"$":8,"%":9,"&":10,"'":11,"(":12,")":13,"*":14,"+":15,",":16,"-":17,".":18,"/":19,"0":20,"1":21,"2":22,"3":23,"4":24,"5":25,"6":26,"7":27,"8":28,"9":29,":":30,";":31,"<":32,"=":33,">":34,"?":35,"@":36,"A":37,"B":38,"C":39,"D":40,"E":41,"F":42,"G":43,"H":44,"I":45,"J":46,"K":47,"L":48,"M":49,"N":50,"O":51,"P":52,"Q":53,"R":54,"S":55,"T":56,"U":57,"V":58,"W":59,"X":60,"Y":61,"Z":62,"[":63,"\\":64,"]":65,"^":66,"_":67,"`":68,"a":69,"b":70,"c":71,"d":72,"e":73,"f":74,"g":75,"h":76,"i":77,"j":78,"k":79,"l":80,"m":81,"n":82,"o":83,"p":84,"q":85,"r":86,"s":87,"t":88,"u":89,"v":90,"w":91,"x":92,"y":93,"z":94,"{":95,"|":96,"}":97,"~":98,"":99,"":100,"¡":101,"£":102,"¤":103,"¥":104,"§":105,"¨":106,"©":107,"ª":108,"«":109,"¬":110,"­":111,"®":112,"¯":113,"°":114,"±":115,"²":116,"³":117,"´":118,"µ":119,"·":120,"¹":121,"º":122,"»":123,"¼":124,"½":125,"¾":126,"¿":127,"À":128,"Á":129,"Â":130,"Ã":131,"Ä":132,"Å":133,"Æ":134,"Ç":135,"È":136,"É":137,"Ê":138,"Ë":139,"Ì":140,"Í":141,"Î":142,"Ï":143,"Ð":144,"Ñ":145,"Ò":146,"Ó":147,"Ô":148,"Õ":149,"Ö":150,"×":151,"Ø":152,"Ú":153,"Ü":154,"Ý":155,"Þ":156,"ß":157,"à":158,"á":159,"â":160,"ã":161,"ä":162,"å":163,"æ":164,"ç":165,"è":166,"é":167,"ê":168,"ë":169,"ì":170,"í":171,"î":172,"ï":173,"ð":174,"ñ":175,"ò":176,"ó":177,"ô":178,"õ":179,"ö":180,"ø":181,"ù":182,"ú":183,"û":184,"ü":185,"ý":186,"þ":187,"ÿ":188,"Ā":189,"ā":190,"Ă":191,"ă":192,"ą":193,"Ć":194,"ć":195,"ĉ":196,"ċ":197,"Č":198,"č":199,"ď":200,"Đ":201,"đ":202,"Ē":203,"ē":204,"Ĕ":205,"ĕ":206,"ė":207,"ę":208,"Ě":209,"ě":210,"Ĝ":211,"ĝ":212,"ğ":213,"Ġ":214,"ġ":215,"ģ":216,"ĥ":217,"ħ":218,"ĩ":219,"Ī":220,"ī":221,"ĭ":222,"Į":223,"İ":224,"ı":225,"Ĵ":226,"ĵ":227,"ķ":228,"ĸ":229,"ļ":230,"Ľ":231,"ľ":232,"Ł":233,"ł":234,"ń":235,"ņ":236,"ň":237,"Ŋ":238,"ŋ":239,"Ō":240,"ō":241,"ŏ":242,"Ő":243,"ő":244,"Œ":245,"œ":246,"ŕ":247,"ŗ":248,"Ř":249,"ř":250,"Ś":251,"ś":252,"ŝ":253,"Ş":254,"ş":255,"Š":256,"š":257,"Ţ":258,"ţ":259,"ť":260,"ũ":261,"Ū":262,"ū":263,"Ŭ":264,"ŭ":265,"ů":266,"ű":267,"ų":268,"ŵ":269,"ŷ":270,"Ź":271,"ź":272,"Ż":273,"ż":274,"Ž":275,"ž":276,"ſ":277,"Ɔ":278,"Ɖ":279,"Ɛ":280,"Ƒ":281,"ƒ":282,"Ɣ":283,"ƙ":284,"ƛ":285,"ơ":286,"Ƨ":287,"ư":288,"Ʋ":289,"ƴ":290,"ƶ":291,"ǀ":292,"ǁ":293,"ǃ":294,"ǎ":295,"ǐ":296,"ǒ":297,"ǔ":298,"ǘ":299,"ǣ":300,"ǥ":301,"Ǧ":302,"ǧ":303,"Ǫ":304,"ǵ":305,"ǽ":306,"ǿ":307,"ȓ":308,"Ș":309,"ș":310,"Ț":311,"ț":312,"ȳ":313,"ɐ":314,"ɑ":315,"ɒ":316,"ɓ":317,"ɔ":318,"ɕ":319,"ɖ":320,"ə":321,"ɛ":322,"ɜ":323,"ɡ":324,"ɢ":325,"ɣ":326,"ɤ":327,"ɥ":328,"ɦ":329,"ɨ":330,"ɪ":331,"ɫ":332,"ɯ":333,"ɲ":334,"ɴ":335,"ɵ":336,"ɸ":337,"ɾ":338,"ʀ":339,"ʁ":340,"ʂ":341,"ʃ":342,"ʉ":343,"ʊ":344,"ʋ":345,"ʌ":346,"ʎ":347,"ʑ":348,"ʒ":349,"ʔ":350,"ʕ":351,"ʦ":352,"ʧ":353,"ʨ":354,"ʰ":355,"ʱ":356,"ʲ":357,"ʷ":358,"ʻ":359,"ʼ":360,"ʾ":361,"ʿ":362,"ˁ":363,"ˈ":364,"ˌ":365,"ː":366,"ˑ":367,"˙":368,"˚":369,"˜":370,"ˡ":371,"ˤ":372,"˥":373,"̀":374,"́":375,"̂":376,"̃":377,"̄":378,"̅":379,"̇":380,"̈":381,"̖":382,"̗":383,"̚":384,"̟":385,"̥":386,"̧":387,"̩":388,"̪":389,"̭":390,"̯":391,"̱":392,"̶":393,"̺":394,"̽":395,"͜":396,"͡":397,"ͤ":398,"ͭ":399,"Ά":400,"Έ":401,"Ή":402,"Ί":403,"Ύ":404,"Α":405,"Β":406,"Γ":407,"Δ":408,"Ε":409,"Ζ":410,"Η":411,"Θ":412,"Ι":413,"Κ":414,"Λ":415,"Μ":416,"Ν":417,"Ο":418,"Π":419,"Ρ":420,"Σ":421,"Τ":422,"Υ":423,"Φ":424,"Χ":425,"Ψ":426,"Ω":427,"ά":428,"έ":429,"ή":430,"ί":431,"α":432,"β":433,"γ":434,"δ":435,"ε":436,"ζ":437,"η":438,"θ":439,"ι":440,"κ":441,"λ":442,"μ":443,"ν":444,"ξ":445,"ο":446,"π":447,"ρ":448,"ς":449,"σ":450,"τ":451,"υ":452,"φ":453,"χ":454,"ψ":455,"ω":456,"ϊ":457,"ό":458,"ύ":459,"ώ":460,"ϑ":461,"ϕ":462,"ϛ":463,"Ϝ":464,"ϝ":465,"ϟ":466,"ϡ":467,"ϣ":468,"ϫ":469,"Ѐ":470,"Ё":471,"Ђ":472,"Ѓ":473,"Є":474,"І":475,"Ї":476,"Ј":477,"Љ":478,"Њ":479,"Ћ":480,"Ќ":481,"Ѝ":482,"Ў":483,"Џ":484,"А":485,"Б":486,"В":487,"Г":488,"Д":489,"Е":490,"Ж":491,"З":492,"И":493,"Й":494,"К":495,"Л":496,"М":497,"Н":498,"О":499,"П":500,"Р":501,"С":502,"Т":503,"У":504,"Ф":505,"Х":506,"Ц":507,"Ч":508,"Ш":509,"Щ":510,"Ъ":511,"Ы":512,"Ь":513,"Э":514,"Ю":515,"Я":516,"а":517,"б":518,"в":519,"г":520,"д":521,"е":522,"ж":523,"з":524,"и":525,"й":526,"к":527,"л":528,"м":529,"н":530,"о":531,"п":532,"р":533,"с":534,"т":535,"у":536,"ф":537,"х":538,"ц":539,"ч":540,"ш":541,"щ":542,"ъ":543,"ы":544,"ь":545,"э":546,"ю":547,"я":548,"ё":549,"ђ":550,"ѕ":551,"і":552,"ї":553,"ј":554,"љ":555,"њ":556,"ћ":557,"ў":558,"џ":559,"ѡ":560,"ѣ":561,"Ѧ":562,"Ѩ":563,"Ѫ":564,"Ѭ":565,"ѯ":566,"ѱ":567,"ѳ":568,"ѵ":569,"Ѷ":570,"Ѽ":571,"Ѿ":572,"Ґ":573,"Җ":574,"җ":575,"Ҙ":576,"Ҩ":577,"Ҫ":578,"ү":579,"Ұ":580,"Ӏ":581,"Ӄ":582,"ӏ":583,"Ӕ":584,"ӡ":585,"ө":586,"Ա":587,"Հ":588,"Ն":589,"Շ":590,"Վ":591,"ա":592,"գ":593,"ե":594,"զ":595,"ի":596,"խ":597,"կ":598,"հ":599,"ղ":600,"մ":601,"յ":602,"ն":603,"ո":604,"պ":605,"ջ":606,"ս":607,"վ":608,"տ":609,"ր":610,"ւ":611,"ք":612,"֫":613,"ְ":614,"ֱ":615,"ֲ":616,"ִ":617,"ֵ":618,"ֶ":619,"ַ":620,"ָ":621,"ֹ":622,"ּ":623,"ׁ":624,"א":625,"ב":626,"ג":627,"ד":628,"ה":629,"ו":630,"ז":631,"ח":632,"ט":633,"י":634,"ך":635,"כ":636,"ל":637,"ם":638,"מ":639,"ן":640,"נ":641,"ס":642,"ע":643,"ף":644,"פ":645,"צ":646,"ק":647,"ר":648,"ש":649,"ת":650,"،":651,"ء":652,"آ":653,"أ":654,"ؤ":655,"إ":656,"ئ":657,"ا":658,"ب":659,"ة":660,"ت":661,"ث":662,"ج":663,"ح":664,"خ":665,"د":666,"ذ":667,"ر":668,"ز":669,"س":670,"ش":671,"ص":672,"ض":673,"ط":674,"ظ":675,"ع":676,"غ":677,"ـ":678,"ف":679,"ق":680,"ك":681,"ل":682,"م":683,"ن":684,"ه":685,"و":686,"ى":687,"ي":688,"ٌ":689,"َ":690,"ُ":691,"ِ":692,"ّ":693,"ْ":694,"ٰ":695,"ٱ":696,"پ":697,"چ":698,"ژ":699,"ڬ":700,"گ":701,"ی":702,"ܐ":703,"ܒ":704,"ܗ":705,"ܠ":706,"ܢ":707,"ܲ":708,"ܵ":709,"ߌ":710,"ߍ":711,"ߖ":712,"ߣ":713,"߫":714,"߬":715,"ं":716,"ः":717,"अ":718,"आ":719,"ई":720,"उ":721,"ए":722,"औ":723,"क":724,"ख":725,"ग":726,"च":727,"छ":728,"ज":729,"झ":730,"ञ":731,"ट":732,"ठ":733,"ड":734,"ढ":735,"ण":736,"त":737,"द":738,"ध":739,"न":740,"प":741,"फ":742,"ब":743,"भ":744,"म":745,"य":746,"र":747,"ल":748,"ळ":749,"व":750,"श":751,"ष":752,"स":753,"ह":754,"़":755,"ा":756,"ि":757,"ी":758,"ु":759,"ू":760,"ृ":761,"े":762,"ै":763,"ो":764,"ौ":765,"्":766,"ॐ":767,"।":768,"ঁ":769,"ং":770,"অ":771,"আ":772,"ই":773,"উ":774,"এ":775,"ঐ":776,"ও":777,"ঔ":778,"ক":779,"খ":780,"গ":781,"ঘ":782,"ঙ":783,"চ":784,"ছ":785,"জ":786,"ঞ":787,"ট":788,"ড":789,"ণ":790,"ত":791,"থ":792,"দ":793,"ধ":794,"ন":795,"প":796,"ব":797,"ভ":798,"ম":799,"য":800,"র":801,"ল":802,"শ":803,"ষ":804,"স":805,"হ":806,"়":807,"া":808,"ি":809,"ী":810,"ু":811,"ূ":812,"ৃ":813,"ে":814,"ো":815,"্":816,"৩":817,"ਅ":818,"ਲ":819,"ਹ":820,"ਾ":821,"ੁ":822,"ੱ":823,"இ":824,"க":825,"ங":826,"ச":827,"ஞ":828,"ண":829,"ப":830,"ம":831,"ர":832,"ல":833,"ா":834,"ி":835,"ூ":836,"ை":837,"்":838,"ം":839,"അ":840,"ക":841,"ച":842,"ട":843,"ണ":844,"ത":845,"ഭ":846,"ശ":847,"സ":848,"ാ":849,"ി":850,"ോ":851,"്":852,"ං":853,"ක":854,"ජ":855,"ඩ":856,"ත":857,"ප":858,"ය":859,"ර":860,"ල":861,"ව":862,"ශ":863,"ළ":864,"්":865,"ා":866,"ි":867,"ී":868,"ේ":869,"ො":870,"ก":871,"ข":872,"ค":873,"ง":874,"จ":875,"ช":876,"ซ":877,"ญ":878,"ฐ":879,"ณ":880,"ต":881,"ท":882,"ธ":883,"น":884,"บ":885,"ป":886,"พ":887,"ภ":888,"ม":889,"ย":890,"ร":891,"ว":892,"ศ":893,"ส":894,"ห":895,"อ":896,"ะ":897,"ั":898,"า":899,"ำ":900,"ิ":901,"ี":902,"ื":903,"ุ":904,"เ":905,"ไ":906,"้":907,"์":908,"ກ":909,"ຂ":910,"ຄ":911,"ງ":912,"ຈ":913,"ຊ":914,"ດ":915,"ຕ":916,"ທ":917,"ນ":918,"ປ":919,"ພ":920,"ລ":921,"ວ":922,"ສ":923,"ຫ":924,"ອ":925,"ະ":926,"ັ":927,"າ":928,"ິ":929,"ີ":930,"ົ":931,"ຽ":932,"ເ":933,"ແ":934,"ໄ":935,"་":936,"ད":937,"བ":938,"ོ":939,"င":940,"စ":941,"ည":942,"တ":943,"ထ":944,"န":945,"ပ":946,"ဖ":947,"မ":948,"ရ":949,"သ":950,"ာ":951,"ိ":952,"ု":953,"ူ":954,"ေ":955,"ဲ":956,"ံ":957,"့":958,"္":959,"်":960,"ြ":961,"ွ":962,"ა":963,"ბ":964,"დ":965,"ე":966,"ვ":967,"თ":968,"ი":969,"კ":970,"ლ":971,"ნ":972,"ო":973,"რ":974,"ს":975,"უ":976,"ფ":977,"ქ":978,"ღ":979,"შ":980,"ჩ":981,"ძ":982,"ჯ":983,"ለ":984,"ሊ":985,"ላ":986,"ሞ":987,"ሥ":988,"ሪ":989,"ራ":990,"ር":991,"ሲ":992,"ሴ":993,"ሻ":994,"ቡ":995,"ብ":996,"ት":997,"ኃ":998,"ን":999,"ኢ":1000,"ኤ":1001,"ክ":1002,"ዊ":1003,"የ":1004,"ያ":1005,"ይ":1006,"ዮ":1007,"ዲ":1008,"ዴ":1009,"ጵ":1010,"ፌ":1011,"ፐ":1012,"፡":1013,"ᗐ":1014,"ᙶ":1015,"ក":1016,"ខ":1017,"ច":1018,"ជ":1019,"ណ":1020,"ត":1021,"ទ":1022,"ន":1023,"ប":1024,"ព":1025,"ម":1026,"រ":1027,"ស":1028,"ហ":1029,"ា":1030,"ិ":1031,"ុ":1032,"េ":1033,"ែ":1034,"ះ":1035,"្":1036,"ᵒ":1037,"ᵖ":1038,"ᶜ":1039,"Ḁ":1040,"ḇ":1041,"Ḍ":1042,"ḍ":1043,"ḏ":1044,"ḗ":1045,"Ḥ":1046,"ḥ":1047,"ḫ":1048,"ḱ":1049,"Ḳ":1050,"ḳ":1051,"Ḵ":1052,"ḷ":1053,"ṁ":1054,"ṃ":1055,"ṅ":1056,"ṇ":1057,"ṓ":1058,"ṗ":1059,"Ṛ":1060,"ṛ":1061,"Ṣ":1062,"ṣ":1063,"Ṭ":1064,"ṭ":1065,"ṯ":1066,"ṹ":1067,"ṿ":1068,"Ẓ":1069,"ẓ":1070,"ẖ":1071,"ẞ":1072,"ạ":1073,"ả":1074,"ấ":1075,"ầ":1076,"ẩ":1077,"ẫ":1078,"ậ":1079,"ắ":1080,"ằ":1081,"ặ":1082,"Ẹ":1083,"ẹ":1084,"ẻ":1085,"ẽ":1086,"ế":1087,"ề":1088,"ễ":1089,"ệ":1090,"ỉ":1091,"ị":1092,"Ọ":1093,"ọ":1094,"ố":1095,"ồ":1096,"ổ":1097,"ộ":1098,"ớ":1099,"ờ":1100,"ợ":1101,"ủ":1102,"ứ":1103,"ử":1104,"ữ":1105,"ự":1106,"ỳ":1107,"ỵ":1108,"ỷ":1109,"ỹ":1110,"ἀ":1111,"ἁ":1112,"ἄ":1113,"Ἀ":1114,"ἐ":1115,"ἑ":1116,"ἒ":1117,"ἔ":1118,"ἕ":1119,"Ἐ":1120,"Ἑ":1121,"Ἓ":1122,"Ἕ":1123,"ἠ":1124,"ἡ":1125,"ἣ":1126,"ἤ":1127,"ἥ":1128,"ἦ":1129,"Ἡ":1130,"Ἥ":1131,"ἰ":1132,"ἱ":1133,"ἴ":1134,"ἵ":1135,"ἶ":1136,"ἷ":1137,"Ἰ":1138,"Ἱ":1139,"ὀ":1140,"ὁ":1141,"ὄ":1142,"ὅ":1143,"ὐ":1144,"ὑ":1145,"ὒ":1146,"ὔ":1147,"ὕ":1148,"ὠ":1149,"ὤ":1150,"ὥ":1151,"ὰ":1152,"ὴ":1153,"ὶ":1154,"ὸ":1155,"ᾠ":1156,"ᾰ":1157,"ᾱ":1158,"ᾶ":1159,"ῃ":1160,"ῆ":1161,"ῐ":1162,"ῖ":1163,"ῠ":1164,"ῥ":1165,"ῦ":1166,"Ῥ":1167,"ῳ":1168,"ῴ":1169,"ῶ":1170,"῾":1171,"​":1172,"‌":1173,"‍":1174,"‎":1175,"‏":1176,"‐":1177,"‑":1178,"–":1179,"—":1180,"―":1181,"‖":1182,"‘":1183,"’":1184,"‚":1185,"“":1186,"”":1187,"„":1188,"†":1189,"‡":1190,"•":1191,"…":1192,"‧":1193,"‬":1194,"‰":1195,"′":1196,"″":1197,"‹":1198,"›":1199,"⁂":1200,"⁄":1201,"⁓":1202,"⁠":1203,"⁣":1204,"⁰":1205,"⁶":1206,"⁷":1207,"⁸":1208,"⁹":1209,"₁":1210,"₂":1211,"₃":1212,"₄":1213,"₢":1214,"€":1215,"₱":1216,"℃":1217,"℈":1218,"ℓ":1219,"№":1220,"™":1221,"ℳ":1222,"⅓":1223,"ↀ":1224,"ↁ":1225,"ↂ":1226,"ↇ":1227,"ↈ":1228,"↑":1229,"→":1230,"↓":1231,"↔":1232,"↵":1233,"↺":1234,"⇆":1235,"⇌":1236,"⇐":1237,"⇒":1238,"⇔":1239,"∀":1240,"∂":1241,"∃":1242,"∅":1243,"∆":1244,"∇":1245,"∈":1246,"∑":1247,"−":1248,"∙":1249,"√":1250,"∝":1251,"∞":1252,"∧":1253,"∩":1254,"∪":1255,"∫":1256,"∴":1257,"∼":1258,"≈":1259,"≠":1260,"≤":1261,"≥":1262,"⊆":1263,"⊕":1264,"⊗":1265,"⊢":1266,"⊥":1267,"⋀":1268,"⋁":1269,"⋅":1270,"⋈":1271,"⋉":1272,"⋋":1273,"⋌":1274,"⋔":1275,"⋯":1276,"⌀":1277,"①":1278,"⑤":1279,"Ⓧ":1280,"─":1281,"│":1282,"█":1283,"◇":1284,"●":1285,"◦":1286,"◫":1287,"◲":1288,"◴":1289,"◷":1290,"★":1291,"☉":1292,"☧":1293,"♀":1294,"♂":1295,"♇":1296,"♈":1297,"♊":1298,"♎":1299,"♒":1300,"♔":1301,"♙":1302,"♛":1303,"♜":1304,"♝":1305,"♞":1306,"♟":1307,"♠":1308,"♣":1309,"♥":1310,"♦":1311,"♭":1312,"⟨":1313,"⟩":1314,"⠀":1315,"⠁":1316,"⠂":1317,"⠃":1318,"⠄":1319,"⠅":1320,"⠆":1321,"⠇":1322,"⠈":1323,"⠉":1324,"⠊":1325,"⠋":1326,"⠌":1327,"⠍":1328,"⠎":1329,"⠏":1330,"⠐":1331,"⠑":1332,"⠒":1333,"⠓":1334,"⠔":1335,"⠕":1336,"⠖":1337,"⠗":1338,"⠘":1339,"⠙":1340,"⠚":1341,"⠛":1342,"⠜":1343,"⠝":1344,"⠞":1345,"⠟":1346,"⠠":1347,"⠡":1348,"⠢":1349,"⠣":1350,"⠤":1351,"⠥":1352,"⠦":1353,"⠧":1354,"⠨":1355,"⠩":1356,"⠪":1357,"⠫":1358,"⠬":1359,"⠭":1360,"⠮":1361,"⠯":1362,"⠰":1363,"⠱":1364,"⠲":1365,"⠳":1366,"⠴":1367,"⠵":1368,"⠶":1369,"⠷":1370,"⠸":1371,"⠹":1372,"⠺":1373,"⠻":1374,"⠼":1375,"⠽":1376,"⠾":1377,"⠿":1378,"ⲁ":1379,"ⲉ":1380,"ⲟ":1381,"Ⲡ":1382,"ⲣ":1383,"ⲥ":1384,"ⲧ":1385,"ⲩ":1386,"ⴰ":1387,"ⴽ":1388,"ⵎ":1389,"ⵏ":1390,"ⵓ":1391,"ⵔ":1392,"ⵛ":1393,"⸱":1394,"、":1395,"。":1396,"々":1397,"《":1398,"》":1399,"「":1400,"」":1401,"〒":1402,"あ":1403,"ぃ":1404,"い":1405,"う":1406,"え":1407,"お":1408,"か":1409,"が":1410,"き":1411,"く":1412,"ぐ":1413,"け":1414,"げ":1415,"こ":1416,"ご":1417,"さ":1418,"し":1419,"じ":1420,"す":1421,"ず":1422,"せ":1423,"そ":1424,"た":1425,"だ":1426,"ち":1427,"ぢ":1428,"っ":1429,"つ":1430,"づ":1431,"て":1432,"で":1433,"と":1434,"な":1435,"に":1436,"ぬ":1437,"ね":1438,"の":1439,"は":1440,"ば":1441,"ひ":1442,"び":1443,"ぷ":1444,"へ":1445,"べ":1446,"ほ":1447,"ま":1448,"み":1449,"む":1450,"め":1451,"も":1452,"ゃ":1453,"や":1454,"ゅ":1455,"ゆ":1456,"ょ":1457,"よ":1458,"ら":1459,"り":1460,"る":1461,"れ":1462,"ろ":1463,"わ":1464,"ゐ":1465,"を":1466,"ん":1467,"゛":1468,"゜":1469,"ァ":1470,"ア":1471,"イ":1472,"ゥ":1473,"ウ":1474,"ェ":1475,"エ":1476,"オ":1477,"カ":1478,"ガ":1479,"ク":1480,"ケ":1481,"コ":1482,"ゴ":1483,"シ":1484,"ス":1485,"ソ":1486,"タ":1487,"チ":1488,"ッ":1489,"ツ":1490,"テ":1491,"ト":1492,"ド":1493,"ナ":1494,"ニ":1495,"ヌ":1496,"ネ":1497,"パ":1498,"ビ":1499,"ピ":1500,"フ":1501,"ブ":1502,"ベ":1503,"ポ":1504,"マ":1505,"ミ":1506,"メ":1507,"ャ":1508,"ヤ":1509,"ュ":1510,"ユ":1511,"ョ":1512,"ラ":1513,"リ":1514,"ル":1515,"レ":1516,"ロ":1517,"ヲ":1518,"ン":1519,"ー":1520,"ㄦ":1521,"㭺":1522,"一":1523,"七":1524,"万":1525,"三":1526,"上":1527,"下":1528,"不":1529,"丑":1530,"且":1531,"世":1532,"业":1533,"东":1534,"严":1535,"个":1536,"中":1537,"主":1538,"久":1539,"义":1540,"之":1541,"乐":1542,"乗":1543,"乘":1544,"书":1545,"乱":1546,"争":1547,"事":1548,"二":1549,"五":1550,"井":1551,"交":1552,"京":1553,"人":1554,"仁":1555,"今":1556,"仔":1557,"仕":1558,"仙":1559,"代":1560,"以":1561,"们":1562,"仮":1563,"仲":1564,"件":1565,"伊":1566,"伏":1567,"伐":1568,"休":1569,"会":1570,"伝":1571,"伯":1572,"但":1573,"位":1574,"体":1575,"何":1576,"佛":1577,"你":1578,"佢":1579,"使":1580,"供":1581,"侯":1582,"保":1583,"信":1584,"俭":1585,"修":1586,"倉":1587,"個":1588,"假":1589,"働":1590,"僕":1591,"僧":1592,"儺":1593,"儿":1594,"元":1595,"兄":1596,"先":1597,"光":1598,"児":1599,"党":1600,"入":1601,"內":1602,"全":1603,"八":1604,"公":1605,"六":1606,"兰":1607,"共":1608,"关":1609,"兵":1610,"其":1611,"军":1612,"农":1613,"冥":1614,"冬":1615,"冲":1616,"出":1617,"分":1618,"切":1619,"刑":1620,"列":1621,"刚":1622,"初":1623,"判":1624,"別":1625,"利":1626,"前":1627,"剛":1628,"剧":1629,"劇":1630,"劉":1631,"力":1632,"加":1633,"助":1634,"勇":1635,"勉":1636,"勒":1637,"動":1638,"務":1639,"勝":1640,"勞":1641,"勾":1642,"包":1643,"北":1644,"区":1645,"医":1646,"區":1647,"十":1648,"千":1649,"半":1650,"华":1651,"协":1652,"卒":1653,"協":1654,"南":1655,"単":1656,"厚":1657,"原":1658,"厩":1659,"友":1660,"反":1661,"口":1662,"古":1663,"可":1664,"台":1665,"史":1666,"吁":1667,"合":1668,"吉":1669,"同":1670,"名":1671,"后":1672,"吐":1673,"吒":1674,"君":1675,"含":1676,"呂":1677,"呉":1678,"告":1679,"周":1680,"味":1681,"命":1682,"和":1683,"咸":1684,"哀":1685,"哋":1686,"員":1687,"哪":1688,"唐":1689,"商":1690,"啟":1691,"啸":1692,"喇":1693,"喺":1694,"喾":1695,"嗰":1696,"嘅":1697,"嘉":1698,"噶":1699,"囗":1700,"四":1701,"回":1702,"囲":1703,"図":1704,"围":1705,"国":1706,"圃":1707,"國":1708,"圍":1709,"園":1710,"土":1711,"在":1712,"地":1713,"场":1714,"坐":1715,"块":1716,"坡":1717,"埋":1718,"城":1719,"域":1720,"報":1721,"場":1722,"壁":1723,"壤":1724,"士":1725,"壽":1726,"备":1727,"変":1728,"夏":1729,"夔":1730,"外":1731,"多":1732,"夜":1733,"夢":1734,"大":1735,"天":1736,"太":1737,"夫":1738,"央":1739,"头":1740,"奄":1741,"奈":1742,"奉":1743,"奎":1744,"奥":1745,"奭":1746,"女":1747,"奴":1748,"好":1749,"如":1750,"妈":1751,"妙":1752,"妻":1753,"始":1754,"姑":1755,"姓":1756,"委":1757,"姿":1758,"娥":1759,"婆":1760,"媧":1761,"嫦":1762,"嬰":1763,"子":1764,"字":1765,"孙":1766,"孝":1767,"孟":1768,"学":1769,"孫":1770,"學":1771,"孺":1772,"宁":1773,"安":1774,"宏":1775,"宗":1776,"官":1777,"定":1778,"宝":1779,"実":1780,"客":1781,"宣":1782,"室":1783,"宫":1784,"宮":1785,"家":1786,"宿":1787,"富":1788,"實":1789,"寧":1790,"寸":1791,"对":1792,"寺":1793,"封":1794,"将":1795,"將":1796,"尊":1797,"小":1798,"少":1799,"尖":1800,"尤":1801,"尧":1802,"尼":1803,"局":1804,"居":1805,"山":1806,"岳":1807,"島":1808,"崑":1809,"崙":1810,"嶋":1811,"川":1812,"州":1813,"工":1814,"巫":1815,"已":1816,"巴":1817,"市":1818,"师":1819,"帝":1820,"帥":1821,"師":1822,"帮":1823,"常":1824,"幣":1825,"干":1826,"平":1827,"年":1828,"幹":1829,"幻":1830,"广":1831,"庁":1832,"庄":1833,"应":1834,"庙":1835,"府":1836,"康":1837,"廃":1838,"廉":1839,"廣":1840,"廬":1841,"延":1842,"廷":1843,"建":1844,"式":1845,"弓":1846,"弔":1847,"弗":1848,"弘":1849,"弟":1850,"弥":1851,"弧":1852,"張":1853,"強":1854,"彌":1855,"当":1856,"录":1857,"彼":1858,"征":1859,"待":1860,"律":1861,"後":1862,"徐":1863,"御":1864,"微":1865,"德":1866,"徹":1867,"徽":1868,"心":1869,"忌":1870,"忍":1871,"志":1872,"忙":1873,"忠":1874,"念":1875,"思":1876,"性":1877,"怨":1878,"恆":1879,"恋":1880,"恕":1881,"恭":1882,"恺":1883,"悟":1884,"悪":1885,"情":1886,"惟":1887,"惠":1888,"想":1889,"愛":1890,"愿":1891,"慈":1892,"態":1893,"慧":1894,"慰":1895,"慶":1896,"懿":1897,"成":1898,"我":1899,"戦":1900,"戰":1901,"戲":1902,"戸":1903,"所":1904,"手":1905,"扶":1906,"技":1907,"把":1908,"拉":1909,"拐":1910,"拓":1911,"拝":1912,"拾":1913,"振":1914,"排":1915,"掖":1916,"撲":1917,"攝":1918,"支":1919,"政":1920,"教":1921,"数":1922,"文":1923,"料":1924,"断":1925,"新":1926,"方":1927,"旅":1928,"旗":1929,"日":1930,"旬":1931,"旱":1932,"昆":1933,"昊":1934,"昌":1935,"明":1936,"易":1937,"昔":1938,"星":1939,"春":1940,"昭":1941,"時":1942,"晋":1943,"普":1944,"景":1945,"暨":1946,"曜":1947,"更":1948,"書":1949,"曹":1950,"最":1951,"月":1952,"有":1953,"朔":1954,"朝":1955,"期":1956,"木":1957,"本":1958,"术":1959,"权":1960,"杉":1961,"李":1962,"村":1963,"条":1964,"来":1965,"東":1966,"板":1967,"极":1968,"林":1969,"果":1970,"枝":1971,"柏":1972,"柔":1973,"校":1974,"栽":1975,"桑":1976,"桓":1977,"梅":1978,"棋":1979,"森":1980,"楚":1981,"楽":1982,"榊":1983,"榮":1984,"槍":1985,"樂":1986,"標":1987,"樺":1988,"橋":1989,"檎":1990,"欣":1991,"歐":1992,"正":1993,"此":1994,"武":1995,"死":1996,"殤":1997,"殿":1998,"母":1999,"比":2000,"毛":2001,"氏":2002,"民":2003,"氣":2004,"水":2005,"氵":2006,"永":2007,"氹":2008,"求":2009,"汉":2010,"江":2011,"池":2012,"汪":2013,"沐":2014,"沖":2015,"沪":2016,"河":2017,"治":2018,"泉":2019,"法":2020,"波":2021,"洋":2022,"洞":2023,"津":2024,"洪":2025,"洱":2026,"洲":2027,"派":2028,"流":2029,"浄":2030,"浦":2031,"海":2032,"涛":2033,"涯":2034,"淸":2035,"清":2036,"渎":2037,"温":2038,"湖":2039,"湘":2040,"湾":2041,"準":2042,"演":2043,"漢":2044,"澤":2045,"濟":2046,"濤":2047,"瀛":2048,"灣":2049,"火":2050,"灶":2051,"炟":2052,"炮":2053,"炳":2054,"為":2055,"烏":2056,"烟":2057,"焙":2058,"無":2059,"然":2060,"熟":2061,"熹":2062,"燦":2063,"爲":2064,"爵":2065,"爾":2066,"片":2067,"牌":2068,"牛":2069,"牧":2070,"物":2071,"特":2072,"犬":2073,"狂":2074,"狩":2075,"獄":2076,"獅":2077,"獬":2078,"獻":2079,"玄":2080,"玉":2081,"王":2082,"玖":2083,"現":2084,"球":2085,"理":2086,"琉":2087,"琛":2088,"琴":2089,"瑞":2090,"瑤":2091,"環":2092,"甘":2093,"生":2094,"田":2095,"男":2096,"町":2097,"畀":2098,"界":2099,"留":2100,"番":2101,"病":2102,"痛":2103,"發":2104,"白":2105,"百":2106,"皇":2107,"盆":2108,"盈":2109,"盤":2110,"相":2111,"省":2112,"県":2113,"眞":2114,"真":2115,"着":2116,"知":2117,"石":2118,"砲":2119,"碁":2120,"碗":2121,"礼":2122,"社":2123,"祇":2124,"祓":2125,"祖":2126,"祜":2127,"祝":2128,"神":2129,"祭":2130,"禅":2131,"禊":2132,"禪":2133,"禮":2134,"禰":2135,"禹":2136,"秀":2137,"秋":2138,"种":2139,"科":2140,"移":2141,"程":2142,"稚":2143,"種":2144,"稲":2145,"空":2146,"竜":2147,"竟":2148,"章":2149,"端":2150,"竹":2151,"第":2152,"等":2153,"筒":2154,"筹":2155,"箇":2156,"算":2157,"節":2158,"簡":2159,"米":2160,"粵":2161,"精":2162,"系":2163,"紀":2164,"紅":2165,"納":2166,"級":2167,"索":2168,"紫":2169,"結":2170,"統":2171,"綏":2172,"經":2173,"維":2174,"総":2175,"線":2176,"縄":2177,"織":2178,"纘":2179,"红":2180,"组":2181,"经":2182,"给":2183,"罗":2184,"置":2185,"羅":2186,"美":2187,"群":2188,"義":2189,"羲":2190,"羽":2191,"羿":2192,"耀":2193,"老":2194,"而":2195,"耳":2196,"耻":2197,"聖":2198,"聞":2199,"職":2200,"肇":2201,"育":2202,"背":2203,"胡":2204,"能":2205,"脇":2206,"腦":2207,"腺":2208,"臣":2209,"臨":2210,"自":2211,"至":2212,"臺":2213,"舅":2214,"與":2215,"興":2216,"舜":2217,"舞":2218,"良":2219,"色":2220,"节":2221,"花":2222,"范":2223,"茅":2224,"茶":2225,"荔":2226,"药":2227,"莊":2228,"菊":2229,"菜":2230,"菩":2231,"華":2232,"萊":2233,"萍":2234,"萬":2235,"落":2236,"葉":2237,"葡":2238,"董":2239,"蒲":2240,"蓬":2241,"蓮":2242,"蕃":2243,"薩":2244,"藍":2245,"藏":2246,"藩":2247,"虛":2248,"虫":2249,"蚩":2250,"蛇":2251,"蛮":2252,"融":2253,"血":2254,"行":2255,"衎":2256,"衛":2257,"衡":2258,"衣":2259,"表":2260,"裁":2261,"西":2262,"見":2263,"覚":2264,"観":2265,"覽":2266,"觀":2267,"角":2268,"言":2269,"計":2270,"訓":2271,"記":2272,"詞":2273,"詢":2274,"話":2275,"誌":2276,"語":2277,"説":2278,"読":2279,"談":2280,"論":2281,"諦":2282,"諮":2283,"諸":2284,"謙":2285,"謠":2286,"議":2287,"让":2288,"议":2289,"记":2290,"诚":2291,"语":2292,"谷":2293,"豊":2294,"象":2295,"豸":2296,"貅":2297,"貔":2298,"財":2299,"貨":2300,"貴":2301,"賀":2302,"賓":2303,"質":2304,"财":2305,"贸":2306,"赤":2307,"赴":2308,"赵":2309,"越":2310,"足":2311,"路":2312,"車":2313,"輝":2314,"輪":2315,"车":2316,"辞":2317,"辯":2318,"辰":2319,"農":2320,"込":2321,"迚":2322,"送":2323,"通":2324,"遇":2325,"過":2326,"道":2327,"達":2328,"遣":2329,"遺":2330,"邏":2331,"邑":2332,"邓":2333,"邦":2334,"邪":2335,"郎":2336,"郡":2337,"部":2338,"都":2339,"鄉":2340,"鄧":2341,"配":2342,"采":2343,"重":2344,"野":2345,"金":2346,"鉄":2347,"銀":2348,"銅":2349,"錦":2350,"鍾":2351,"鎌":2352,"鏡":2353,"鏵":2354,"鐵":2355,"钚":2356,"锦":2357,"長":2358,"門":2359,"開":2360,"間":2361,"閣":2362,"閻":2363,"關":2364,"阳":2365,"阿":2366,"陈":2367,"降":2368,"院":2369,"陵":2370,"陽":2371,"隅":2372,"隆":2373,"隍":2374,"随":2375,"隴":2376,"隸":2377,"雅":2378,"集":2379,"雑":2380,"離":2381,"難":2382,"雨":2383,"雲":2384,"雷":2385,"電":2386,"霊":2387,"霧":2388,"露":2389,"靈":2390,"靑":2391,"青":2392,"静":2393,"面":2394,"韓":2395,"音":2396,"順":2397,"頡":2398,"頭":2399,"願":2400,"顼":2401,"颛":2402,"風":2403,"食":2404,"飴":2405,"館":2406,"餮":2407,"饕":2408,"首":2409,"馗":2410,"馬":2411,"駕":2412,"驁":2413,"马":2414,"高":2415,"鬘":2416,"鬼":2417,"魁":2418,"魃":2419,"魈":2420,"魔":2421,"鮮":2422,"鯤":2423,"鳥":2424,"鳳":2425,"鴻":2426,"鵊":2427,"鵬":2428,"鵲":2429,"鶼":2430,"鷫":2431,"麟":2432,"麻":2433,"黃":2434,"黄":2435,"黑":2436,"點":2437,"黨":2438,"鼎":2439,"鼻":2440,"龍":2441,"ꜜ":2442,"ꜣ":2443,"ꜥ":2444,"ꟾ":2445,"가":2446,"강":2447,"개":2448,"경":2449,"고":2450,"곡":2451,"공":2452,"광":2453,"교":2454,"구":2455,"국":2456,"군":2457,"금":2458,"기":2459,"김":2460,"남":2461,"년":2462,"노":2463,"다":2464,"단":2465,"담":2466,"당":2467,"대":2468,"덕":2469,"도":2470,"독":2471,"동":2472,"둑":2473,"드":2474,"디":2475,"라":2476,"락":2477,"람":2478,"래":2479,"려":2480,"례":2481,"로":2482,"록":2483,"류":2484,"르":2485,"리":2486,"림":2487,"마":2488,"만":2489,"면":2490,"목":2491,"무":2492,"미":2493,"민":2494,"바":2495,"반":2496,"방":2497,"벌":2498,"베":2499,"별":2500,"부":2501,"북":2502,"사":2503,"산":2504,"삼":2505,"색":2506,"서":2507,"선":2508,"성":2509,"세":2510,"수":2511,"시":2512,"식":2513,"신":2514,"실":2515,"십":2516,"아":2517,"악":2518,"암":2519,"야":2520,"약":2521,"양":2522,"어":2523,"없":2524,"역":2525,"염":2526,"영":2527,"올":2528,"요":2529,"울":2530,"원":2531,"월":2532,"위":2533,"유":2534,"으":2535,"음":2536,"의":2537,"이":2538,"인":2539,"일":2540,"자":2541,"작":2542,"잠":2543,"장":2544,"전":2545,"절":2546,"정":2547,"제":2548,"조":2549,"주":2550,"지":2551,"진":2552,"찬":2553,"천":2554,"철":2555,"청":2556,"충":2557,"치":2558,"침":2559,"카":2560,"토":2561,"통":2562,"특":2563,"판":2564,"팔":2565,"편":2566,"평":2567,"포":2568,"폰":2569,"픽":2570,"한":2571,"함":2572,"핸":2573,"행":2574,"허":2575,"현":2576,"호":2577,"홍":2578,"화":2579,"황":2580,"회":2581,"효":2582,"훈":2583,"휴":2584,"흥":2585,"ﬁ":2586,"ﬂ":2587,"ﷲ":2588,"﻿":2589,"（":2590,"）":2591,"，":2592,"｜":2593,"￥":2594,"￼":2595,"�":2596,"𐀡":2597,"𐀩":2598,"𐀵":2599,"𐤋":2600,"𐬀":2601,"𐬌":2602,"𐬎":2603,"𐬢":2604,"𐬥":2605,"𐬨":2606,"𐬭":2607,"𒀭":2608,"𒁺":2609,"𒂗":2610,"𒃶":2611,"𒆠":2612,"𒆧":2613,"𒈾":2614,"𞤈":2615,"𞤘":2616,"𞤤":2617,"𞤦":2618,"𞤨":2619,"𞤫":2620,"𞤭":2621,"𞤲":2622,"𞤳":2623,"𞤵":2624,"de":2625,"ra":2626,"do":2627,"es":2628,"nt":2629,"da":2630,"co":2631,"os":2632,"as":2633,"ri":2634,"re":2635,"ta":2636,"er":2637,"is":2638,"or":2639,"ma":2640,"ão":2641,"al":2642,"in":2643,"em":2644,"ca":2645,"ent":2646,"qu":2647,"ci":2648,"ro":2649,"en":2650,"an":2651,"ti":2652,"el":2653,"ar":2654,"se":2655,"com":2656,"to":2657,"ção":2658,"que":2659,"di":2660,"te":2661,"no":2662,"na":2663,"pa":2664,"po":2665,"li":2666,"dos":2667,"ei":2668,"ment":2669,"ul":2670,"ni":2671,"si":2672,"tu":2673,"gu":2674,"ou":2675,"on":2676,"vi":2677,"um":2678,"res":2679,"por":2680,"so":2681,"con":2682,"19":2683,"va":2684,"ha":2685,"des":2686,"ol":2687,"uma":2688,"das":2689,"su":2690,"fi":2691,"mo":2692,"ria":2693,"la":2694,"para":2695,"tra":2696,"mi":2697,"ex":2698,"us":2699,"pro":2700,"dade":2701,"ões":2702,"nte":2703,"gi":2704,"fo":2705,"pe":2706,"nci":2707,"mente":2708,"lo":2709,"am":2710,"ho":2711,"du":2712,"ter":2713,"ram":2714,"20":2715,"at":2716,"pel":2717,"le":2718,"un":2719,"como":2720,"ve":2721,"ran":2722,"ga":2723,"go":2724,"me":2725,"ant":2726,"ist":2727,"ver":2728,"pos":2729,"sa":2730,"pri":2731,"ia":2732,").":2733,"ções":2734,"for":2735,"ce":2736,"pi":2737,"za":2738,"tr":2739,"mento":2740,"esta":2741,"bi":2742,"cas":2743,"ina":2744,"cul":2745,"mais":2746,"foi":2747,"Es":2748,"são":2749,"rio":2750,"tos":2751,"he":2752,"cont":2753,"ista":2754,"vo":2755,"par":2756,"ém":2757,"mu":2758,"ncia":2759,"ça":2760,"ali":2761,"lu":2762,"mb":2763,"tor":2764,"era":2765,"ao":2766,"pres":2767,"per":2768,"cos":2769,"tura":2770,"eiro":2771,"eira":2772,"ser":2773,"18":2774,"ntes":2775,"fe":2776,"est":2777,"mas":2778,"ando":2779,"tem":2780,"cu":2781,"ros":2782,"im":2783,"ís":2784,"gra":2785,"ne":2786,"cor":2787,"il":2788,"sua":2789,"não":2790,"pre":2791,"ação":2792,"ab":2793,"ele":2794,"ência":2795,"Pa":2796,"gues":2797,"bra":2798,"Co":2799,"ru":2800,"int":2801,"ente":2802,"ns":2803,"ch":2804,"nos":2805,"),":2806,"sil":2807,"ano":2808,"ês":2809,"ado":2810,"ndo":2811,"cio":2812,"tas":2813,"tica":2814,"forma":2815,"onal":2816,"Ma":2817,"seu":2818,"io":2819,"Em":2820,"fa":2821,"Al":2822,"lí":2823,"vol":2824,"ba":2825,"fica":2826,"Re":2827,"min":2828,"vel":2829,"ces":2830,"ja":2831,"fre":2832,"entre":2833,"rica":2834,"nas":2835,"pul":2836,"endo":2837,"No":2838,"cri":2839,"pela":2840,"tal":2841,"tamb":2842,"dia":2843,"rei":2844,"cons":2845,"também":2846,"pode":2847,"tro":2848,"cia":2849,"200":2850,"pen":2851,"segu":2852,"dor":2853,"cial":2854,"prim":2855,"cional":2856,"mes":2857,"car":2858,"ag":2859,"au":2860,"pelo":2861,"Por":2862,"man":2863,"ir":2864,"mar":2865,"nto":2866,"201":2867,"fu":2868,"bli":2869,"emb":2870,"ári":2871,"cer":2872,"sob":2873,"cí":2874,"pes":2875,"ário":2876,"ens":2877,"pl":2878,"As":2879,"anos":2880,"ras":2881,"qui":2882,"uni":2883,"Uni":2884,"ob":2885,"dades":2886,"cent":2887,"ju":2888,"ino":2889,"dis":2890,"ris":2891,"ass":2892,"tó":2893,"tar":2894,"Na":2895,"tiva":2896,"Os":2897,"pal":2898,"ide":2899,"anto":2900,"tico":2901,"tru":2902,"tri":2903,"ge":2904,"orte":2905,"popul":2906,"tes":2907,"tado":2908,"cidade":2909,"titu":2910,"Se":2911,"bol":2912,"erra":2913,"Con":2914,"mos":2915,"parti":2916,"cal":2917,"Ca":2918,"gia":2919,"der":2920,"São":2921,"bo":2922,"199":2923,"ad":2924,"ior":2925,"mui":2926,"ur":2927,"este":2928,"gre":2929,"De":2930,"cha":2931,"nio":2932,"ten":2933,"país":2934,"Bra":2935,"produ":2936,"tros":2937,"fregues":2938,"je":2939,"vis":2940,"pr":2941,"lh":2942,"ini":2943,"fun":2944,"cre":2945,"pu":2946,"ins":2947,"ais":2948,"ço":2949,"sé":2950,"maior":2951,"val":2952,"men":2953,"âni":2954,"inha":2955,"pan":2956,"gran":2957,"inter":2958,"00":2959,"ori":2960,"sem":2961,"conhe":2962,"mé":2963,"polí":2964,"ber":2965,"II":2966,"ismo":2967,"17":2968,"sobre":2969,"gan":2970,"be":2971,"vos":2972,"tebol":2973,"gos":2974,"vas":2975,"ada":2976,"mentos":2977,"ral":2978,"ós":2979,"15":2980,"regi":2981,"cel":2982,"contra":2983,"ix":2984,"present":2985,"culo":2986,"brasil":2987,"aliza":2988,"Gu":2989,"cípi":2990,"rela":2991,"xi":2992,"muni":2993,"posi":2994,"Jo":2995,"pera":2996,"Ar":2997,"gem":2998,"rior":2999,"até":3000,"futebol":3001,"clu":3002,"istó":3003,"den":3004,"foram":3005,"ares":3006,"gua":3007,"cada":3008,"jo":3009,"198":3010,"cl":3011,"Brasil":3012,"ing":3013,"mer":3014,"ana":3015,"ela":3016,"porta":3017,"ários":3018,"ap":3019,"bas":3020,"bal":3021,"Mar":3022,"freguesia":3023,"gal":3024,"Mo":3025,"Vi":3026,"algu":3027,"conheci":3028,"fere":3029,"parte":3030,"vez":3031,"princi":3032,"ças":3033,"hi":3034,"bri":3035,"seus":3036,"anti":3037,"envol":3038,"Po":3039,"rante":3040,"indo":3041,"Esta":3042,"nti":3043,"gen":3044,"rá":3045,"uro":3046,"pé":3047,"197":3048,"16":3049,"nta":3050,"Li":3051,"In":3052,"Ro":3053,"tivo":3054,"tá":3055,"ac":3056,"iste":3057,"fil":3058,"mun":3059,"pois":3060,"che":3061,"gover":3062,"pas":3063,"sim":3064,"atri":3065,"ciona":3066,"ame":3067,"inda":3068,"portu":3069,"úbli":3070,"rea":3071,"sendo":3072,"ias":3073,"Sant":3074,"bu":3075,"ves":3076,"plo":3077,"196":3078,"Cas":3079,"istas":3080,"dores":3081,"cípio":3082,"dera":3083,"sub":3084,"lia":3085,"Fran":3086,"via":3087,"Car":3088,"Pe":3089,"eiros":3090,"bita":3091,"ven":3092,"onde":3093,"14":3094,"eito":3095,"mina":3096,"té":3097,"Ba":3098,"lan":3099,"públi":3100,"col":3101,"eral":3102,"ban":3103,"ona":3104,"cam":3105,"ores":3106,"nome":3107,"ulo":3108,"hos":3109,"et":3110,"futebolista":3111,"zi":3112,"Portu":3113,"grande":3114,"Qu":3115,"fí":3116,"10":3117,"dio":3118,"tras":3119,"ôni":3120,"outros":3121,"194":3122,"século":3123,"sidade":3124,"An":3125,"fer":3126,"ticas":3127,"pon":3128,"cultura":3129,"espe":3130,"zação":3131,"vam":3132,"ira":3133,"segui":3134,"\",":3135,"qual":3136,"fin":3137,"reg":3138,"és":3139,"has":3140,"entes":3141,"aos":3142,"olo":3143,"195":3144,"sos":3145,"trans":3146,"\".":3147,"fia":3148,"193":3149,"está":3150,"gar":3151,"habita":3152,"suas":3153,"população":3154,"brasileiro":3155,"gas":3156,"tual":3157,"gn":3158,"ncias":3159,"nacional":3160,"dro":3161,"ainda":3162,"primeira":3163,"Com":3164,"corre":3165,"pró":3166,"Su":3167,"st":3168,"ora":3169,"município":3170,"america":3171,"Lu":3172,"quando":3173,"primeiro":3174,"nú":3175,"pesso":3176,"istória":3177,"vimento":3178,"tre":3179,"mesmo":3180,"12":3181,"inclu":3182,"cen":3183,"vida":3184,"Ch":3185,"ás":3186,"inf":3187,"vent":3188,"greja":3189,"ess":3190,"embro":3191,"desenvol":3192,"bro":3193,"Fo":3194,"consi":3195,"região":3196,"mia":3197,"atra":3198,"So":3199,"rece":3200,"norte":3201,"faz":3202,"tâni":3203,"ér":3204,"lica":3205,"durante":3206,"tí":3207,"ração":3208,"dem":3209,"mel":3210,"Mi":3211,"fran":3212,"muito":3213,"rin":3214,"veis":3215,"her":3216,"cria":3217,"dois":3218,"escri":3219,"Portugal":3220,"estado":3221,"área":3222,"já":3223,"constru":3224,"chama":3225,"istema":3226,"penas":3227,"Par":3228,"quanto":3229,"Le":3230,"lon":3231,"ógi":3232,"cis":3233,"esti":3234,"km":3235,"mil":3236,"rí":3237,"ck":3238,"sig":3239,"ine":3240,"trabal":3241,"funda":3242,"rem":3243,"indi":3244,"cur":3245,"pla":3246,"principal":3247,"Rio":3248,"istra":3249,"13":3250,"bili":3251,"árias":3252,"cesso":3253,"mundo":3254,"maio":3255,"sica":3256,"possu":3257,"habitantes":3258,"ita":3259,"def":3260,"estu":3261,"tili":3262,"organ":3263,"dist":3264,"apenas":3265,"sí":3266,"mor":3267,"ind":3268,"dent":3269,"elo":3270,"dense":3271,"ticos":3272,"Ex":3273,"governo":3274,"colo":3275,"liv":3276,"Pro":3277,"pelos":3278,"mica":3279,"todos":3280,"gru":3281,"can":3282,"ados":3283,"lei":3284,"les":3285,"dé":3286,"mei":3287,"pra":3288,"difere":3289,"eram":3290,"depen":3291,"importa":3292,"ale":3293,"odo":3294,"ços":3295,"ências":3296,"rito":3297,"vido":3298,"come":3299,"cla":3300,"cou":3301,"inte":3302,"auto":3303,"grafia":3304,"=\"":3305,"192":3306,"idente":3307,"ária":3308,"Di":3309,"antes":3310,"nda":3311,"Sen":3312,"dência":3313,"tório":3314,"rou":3315,"cimento":3316,"Des":3317,"Ri":3318,"tação":3319,"tempo":3320,"edi":3321,"mul":3322,"pais":3323,"cie":3324,"desta":3325,"capi":3326,"quer":3327,"sistema":3328,"sido":3329,"outras":3330,"ição":3331,"tou":3332,"and":3333,"av":3334,"considera":3335,"político":3336,"Igreja":3337,"ciais":3338,"diver":3339,"estadu":3340,"los":3341,"cerca":3342,"inas":3343,"mili":3344,"cra":3345,"tinha":3346,"istem":3347,"alidade":3348,"portugues":3349,"dire":3350,"númer":3351,"Sa":3352,"cado":3353,"depois":3354,"Ci":3355,"cola":3356,"ício":3357,"utili":3358,"esse":3359,"Estados":3360,"ton":3361,"ani":3362,"Cam":3363,"úl":3364,"fei":3365,"Ver":3366,"britâni":3367,"volu":3368,"reli":3369,"oso":3370,"th":3371,"represent":3372,"concel":3373,"estão":3374,"às":3375,"huma":3376,"Go":3377,"ór":3378,"Ant":3379,"Mu":3380,"religi":3381,"sul":3382,"todo":3383,"após":3384,"apresent":3385,"perí":3386,"Santa":3387,"cação":3388,"exem":3389,"três":3390,"encontra":3391,"aneiro":3392,"Ou":3393,"nter":3394,"pass":3395,"21":3396,"inho":3397,"tores":3398,"sas":3399,"Bar":3400,"vés":3401,"ância":3402,"ceu":3403,"Fre":3404,"Para":3405,"desde":3406,"of":3407,"ví":3408,"pública":3409,"Jos":3410,"João":3411,"alem":3412,"ena":3413,"nou":3414,"rac":3415,"partir":3416,"Bo":3417,"então":3418,"milh":3419,"fal":3420,"mal":3421,"últi":3422,"pessoas":3423,"tivos":3424,"Nos":3425,"Du":3426,"align":3427,"ministra":3428,"eta":3429,"eles":3430,"bem":3431,"Guerra":3432,"rig":3433,"hora":3434,"nia":3435,"passa":3436,"má":3437,"atriz":3438,"pou":3439,"tivi":3440,"To":3441,"rias":3442,"medi":3443,"dez":3444,"duas":3445,"obra":3446,"ator":3447,"peri":3448,"ement":3449,"loc":3450,"atro":3451,"cionais":3452,"ase":3453,"dial":3454,"constitu":3455,"geral":3456,"son":3457,"panh":3458,"Fer":3459,"usa":3460,"posição":3461,"nova":3462,"concelho":3463,"rios":3464,"ula":3465,"Euro":3466,"cono":3467,"emente":3468,"cialmente":3469,"tê":3470,"ht":3471,"contin":3472,"rie":3473,"Ne":3474,"11":3475,"Paulo":3476,"terra":3477,"podem":3478,"há":3479,"anu":3480,"ónio":3481,"Or":3482,"apro":3483,"alguns":3484,"sia":3485,"bele":3486,"publi":3487,"base":3488,"ável":3489,"las":3490,"período":3491,"ál":3492,"fam":3493,"Do":3494,"deira":3495,"almente":3496,"ren":3497,"ua":3498,"ofi":3499,"americano":3500,"terri":3501,"Segu":3502,"estaduni":3503,"através":3504,"nifica":3505,"Unidos":3506,"25":3507,"além":3508,"eiras":3509,"tivas":3510,"número":3511,"trutura":3512,"vem":3513,"Im":3514,"Gran":3515,"ng":3516,"rada":3517,"estra":3518,"dados":3519,"organi":3520,"rado":3521,"sal":3522,"nor":3523,"La":3524,"Univer":3525,"hor":3526,"lin":3527,"Cons":3528,"mú":3529,"isto":3530,"assim":3531,"acor":3532,"estadunidense":3533,"190":3534,"agem":3535,"realiza":3536,"Ju":3537,"tradi":3538,"roma":3539,"2013":3540,"início":3541,"tamente":3542,"ologia":3543,"iu":3544,"sur":3545,"exemplo":3546,"Cor":3547,"cres":3548,"enta":3549,"gado":3550,"189":3551,"junto":3552,"ard":3553,"pare":3554,"mada":3555,"estrutura":3556,"Te":3557,"mon":3558,"povo":3559,"Fa":3560,"só":3561,"Sul":3562,"presidente":3563,"significa":3564,"ero":3565,"deu":3566,"arqui":3567,"cês":3568,"quis":3569,"osa":3570,"sol":3571,"guês":3572,"água":3573,"seja":3574,"pequ":3575,"XI":3576,"Cent":3577,"mis":3578,"mico":3579,"atual":3580,"segundo":3581,"deste":3582,"frica":3583,"resul":3584,"apo":3585,"Lo":3586,"24":3587,"obje":3588,"econ":3589,"plan":3590,"hom":3591,"aca":3592,"tido":3593,"tur":3594,"tados":3595,"fir":3596,"abri":3597,"tais":3598,"tendo":3599,"servi":3600,"administra":3601,"fro":3602,"portuguesa":3603,"bel":3604,"art":3605,"lín":3606,"ze":3607,"tão":3608,"Ge":3609,"Estado":3610,"exter":3611,"Pi":3612,"José":3613,"influ":3614,"rico":3615,"produção":3616,"ang":3617,"Inter":3618,"ante":3619,"história":3620,"ocu":3621,"ografia":3622,"úni":3623,"acordo":3624,"ãos":3625,"Um":3626,"estabele":3627,"épo":3628,"maioria":3629,"Foi":3630,"30":3631,"Fe":3632,"Is":3633,"reira":3634,"tanto":3635,"Ent":3636,"Per":3637,"enquanto":3638,"direi":3639,"vezes":3640,"política":3641,"contro":3642,"carac":3643,"Mun":3644,"menos":3645,"sico":3646,"países":3647,"có":3648,"lio":3649,"En":3650,"francês":3651,"Ra":3652,"grá":3653,"mí":3654,"principais":3655,"vários":3656,"bre":3657,"ível":3658,"ribu":3659,"Tra":3660,"situ":3661,"ntos":3662,"essa":3663,"cé":3664,"Grande":3665,"pei":3666,"guerra":3667,"teve":3668,"panha":3669,"zar":3670,"visão":3671,"Me":3672,"III":3673,"popula":3674,"Senhora":3675,"esa":3676,"dente":3677,"ambi":3678,"capital":3679,"dou":3680,"época":3681,"Da":3682,"cion":3683,"ocorre":3684,"lha":3685,"gações":3686,"num":3687,"bilidade":3688,"poder":3689,"natura":3690,"dido":3691,"riam":3692,"idade":3693,"comuni":3694,"muitos":3695,"The":3696,"dar":3697,"tada":3698,"território":3699,"milhões":3700,"Fi":3701,"grandes":3702,"serva":3703,"amb":3704,"União":3705,"cle":3706,"empres":3707,"cido":3708,"baix":3709,"rus":3710,"ído":3711,"sede":3712,"bar":3713,"espé":3714,"gens":3715,"188":3716,"fra":3717,"conhecido":3718,"gada":3719,"econo":3720,"sen":3721,"Bi":3722,"dias":3723,"Santo":3724,"For":3725,"ética":3726,"tivamente":3727,"rim":3728,"tera":3729,"XV":3730,"boa":3731,"várias":3732,"eli":3733,"ília":3734,"algumas":3735,"Ale":3736,"entanto":3737,"ulho":3738,"fim":3739,"final":3740,"2011":3741,"clas":3742,"ré":3743,"britânico":3744,"neces":3745,"Norte":3746,"meio":3747,"teri":3748,"social":3749,"pério":3750,"Maria":3751,"História":3752,"iro":3753,"tornou":3754,"23":3755,"França":3756,"desenvolvimento":3757,"local":3758,"feri":3759,"têm":3760,"pec":3761,"lado":3762,"pelas":3763,"Vila":3764,"pós":3765,"permi":3766,"reiro":3767,"utiliza":3768,"formação":3769,"República":3770,"década":3771,"possui":3772,"deno":3773,"dan":3774,"torna":3775,"moder":3776,"Nacional":3777,"Roma":3778,"ple":3779,"soci":3780,"origem":3781,"ológi":3782,"cin":3783,"aco":3784,"devido":3785,"volta":3786,"grupo":3787,"Uma":3788,"espa":3789,"cli":3790,"ân":3791,"corpo":3792,"22":3793,"terior":3794,"eno":3795,"ída":3796,"ilha":3797,"it":3798,"indepen":3799,"Fregues":3800,"cente":3801,"fos":3802,"Col":3803,"feito":3804,"nu":3805,"proje":3806,"fico":3807,"Pedro":3808,"cant":3809,"outro":3810,"lugar":3811,"Nova":3812,"logia":3813,"ruz":3814,"Ele":3815,"histó":3816,"Mé":3817,"Sal":3818,"capa":3819,"localiza":3820,"veu":3821,"Entre":3822,"longo":3823,"xo":3824,"ques":3825,"mou":3826,"çou":3827,"nal":3828,"zo":3829,"tante":3830,"pó":3831,"logo":3832,"tec":3833,"português":3834,"cais":3835,"aqu":3836,"muitas":3837,"hou":3838,"gação":3839,"alemão":3840,"hoje":3841,"186":3842,"unho":3843,"defini":3844,"Ni":3845,"exist":3846,"composi":3847,"pesar":3848,"50":3849,"gê":3850,"quais":3851,"enti":3852,"cular":3853,"gin":3854,"isso":3855,"ene":3856,"limi":3857,"Nossa":3858,"equi":3859,"quia":3860,"ocupa":3861,"própri":3862,"cho":3863,"todas":3864,"leva":3865,"culos":3866,"dida":3867,"posta":3868,"ugu":3869,"importante":3870,"ús":3871,"ár":3872,"principalmente":3873,"uso":3874,"centro":3875,"ática":3876,"dita":3877,"exi":3878,"total":3879,"volução":3880,"187":3881,"fis":3882,"oria":3883,"cro":3884,"ficação":3885,"divi":3886,"reas":3887,"cios":3888,"ima":3889,"itali":3890,"dra":3891,"freguesias":3892,"econô":3893,"trabalho":3894,"metros":3895,"op":3896,"ener":3897,"opera":3898,"element":3899,"Europa":3900,"deve":3901,"ola":3902,"vista":3903,"elas":3904,"tubro":3905,"ons":3906,"vou":3907,"estava":3908,"right":3909,"jor":3910,"vil":3911,"dado":3912,"var":3913,"Pal":3914,"Pres":3915,"conta":3916,"Reino":3917,"ata":3918,"Janeiro":3919,"quatro":3920,"quí":3921,"bus":3922,"..":3923,"processo":3924,"fl":3925,"wa":3926,"elei":3927,"cies":3928,"Muni":3929,"casa":3930,"tando":3931,"Casa":3932,"desco":3933,"ende":3934,"tan":3935,"estas":3936,"the":3937,"tembro":3938,"Lis":3939,"cida":3940,"militar":3941,"denomina":3942,"din":3943,"gue":3944,"rar":3945,"externas":3946,"cito":3947,"deter":3948,"respon":3949,"deix":3950,"pí":3951,"cem":3952,"cidades":3953,"ães":3954,"novo":3955,"diferentes":3956,"tividade":3957,"vin":3958,"pressão":3959,"sequ":3960,"brasileira":3961,"espanh":3962,"Universidade":3963,"rando":3964,"Cal":3965,"ler":3966,"guas":3967,"subs":3968,"tel":3969,"construção":3970,"lar":3971,"cient":3972,"rança":3973,"Sé":3974,"dri":3975,"relação":3976,"cto":3977,"ise":3978,"XIX":3979,"inado":3980,"antiga":3981,"tia":3982,"ônia":3983,"morte":3984,"dão":3985,"embora":3986,"qualquer":3987,"grama":3988,"data":3989,"havia":3990,"Ta":3991,"Anti":3992,"Ho":3993,"Joh":3994,"tin":3995,"Lei":3996,"passou":3997,"euro":3998,"Porto":3999,"embros":4000,"Império":4001,"Ha":4002,"elho":4003,"prote":4004,"lhe":4005,"vembro":4006,"Cris":4007,"Amé":4008,"talha":4009,"mode":4010,"Ligações":4011,"dios":4012,"ística":4013,"Mundial":4014,"Ter":4015,"rão":4016,"ança":4017,"ença":4018,"super":4019,"Pra":4020,"Patri":4021,"termo":4022,");":4023,"Nor":4024,"Dem":4025,"economia":4026,"ín":4027,"Lisboa":4028,"incluindo":4029,"vila":4030,"língua":4031,"Ber":4032,"conhecida":4033,"cipal":4034,"ger":4035,"ações":4036,"Cul":4037,"perten":4038,"Este":4039,"gres":4040,"torn":4041,"cus":4042,"diz":4043,"escritor":4044,"toda":4045,"caso":4046,"meta":4047,"Hen":4048,"poli":4049,"40":4050,"duzi":4051,"cípios":4052,"000":4053,"integra":4054,"tora":4055,"porte":4056,"movimento":4057,"ts":4058,"força":4059,"quase":4060,"arte":4061,"dezembro":4062,"governa":4063,"sões":4064,"tipo":4065,"ônio":4066,"afir":4067,"Como":4068,"pli":4069,"deus":4070,"oeste":4071,"quista":4072,"28":4073,"fé":4074,"agos":4075,"energia":4076,"dentes":4077,"ular":4078,"manha":4079,"bio":4080,"Ins":4081,"caracter":4082,"ph":4083,"cun":4084,"Pol":4085,"cole":4086,"possí":4087,"cident":4088,"atu":4089,"Além":4090,"aus":4091,"Sil":4092,"institu":4093,"posto":4094,"rista":4095,"ental":4096,"ísticas":4097,"xa":4098,"Alemanha":4099,"vada":4100,"2010":4101,"Wil":4102,"ciedade":4103,"comer":4104,"cei":4105,"frequ":4106,"ki":4107,"membros":4108,"event":4109,"ponto":4110,"26":4111,"palav":4112,"partici":4113,"Francis":4114,"maiores":4115,"univer":4116,"27":4117,"mónio":4118,"Ing":4119,"elha":4120,"ntas":4121,"fon":4122,"vado":4123,"tempera":4124,"2021":4125,"nica":4126,"úde":4127,"Si":4128,"Ga":4129,"teria":4130,"gera":4131,"cana":4132,"densidade":4133,"conjunto":4134,"adas":4135,"elé":4136,"numa":4137,"áreas":4138,"zes":4139,"compositor":4140,"gio":4141,"ecu":4142,"Cruz":4143,"disso":4144,"ka":4145,"manda":4146,"vesti":4147,"185":4148,"Be":4149,"cir":4150,"Tor":4151,"ciência":4152,"lista":4153,"ouro":4154,"família":4155,"rique":4156,"Ama":4157,"perior":4158,"ferência":4159,"Após":4160,"Can":4161,"chamado":4162,"ham":4163,"ito":4164,"gent":4165,"Fun":4166,"classi":4167,"populacional":4168,"propri":4169,"formas":4170,"condi":4171,"ses":4172,"grupos":4173,"anterior":4174,"Durante":4175,"tion":4176,"tarde":4177,"end":4178,"har":4179,"espécies":4180,"escol":4181,"Ser":4182,"Carlos":4183,"Cab":4184,"estre":4185,"Val":4186,"demo":4187,"funci":4188,"telo":4189,"marca":4190,"pouco":4191,"enas":4192,"comple":4193,"clo":4194,"primeiros":4195,"flu":4196,"pint":4197,"lem":4198,"ador":4199,"org":4200,"seria":4201,"segunda":4202,"bran":4203,"Popul":4204,"Centro":4205,"âne":4206,"tria":4207,"dentro":4208,"ulas":4209,"tít":4210,"gou":4211,"istro":4212,"prob":4213,"lança":4214,"Terra":4215,"obras":4216,"heiro":4217,"ry":4218,"julho":4219,"ner":4220,"desa":4221,"rismo":4222,"nação":4223,"mesma":4224,"janeiro":4225,"ató":4226,"ânti":4227,"istemas":4228,"XX":4229,"tória":4230,"regiões":4231,"mara":4232,"Nas":4233,"ducação":4234,"varia":4235,"tró":4236,"pesquis":4237,"cél":4238,"teoria":4239,"arti":4240,"Cultura":4241,"empre":4242,"183":4243,"gol":4244,"2000":4245,"América":4246,"áveis":4247,"land":4248,"Sol":4249,"comum":4250,"mão":4251,"evi":4252,"mem":4253,"mulher":4254,"ército":4255,"Ori":4256,"ridade":4257,"sempre":4258,"importantes":4259,"geralmente":4260,"aproxi":4261,"vereiro":4262,"experi":4263,"center":4264,"Deus":4265,"cadas":4266,"crí":4267,"Capela":4268,"29":4269,"Mas":4270,"ficou":4271,"cursos":4272,"censo":4273,"El":4274,"agosto":4275,"pol":4276,"recebe":4277,"bis":4278,"zado":4279,"velmente":4280,"ía":4281,"comun":4282,"média":4283,"Algu":4284,"Rib":4285,"setembro":4286,"usado":4287,"ture":4288,"mio":4289,"2001":4290,"juda":4291,"45":4292,"Ao":4293,"outubro":4294,"plica":4295,"micas":4296,"Bu":4297,"música":4298,"ense":4299,"mol":4300,"decla":4301,"sex":4302,"tina":4303,"pad":4304,"jornal":4305,"mando":4306,"criação":4307,"nível":4308,"Lou":4309,"temperatura":4310,"domin":4311,"oficial":4312,"execu":4313,"surgi":4314,"inos":4315,"Cont":4316,"80":4317,"nacionais":4318,"chi":4319,"origin":4320,"forças":4321,"Francisco":4322,"cinco":4323,"ell":4324,"deri":4325,"perma":4326,"Ingla":4327,"Inglaterra":4328,"março":4329,"senti":4330,"IB":4331,"António":4332,"novembro":4333,"Ban":4334,"filho":4335,"Freguesias":4336,"frances":4337,"possível":4338,"quad":4339,"pria":4340,"Cha":4341,"rais":4342,"conquista":4343,"abril":4344,"Institu":4345,"aument":4346,"bandeira":4347,"junho":4348,"isti":4349,"Ín":4350,"estes":4351,"front":4352,"tam":4353,"enda":4354,"determina":4355,"Anos":4356,"Cu":4357,"Ru":4358,"mental":4359,"joga":4360,"outra":4361,"campo":4362,"60":4363,"crescimento":4364,"cantor":4365,"eu":4366,"téc":4367,"compu":4368,"lógi":4369,"real":4370,"gé":4371,"lês":4372,"arma":4373,"porto":4374,"Dia":4375,"ref":4376,"fazer":4377,"natural":4378,"mbi":4379,"veram":4380,"nada":4381,"África":4382,"orde":4383,"deral":4384,"aber":4385,"tamento":4386,"canto":4387,"san":4388,"perador":4389,"atin":4390,"Prim":4391,"figu":4392,"70":4393,"arquite":4394,"lidade":4395,"orge":4396,"At":4397,"escre":4398,"ida":4399,"China":4400,"Património":4401,"port":4402,"Segundo":4403,"sistemas":4404,"Espanha":4405,"Ja":4406,"Min":4407,"insta":4408,"diversos":4409,"quanti":4410,"tividades":4411,"Gra":4412,"tex":4413,"histo":4414,"identi":4415,"compl":4416,"Rua":4417,"tares":4418,"próxi":4419,"italiano":4420,"posterior":4421,"produzi":4422,"seguinte":4423,"zona":4424,"parece":4425,"deia":4426,"massa":4427,"diversas":4428,"sociação":4429,"Manu":4430,"Partido":4431,"curso":4432,"zada":4433,"indus":4434,"começou":4435,"Sou":4436,"popular":4437,"liber":4438,"dução":4439,"quil":4440,"2009":4441,"separa":4442,"fez":4443,"fato":4444,"cine":4445,"conf":4446,"Regi":4447,"2008":4448,"próprio":4449,"65":4450,"urb":4451,"alto":4452,"leg":4453,"dica":4454,"seis":4455,"postos":4456,"superior":4457,"continu":4458,"Ti":4459,"erais":4460,"refere":4461,"isla":4462,"Rob":4463,"inglês":4464,"Museu":4465,"micos":4466,"2012":4467,"rina":4468,"crist":4469,"lá":4470,"1990":4471,"relaciona":4472,"chamada":4473,"exti":4474,"az":4475,"Her":4476,"Mon":4477,"2007":4478,"tário":4479,"japon":4480,"Emb":4481,"observa":4482,"pré":4483,"Cos":4484,"conhecimento":4485,"proprie":4486,"2006":4487,"Internacional":4488,"prin":4489,"valor":4490,"público":4491,"caus":4492,"Rei":4493,"Tamb":4494,"John":4495,"stria":4496,"tudo":4497,"San":4498,"mã":4499,"lito":4500,"escra":4501,"migra":4502,"Lon":4503,"Man":4504,"ura":4505,"asso":4506,"fera":4507,"locais":4508,"organização":4509,"estudo":4510,"sário":4511,"ústria":4512,"Fern":4513,"rede":4514,"íveis":4515,"39":4516,"Fil":4517,"proces":4518,"Serra":4519,"mont":4520,"ensos":4521,"inici":4522,"direito":4523,"solu":4524,"produtor":4525,"resta":4526,"Ass":4527,"atos":4528,"papel":4529,"ty":4530,"gui":4531,"influência":4532,"produz":4533,"alta":4534,"modo":4535,"aba":4536,"pensa":4537,"ússia":4538,"dei":4539,"substitu":4540,"descober":4541,"sor":4542,"vão":4543,"verdade":4544,"Também":4545,"docu":4546,"pons":4547,"explo":4548,"tim":4549,"lingu":4550,"americana":4551,"série":4552,"começa":4553,"toma":4554,"cidos":4555,"espaço":4556,"considerado":4557,"tele":4558,"ricos":4559,"cima":4560,"fici":4561,"pedi":4562,"modelo":4563,"contribu":4564,"aplica":4565,"siva":4566,"aconte":4567,"cidental":4568,"fora":4569,"2005":4570,"jas":4571,"livro":4572,"Manuel":4573,"eleito":4574,"conce":4575,"ânia":4576,"esses":4577,"bur":4578,"bá":4579,"Itá":4580,"matem":4581,"entemente":4582,"bor":4583,"dação":4584,"âmara":4585,"elementos":4586,"ceira":4587,"vio":4588,"homens":4589,"respons":4590,"programa":4591,"osos":4592,"dico":4593,"causa":4594,"terras":4595,"lib":4596,"fab":4597,"ft":4598,"neg":4599,"Vale":4600,"fas":4601,"ples":4602,"Tem":4603,"Clu":4604,"Bri":4605,"Er":4606,"Edi":4607,"osas":4608,"vul":4609,"plos":4610,"melhor":4611,"quem":4612,"porém":4613,"peia":4614,"90":4615,"cantora":4616,"investi":4617,"Quando":4618,"permane":4619,"del":4620,"geo":4621,"184":4622,"treina":4623,"lhas":4624,"animais":4625,"verno":4626,"eb":4627,"sociedade":4628,"2004":4629,"antigo":4630,"derro":4631,"ático":4632,"Municipal":4633,"título":4634,"igu":4635,"ições":4636,"Alex":4637,"zou":4638,"linha":4639,"tenta":4640,"Século":4641,"And":4642,"ume":4643,"1980":4644,"Itália":4645,"Mor":4646,"porque":4647,"31":4648,"cientí":4649,"proví":4650,"forte":4651,"mudan":4652,"coloni":4653,"inta":4654,"Tu":4655,"inten":4656,"Apesar":4657,"tureza":4658,"precis":4659,"minu":4660,"mostra":4661,"encont":4662,"ama":4663,"Unido":4664,"vei":4665,"ke":4666,"NA":4667,"extre":4668,"glo":4669,"Au":4670,"Je":4671,"Pen":4672,"internacional":4673,"ixo":4674,"van":4675,"dê":4676,"único":4677,"reia":4678,"Fu":4679,"Santos":4680,"festa":4681,"tent":4682,"leste":4683,"ético":4684,"180":4685,"tórios":4686,"ilhas":4687,"ferro":4688,"apresenta":4689,"banda":4690,"Segunda":4691,"gados":4692,"indústria":4693,"Instituto":4694,"cultural":4695,"usão":4696,"igreja":4697,"simples":4698,"emin":4699,"fevereiro":4700,"vação":4701,"tinham":4702,"alidades":4703,"ércio":4704,"inhos":4705,"dim":4706,"espanhol":4707,"reforma":4708,"desig":4709,"peti":4710,"função":4711,"IS":4712,"especialmente":4713,"pren":4714,"distribu":4715,"inais":4716,"1970":4717,"gares":4718,"presença":4719,"possi":4720,"ficado":4721,"censos":4722,"comércio":4723,"Assim":4724,"Chi":4725,"1950":4726,"cr":4727,"mundial":4728,"creto":4729,"atribu":4730,"1960":4731,"clás":4732,"produtos":4733,"ulos":4734,"Bran":4735,"mant":4736,"distrito":4737,"tecno":4738,"Embora":4739,"umo":4740,"apare":4741,"interior":4742,"menor":4743,"tadas":4744,"rom":4745,"Castelo":4746,"mercado":4747,"ley":4748,"pia":4749,"dó":4750,"finan":4751,"culas":4752,"representa":4753,"Afon":4754,"2003":4755,"ceiro":4756,"ofere":4757,"Ir":4758,"último":4759,"cate":4760,"pai":4761,"domí":4762,"termos":4763,"serviços":4764,"ficas":4765,"imperador":4766,"participa":4767,"africa":4768,"sema":4769,"jus":4770,"Ordem":4771,"desse":4772,"existência":4773,"Rober":4774,"concent":4775,"viol":4776,"País":4777,"centes":4778,"homem":4779,"esco":4780,"net":4781,"cendo":4782,"cano":4783,"promo":4784,"64":4785,"hon":4786,"especi":4787,"ânica":4788,"adi":4789,"domina":4790,"feitos":4791,"ordem":4792,"inicia":4793,"cató":4794,"Bibli":4795,"instru":4796,"credita":4797,"afirma":4798,"cando":4799,"rinha":4800,"melho":4801,"Mal":4802,"Escola":4803,"expan":4804,"55":4805,"sin":4806,"ko":4807,"ên":4808,"1991":4809,"cil":4810,"He":4811,"agri":4812,"ensino":4813,"Tri":4814,"núcle":4815,"Pos":4816,"2002":4817,"engen":4818,"forne":4819,"células":4820,"tenha":4821,"independência":4822,"eses":4823,"administrativa":4824,"rados":4825,"formar":4826,"pratica":4827,"Pre":4828,"camin":4829,"mani":4830,"natureza":4831,"dá":4832,"nar":4833,"lhos":4834,"municípios":4835,"vendo":4836,"particular":4837,"Monte":4838,"fen":4839,"gram":4840,"100":4841,"complex":4842,"existem":4843,"projeto":4844,"ento":4845,"própria":4846,"sar":4847,"flor":4848,"religião":4849,"Ed":4850,"rial":4851,"xe":4852,"costa":4853,"duz":4854,"madamente":4855,"resultado":4856,"gresso":4857,"fase":4858,"Paul":4859,"intro":4860,"Jes":4861,"bes":4862,"vento":4863,"ístico":4864,"Jap":4865,"tela":4866,"livre":4867,"Afonso":4868,"associa":4869,"alização":4870,"Eu":4871,"emi":4872,"Sua":4873,"Japão":4874,"wi":4875,"prova":4876,"correspon":4877,"cina":4878,"pção":4879,"rida":4880,"istência":4881,"Associação":4882,"características":4883,"ron":4884,"raz":4885,".,":4886,"atualmente":4887,"ismos":4888,"Pes":4889,"óso":4890,"chin":4891,"controle":4892,"Outros":4893,"Ben":4894,"Silva":4895,"somente":4896,"cção":4897,"movi":4898,"versão":4899,"1999":4900,"nen":4901,"partes":4902,"Não":4903,"ândia":4904,"Há":4905,"amento":4906,"conde":4907,"plane":4908,"única":4909,"lemas":4910,"til":4911,"portância":4912,"fício":4913,"ministro":4914,"Pr":4915,"vor":4916,"tipos":4917,"acesso":4918,"regista":4919,"||":4920,"cados":4921,"2014":4922,"apoio":4923,"cimentos":4924,"preen":4925,"Luís":4926,"metro":4927,"ério":4928,"exten":4929,"endário":4930,"arda":4931,"central":4932,"35":4933,"Tran":4934,"torno":4935,"População":4936,"presente":4937,"anda":4938,"testa":4939,"sion":4940,"Ad":4941,"alcan":4942,"fess":4943,"emblei":4944,"luz":4945,"mó":4946,"exército":4947,"treinador":4948,"Batalha":4949,"grego":4950,"seguintes":4951,"Gon":4952,"junta":4953,"peona":4954,"exce":4955,"ficar":4956,"trono":4957,"palavra":4958,"descri":4959,"existe":4960,"85":4961,"ido":4962,"desen":4963,"tran":4964,"tualmente":4965,"nem":4966,"importância":4967,"historia":4968,"camente":4969,"morre":4970,"relações":4971,"estados":4972,"Mont":4973,"rit":4974,"Mos":4975,"aproximadamente":4976,"Paris":4977,"gráfica":4978,"Cer":4979,"iz":4980,"dura":4981,"reali":4982,"ácio":4983,"bia":4984,"poeta":4985,"Gal":4986,"dina":4987,"saúde":4988,"Gru":4989,"europe":4990,"cura":4991,"condições":4992,"alter":4993,"Constitu":4994,"militares":4995,"novas":4996,"lico":4997,"reuni":4998,"1998":4999,"hia":5000,"tei":5001,"rido":5002,"sio":5003,"apesar":5004,"tt":5005,"cap":5006,"Demografia":5007,"jam":5008,"dessa":5009,"Costa":5010,"gão":5011,"viética":5012,"séculos":5013,"superfí":5014,"estrang":5015,"feita":5016,"tima":5017,"terial":5018,"anex":5019,"cula":5020,"ww":5021,"sucesso":5022,"Rússia":5023,"referi":5024,"formações":5025,"possuem":5026,"Câmara":5027,"arque":5028,"ES":5029,"lugares":5030,"ual":5031,"damente":5032,"inaugu":5033,"pírito":5034,"anças":5035,"ed":5036,"velo":5037,"sentido":5038,"tradicional":5039,"1930":5040,"trabalha":5041,"pontos":5042,"estilo":5043,"consegui":5044,"técni":5045,"capacidade":5046,"ws":5047,"sofre":5048,"incluem":5049,"guel":5050,"põ":5051,"quar":5052,"nes":5053,"enos":5054,"novos":5055,"2019":5056,"leo":5057,"sociais":5058,"Mart":5059,"tian":5060,"Agos":5061,"tradição":5062,"Depois":5063,"gência":5064,"industri":5065,"bate":5066,"criada":5067,"levou":5068,"Desde":5069,"estuda":5070,"atividades":5071,"Alguns":5072,"Ara":5073,"our":5074,"teratura":5075,"semelha":5076,"bastante":5077,"organiza":5078,"meses":5079,"fol":5080,"extra":5081,"ígen":5082,"embleia":5083,"titude":5084,"políticas":5085,"tino":5086,"ídos":5087,"gara":5088,"jogador":5089,"Jesus":5090,"hidro":5091,"mentação":5092,"adores":5093,"ami":5094,"ceito":5095,"tú":5096,"nça":5097,"pequena":5098,"quantidade":5099,"osofia":5100,"problemas":5101,"termin":5102,"assum":5103,"primeiras":5104,"destru":5105,"tadores":5106,"1997":5107,"estavam":5108,"viz":5109,"atividade":5110,"ricas":5111,"Conselho":5112,"media":5113,"turas":5114,"deci":5115,"ônica":5116,"idência":5117,"jos":5118,"aumento":5119,"quele":5120,"CO":5121,"Era":5122,"comb":5123,"sta":5124,"ória":5125,"sicos":5126,"imb":5127,"recebeu":5128,"36":5129,"descre":5130,"Men":5131,"Social":5132,"taxa":5133,"teiro":5134,"vídu":5135,"IV":5136,"anal":5137,"Federal":5138,"taram":5139,"mulheres":5140,"momento":5141,"1996":5142,"Atl":5143,"2015":5144,"%;":5145,"escola":5146,"zer":5147,"diu":5148,"viam":5149,"missão":5150,"Res":5151,"ly":5152,"zon":5153,"dispu":5154,"Ce":5155,"educação":5156,"Polí":5157,"lago":5158,"trica":5159,"tio":5160,"chu":5161,"reti":5162,"tero":5163,"ware":5164,"2017":5165,"empresas":5166,"interpre":5167,"última":5168,"Ana":5169,"ãs":5170,"sequência":5171,"metade":5172,"domínio":5173,"Augu":5174,"filóso":5175,"indivídu":5176,"².":5177,"serem":5178,"Henrique":5179,"legisla":5180,"ixa":5181,"ficos":5182,"2016":5183,"decis":5184,"catego":5185,"rinho":5186,"zam":5187,"superfície":5188,"especial":5189,"direitos":5190,"cinema":5191,"Presidente":5192,"ade":5193,"vir":5194,"Índia":5195,"remo":5196,"naturais":5197,"Miguel":5198,"eventos":5199,"êmio":5200,"Parque":5201,"permiti":5202,"agricultura":5203,"artes":5204,"forme":5205,"física":5206,"gora":5207,"Hi":5208,"sto":5209,"37":5210,"infe":5211,"ceram":5212,"visi":5213,"aten":5214,"bair":5215,"fes":5216,"continua":5217,"influen":5218,"instala":5219,"Mil":5220,"hum":5221,"pá":5222,"propor":5223,"estar":5224,"peonato":5225,"udo":5226,"suces":5227,"dual":5228,"1994":5229,"isa":5230,"invas":5231,"atingi":5232,"soli":5233,"acredita":5234,"conceito":5235,"maneira":5236,"lamento":5237,"dista":5238,"humanos":5239,"Vil":5240,"responsável":5241,"algo":5242,"expres":5243,"ong":5244,"hab":5245,"estudos":5246,"filme":5247,"issão":5248,"dal":5249,"eleições":5250,"diretor":5251,"jornalista":5252,"Bre":5253,"Hu":5254,"deram":5255,"altura":5256,"unca":5257,"empresa":5258,"nidade":5259,"objetivo":5260,"vador":5261,"clima":5262,"1995":5263,"normal":5264,"97":5265,"Clube":5266,"Ame":5267,"Fernando":5268,"gios":5269,"Papa":5270,"berto":5271,"2018":5272,"1993":5273,"indica":5274,"eração":5275,"Mais":5276,"prática":5277,"escolas":5278,"liam":5279,"profis":5280,"neste":5281,"landês":5282,"cru":5283,"tale":5284,"especí":5285,"exer":5286,"essas":5287,"clube":5288,"jogo":5289,"pot":5290,"bos":5291,"fru":5292,"inh":5293,"guer":5294,"onais":5295,"desi":5296,"teca":5297,"len":5298,"Bas":5299,"civil":5300,"pital":5301,"lim":5302,"material":5303,"fonte":5304,"chega":5305,"crá":5306,"romano":5307,"1989":5308,"cá":5309,"dres":5310,"ingles":5311,"Mer":5312,"cuja":5313,"líder":5314,"partido":5315,"acei":5316,"tária":5317,"Central":5318,"criado":5319,"zando":5320,"visita":5321,"acima":5322,"caracteri":5323,"escal":5324,"álise":5325,"(\"":5326,"recursos":5327,"Seu":5328,"çar":5329,"oce":5330,"cicl":5331,"conhecidos":5332,"Cristo":5333,"licos":5334,"eladas":5335,"usu":5336,"gênio":5337,"agens":5338,"nomes":5339,"etc":5340,"plantas":5341,"ara":5342,"ato":5343,"considerada":5344,"ung":5345,"ára":5346,"plas":5347,"itos":5348,"gando":5349,"ue":5350,"ncipe":5351,"romana":5352,"planeta":5353,"1992":5354,"russo":5355,"âmica":5356,"Antônio":5357,"XVIII":5358,"pô":5359,"inação":5360,"gráfico":5361,"vens":5362,"ardo":5363,"Quinta":5364,"Real":5365,"Ros":5366,"lema":5367,"44":5368,"portanto":5369,"Bahia":5370,"sam":5371,"Revolução":5372,"Liv":5373,"diminu":5374,"Fili":5375,"mação":5376,"símb":5377,"línguas":5378,"trá":5379,"agre":5380,"últimos":5381,"lé":5382,"Geral":5383,"Novo":5384,"pesquisa":5385,"Mes":5386,"nº":5387,"alo":5388,"menta":5389,"chegou":5390,"ólogo":5391,"baixo":5392,"oli":5393,"rigi":5394,"Mel":5395,"Bel":5396,"bun":5397,"liga":5398,"ios":5399,"nunca":5400,"Região":5401,"Gr":5402,"tador":5403,"cade":5404,"filhos":5405,"Ang":5406,"New":5407,"Já":5408,"vá":5409,"ísmo":5410,"Freguesia":5411,"tida":5412,"Char":5413,"tropas":5414,"William":5415,"Jorge":5416,"Pu":5417,"Aus":5418,"tempos":5419,"posteriormente":5420,"38":5421,"riamente":5422,"49":5423,"ps":5424,"casos":5425,"ântico":5426,"defen":5427,"cros":5428,"ames":5429,"PIB":5430,"venção":5431,"Fl":5432,"dendo":5433,"ambiente":5434,"ajuda":5435,"anas":5436,"direção":5437,"extinta":5438,"AR":5439,"ização":5440,"arca":5441,"manu":5442,"US":5443,"indígen":5444,"Sch":5445,"Copa":5446,"toneladas":5447,"núcleo":5448,"Sh":5449,"Antigas":5450,"fá":5451,"2020":5452,"Domin":5453,"Jú":5454,"cabe":5455,"46":5456,"nave":5457,"físico":5458,".\"":5459,"setor":5460,"pis":5461,"fosse":5462,"32":5463,"gro":5464,"povos":5465,"ficada":5466,"músico":5467,"psi":5468,"pequeno":5469,"lis":5470,"assina":5471,"perto":5472,"radi":5473,"musi":5474,"regime":5475,"antigos":5476,"comunidade":5477,"ys":5478,"Nações":5479,"equ":5480,"medida":5481,"estruturas":5482,"bilh":5483,"econômica":5484,"Sob":5485,"75":5486,"profess":5487,"|-":5488,"automo":5489,"Lin":5490,"mentais":5491,"gias":5492,"Essa":5493,"relativamente":5494,"argent":5495,"fícios":5496,"britânica":5497,"Pri":5498,"dre":5499,"vege":5500,"agrí":5501,"ambos":5502,"interesse":5503,"179":5504,"1940":5505,"48":5506,"sicas":5507,"portugueses":5508,"OS":5509,"ya":5510,"divisão":5511,"Bal":5512,"ideia":5513,"pessoa":5514,"taman":5515,"nado":5516,"Organ":5517,"sete":5518,"sus":5519,"Lista":5520,"dada":5521,"aspec":5522,"funções":5523,"Ponte":5524,"1945":5525,"Assembleia":5526,"68":5527,"lias":5528,"portes":5529,"coro":5530,"nças":5531,"multi":5532,"acadê":5533,"espécie":5534,"territo":5535,"cargo":5536,"Soviética":5537,"compara":5538,"cê":5539,"mado":5540,"conserva":5541,"Primeira":5542,"Alexand":5543,"frente":5544,"província":5545,"agora":5546,"lidera":5547,"políticos":5548,"tável":5549,"registada":5550,"pole":5551,"transporte":5552,"calendário":5553,"pt":5554,"casas":5555,"1985":5556,"âmbi":5557,"autori":5558,"tornando":5559,"fronteira":5560,"cau":5561,"Castro":5562,"denominada":5563,"dí":5564,"costu":5565,"Ali":5566,"mora":5567,"cias":5568,"demons":5569,"America":5570,"reino":5571,"Medi":5572,"diplo":5573,"tus":5574,"registra":5575,"situação":5576,"AN":5577,"Oliv":5578,"vita":5579,"primi":5580,"mês":5581,"vid":5582,"polita":5583,"cum":5584,"):":5585,"xico":5586,"argu":5587,"rael":5588,"1920":5589,"olí":5590,"riedade":5591,"humana":5592,"Gar":5593,"unidade":5594,"general":5595,"humano":5596,"judeus":5597,"Minas":5598,"Governo":5599,"zonas":5600,"peito":5601,"competi":5602,"qualidade":5603,"nucle":5604,"Vol":5605,"vidas":5606,"Ferreira":5607,"ocupação":5608,"cris":5609,"dedi":5610,"frequentemente":5611,"automobi":5612,"postas":5613,"zados":5614,"1988":5615,"bril":5616,"elemento":5617,"mãe":5618,"Tratado":5619,"áticas":5620,"edição":5621,"resol":5622,"membro":5623,"solo":5624,"Salvador":5625,"cujo":5626,"mãos":5627,"composta":5628,"sidades":5629,"respec":5630,"vando":5631,"suge":5632,"leis":5633,"guai":5634,"contem":5635,"revel":5636,"montan":5637,"tornar":5638,"Edu":5639,"tant":5640,"didos":5641,"picos":5642,"43":5643,"eia":5644,"Isso":5645,"utilizado":5646,"$$":5647,"âmbito":5648,"mag":5649,"tic":5650,"abor":5651,"NU":5652,"formado":5653,"patri":5654,"francesa":5655,"moderna":5656,"ocor":5657,"1974":5658,"homen":5659,"dando":5660,"comporta":5661,"culdade":5662,"tude":5663,"bou":5664,"existi":5665,"riano":5666,"econó":5667,"íram":5668,"empen":5669,"óis":5670,"vadas":5671,"bispo":5672,"recu":5673,"panhia":5674,"ulares":5675,"poderia":5676,"téria":5677,"cund":5678,"classe":5679,"próximo":5680,"suce":5681,"Sebas":5682,"nesta":5683,"1982":5684,"imbra":5685,"décadas":5686,"ks":5687,"into":5688,"visto":5689,"filosofia":5690,"//":5691,"Cidade":5692,"disti":5693,"BN":5694,"gh":5695,"deles":5696,"conver":5697,"Grupo":5698,"gás":5699,"bum":5700,"unidades":5701,"Cata":5702,"chefe":5703,"palavras":5704,"rás":5705,"one":5706,"Dist":5707,"Hol":5708,"by":5709,"Guil":5710,"Londres":5711,"ritos":5712,"federa":5713,"azul":5714,"ínas":5715,"fontes":5716,"Oliveira":5717,"Har":5718,"efe":5719,"essen":5720,"ica":5721,"meados":5722,"ventos":5723,"Existem":5724,"und":5725,"trí":5726,"internacionais":5727,"rol":5728,"dir":5729,"Argent":5730,"rápi":5731,"ídas":5732,"ânico":5733,"Ka":5734,"figura":5735,"1981":5736,"trou":5737,"organismos":5738,"Trans":5739,"47":5740,"zu":5741,"Geografia":5742,"Tur":5743,"abando":5744,"Portugues":5745,"Vas":5746,"mann":5747,"Média":5748,"1979":5749,"vados":5750,"provo":5751,"divis":5752,"pintor":5753,"58":5754,"Ger":5755,"números":5756,"Den":5757,"plement":5758,"33":5759,"inclui":5760,"Isa":5761,"novamente":5762,"ftware":5763,"avi":5764,"ró":5765,"gam":5766,"Fin":5767,"semana":5768,"química":5769,"referência":5770,"digo":5771,"paz":5772,"Ita":5773,"Ur":5774,"ocorreu":5775,"instituições":5776,"Econo":5777,"esquer":5778,"haria":5779,"verde":5780,"carre":5781,"PS":5782,"oito":5783,"dela":5784,"usada":5785,"histórico":5786,"padrão":5787,"cesa":5788,"1975":5789,"linhas":5790,"FA":5791,"enten":5792,"Universi":5793,"gramas":5794,"1986":5795,"Agosto":5796,"web":5797,"Frei":5798,"disse":5799,"encontram":5800,"Idade":5801,"serviço":5802,"Cla":5803,"tações":5804,"japonês":5805,"bres":5806,"culares":5807,"vari":5808,"56":5809,"Sim":5810,"Mat":5811,"oro":5812,"ligação":5813,"Ab":5814,"imigra":5815,"ampla":5816,"Pla":5817,"conclu":5818,"autor":5819,"://":5820,"VI":5821,"informação":5822,"imagem":5823,"profissi":5824,"Pas":5825,"Saúde":5826,"econômico":5827,"composto":5828,"reais":5829,"perce":5830,"htt":5831,"afe":5832,"tuais":5833,"posições":5834,"literatura":5835,"Ob":5836,"rapi":5837,"bras":5838,"independente":5839,"efeito":5840,"reno":5841,"plano":5842,"gina":5843,"ji":5844,"estação":5845,"ciclo":5846,"campos":5847,"funciona":5848,"linguagem":5849,"hão":5850,"ky":5851,"vios":5852,"oficiais":5853,"objetos":5854,"versário":5855,"aparece":5856,"jei":5857,"deiras":5858,"exporta":5859,"Ribeira":5860,"processos":5861,"tamanho":5862,"original":5863,"mito":5864,"envi":5865,"acom":5866,"femin":5867,"oxi":5868,"ISBN":5869,"velocidade":5870,"178":5871,"colas":5872,"XVI":5873,"Mou":5874,"dências":5875,"hores":5876,"segurança":5877,"médico":5878,"vê":5879,"cracia":5880,"localidade":5881,"oficialmente":5882,"nero":5883,"von":5884,"águas":5885,"propriedade":5886,"filósofo":5887,"âncias":5888,"Bru":5889,"exto":5890,"escrita":5891,"sou":5892,"nais":5893,"culturais":5894,"amente":5895,"lização":5896,"Coimbra":5897,"bert":5898,"adap":5899,"Europeia":5900,"contr":5901,"Tal":5902,"ema":5903,"1983":5904,"escreveu":5905,"bilhões":5906,"ún":5907,"industrial":5908,"lares":5909,"pros":5910,"tiça":5911,"espi":5912,"ico":5913,"Carval":5914,"comunicação":5915,"CA":5916,"tiveram":5917,"descen":5918,"atmos":5919,"Sistema":5920,"aqui":5921,"feira":5922,"mentar":5923,"valores":5924,"dele":5925,"porâne":5926,"México":5927,"busca":5928,"escravos":5929,"Cl":5930,"caval":5931,"magn":5932,"normalmente":5933,"53":5934,"blo":5935,"Espírito":5936,"ideias":5937,"ardim":5938,"vidos":5939,"mida":5940,"seguir":5941,"algum":5942,"1976":5943,"rações":5944,"partí":5945,"Congresso":5946,"regra":5947,"Brasileiro":5948,"tecnologia":5949,"Va":5950,"compreen":5951,"Ainda":5952,"sue":5953,"Var":5954,"çul":5955,"comuns":5956,"ológico":5957,"razão":5958,"sust":5959,"peças":5960,"vai":5961,"inastia":5962,"Educação":5963,"nico":5964,"Cultural":5965,"çulma":5966,"houve":5967,"don":5968,"vitória":5969,"passado":5970,"arquitetura":5971,"tron":5972,"juntamente":5973,"sona":5974,"tróleo":5975,"cele":5976,"terceiro":5977,"Gerais":5978,"bé":5979,"ocidental":5980,"exclu":5981,"metal":5982,"Argentina":5983,"romanos":5984,"Sebasti":5985,"provavelmente":5986,"ncial":5987,"Dez":5988,"Arqui":5989,"Demo":5990,"musical":5991,"públicas":5992,"eio":5993,"Está":5994,"secre":5995,"Fonte":5996,"gica":5997,"mba":5998,"Mundo":5999,"dice":6000,"ans":6001,"livros":6002,"formal":6003,"evolução":6004,"Ste":6005,"dimento":6006,"Cés":6007,"sele":6008,"pico":6009,"1984":6010,"territórios":6011,"cidente":6012,"demonstra":6013,"Sam":6014,"Cató":6015,"ington":6016,"ficiente":6017,"ocas":6018,"devem":6019,"mbu":6020,"PC":6021,"favor":6022,"estraté":6023,"jogos":6024,"istão":6025,"Gui":6026,"estival":6027,"administração":6028,"radas":6029,"micro":6030,"manifesta":6031,"atores":6032,"alia":6033,"Julho":6034,"pers":6035,"ticamente":6036,"poten":6037,"Robert":6038,"descobri":6039,"Jean":6040,"automobilista":6041,"Bis":6042,"1978":6043,"iago":6044,"comercial":6045,"análise":6046,"noi":6047,"identes":6048,"Verde":6049,"gueira":6050,"ológica":6051,"baixa":6052,"cy":6053,"eda":6054,"produto":6055,"publicado":6056,"gor":6057,"demais":6058,"necess":6059,"rec":6060,"quial":6061,"istério":6062,"candida":6063,"54":6064,"espera":6065,"tz":6066,"Romano":6067,"informações":6068,"usados":6069,"ustria":6070,"inspi":6071,"...":6072,"UN":6073,"Maio":6074,"1987":6075,"Wi":6076,"escu":6077,"sobrevi":6078,"liberdade":6079,"1973":6080,"manter":6081,"ôno":6082,"volucion":6083,"religiosa":6084,"localizado":6085,"expressão":6086,"europeus":6087,"César":6088,"34":6089,"ará":6090,"carbo":6091,"Unidas":6092,"Matriz":6093,"wn":6094,"armas":6095,"álbum":6096,"quei":6097,"passando":6098,"movimentos":6099,"core":6100,"reinado":6101,"timo":6102,"Jose":6103,"cili":6104,"neo":6105,"David":6106,"Hit":6107,"desempen":6108,"muçulma":6109,"perman":6110,"abaixo":6111,"500":6112,"ilus":6113,"Rodri":6114,"fundamental":6115,"propriedades":6116,"extensão":6117,"sejam":6118,"municipal":6119,"urbana":6120,"abran":6121,"fundada":6122,"Bibliografia":6123,"ash":6124,"1900":6125,"estrelas":6126,"horas":6127,"Chris":6128,"batalha":6129,"terres":6130,"Catarina":6131,"decreto":6132,"aram":6133,"assin":6134,"distin":6135,"Ilha":6136,"Jus":6137,"istros":6138,"tianismo":6139,"Abril":6140,"ff":6141,"ill":6142,"diretamente":6143,"unha":6144,"Coreia":6145,"alguma":6146,"hol":6147,"madas":6148,"branco":6149,"expansão":6150,"67":6151,"ristas":6152,"põe":6153,"igual":6154,"indivi":6155,"Entretanto":6156,"aç":6157,"realizado":6158,"pp":6159,"lação":6160,"diante":6161,"Conde":6162,"equipe":6163,"Cou":6164,"Ásia":6165,"câ":6166,"destes":6167,"governador":6168,"Vo":6169,"mudança":6170,"reser":6171,"filha":6172,"pequenas":6173,"tres":6174,"carta":6175,"herme":6176,"reconhe":6177,"máxi":6178,"eroporto":6179,"99":6180,"1964":6181,"Sí":6182,"andes":6183,"desses":6184,"Dis":6185,"ascen":6186,"culturas":6187,"cologia":6188,"povoação":6189,"%),":6190,"Eles":6191,"Organização":6192,"crise":6193,"Futebol":6194,"vice":6195,"menores":6196,"defesa":6197,"alemã":6198,"princípio":6199,"luta":6200,"vale":6201,"conflito":6202,"Gol":6203,"criar":6204,"orias":6205,"caminho":6206,"meno":6207,"Ani":6208,"antigas":6209,"permite":6210,"Sousa":6211,"Sebastião":6212,"roman":6213,"falta":6214,"1962":6215,"Az":6216,"idos":6217,"redes":6218,"facto":6219,"Campo":6220,"crianças":6221,"cará":6222,"historiador":6223,"envolvimento":6224,"Áustria":6225,"altitude":6226,"%.":6227,"edu":6228,"litos":6229,"1969":6230,"Constituição":6231,"dito":6232,"reito":6233,"contrário":6234,"\")":6235,"petróleo":6236,"obri":6237,"protesta":6238,"peão":6239,"amos":6240,"orient":6241,"realizada":6242,"ork":6243,"trabalhos":6244,"Praia":6245,"ric":6246,"vias":6247,"fazem":6248,"Tho":6249,"Porém":6250,"fazendo":6251,"ec":6252,"letra":6253,"conhecidas":6254,"Augusto":6255,"Rus":6256,"solar":6257,"descoberta":6258,"Atualmente":6259,"texto":6260,"médio":6261,"Gré":6262,"ds":6263,"portivo":6264,"Junho":6265,"categoria":6266,"preci":6267,"construída":6268,"Gre":6269,"ílias":6270,"Sab":6271,"preser":6272,"prepara":6273,"James":6274,"reto":6275,"ges":6276,"Campeonato":6277,"are":6278,"tradicionais":6279,"bul":6280,"roquial":6281,"ramente":6282,"Estes":6283,"Aç":6284,"entrada":6285,"ane":6286,"estí":6287,"neu":6288,"irmão":6289,"será":6290,"matéria":6291,"dividido":6292,"IN":6293,"liano":6294,"primento":6295,"cópi":6296,"operação":6297,"cores":6298,"nimo":6299,"xas":6300,"caop":6301,"respeito":6302,"ficial":6303,"método":6304,"150":6305,"57":6306,"”,":6307,"turismo":6308,"tenção":6309,"Il":6310,"defin":6311,"sobretudo":6312,"51":6313,"conseguiu":6314,"tema":6315,"restri":6316,"explica":6317,"Guilherme":6318,"assu":6319,"DE":6320,"mata":6321,"olos":6322,"Ve":6323,"ião":6324,"aldeia":6325,"destaque":6326,"avan":6327,"1967":6328,"Outubro":6329,"Huma":6330,"iné":6331,"sovi":6332,"usando":6333,"funcion":6334,"escolh":6335,"1971":6336,"problema":6337,"isas":6338,"chamados":6339,"Rich":6340,"tanha":6341,"teriais":6342,"semi":6343,"seguida":6344,"cações":6345,"compon":6346,"Comuni":6347,"mudanças":6348,"gó":6349,"íns":6350,"subst":6351,"ônico":6352,"George":6353,"grafo":6354,"Ag":6355,"nambu":6356,"adqui":6357,"apoia":6358,"ala":6359,"longa":6360,"fenô":6361,"berg":6362,"177":6363,"perial":6364,"equipa":6365,"turo":6366,"grejas":6367,"XVII":6368,"Grécia":6369,"Jer":6370,"comando":6371,"níveis":6372,"Esse":6373,"semelhante":6374,"suí":6375,"religioso":6376,"Charles":6377,"fór":6378,"urban":6379,"quilô":6380,"Ocidental":6381,"dam":6382,"rez":6383,"Atlântico":6384,"Pereira":6385,"pecu":6386,"populares":6387,"tidos":6388,"nações":6389,"Portuguesa":6390,"abora":6391,"secund":6392,"dirigi":6393,"canadense":6394,"áticos":6395,"profun":6396,"iva":6397,"tens":6398,"1951":6399,"dependência":6400,"Ela":6401,"modi":6402,"continente":6403,"Gonç":6404,"gel":6405,"line":6406,"1968":6407,"filmes":6408,"Enquanto":6409,"ínsula":6410,"Até":6411,"gí":6412,"”.":6413,"arre":6414,"sau":6415,"eletr":6416,"1944":6417,"Tro":6418,"distância":6419,"Flo":6420,"Vis":6421,"capita":6422,"efeitos":6423,"dora":6424,"constituição":6425,"objeto":6426,"rapidamente":6427,"Del":6428,"esfor":6429,"contexto":6430,"ficados":6431,"famílias":6432,"escala":6433,"chas":6434,"Liber":6435,"cânica":6436,"quês":6437,"Grã":6438,"52":6439,"midade":6440,"evento":6441,"tein":6442,"veri":6443,"históricos":6444,"ides":6445,"terr":6446,"definição":6447,"lógica":6448,"começaram":6449,"captura":6450,"elec":6451,"Arte":6452,"ét":6453,"questão":6454,"liza":6455,"vermelho":6456,"1977":6457,"esquerda":6458,"oposição":6459,"compro":6460,"Leo":6461,"Católica":6462,"inhas":6463,"ultra":6464,"1961":6465,"ctor":6466,"íba":6467,"Vicente":6468,"introduzi":6469,"Hitler":6470,"localizada":6471,"sexu":6472,"ântica":6473,"agregada":6474,"professor":6475,"Egi":6476,"Gil":6477,"logos":6478,"Ind":6479,"ude":6480,"plant":6481,"cristãos":6482,"participação":6483,"Jac":6484,"capela":6485,"amea":6486,"Branco":6487,"imedia":6488,"ev":6489,"dicos":6490,"Fundação":6491,"oteca":6492,"nios":6493,"1972":6494,"absolu":6495,"1936":6496,"mbo":6497,"elevada":6498,"veni":6499,"pensamento":6500,"matemático":6501,"contemporâne":6502,"éticos":6503,"taria":6504,"bido":6505,"pessoal":6506,"Política":6507,"seres":6508,"nomeado":6509,"1939":6510,"ológicos":6511,"fabe":6512,"argentino":6513,"manti":6514,"sui":6515,"televisão":6516,"42":6517,"tese":6518,"1963":6519,"Sub":6520,"Torre":6521,"formada":6522,"alemães":6523,"sivamente":6524,"tratado":6525,"molé":6526,"unos":6527,"Natura":6528,"meios":6529,"diferente":6530,"Senhor":6531,"Outras":6532,"mática":6533,"66":6534,"bene":6535,"caça":6536,"1965":6537,"Carta":6538,"deixou":6539,"ok":6540,"tindo":6541,"Nobel":6542,"od":6543,"liter":6544,"invasão":6545,"Economia":6546,"altera":6547,"passaram":6548,"indígenas":6549,"Feira":6550,"talidade":6551,"materiais":6552,"concei":6553,"98":6554,"químico":6555,"Alexandre":6556,"ava":6557,"trata":6558,"nobre":6559,"lide":6560,"1966":6561,"Thomas":6562,"1918":6563,"evolu":6564,"contém":6565,"bens":6566,"ína":6567,"1941":6568,"neer":6569,"Brasileira":6570,"bairro":6571,"gente":6572,"RA":6573,"campanha":6574,"Exército":6575,"clí":6576,"tismo":6577,"culto":6578,"bac":6579,"Che":6580,"inse":6581,"inva":6582,"Prêmio":6583,"tir":6584,"difí":6585,"doutri":6586,"hal":6587,"lândia":6588,"Vitória":6589,"crítica":6590,"difi":6591,"nega":6592,"usar":6593,"Administra":6594,"ferências":6595,"rainha":6596,"partida":6597,"brasileiros":6598,"aju":6599,"ld":6600,"ward":6601,"sivo":6602,"triz":6603,"Países":6604,"necessidade":6605,"interna":6606,"fundação":6607,"composição":6608,"software":6609,"sangue":6610,"vino":6611,"âng":6612,"pequenos":6613,"Bor":6614,"Almei":6615,"destaca":6616,"EE":6617,"cober":6618,"inferior":6619,"Cri":6620,"Nu":6621,"dol":6622,"necessário":6623,"distribuição":6624,"vidade":6625,"mete":6626,"bara":6627,"aria":6628,"diam":6629,"confir":6630,"lome":6631,"Concei":6632,"mexi":6633,"rel":6634,"rele":6635,"ísticos":6636,"1948":6637,"acabou":6638,"Dezembro":6639,"garo":6640,"térias":6641,"litoral":6642,"pedra":6643,"posa":6644,"sagra":6645,"hu":6646,"estões":6647,"inicialmente":6648,"citos":6649,"nterior":6650,"1933":6651,"incorpo":6652,"compostos":6653,"mante":6654,"Estra":6655,"fabrica":6656,"alterna":6657,"Braga":6658,"artistas":6659,"Beira":6660,"queda":6661,"cruz":6662,"latim":6663,"resultados":6664,"comerciais":6665,"Ku":6666,"prata":6667,"memória":6668,"iniciou":6669,"indivíduos":6670,"símbolo":6671,"GE":6672,"TV":6673,"UA":6674,"pesca":6675,"poucos":6676,"floresta":6677,"Lat":6678,"dólares":6679,"gãos":6680,"1958":6681,"Bio":6682,"emo":6683,"corrente":6684,"empresário":6685,"idio":6686,"técnicas":6687,"Pan":6688,"cál":6689,"sant":6690,"Ferro":6691,"Israel":6692,"Ox":6693,"gênero":6694,"processa":6695,"quilômetros":6696,"Neste":6697,"ben":6698,"Jogos":6699,"mono":6700,"terceira":6701,"obser":6702,"didas":6703,"presentes":6704,"determin":6705,"Filipe":6706,"Egito":6707,"%,":6708,"atle":6709,"certo":6710,"Dar":6711,"Dou":6712,"Sar":6713,"Algumas":6714,"veio":6715,"Alto":6716,"Vir":6717,"foto":6718,"públicos":6719,"íbli":6720,"cidas":6721,"1946":6722,"Mili":6723,"construído":6724,"morreu":6725,"Joaqu":6726,"deiro":6727,"resposta":6728,"ford":6729,"unidense":6730,"infra":6731,"tis":6732,"dese":6733,"AD":6734,"rino":6735,"gradu":6736,"Bro":6737,"Mc":6738,"enças":6739,"lados":6740,"Muitos":6741,"dãos":6742,"né":6743,"enor":6744,"prí":6745,"Setembro":6746,"pósi":6747,"pin":6748,"tantes":6749,"Poli":6750,"1943":6751,"Hel":6752,"hel":6753,"dessas":6754,"resistência":6755,"advo":6756,"madeira":6757,"dição":6758,"escrito":6759,"extrema":6760,"homenagem":6761,"criou":6762,"americanos":6763,"capaz":6764,"riz":6765,"líqui":6766,"tornaram":6767,"polis":6768,"procu":6769,"Sociedade":6770,"encontrar":6771,"celebra":6772,"2022":6773,"disco":6774,"1959":6775,"planta":6776,"tentativa":6777,"sel":6778,"sive":6779,"tenista":6780,"Bur":6781,"1911":6782,"nascimento":6783,"nenhum":6784,"bunal":6785,"politana":6786,"nesse":6787,"íb":6788,"prov":6789,"formando":6790,"jovens":6791,"ker":6792,"tua":6793,"autores":6794,"estima":6795,"estadual":6796,"ataque":6797,"raram":6798,"impa":6799,"Desenvolvimento":6800,"exterior":6801,"dispon":6802,"landa":6803,"tropi":6804,"chado":6805,"1942":6806,"pôs":6807,"Gen":6808,"óxi":6809,"vais":6810,"acompanha":6811,"teatro":6812,"estrela":6813,"termina":6814,"Festa":6815,"we":6816,"desenvolveu":6817,"máqu":6818,"ted":6819,"comportamento":6820,"41":6821,"Hos":6822,"topo":6823,"inicial":6824,"código":6825,"cabeça":6826,"jul":6827,"conju":6828,"fix":6829,"filos":6830,"Cabo":6831,"Vene":6832,"seca":6833,"prima":6834,"celular":6835,"apresentam":6836,"Popular":6837,"ciclista":6838,"espal":6839,"95":6840,"Espa":6841,"íssi":6842,"bru":6843,"reduzi":6844,"Capi":6845,"Leon":6846,"drama":6847,"Cant":6848,"1947":6849,"austra":6850,"ílio":6851,"nego":6852,"consumo":6853,"Junta":6854,"monar":6855,"AC":6856,".)":6857,"proto":6858,"tribu":6859,"guitar":6860,"design":6861,"88":6862,"Anto":6863,"Plan":6864,"formam":6865,"jovem":6866,"Palácio":6867,"uí":6868,"Ál":6869,"enfre":6870,"Oce":6871,"fundado":6872,"austrí":6873,"adá":6874,"surgiu":6875,"realidade":6876,"casamento":6877,"partamento":6878,"atraves":6879,"ati":6880,"hipó":6881,"Lar":6882,"Ilhas":6883,"Gi":6884,"Ke":6885,"Geo":6886,"cú":6887,"tratamento":6888,"impres":6889,"Civil":6890,"teó":6891,"fiz":6892,"ficando":6893,"computador":6894,"Sta":6895,"Paran":6896,"1938":6897,"07":6898,"Wash":6899,"partilha":6900,"grega":6901,"Isto":6902,"partículas":6903,"teis":6904,"guarda":6905,"aspectos":6906,"esca":6907,"produzir":6908,"fusão":6909,"ânio":6910,"proi":6911,"persona":6912,"colonial":6913,"árabe":6914,"win":6915,"reta":6916,"1932":6917,"diversidade":6918,"armaz":6919,"apren":6920,"alimentos":6921,"1949":6922,"André":6923,"71":6924,"guar":6925,"variedade":6926,"posse":6927,"Santiago":6928,"IP":6929,"Int":6930,"cipl":6931,"império":6932,"monu":6933,"soldados":6934,"Solar":6935,"franceses":6936,"ativa":6937,"ritual":6938,"éis":6939,"conforme":6940,"implement":6941,"matemática":6942,"influenci":6943,"ón":6944,"centros":6945,"Baix":6946,"coisas":6947,"Washington":6948,"iás":6949,"quete":6950,"Alfre":6951,"nasceu":6952,"segue":6953,"tradições":6954,"Richard":6955,"han":6956,"1937":6957,"rodo":6958,"viagem":6959,"corte":6960,"Duque":6961,"trabalhadores":6962,"padro":6963,"extin":6964,"vore":6965,"urgo":6966,"classificação":6967,"1922":6968,"Faculdade":6969,"dança":6970,"animal":6971,"Av":6972,"Jor":6973,"eix":6974,"úr":6975,"face":6976,"Cada":6977,"ER":6978,"aves":6979,"expli":6980,"mortos":6981,"transi":6982,"melhores":6983,"entos":6984,"simb":6985,"crescente":6986,"Oriental":6987,"científica":6988,"atmosfera":6989,"naval":6990,"bora":6991,"Bretanha":6992,"Eduardo":6993,"plu":6994,"ampli":6995,"edifício":6996,"%)":6997,"programas":6998,"ganhou":6999,"Teatro":7000,"lançado":7001,"www":7002,"Uru":7003,"pus":7004,"unda":7005,"Estas":7006,"Lago":7007,"princípios":7008,"Isabel":7009,"riais":7010,"futuro":7011,"judi":7012,"constituído":7013,"Almeida":7014,"1956":7015,"encontrados":7016,"Pin":7017,"dy":7018,"Canadá":7019,"rões":7020,"vesse":7021,"circun":7022,"constante":7023,"artigo":7024,"golpe":7025,"deres":7026,"alfabe":7027,"Loc":7028,"moderno":7029,"terminou":7030,"Distrito":7031,"bat":7032,"inci":7033,"peu":7034,"Wor":7035,"cismo":7036,"mero":7037,"passar":7038,"Acade":7039,"ório":7040,"regional":7041,"medie":7042,"particularmente":7043,"legal":7044,"1934":7045,"geração":7046,"alte":7047,"1914":7048,"chos":7049,"consum":7050,"consiste":7051,"Nesse":7052,"delas":7053,"baseada":7054,"fale":7055,"amor":7056,"esposa":7057,"navios":7058,"federal":7059,"feitas":7060,"mistura":7061,"existentes":7062,"Irlanda":7063,"eligi":7064,"''":7065,"69":7066,"ID":7067,"Prí":7068,"civi":7069,"chel":7070,"rib":7071,"Que":7072,"vistas":7073,"écia":7074,"inú":7075,"ciências":7076,"SA":7077,"ku":7078,"conte":7079,"votos":7080,"age":7081,"eleição":7082,"Conceição":7083,"Dias":7084,"portos":7085,"1926":7086,"Contudo":7087,"tários":7088,"áu":7089,"cidadãos":7090,"prensa":7091,"Marco":7092,"Pernambu":7093,"Jardim":7094,"aste":7095,"confi":7096,"1925":7097,"anual":7098,"dizer":7099,"papa":7100,"totalmente":7101,"Wal":7102,"cara":7103,"diferenças":7104,"continuou":7105,"Colo":7106,"Th":7107,"utilizada":7108,"cológi":7109,"oceano":7110,"concor":7111,"museu":7112,"nenhuma":7113,"recupera":7114,"dig":7115,"consequ":7116,"paró":7117,"preten":7118,"questões":7119,"vermel":7120,"Peter":7121,"1901":7122,"elétrica":7123,"técnica":7124,"Kar":7125,"tista":7126,"digi":7127,"Secre":7128,"jes":7129,"rock":7130,"gamento":7131,"discipl":7132,"ácido":7133,"deos":7134,"doeste":7135,"comanda":7136,"ory":7137,"emer":7138,"religiosas":7139,"Constant":7140,"apoi":7141,"europeia":7142,"ms":7143,"vinho":7144,"simil":7145,"bios":7146,"Caval":7147,"nordeste":7148,"restau":7149,"lite":7150,"terá":7151,"Ministério":7152,"cô":7153,"quela":7154,"aqueles":7155,"ficações":7156,"Devido":7157,"religiões":7158,"Metro":7159,"limites":7160,"Sha":7161,"pto":7162,"Est":7163,"ganha":7164,"próprios":7165,"1917":7166,"adamente":7167,"1957":7168,"dge":7169,"class":7170,"Cruzeiro":7171,"acadêmico":7172,"respectivamente":7173,"flo":7174,"camada":7175,"proce":7176,"Companhia":7177,"volume":7178,"partidos":7179,"exploração":7180,"nis":7181,"polon":7182,"direita":7183,"Oriente":7184,"engenheiro":7185,"Religi":7186,"nciou":7187,"carreira":7188,"centemente":7189,"mônio":7190,"inclusive":7191,"fins":7192,"haviam":7193,"autoridade":7194,"cta":7195,"sent":7196,"cora":7197,"troca":7198,"métodos":7199,"cão":7200,"emora":7201,"comprimento":7202,"atuais":7203,"computadores":7204,"],":7205,"entrou":7206,"Pesso":7207,"vindo":7208,"Povo":7209,"Joaquim":7210,"Ai":7211,"Ko":7212,"revista":7213,"Nordeste":7214,"tional":7215,"itas":7216,"grau":7217,"assem":7218,"Frank":7219,"ológicas":7220,"eixo":7221,"1910":7222,"expul":7223,"procura":7224,"1928":7225,"gança":7226,"Artes":7227,"1929":7228,"Mus":7229,"anar":7230,"milhares":7231,"ízes":7232,"textos":7233,"doenças":7234,"bida":7235,"admi":7236,"temperaturas":7237,"Açores":7238,"Cro":7239,"tava":7240,"Gas":7241,"Via":7242,"top":7243,"nomia":7244,"fogo":7245,"()":7246,"nias":7247,"1954":7248,"59":7249,"ciano":7250,"bibli":7251,"trias":7252,"histórica":7253,"pobre":7254,"nização":7255,"color":7256,"Academia":7257,"Sy":7258,"fatores":7259,"ensa":7260,"culação":7261,"considerados":7262,"projetos":7263,"instituição":7264,"Nú":7265,"ferra":7266,"renda":7267,"naz":7268,"encontrado":7269,"Cli":7270,"Ki":7271,"Públi":7272,"igrejas":7273,"nove":7274,"cher":7275,"mensa":7276,"gir":7277,"Estu":7278,"chegar":7279,"300":7280,"Ior":7281,"finais":7282,"áto":7283,"ntou":7284,"experiência":7285,"Dr":7286,"1953":7287,"polo":7288,"rural":7289,"frag":7290,"Press":7291,"Cali":7292,"Lam":7293,"xes":7294,"teorias":7295,"1955":7296,"elim":7297,"ney":7298,"consul":7299,"obs":7300,"Praça":7301,"revolucion":7302,"1935":7303,"elabora":7304,"documentos":7305,"Lan":7306,"XXI":7307,"pont":7308,"táveis":7309,"Festival":7310,"pat":7311,"taleza":7312,"çam":7313,"divul":7314,"tronomia":7315,"Março":7316,"ped":7317,"inar":7318,"conven":7319,"verão":7320,"honra":7321,"1864":7322,"Paraná":7323,"formou":7324,"célula":7325,"lâ":7326,"él":7327,"1924":7328,"anteriores":7329,"xim":7330,"1919":7331,"Luz":7332,"IA":7333,"Tr":7334,"nicos":7335,"1890":7336,"garant":7337,"http":7338,"Bat":7339,"revolução":7340,"Suécia":7341,"Mis":7342,"égio":7343,"adul":7344,"tânico":7345,"comunidades":7346,"união":7347,"tér":7348,"construir":7349,"proteínas":7350,"quarto":7351,"açú":7352,"pira":7353,"sustent":7354,"onda":7355,"destas":7356,"Editora":7357,"SP":7358,"proxi":7359,"urbano":7360,"derrota":7361,"estrangeiros":7362,"MA":7363,"mista":7364,"xá":7365,"yer":7366,"trons":7367,"Boa":7368,"equival":7369,"organizações":7370,"estem":7371,"77":7372,"Cel":7373,"obter":7374,"Barcel":7375,"dinheiro":7376,"doença":7377,"ânicas":7378,"divisões":7379,"invent":7380,"gadas":7381,"160":7382,"membra":7383,"noite":7384,"Histó":7385,"ches":7386,"lím":7387,"Micha":7388,"fundador":7389,"Dio":7390,"Novembro":7391,"Guarda":7392,"transferi":7393,"Tom":7394,"estrada":7395,"associ":7396,"refle":7397,"Hospital":7398,"Trabal":7399,"mandato":7400,"arro":7401,"ore":7402,"çando":7403,"Federa":7404,"Castela":7405,"Dina":7406,"atrás":7407,"diferença":7408,"situada":7409,"niano":7410,"espec":7411,"1927":7412,"completamente":7413,"imigrantes":7414,"difícil":7415,"compra":7416,"vera":7417,"acaba":7418,"situa":7419,"possibilidade":7420,"\"),":7421,"ânicos":7422,"deias":7423,"praticamente":7424,"sho":7425,"Paz":7426,"campeão":7427,"Português":7428,"tinho":7429,"reação":7430,"rotei":7431,"umin":7432,"Outro":7433,"clássica":7434,"procla":7435,"uns":7436,"finalmente":7437,"1931":7438,"anato":7439,"tério":7440,"Parlamento":7441,"Paraíba":7442,"Internet":7443,"University":7444,"gno":7445,"república":7446,"residência":7447,"hada":7448,"reiros":7449,"poderes":7450,"Dani":7451,"Tim":7452,"nologia":7453,"destacam":7454,"gráficas":7455,"Glo":7456,"espanhola":7457,"educa":7458,"Ac":7459,"Mem":7460,"redo":7461,"rebel":7462,"deslo":7463,"rosa":7464,"províncias":7465,"dominante":7466,"Carvalho":7467,"Joseph":7468,"78":7469,"Bol":7470,"Lima":7471,"1952":7472,"populações":7473,"Bus":7474,"gon":7475,"esia":7476,"clusão":7477,"Miran":7478,"significado":7479,"Pó":7480,"coração":7481,"faixa":7482,"íam":7483,"decisão":7484,"reformas":7485,"moda":7486,"anteriormente":7487,"regras":7488,"Militar":7489,"Douro":7490,"EN":7491,"Elei":7492,"passagem":7493,"Henri":7494,"negó":7495,"católicos":7496,"moléculas":7497,"fla":7498,"sabe":7499,"corpos":7500,"religiosos":7501,"63":7502,"tística":7503,"trico":7504,"Johan":7505,"conceitos":7506,"marí":7507,"Pou":7508,"redor":7509,"nau":7510,"my":7511,"noroeste":7512,"Iorque":7513,"Ol":7514,"gico":7515,"Campos":7516,"órgãos":7517,"duzir":7518,"ny":7519,"imagens":7520,"istia":7521,"burgo":7522,"Martinho":7523,"epi":7524,"expedi":7525,"roso":7526,"milhão":7527,"Bento":7528,"IC":7529,"margem":7530,"possibili":7531,"mus":7532,"fiel":7533,"entretanto":7534,"1923":7535,"solução":7536,"Príncipe":7537,"altas":7538,"assinado":7539,"meros":7540,"deo":7541,"resto":7542,"Comun":7543,"clássico":7544,"carbono":7545,"ameaça":7546,"Pernambuco":7547,"king":7548,"erre":7549,"riado":7550,"alizada":7551,"Todos":7552,"ght":7553,"yle":7554,"CD":7555,"Pena":7556,"Comissão":7557,"britânicos":7558,"Vasco":7559,"príncipe":7560,"fós":7561,"endas":7562,"consequência":7563,"dividida":7564,"Michael":7565,"Oeste":7566,"tto":7567,"sado":7568,"bai":7569,"ncio":7570,"práticas":7571,"Município":7572,"agrícola":7573,"120":7574,"levando":7575,"ricamente":7576,"comemora":7577,"viária":7578,"propa":7579,"recom":7580,"predomin":7581,"meia":7582,"global":7583,"caráter":7584,"absor":7585,"açúcar":7586,"líderes":7587,"dentre":7588,"Maior":7589,"infant":7590,"ústrias":7591,"rita":7592,"emis":7593,"viu":7594,"correntes":7595,"constitui":7596,"1º":7597,"Mário":7598,"pun":7599,"mascul":7600,"denominado":7601,"estígios":7602,"terrâne":7603,"Fra":7604,"Mul":7605,"encer":7606,"seriam":7607,"bomb":7608,"Ciências":7609,"Ribeiro":7610,"Ze":7611,"afas":7612,"elevado":7613,"Alberto":7614,"Desambi":7615,"utilizados":7616,"Roberto":7617,"classes":7618,"Bla":7619,"suficiente":7620,"enses":7621,"ônias":7622,"som":7623,"carne":7624,"exemplos":7625,"constituída":7626,"aplicação":7627,"Eventos":7628,"escritos":7629,"deveria":7630,"Baixos":7631,"perda":7632,"ficaram":7633,"estabeleceu":7634,"Primeiro":7635,"aces":7636,"mbia":7637,"austríaco":7638,"dinastia":7639,"chegada":7640,"libera":7641,"62":7642,"Olím":7643,"zas":7644,"nutri":7645,"apa":7646,"uras":7647,"regular":7648,"órgão":7649,"ambas":7650,"aboli":7651,"apli":7652,"transmi":7653,"potencial":7654,"Pré":7655,"gy":7656,"destina":7657,"intelec":7658,"1921":7659,"Engen":7660,"bom":7661,"emprego":7662,"Bras":7663,"hei":7664,"temente":7665,"TA":7666,"rência":7667,"nicas":7668,"Espe":7669,"abs":7670,"melhora":7671,"Constantino":7672,"Fol":7673,"Lín":7674,"recor":7675,"estatu":7676,"certos":7677,"venida":7678,"baseado":7679,"povoado":7680,"ordena":7681,"Velha":7682,"hando":7683,"alunos":7684,"ances":7685,"cui":7686,"edifícios":7687,"depu":7688,"dimen":7689,"siona":7690,"Sac":7691,"preside":7692,"actual":7693,"concentração":7694,"deuses":7695,"evitar":7696,"realizar":7697,"Cur":7698,"condição":7699,"semanas":7700,"aé":7701,"sobera":7702,"Gomes":7703,"republi":7704,"peça":7705,"atis":7706,"culdades":7707,"calor":7708,"máticas":7709,"advogado":7710,"teles":7711,"característica":7712,"risco":7713,"medidas":7714,"fizeram":7715,"rejei":7716,"cionado":7717,"Hou":7718,"Esses":7719,"rosso":7720,"Leão":7721,"representação":7722,"destino":7723,"fortes":7724,"imperial":7725,"Ph":7726,"cista":7727,"éticas":7728,"Mato":7729,"Angra":7730,"utilização":7731,"conflitos":7732,"nuclear":7733,"profissional":7734,"roteirista":7735,"rádio":7736,"regula":7737,"Angola":7738,"Densidade":7739,"hes":7740,"Bragança":7741,"vence":7742,"Pel":7743,"complexo":7744,"SS":7745,"bela":7746,"vina":7747,"sudoeste":7748,"Bair":7749,"mantém":7750,"Austrá":7751,"gestão":7752,"hún":7753,"soma":7754,"próxima":7755,"lida":7756,"moni":7757,"escritora":7758,"flores":7759,"agra":7760,"carga":7761,"certa":7762,"espanhóis":7763,"Fla":7764,"guidade":7765,"externa":7766,"chegaram":7767,"gregos":7768,"dinamar":7769,"well":7770,"1912":7771,"Inf":7772,"Dom":7773,"voltou":7774,"Uruguai":7775,"moto":7776,"Pico":7777,"proteção":7778,"61":7779,"inver":7780,"tit":7781,"Napole":7782,"Marcel":7783,"Pode":7784,"quin":7785,"fortemente":7786,"títulos":7787,"Rodrigues":7788,"mula":7789,"incent":7790,"vora":7791,"genera":7792,"frequência":7793,"crática":7794,"aborda":7795,"cerdo":7796,"Desta":7797,"leu":7798,"tenham":7799,"italiana":7800,"manteve":7801,"Austrália":7802,"ek":7803,"proposta":7804,"Faz":7805,"Aris":7806,"sá":7807,"altos":7808,"terem":7809,"IBGE":7810,"cristã":7811,"colh":7812,"Martins":7813,"Sá":7814,"Van":7815,"York":7816,"ther":7817,"comu":7818,"irmã":7819,"ónia":7820,"Marinha":7821,"conteú":7822,"Estadual":7823,"inglesa":7824,"Hor":7825,"alu":7826,"gador":7827,"influencia":7828,"precipi":7829,"Latina":7830,"Tre":7831,"nessa":7832,"yo":7833,"moeda":7834,"ficam":7835,"sexual":7836,"cristianismo":7837,"descendentes":7838,"neerlandês":7839,"quistas":7840,"tização":7841,"hado":7842,"letras":7843,"ficamente":7844,"lhes":7845,"assumiu":7846,"UE":7847,"esten":7848,"democracia":7849,"atório":7850,"89":7851,"trato":7852,"adequ":7853,"Essas":7854,"Mau":7855,"cles":7856,"peixes":7857,"indivíduo":7858,"componentes":7859,"Reis":7860,"engenharia":7861,"heiros":7862,"ônicos":7863,"indústrias":7864,"artista":7865,"Alegre":7866,"domini":7867,"Sin":7868,"entais":7869,"time":7870,"ulação":7871,"CP":7872,"zadas":7873,"famili":7874,"79":7875,"reci":7876,"rua":7877,"Nesta":7878,"disposi":7879,"far":7880,"Paroquial":7881,"chamadas":7882,"usadas":7883,"Palm":7884,"ficadas":7885,"possuía":7886,"Coro":7887,"filosó":7888,"asta":7889,"pado":7890,"ntese":7891,"Mari":7892,"divin":7893,"pélago":7894,"responsa":7895,"abertura":7896,"sueco":7897,"demi":7898,"reconhecimento":7899,"receber":7900,"mall":7901,"planí":7902,"Bandeira":7903,"09":7904,"fundo":7905,"Pá":7906,"enso":7907,"atenção":7908,"podendo":7909,"opini":7910,"contato":7911,"Fam":7912,"Mú":7913,"bon":7914,"trôno":7915,"limite":7916,"econômicas":7917,"Tribunal":7918,"planetas":7919,"asi":7920,"antro":7921,"sada":7922,"Concel":7923,"adquiri":7924,"gelo":7925,"Fevereiro":7926,"licas":7927,"branca":7928,"amplamente":7929,"cai":7930,"Direito":7931,"numer":7932,"ataques":7933,"guerras":7934,"aque":7935,"vér":7936,"piter":7937,"aliment":7938,"auxi":7939,"Def":7940,"veí":7941,"EUA":7942,"ONU":7943,"jar":7944,"ers":7945,"mudou":7946,"cidentais":7947,"Biblioteca":7948,"Antes":7949,"Aeroporto":7950,"ativo":7951,"mê":7952,"rota":7953,"Servi":7954,"pica":7955,"Mace":7956,"gene":7957,"rense":7958,"ntar":7959,"desemb":7960,"Escó":7961,"vilh":7962,"biologia":7963,"alizado":7964,"On":7965,"ramento":7966,"recentemente":7967,"mecânica":7968,"Berlim":7969,"permaneceu":7970,"corresponde":7971,"Jan":7972,"vigor":7973,"parlamento":7974,"Lua":7975,"agrícolas":7976,"Fá":7977,"conec":7978,"oriental":7979,"Ini":7980,"ling":7981,"refor":7982,"lido":7983,"vivos":7984,"exposição":7985,"Anterior":7986,"odos":7987,"reis":7988,"planeja":7989,"Dinamarca":7990,"vinte":7991,"tração":7992,"consider":7993,"controla":7994,"óxido":7995,"bin":7996,"nota":7997,"doutrina":7998,"ire":7999,"zant":8000,"consoli":8001,"famoso":8002,"nê":8003,"civis":8004,"dimentos":8005,"obrig":8006,"ring":8007,"capazes":8008,"We":8009,"ose":8010,"mecan":8011,"completa":8012,"Ermida":8013,"saté":8014,"monte":8015,"determinado":8016,"chinês":8017,"Velho":8018,"desenvolvido":8019,"integrado":8020,"declarou":8021,"Amb":8022,"festas":8023,"adora":8024,"Independência":8025,"Outra":8026,"modernos":8027,"semelhantes":8028,"Ouro":8029,"sudeste":8030,"mith":8031,"Sara":8032,"aberto":8033,"extinção":8034,"exão":8035,"serra":8036,"aumentar":8037,"inaugurado":8038,"individu":8039,"voa":8040,"Moder":8041,"Casal":8042,"vírus":8043,"costuma":8044,"87":8045,"Ira":8046,"estabelecer":8047,"400":8048,"Ap":8049,"pura":8050,"Estação":8051,"montanhas":8052,"terrestre":8053,"impacto":8054,"astrôno":8055,"combus":8056,"situado":8057,"pecuária":8058,"UF":8059,"small":8060,"Convento":8061,"geiros":8062,"teira":8063,"realizaram":8064,"afirmou":8065,"coroa":8066,"Lí":8067,"istos":8068,"governos":8069,"Rainha":8070,"surgimento":8071,"Hon":8072,"residentes":8073,"Camp":8074,"responsáveis":8075,"MS":8076,"Norue":8077,"mole":8078,"wo":8079,"eru":8080,"cabo":8081,"vivem":8082,"prefeito":8083,"cífico":8084,"inimi":8085,"Auto":8086,"Escócia":8087,"teu":8088,"paral":8089,"templo":8090,"Liga":8091,"ônimo":8092,"Peru":8093,"fossem":8094,"escravi":8095,"muçulmanos":8096,"1916":8097,"eletro":8098,"minas":8099,"simplesmente":8100,"Guimar":8101,"\").":8102,"diram":8103,"fante":8104,"modelos":8105,"enorme":8106,"paul":8107,"federação":8108,"84":8109,"Inte":8110,"1915":8111,"Alente":8112,"feitura":8113,"Hung":8114,"acer":8115,"estações":8116,"person":8117,"estende":8118,"graças":8119,"jurí":8120,"Die":8121,"espacial":8122,"germ":8123,"Pelo":8124,"permitiu":8125,"ntemente":8126,"alves":8127,"peso":8128,"tórias":8129,"Gua":8130,"íbrio":8131,"Oli":8132,"Rela":8133,"Cara":8134,"Teoria":8135,"liberal":8136,"Oceano":8137,"Brasília":8138,"pilo":8139,"índice":8140,"Fal":8141,"recente":8142,"ruas":8143,"guaio":8144,"Tec":8145,"padrões":8146,"seguindo":8147,"Pierre":8148,"riqueza":8149,"Louis":8150,"Guimarães":8151,"cionar":8152,"sing":8153,"vores":8154,"chal":8155,"infini":8156,"limitado":8157,"ancestra":8158,"Wa":8159,"ginas":8160,"ulado":8161,"Escri":8162,"velas":8163,"Hungria":8164,"legi":8165,"Maia":8166,"fala":8167,"europeu":8168,"xad":8169,"viário":8170,"bandas":8171,"ficiência":8172,"valia":8173,"Bom":8174,"pesquisas":8175,"competição":8176,"Gonçalves":8177,"Abra":8178,"Júpiter":8179,"Eleições":8180,"ciam":8181,"mir":8182,"cartas":8183,"universal":8184,"disputa":8185,"transição":8186,"PE":8187,"milho":8188,"síntese":8189,"aquele":8190,"dinâmica":8191,"arquiteto":8192,"ritmo":8193,"compa":8194,"bases":8195,"seguido":8196,"belga":8197,"próprias":8198,"Sobre":8199,"marin":8200,"proveni":8201,"fazia":8202,"crítico":8203,"Lau":8204,"acel":8205,"usam":8206,"atô":8207,"feros":8208,"jogadores":8209,"africanos":8210,"Cine":8211,"ctos":8212,"redução":8213,"exo":8214,"bati":8215,"florestas":8216,"riados":8217,"rup":8218,"trabalhar":8219,"Exem":8220,"originalmente":8221,"Banco":8222,"vestígios":8223,"dens":8224,"traz":8225,"metria":8226,"períodos":8227,"1895":8228,"cientistas":8229,"produzido":8230,"Americana":8231,"Pequ":8232,"publicou":8233,"lançamento":8234,"sofreu":8235,"extremamente":8236,"BR":8237,"daquele":8238,"discu":8239,"Figu":8240,"Hoje":8241,"dramatur":8242,"podemos":8243,"científico":8244,"alcança":8245,"suíço":8246,"gíp":8247,"Pl":8248,"nciais":8249,"conside":8250,"universidades":8251,"extinto":8252,"instrumentos":8253,"paróquia":8254,"isol":8255,"encar":8256,"seg":8257,"1913":8258,"existente":8259,"comerci":8260,"Mosteiro":8261,"enzi":8262,"saber":8263,"més":8264,"bil":8265,"dismo":8266,"Avenida":8267,"clubes":8268,"Juan":8269,"crença":8270,"desenvolver":8271,"1908":8272,"quistão":8273,"vant":8274,"parla":8275,"cessão":8276,"Santana":8277,"localização":8278,"Aniversário":8279,"medieval":8280,"86":8281,"PR":8282,"Prin":8283,"epis":8284,"combate":8285,"Windo":8286,"ari":8287,"imprensa":8288,"publicação":8289,"Fí":8290,"Sau":8291,"escul":8292,"ensina":8293,"esteve":8294,"interno":8295,"ud":8296,"rai":8297,"moral":8298,"centra":8299,"Suí":8300,"decidiu":8301,"ximos":8302,"historiadores":8303,"Noruega":8304,"Só":8305,"yn":8306,"preende":8307,"hite":8308,"distritos":8309,"turno":8310,"ocorrem":8311,"83":8312,"ácidos":8313,"viria":8314,"gais":8315,"Vida":8316,"Smith":8317,"êm":8318,"roco":8319,"musica":8320,"Aldeia":8321,"nomeadamente":8322,"russa":8323,"põem":8324,"UR":8325,"hard":8326,"revolta":8327,"sof":8328,"cerim":8329,"lançou":8330,"cineasta":8331,"colonização":8332,"esas":8333,"ux":8334,"esto":8335,"rena":8336,"direta":8337,"universidade":8338,"estudantes":8339,"bairros":8340,"Madeira":8341,"baixas":8342,"operações":8343,"santo":8344,"170":8345,"96":8346,"Bíbli":8347,"Maran":8348,"Reci":8349,"%).":8350,"Ponta":8351,"medicina":8352,"1898":8353,"Funda":8354,"documento":8355,"FI":8356,"estando":8357,"formato":8358,"realização":8359,"çambi":8360,"impul":8361,"hipótese":8362,"72":8363,"Sér":8364,"completo":8365,"Concelho":8366,"DNA":8367,"Tol":8368,"ceiros":8369,"fich":8370,"Recre":8371,"acum":8372,"1906":8373,"coleção":8374,"med":8375,"fronteiras":8376,"justi":8377,"regionais":8378,"substa":8379,"escrever":8380,"negro":8381,"Br":8382,"sacerdo":8383,"temas":8384,"reiv":8385,"Silv":8386,"Hal":8387,"entra":8388,"profunda":8389,"intra":8390,"Fortaleza":8391,"Wo":8392,"domés":8393,"Mac":8394,"Paraguai":8395,"Polônia":8396,"rápido":8397,"Comi":8398,"fluxo":8399,"Cuba":8400,"acontece":8401,"Federação":8402,"Histo":8403,"Max":8404,"PA":8405,"fatos":8406,"citar":8407,"cipais":8408,"Programa":8409,"avança":8410,"hidrogênio":8411,"árabes":8412,"Ata":8413,"ridas":8414,"ret":8415,"matriz":8416,"Han":8417,"Tan":8418,"apel":8419,"sivas":8420,"agru":8421,"designação":8422,"autoridades":8423,"romance":8424,"peda":8425,"vere":8426,"Alentejo":8427,"SD":8428,"significativa":8429,"Napoleão":8430,"dg":8431,"lógico":8432,"rador":8433,"envia":8434,"voto":8435,"Terceira":8436,"Ceará":8437,"92":8438,"duras":8439,"Louren":8440,"Família":8441,"estro":8442,"tível":8443,"protestantes":8444,"tropical":8445,"BA":8446,"equil":8447,"recentes":8448,"habi":8449,"metá":8450,"contudo":8451,"inteli":8452,"World":8453,"Bon":8454,"mentas":8455,"arquipélago":8456,"Comunidade":8457,"radio":8458,"vações":8459,"Mata":8460,"eleitos":8461,"Antiga":8462,"manutenção":8463,"Festas":8464,"dú":8465,"viver":8466,"giu":8467,"contras":8468,"facili":8469,"zuela":8470,"monarquia":8471,"associado":8472,"GP":8473,"vinha":8474,"presidência":8475,"eiramente":8476,"espaços":8477,"Lourenço":8478,"Clas":8479,"Pacífico":8480,"Domingos":8481,"inco":8482,"Alves":8483,"tentou":8484,"Mesmo":8485,"ble":8486,"notas":8487,"erar":8488,"órdia":8489,"estradas":8490,"Lopes":8491,"negros":8492,"igualmente":8493,"vizinhos":8494,"Un":8495,"diale":8496,"mobili":8497,"risto":8498,"Juli":8499,"1889":8500,"aumentou":8501,"relevo":8502,"Sem":8503,"cobre":8504,"inverno":8505,"organismo":8506,"Nascimentos":8507,"Cerca":8508,"ingleses":8509,"musicais":8510,"Fé":8511,"lou":8512,"espor":8513,"conteúdo":8514,"bado":8515,"arran":8516,"diosos":8517,"Chile":8518,"LA":8519,"cardo":8520,"correr":8521,"Henry":8522,"Len":8523,"ramo":8524,"recei":8525,"quente":8526,"ourinho":8527,"giga":8528,"Guiné":8529,"1905":8530,"Windows":8531,"taxas":8532,"ciário":8533,"Forças":8534,"japonesa":8535,"liderança":8536,"og":8537,"releva":8538,"timas":8539,"transformação":8540,"Júlio":8541,"Daniel":8542,"detec":8543,"ciente":8544,"compartilha":8545,"duque":8546,"mm":8547,"altamente":8548,"levar":8549,"impe":8550,"Luiz":8551,"neros":8552,"nós":8553,"talvez":8554,"passageiros":8555,"definido":8556,"pintura":8557,"Ren":8558,"Stal":8559,"uru":8560,"ói":8561,"marx":8562,"químicos":8563,"usuários":8564,"ângulo":8565,"Antonio":8566,"egíp":8567,"ril":8568,"Superior":8569,"73":8570,"Gali":8571,"Grosso":8572,"élio":8573,"ander":8574,"gual":8575,"últimas":8576,"Segurança":8577,"identidade":8578,"Africa":8579,"setores":8580,"notí":8581,"versões":8582,"genética":8583,"ônicas":8584,"relacionados":8585,"interpretação":8586,"Póvoa":8587,"sita":8588,"prisão":8589,"Três":8590,"82":8591,"timologia":8592,"referir":8593,"Flor":8594,"independentes":8595,"Venezuela":8596,"rur":8597,"1907":8598,"Suíça":8599,"vali":8600,"cadeia":8601,"progres":8602,"mblé":8603,"reiras":8604,"1909":8605,"figuras":8606,"aplicações":8607,"Ei":8608,"múlti":8609,"Francesa":8610,"praia":8611,"povoamento":8612,"jeito":8613,"tical":8614,"lios":8615,"mios":8616,"terna":8617,"Baixo":8618,"deixando":8619,"executivo":8620,"surgiram":8621,"Turismo":8622,"violência":8623,"bata":8624,"Muitas":8625,"artística":8626,"Zona":8627,"esque":8628,"assegu":8629,"reinos":8630,"tali":8631,"bactérias":8632,"equilíbrio":8633,"astro":8634,"ordin":8635,"terreno":8636,"pio":8637,"implant":8638,"etários":8639,"longe":8640,"constituem":8641,"verdadeira":8642,"Karl":8643,"Bolí":8644,"cali":8645,"condu":8646,"realizadas":8647,"temos":8648,"abaste":8649,"criando":8650,"ntade":8651,"aprovei":8652,"Metropolitana":8653,"Equ":8654,"TP":8655,"url":8656,"Proje":8657,"cresceu":8658,"Bíblia":8659,"oportu":8660,"associação":8661,"refu":8662,"cimo":8663,"tendência":8664,"interesses":8665,"regres":8666,"próximos":8667,"norue":8668,"Península":8669,"Frie":8670,"Ul":8671,"sias":8672,"morf":8673,"andês":8674,"representam":8675,"brica":8676,"origens":8677,"Estádio":8678,"proibi":8679,"Gus":8680,"Gale":8681,"voo":8682,"Seus":8683,"Ala":8684,"gista":8685,"nista":8686,"wan":8687,"arquivo":8688,"levaram":8689,"Leste":8690,"rer":8691,"possa":8692,"Algar":8693,"1878":8694,"Filho":8695,"ridi":8696,"persegui":8697,"Marga":8698,"larga":8699,"descoberto":8700,"mexicano":8701,"ace":8702,"etano":8703,"separação":8704,"ocasi":8705,"fecha":8706,"restantes":8707,"Livro":8708,"Bá":8709,"ondas":8710,"consel":8711,"Miranda":8712,"meras":8713,"assenta":8714,"inscri":8715,"pertence":8716,"atingiu":8717,"Gor":8718,"reorganização":8719,"resi":8720,"assassina":8721,"Marx":8722,"Histórico":8723,"ligações":8724,"critica":8725,"evidências":8726,"ME":8727,"big":8728,"acres":8729,"passo":8730,"colônia":8731,"bandeiras":8732,"católica":8733,"fenômeno":8734,"raízes":8735,"quistou":8736,"frota":8737,"cata":8738,"visível":8739,"tár":8740,"leite":8741,"1904":8742,"cussão":8743,"phy":8744,"industria":8745,"Coroa":8746,"dt":8747,"Movimento":8748,"âncer":8749,"permanente":8750,"gentes":8751,"una":8752,"Natal":8753,"árvores":8754,"Recife":8755,"Tele":8756,"cento":8757,"vismo":8758,"espírito":8759,"traduzi":8760,"polonês":8761,"74":8762,"94":8763,"Mira":8764,"hin":8765,"mesmos":8766,"perspec":8767,"Stu":8768,"af":8769,"bano":8770,"recus":8771,"etário":8772,"Ricardo":8773,"Ciência":8774,"drich":8775,"símbolos":8776,"xemb":8777,"tricas":8778,"Martin":8779,"Soci":8780,"Torres":8781,"Paulista":8782,"Corte":8783,"gl":8784,"rituais":8785,"logias":8786,"impostos":8787,"bola":8788,"resultou":8789,"peias":8790,"XIII":8791,"emas":8792,"notável":8793,"ensões":8794,"fundou":8795,"basquete":8796,"realizou":8797,"Música":8798,"Supre":8799,"Comunista":8800,"76":8801,"Econ":8802,"tions":8803,"licen":8804,"sítio":8805,"determinada":8806,"extremo":8807,"Arquite":8808,"guia":8809,"Art":8810,"representantes":8811,"deiros":8812,"património":8813,"Jerus":8814,"Estrada":8815,"riti":8816,"alvo":8817,"muda":8818,"simul":8819,"zip":8820,"encontradas":8821,"custo":8822,"africana":8823,"Indo":8824,"Mol":8825,"TE":8826,"fér":8827,"tidas":8828,"potência":8829,"vegetação":8830,"1F":8831,"tradução":8832,"estres":8833,"Ped":8834,"ambiental":8835,"CE":8836,"Forte":8837,"gr":8838,"ução":8839,"centenas":8840,"tribos":8841,"Imperador":8842,"universo":8843,"guitarrista":8844,"cese":8845,"diais":8846,"Barra":8847,"permitindo":8848,"Germ":8849,"Maranhão":8850,"industriais":8851,"lip":8852,"usos":8853,"interessa":8854,"céu":8855,"teiros":8856,"conquistou":8857,"produtores":8858,"ordens":8859,"radiação":8860,"poderiam":8861,"fornece":8862,"Bairro":8863,"abunda":8864,"cílio":8865,"Gama":8866,"africano":8867,"funcionamento":8868,"assuntos":8869,"alterações":8870,"negócios":8871,"filo":8872,"saída":8873,"margens":8874,"dispo":8875,"capitão":8876,"monarca":8877,"quantidades":8878,"exceção":8879,"territorio":8880,"moradores":8881,"ilustra":8882,"idioma":8883,"Cria":8884,"jan":8885,"haver":8886,"veja":8887,"obteve":8888,"transmissão":8889,"sinal":8890,"clínio":8891,"ach":8892,"dedica":8893,"ponte":8894,"plás":8895,"representado":8896,"continental":8897,"Água":8898,"úlio":8899,"entrar":8900,"livres":8901,"índios":8902,"document":8903,"introdução":8904,"Aires":8905,"Am":8906,"ax":8907,"aer":8908,"ocidentais":8909,"usou":8910,"definida":8911,"execução":8912,"Possui":8913,"dgterritorio":8914,"asse":8915,"rich":8916,"aut":8917,"cena":8918,"2013_":8919,"estabelecimento":8920,"deriva":8921,"caop_":8922,"site":8923,"folhas":8924,"Dan":8925,"XII":8926,"naquele":8927,"terro":8928,"pele":8929,"complement":8930,"sinais":8931,"isó":8932,"bral":8933,"Franco":8934,"1903":8935,"barra":8936,"técnico":8937,"profissionais":8938,"estatuto":8939,"TO":8940,"acha":8941,"mestre":8942,"deal":8943,"consciência":8944,"celulares":8945,"quesa":8946,"timos":8947,"istente":8948,"derru":8949,"autonomia":8950,"móveis":8951,"93":8952,"aço":8953,"afro":8954,"fê":8955,"imi":8956,"pion":8957,"Cabe":8958,"artigos":8959,"australiano":8960,"Lá":8961,"Pass":8962,"camadas":8963,"vivo":8964,"motivo":8965,"verna":8966,"começo":8967,"constitucional":8968,"artístico":8969,"associados":8970,"máximo":8971,"Jerusalém":8972,"My":8973,"cs":8974,"arco":8975,"sexo":8976,"fias":8977,"apresentou":8978,"poucas":8979,"Bél":8980,"VII":8981,"quen":8982,"perdeu":8983,"Guer":8984,"xias":8985,"Turquia":8986,"Aveiro":8987,"deser":8988,"vontade":8989,"órbita":8990,"gráficos":8991,"programação":8992,"designada":8993,"Bélgica":8994,"iti":8995,"consideradas":8996,"fisi":8997,"possíveis":8998,"conservação":8999,"bó":9000,"quali":9001,"ramos":9002,"impedi":9003,"style":9004,"MP":9005,"Pia":9006,"jão":9007,"Pedra":9008,"designa":9009,"Justiça":9010,"Ens":9011,"esla":9012,"ligados":9013,"turistas":9014,"castel":9015,"substâncias":9016,"reo":9017,"tomou":9018,"estrei":9019,"intervenção":9020,"Viena":9021,"Soares":9022,"anuncia":9023,"Corpo":9024,"zonte":9025,"domingo":9026,"computação":9027,"Mendes":9028,"equipamentos":9029,"terrâneo":9030,"dramaturgo":9031,"Blo":9032,"tomar":9033,"destruição":9034,"crático":9035,"Pat":9036,"lum":9037,"rização":9038,"protes":9039,"presa":9040,"irmãos":9041,"auxili":9042,"Get":9043,"massas":9044,"dissol":9045,"Cambri":9046,"amigo":9047,"Princi":9048,"territorial":9049,"Bár":9050,"Fel":9051,"quinta":9052,"partid":9053,"pertencente":9054,"combina":9055,"sugeri":9056,"iano":9057,"kh":9058,"canos":9059,"discurso":9060,"Viet":9061,"deixar":9062,"amare":9063,"essencialmente":9064,"mitologia":9065,"81":9066,"ceria":9067,"ideal":9068,"chegando":9069,"gases":9070,"publicada":9071,"estabelecido":9072,"minutos":9073,"possivelmente":9074,"satis":9075,"testem":9076,"certas":9077,"Michel":9078,"senhor":9079,"denominação":9080,"produzidos":9081,"War":9082,"etas":9083,"án":9084,"fila":9085,"cionada":9086,"estudiosos":9087,"humanidade":9088,"apresentar":9089,"ville":9090,"ausência":9091,"esforços":9092,"Califór":9093,"Din":9094,"Opera":9095,"daí":9096,"alma":9097,"ligada":9098,"hori":9099,"Machado":9100,"ciações":9101,"recém":9102,"substância":9103,"átomos":9104,"responsabilidade":9105,"crenças":9106,"brancos":9107,"secundário":9108,"grado":9109,"minerais":9110,"Carl":9111,"transferência":9112,"associada":9113,"hã":9114,"elândia":9115,"navio":9116,"confro":9117,"cea":9118,"Vermelho":9119,"críticas":9120,"tecidos":9121,"eirão":9122,"corrida":9123,"Califórnia":9124,"dicas":9125,"teus":9126,"excel":9127,"unes":9128,"brasileiras":9129,"Logo":9130,"Médio":9131,"superiores":9132,"máquina":9133,"Adol":9134,"dever":9135,"rurais":9136,"vermelha":9137,"tti":9138,"cujos":9139,"brasão":9140,"brilha":9141,"1836":9142,"seleção":9143,"Lagoa":9144,"\"|":9145,"RE":9146,"jou":9147,"chil":9148,"bacia":9149,"fundamentais":9150,"Wiki":9151,"Indus":9152,"mamí":9153,"doso":9154,"Decreto":9155,"Ami":9156,"quebra":9157,"nacion":9158,"ones":9159,"piração":9160,"ísta":9161,"colônias":9162,"Foram":9163,"Pará":9164,"1855":9165,"atingir":9166,"zinho":9167,"bió":9168,"torre":9169,"Colégio":9170,"iniciativa":9171,"comparação":9172,"incenti":9173,"veículos":9174,"Cra":9175,"zz":9176,"Reforma":9177,"Pomb":9178,"Leg":9179,"anualmente":9180,"aspecto":9181,"equivalente":9182,"elh":9183,"preocupa":9184,"ixas":9185,"elétrons":9186,"Monu":9187,"Renas":9188,"sores":9189,"esfera":9190,"quisição":9191,"XIV":9192,"produziu":9193,"necessária":9194,"considerável":9195,"ranos":9196,"líquido":9197,"disponíveis":9198,"Fór":9199,"declínio":9200,"Mara":9201,"deixa":9202,"expedição":9203,"Rosa":9204,"renos":9205,"diversi":9206,"anunciou":9207,"gerais":9208,"argument":9209,"aliados":9210,"cções":9211,"ômbia":9212,"caram":9213,"sedi":9214,"impera":9215,"municipais":9216,"Regional":9217,"precisa":9218,"núcleos":9219,"chinesa":9220,"ricórdia":9221,"ates":9222,"cídio":9223,"1896":9224,"fracas":9225,"Romana":9226,"Colômbia":9227,"jornais":9228,"usuário":9229,"Pela":9230,"Phi":9231,"Pinto":9232,"avalia":9233,"fel":9234,"ália":9235,"reconhecido":9236,"ligado":9237,"preto":9238,"surge":9239,"1891":9240,"Agri":9241,"infraestrutura":9242,"dominical":9243,"Ken":9244,"iros":9245,"tativa":9246,"ônimos":9247,"Tai":9248,"escolha":9249,"Cir":9250,"edo":9251,"nciar":9252,"atas":9253,"parta":9254,"aliança":9255,"depende":9256,"utilizando":9257,"Bul":9258,"Área":9259,"serve":9260,"planos":9261,"Dois":9262,"Nicola":9263,"agrupa":9264,"\";":9265,"Air":9266,"suporte":9267,"ganda":9268,"Mary":9269,"Olímpicos":9270,"ofer":9271,"queira":9272,"credi":9273,"seguiu":9274,"morto":9275,"apresentação":9276,"realizados":9277,"Amaz":9278,"civilização":9279,"matando":9280,"provis":9281,"rupção":9282,"quias":9283,"gere":9284,"bilidades":9285,"mídia":9286,"câncer":9287,"dônia":9288,"lor":9289,"doce":9290,"contí":9291,"çada":9292,"Reg":9293,"campeonato":9294,"tomano":9295,"reunião":9296,"fenômenos":9297,"pobreza":9298,"91":9299,"phi":9300,"caiu":9301,"meda":9302,"parque":9303,"Andra":9304,"soviético":9305,"similar":9306,"cobri":9307,"metais":9308,"titudes":9309,"galá":9310,"circu":9311,"Medicina":9312,"espiritual":9313,"evang":9314,"Mur":9315,"mistas":9316,"2023":9317,"prece":9318,"direto":9319,"anglo":9320,"dimensões":9321,"Branca":9322,".:":9323,"Linha":9324,"quicas":9325,"Rock":9326,"inete":9327,"encontrada":9328,"1870":9329,"endere":9330,"promover":9331,"Stalin":9332,"DB":9333,"fator":9334,"zel":9335,"ãe":9336,"onos":9337,"Paço":9338,"landesa":9339,"1897":9340,"próximas":9341,"General":9342,"Sur":9343,"pação":9344,"velho":9345,"paisagem":9346,"limitada":9347,"geográfica":9348,"sobreviv":9349,"aristo":9350,"pso":9351,"repeti":9352,"erro":9353,"Micros":9354,"1888":9355,"Ministro":9356,"Aten":9357,"tologia":9358,"ous":9359,"bits":9360,"implica":9361,"intit":9362,"Cari":9363,"envolve":9364,"histórias":9365,"críticos":9366,"ries":9367,"Adri":9368,"pper":9369,"convo":9370,"privada":9371,"chen":9372,"fati":9373,"Rede":9374,"Hori":9375,"tecido":9376,"Luis":9377,"europeias":9378,"máxima":9379,"Iraque":9380,"Mao":9381,"Sto":9382,"aí":9383,"compe":9384,"pobres":9385,"preços":9386,"Ará":9387,"Existe":9388,"famosa":9389,"ânea":9390,"imediatamente":9391,"Largo":9392,"membrana":9393,"episó":9394,"Feli":9395,"Gabri":9396,"bendo":9397,"rculo":9398,"Moçambi":9399,"objetivos":9400,"Bernar":9401,"integração":9402,"ferramentas":9403,"tolome":9404,"foral":9405,"económica":9406,"Aristó":9407,"disponi":9408,"600":9409,"compi":9410,"sivos":9411,"Congo":9412,"venda":9413,"venceu":9414,"fertili":9415,"tíveis":9416,"influências":9417,"históricas":9418,"distas":9419,"olhos":9420,"latino":9421,"observação":9422,"descrição":9423,"feminino":9424,"Teix":9425,"lus":9426,"coisa":9427,"companhia":9428,"onha":9429,"portiva":9430,"gido":9431,"pedido":9432,"Arth":9433,"desenvolve":9434,"Alfredo":9435,"Pelourinho":9436,"Fis":9437,"câmara":9438,"mari":9439,"teza":9440,"cultivo":9441,"Tejo":9442,"católico":9443,"provável":9444,"Belo":9445,"Ev":9446,"fan":9447,"ls":9448,"nel":9449,"entro":9450,"quio":9451,"poesia":9452,"durou":9453,"nascido":9454,"geno":9455,"génio":9456,"Pesquis":9457,"alfabeto":9458,"húngaro":9459,"comumente":9460,"</":9461,"Cunha":9462,"ye":9463,"aconteceu":9464,"precipitação":9465,"Industri":9466,"IX":9467,"uário":9468,"cario":9469,"non":9470,"param":9471,"chan":9472,"localidades":9473,"Georg":9474,"relacionadas":9475,"Melo":9476,"mulo":9477,"doze":9478,"tane":9479,"Departamento":9480,"checo":9481,"Musi":9482,"1902":9483,"ocorrer":9484,"compositora":9485,"Amazonas":9486,"Publi":9487,"Pessoa":9488,"Dentre":9489,"SE":9490,"ingu":9491,"alizados":9492,"guações":9493,"estilos":9494,"utilizar":9495,"Fernandes":9496,"Greg":9497,"Mãe":9498,"Oficial":9499,"PP":9500,"Pelé":9501,"Wol":9502,"tã":9503,"rever":9504,"compreende":9505,"trigo":9506,"físicos":9507,"ventude":9508,"descreve":9509,"sexuais":9510,"Mise":9511,"frá":9512,"rent":9513,"Marte":9514,"Literatura":9515,"comunicações":9516,"Newton":9517,"suspen":9518,"formalmente":9519,"Desambiguações":9520,"Ibé":9521,"liana":9522,"fotos":9523,"antas":9524,"contendo":9525,"minal":9526,"genes":9527,"Roy":9528,"actividade":9529,"passam":9530,"atleta":9531,"Ram":9532,"retra":9533,"café":9534,"registro":9535,"diferencia":9536,"solini":9537,"ditadura":9538,"Pinheiro":9539,"notáveis":9540,"Carac":9541,"Estatística":9542,"especiais":9543,"econômicos":9544,"emigra":9545,"1894":9546,"necessidades":9547,"Socialista":9548,"distintas":9549,"rápida":9550,"candidato":9551,"Mussolini":9552,"deusa":9553,"escas":9554,"economista":9555,"utilizadas":9556,"Estudos":9557,"Andrade":9558,"ônibus":9559,"bordo":9560,"exceto":9561,"Sco":9562,"ádio":9563,"demanda":9564,"torial":9565,"sacri":9566,"Alta":9567,"representando":9568,"democra":9569,"Vargas":9570,"Moçambique":9571,"ucra":9572,"nato":9573,"propósi":9574,"perfei":9575,"relativa":9576,"ajudar":9577,"lenda":9578,"ênio":9579,"supera":9580,"cionalmente":9581,"Qui":9582,"Suas":9583,"variação":9584,"oferece":9585,"indígena":9586,"dinamarquês":9587,"opinião":9588,"degra":9589,"lig":9590,"lau":9591,"Padre":9592,"canções":9593,"Club":9594,"amigos":9595,"Flores":9596,"Eng":9597,"Tex":9598,"gs":9599,"jun":9600,"médicos":9601,"quarta":9602,"analis":9603,"Dé":9604,"ualmente":9605,"astero":9606,"fortale":9607,"marcada":9608,"portuguesas":9609,"desapare":9610,"descobriu":9611,"Naturais":9612,"Engenharia":9613,"Física":9614,"Bárbara":9615,"Pinh":9616,"facil":9617,"permitem":9618,"padre":9619,"status":9620,"espalha":9621,"reza":9622,"die":9623,"nativos":9624,"sais":9625,"cujas":9626,"península":9627,"tricidade":9628,"internet":9629,"orixá":9630,"ziam":9631,"Verão":9632,"1899":9633,"determinar":9634,"Borg":9635,"Far":9636,"bana":9637,"sepul":9638,"viveu":9639,"restante":9640,"Goiás":9641,"Leiria":9642,"ficientes":9643,"instrumento":9644,"Edward":9645,"acreditava":9646,"Plu":9647,"pão":9648,"âmetro":9649,"detal":9650,"nito":9651,"plata":9652,"Força":9653,"químicas":9654,"cientista":9655,"desenho":9656,"facilmente":9657,"camento":9658,"disper":9659,"escritores":9660,"significativo":9661,"Có":9662,"Tar":9663,"duração":9664,"particulares":9665,"socialismo":9666,"circulação":9667,"sucessor":9668,"vitamina":9669,"mamíferos":9670,"cari":9671,"proemin":9672,"vela":9673,"quilo":9674,"ciedades":9675,"representar":9676,"Toda":9677,"1801":9678,"ascensão":9679,"arroz":9680,"Ran":9681,"ot":9682,"xás":9683,"dirig":9684,"primária":9685,"cionados":9686,"permanece":9687,"individual":9688,"ote":9689,"italianos":9690,"reserva":9691,"Gusta":9692,"tory":9693,"tânica":9694,"encontrou":9695,"equação":9696,"cumpri":9697,"br":9698,"aldeias":9699,"Santar":9700,"transporta":9701,"estudar":9702,"resultando":9703,"abriga":9704,"túr":9705,"Aristóteles":9706,"Ambi":9707,"Ima":9708,"bir":9709,"orig":9710,"capitalismo":9711,"Legisla":9712,"portar":9713,"chave":9714,"desenvolvidos":9715,"renu":9716,"Sala":9717,"declara":9718,"verdadeiro":9719,"assunto":9720,"conjuntos":9721,"Dinastia":9722,"reprodução":9723,"nobres":9724,"conduzi":9725,"Letras":9726,"urbanos":9727,"dificuldades":9728,"Arthur":9729,"Nessa":9730,"gni":9731,"inária":9732,"homos":9733,"çamento":9734,"claro":9735,"intenção":9736,"tolomeu":9737,"Ton":9738,"tivesse":9739,"tomada":9740,"comunistas":9741,"mênia":9742,"Misericórdia":9743,"duto":9744,"Proví":9745,"referem":9746,"concepção":9747,"carrega":9748,"manifestações":9749,"Natural":9750,"Getúlio":9751,"800":9752,"hino":9753,"entado":9754,"vive":9755,"sujei":9756,"file":9757,"terrenos":9758,"registros":9759,"Pie":9760,"Bern":9761,"Irã":9762,"Bap":9763,"iner":9764,"casou":9765,"Quí":9766,"Luxemb":9767,"produzem":9768,"proporção":9769,"Vilar":9770,"fósseis":9771,"iria":9772,"fic":9773,"gil":9774,"socialista":9775,"astrônomo":9776,"acervo":9777,"acrescent":9778,"Ensino":9779,"AL":9780,"Etimologia":9781,"codi":9782,"gura":9783,"mér":9784,"mático":9785,"estratégia":9786,"dimensão":9787,"didade":9788,"contam":9789,"negra":9790,"muita":9791,"sala":9792,"norma":9793,"Kim":9794,"kin":9795,"ícios":9796,"encontro":9797,"tios":9798,"Vieira":9799,"canal":9800,"míni":9801,"posteriores":9802,"visitantes":9803,"érios":9804,"viano":9805,"autár":9806,"reações":9807,"Lutero":9808,"dependente":9809,"Cinema":9810,"tta":9811,"respei":9812,"back":9813,"Senado":9814,"1880":9815,"narra":9816,"esforço":9817,"personagem":9818,"VIII":9819,"canção":9820,"apont":9821,"Mortes":9822,"oxigênio":9823,"Madri":9824,"ônios":9825,"operacional":9826,"pertencia":9827,"aberta":9828,"descobertas":9829,"Bispo":9830,"Cat":9831,"derico":9832,"ntismo":9833,"vira":9834,"aglome":9835,"Aé":9836,"ence":9837,"variam":9838,"agro":9839,"oft":9840,"combinação":9841,"permitir":9842,"https":9843,"SI":9844,"alimentação":9845,"marcado":9846,"beleza":9847,"desafi":9848,"magni":9849,"ocasião":9850,"presidencial":9851,"RO":9852,"grou":9853,"labora":9854,"Cima":9855,"Posterior":9856,"escudo":9857,"Jacques":9858,"cên":9859,"convida":9860,"adver":9861,"entidades":9862,"legislativo":9863,"funcionários":9864,"pano":9865,"debate":9866,"down":9867,"lie":9868,"individuais":9869,"Stan":9870,"esporte":9871,"bizant":9872,"Assu":9873,"Rodo":9874,"1853":9875,"Teixeira":9876,"Industrial":9877,"alar":9878,"podia":9879,"carros":9880,"físicas":9881,"1892":9882,"Cristó":9883,"orientação":9884,"bg":9885,"raios":9886,"tensão":9887,"visões":9888,"Saint":9889,"pouca":9890,"tinos":9891,"Lob":9892,"pés":9893,"Quanto":9894,"punk":9895,"cirur":9896,"sociedades":9897,"mila":9898,"tricos":9899,"liados":9900,"humanas":9901,"experiências":9902,"investigação":9903,"MI":9904,"Tó":9905,"aeroporto":9906,"hen":9907,"hães":9908,"nismo":9909,"sando":9910,"realmente":9911,"tabela":9912,"Marquês":9913,"causas":9914,"wal":9915,"patro":9916,"Lib":9917,"Europeu":9918,"Linux":9919,"exportação":9920,"desejo":9921,"infantil":9922,"Cru":9923,"ciosa":9924,"comunista":9925,"justiça":9926,"bgcolor":9927,"jado":9928,"uais":9929,"ortodo":9930,"topos":9931,"cht":9932,"desenvolvida":9933,"estimul":9934,"normas":9935,"anexada":9936,"inaugurada":9937,"instalação":9938,"Ocidente":9939,"tte":9940,"tárias":9941,"cita":9942,"enfati":9943,"tons":9944,"motivos":9945,"lagos":9946,"gadores":9947,"Comér":9948,"tânia":9949,"razões":9950,"exclusivamente":9951,"Comércio":9952,"OP":9953,"xos":9954,"ters":9955,"intensa":9956,"Clima":9957,"Barcelos":9958,"Luxemburgo":9959,"queima":9960,"1886":9961,"Preto":9962,"comandante":9963,"Cambridge":9964,"Posteriormente":9965,"dindo":9966,"ótica":9967,"racional":9968,"topó":9969,"interação":9970,"tornam":9971,"Antigo":9972,"nervos":9973,"Friedrich":9974,"om":9975,"sess":9976,"arquivos":9977,"1885":9978,"Buenos":9979,"Les":9980,"zero":9981,"formaram":9982,"conselho":9983,"Consi":9984,"cló":9985,"Rocha":9986,"serviu":9987,"Ár":9988,"comi":9989,"gale":9990,"consideram":9991,"arquitec":9992,"Cole":9993,"trouxe":9994,"Evang":9995,"yes":9996,"Albert":9997,"velha":9998,"colonos":9999,"cenário":10000,"recep":10001,"perió":10002,"universi":10003,"decisões":10004,"específico":10005,"Belém":10006,"distingu":10007,"Microsoft":10008,"Cí":10009,"aero":10010,"coman":10011,"diana":10012,"midades":10013,"micr":10014,"nosso":10015,"agres":10016,"leitura":10017,"magnético":10018,"Língua":10019,"fême":10020,"lizada":10021,"voz":10022,"Setú":10023,"pinturas":10024,"Sendo":10025,"xia":10026,"yr":10027,"cool":10028,"semelh":10029,"Mars":10030,"existir":10031,"Setúbal":10032,"ecos":10033,"hr":10034,"polu":10035,"seguidores":10036,"músicas":10037,"exportações":10038,"Moura":10039,"Leopol":10040,"Rol":10041,"aflu":10042,"oper":10043,"çu":10044,"solos":10045,"istory":10046,"prision":10047,"peixe":10048,"Moscou":10049,"garanti":10050,"personagens":10051,"Bolívia":10052,"Sho":10053,"nd":10054,"agentes":10055,"fur":10056,"Franço":10057,"gêneros":10058,"migração":10059,"reservas":10060,"explicar":10061,"Secretaria":10062,"garantir":10063,"Pombal":10064,"Cana":10065,"Zelândia":10066,"mad":10067,"inde":10068,"varo":10069,"tratados":10070,"char":10071,"Asso":10072,"juris":10073,"landes":10074,"categorias":10075,"Darwin":10076,"cúrio":10077,"consumi":10078,"inúmeras":10079,"Santarém":10080,"(),":10081,"Lú":10082,"St":10083,"Web":10084,"Walter":10085,"gicamente":10086,"Macau":10087,"defende":10088,"enviou":10089,"abordagem":10090,"contínu":10091,"Eri":10092,"Num":10093,"apos":10094,"pondo":10095,"promul":10096,"mengo":10097,"way":10098,"atinge":10099,"contribuição":10100,"essencial":10101,"cópio":10102,"wood":10103,"mens":10104,"wer":10105,"israel":10106,"queles":10107,"restos":10108,"pian":10109,"láu":10110,"substituído":10111,"complexos":10112,"diá":10113,"pergu":10114,"agan":10115,"Arti":10116,"estimada":10117,"descrever":10118,"Johann":10119,"emisfé":10120,"Arábia":10121,"Ucr":10122,"acent":10123,"bla":10124,"ct":10125,"edas":10126,"danos":10127,"riana":10128,"isola":10129,"umi":10130,"primo":10131,"Marcos":10132,"potências":10133,"definir":10134,"escravidão":10135,"Figuei":10136,"Ucrânia":10137,"2º":10138,"úmi":10139,"questi":10140,"sional":10141,"Espanh":10142,"primário":10143,"falar":10144,"quadrados":10145,"investimentos":10146,"coreano":10147,"litúr":10148,"autó":10149,"ings":10150,"Barros":10151,"legislativas":10152,"plasma":10153,"UNES":10154,"nã":10155,"reconhecida":10156,"retorno":10157,"islâ":10158,"ord":10159,"residente":10160,"crimin":10161,"audi":10162,"colombi":10163,"Dire":10164,"Cristianismo":10165,"instalações":10166,"diplomata":10167,"Síria":10168,"órias":10169,"ür":10170,"sono":10171,"amplo":10172,"volum":10173,"praias":10174,"Duarte":10175,"Homem":10176,"costumes":10177,"Jack":10178,"Apple":10179,"Dra":10180,"refl":10181,"erva":10182,"Caetano":10183,"Fontes":10184,"armadas":10185,"Agostinho":10186,"graduação":10187,"ativista":10188,"Jornal":10189,"Henriques":10190,"ogle":10191,"uruguaio":10192,"You":10193,"ctares":10194,"tulo":10195,"andesa":10196,"dices":10197,"existia":10198,"preço":10199,"Infra":10200,"Cidades":10201,"1893":10202,"popularidade":10203,"participou":10204,"especificamente":10205,"liderada":10206,"Horizonte":10207,"Aze":10208,"pando":10209,"esgo":10210,"embaix":10211,"hat":10212,"late":10213,"bidas":10214,"mesmas":10215,"densa":10216,"Mark":10217,"Neves":10218,"modernas":10219,"Norman":10220,"ficção":10221,"infância":10222,"curto":10223,"chineses":10224,"armazen":10225,"clesiás":10226,"Ibérica":10227,"coa":10228,"ast":10229,"pada":10230,"vidades":10231,"embri":10232,"geu":10233,"130":10234,"estabeleceram":10235,"1887":10236,"fácil":10237,"dispositivos":10238,"Plano":10239,"Arquitetura":10240,"Bill":10241,"Don":10242,"empa":10243,"anga":10244,"progresso":10245,"cebispo":10246,"mortes":10247,"autoria":10248,"estabelecida":10249,"iseu":10250,"quadro":10251,"cristão":10252,"chuvas":10253,"Black":10254,"Rel":10255,"formul":10256,"Come":10257,"mostrou":10258,"estável":10259,"1882":10260,"lembra":10261,"Ron":10262,"hectares":10263,"Direi":10264,"Interna":10265,"eo":10266,"rotação":10267,"vert":10268,"trás":10269,"Alem":10270,"Nota":10271,"criança":10272,"polícia":10273,"Super":10274,"colabo":10275,"significativamente":10276,"participar":10277,"Afe":10278,"uel":10279,"​​":10280,"concre":10281,"chamou":10282,"relatório":10283,"Faro":10284,"Cabral":10285,"Massa":10286,"judaica":10287,"tensões":10288,"coment":10289,"teriam":10290,"niz":10291,"estú":10292,"gravita":10293,"intermedi":10294,"aceito":10295,"divide":10296,"soberania":10297,"Vietnã":10298,"Ano":10299,"observações":10300,"alcançar":10301,"nobreza":10302,"disciplina":10303,"Dal":10304,"Tá":10305,"sura":10306,"gida":10307,"nossa":10308,"Magal":10309,"irá":10310,"colapso":10311,"eletrônica":10312,"Dona":10313,"Sintra":10314,"ope":10315,"carvão":10316,"aceita":10317,"compreensão":10318,"vs":10319,"consta":10320,"seguem":10321,"valori":10322,"Poder":10323,"órgia":10324,"missões":10325,"disponível":10326,"Algarve":10327,"vedo":10328,"cultiva":10329,"Mag":10330,"ministros":10331,"passe":10332,"Tomé":10333,"Negro":10334,"tentar":10335,"secretário":10336,"digital":10337,"Batista":10338,"Eti":10339,"Vista":10340,"tificação":10341,"possam":10342,"privado":10343,"cínio":10344,"psicologia":10345,"máquinas":10346,"Religião":10347,"Sei":10348,"ícia":10349,"devo":10350,"entidade":10351,"Parti":10352,"aumenta":10353,"ligadas":10354,"fabricação":10355,"costas":10356,"curta":10357,"estaduais":10358,"define":10359,"Palmeiras":10360,"supre":10361,"Estre":10362,"gratu":10363,"Oscar":10364,"dentemente":10365,"Person":10366,"aquela":10367,"Filip":10368,"armazena":10369,"perspectiva":10370,"Cristóvão":10371,"Bos":10372,"Bou":10373,"ction":10374,"diano":10375,"vieram":10376,"privadas":10377,"mercados":10378,"Teresa":10379,"fases":10380,"acreditam":10381,"vegetais":10382,"económico":10383,"Classi":10384,"Cláu":10385,"Tab":10386,"gências":10387,"Évora":10388,"quântica":10389,"paro":10390,"micros":10391,"trinta":10392,"subme":10393,"prazo":10394,"Google":10395,"tentativas":10396,"paulista":10397,"Orig":10398,"belo":10399,"vares":10400,"mares":10401,"recebido":10402,"burg":10403,"Gabriel":10404,"rochas":10405,"abre":10406,"carro":10407,"regulares":10408,"sonda":10409,"mission":10410,"istiu":10411,"financeira":10412,"avanço":10413,"cálculo":10414,"ime":10415,"pessoais":10416,"rigor":10417,"contava":10418,"japoneses":10419,"BD":10420,"tém":10421,"niana":10422,"Montes":10423,"morta":10424,"atuação":10425,"fornecer":10426,"Magalhães":10427,"Dos":10428,"descrito":10429,"Finlândia":10430,"nésia":10431,"Alfred":10432,"Jun":10433,"dupla":10434,"parcialmente":10435,"graus":10436,"relatos":10437,"subsequ":10438,"hospital":10439,"Todas":10440,"Alexander":10441,"Prússia":10442,"manuel":10443,"Rodrigo":10444,"simboli":10445,"ritiba":10446,"ciado":10447,"lam":10448,"castelo":10449,"intu":10450,"Portanto":10451,"utilizam":10452,"aprovação":10453,"móvel":10454,"liderado":10455,"orema":10456,"Hero":10457,"Trin":10458,"eme":10459,"modera":10460,"atl":10461,"Moreira":10462,"americanas":10463,"Lee":10464,"Figueira":10465,"1868":10466,"terrestres":10467,"Básica":10468,"autárquicas":10469,"Vel":10470,"hy":10471,"intes":10472,"renova":10473,"algas":10474,"vial":10475,"viagens":10476,"versos":10477,"indiano":10478,"1867":10479,"variações":10480,"magnitude":10481,"West":10482,"conexão":10483,"inada":10484,"você":10485,"neuro":10486,"ciamento":10487,"mundiais":10488,"104":10489,"estádio":10490,"Graça":10491,"globa":10492,"Transportes":10493,"Gonçalo":10494,"Jaco":10495,"toli":10496,"reside":10497,"vapor":10498,"batal":10499,"Mora":10500,"criados":10501,"possuir":10502,"Excel":10503,"frase":10504,"Índice":10505,"referido":10506,"molecular":10507,".).":10508,"Za":10509,"tões":10510,"ólogos":10511,"dadas":10512,"casal":10513,"visual":10514,"hid":10515,"colocado":10516,"Feriados":10517,"Calendário":10518,"largura":10519,"francesas":10520,"montanhos":10521,"emanci":10522,"Vários":10523,"ídeos":10524,"paci":10525,"lizado":10526,"preso":10527,"1850":10528,"aux":10529,"marcou":10530,"prêmio":10531,"organizado":10532,"resulta":10533,"vizinhas":10534,"marinha":10535,"tiu":10536,"lidos":10537,"bidos":10538,"alizar":10539,"Represent":10540,"1883":10541,"endários":10542,"liberais":10543,"Bernardo":10544,"rian":10545,"companh":10546,"diâmetro":10547,"porção":10548,"mitos":10549,"Revista":10550,"Conferência":10551,"Guara":10552,"1881":10553,"1865":10554,"ocupada":10555,"sucedido":10556,"escolhido":10557,"Administrativa":10558,"François":10559,"Sele":10560,"ômica":10561,"invés":10562,"propôs":10563,"grafias":10564,"pensar":10565,"turco":10566,"atória":10567,"Gales":10568,"expressa":10569,"Mediterrâneo":10570,"bombar":10571,"Fon":10572,"incl":10573,"ars":10574,"viviam":10575,"vagem":10576,"cionou":10577,"chamar":10578,"Tecnologia":10579,"700":10580,"vene":10581,"investimento":10582,"atribuído":10583,"Livre":10584,"emisfério":10585,"Mei":10586,"Matos":10587,"ópolis":10588,"ciar":10589,"paroquial":10590,"portado":10591,"serão":10592,"crito":10593,"construções":10594,"nucleares":10595,"Adam":10596,"Los":10597,"reduzir":10598,"trazi":10599,"sobe":10600,"fero":10601,"Geórgia":10602,"1884":10603,"sessão":10604,"desempenho":10605,"Estrela":10606,"ades":10607,"budismo":10608,"banco":10609,"dependendo":10610,"específica":10611,"específicos":10612,"Té":10613,"white":10614,"quel":10615,"ule":10616,"traje":10617,"onald":10618,"interval":10619,"hias":10620,"táce":10621,"Quint":10622,"dezenas":10623,"gregoriano":10624,"tradicionalmente":10625,"imigração":10626,"Gou":10627,"exa":10628,"undo":10629,"feu":10630,"eletricidade":10631,"velt":10632,"irlandês":10633,"criadas":10634,"longi":10635,"pertencentes":10636,"distinção":10637,"consequências":10638,"amarelo":10639,"ridos":10640,"ilum":10641,"brados":10642,"assume":10643,"1860":10644,"Scott":10645,"{{":10646,"panhas":10647,"Roose":10648,"Compu":10649,"estabelece":10650,"Wilhel":10651,"declaração":10652,"masculino":10653,"zão":10654,"pene":10655,"botânico":10656,"Barb":10657,"samba":10658,"defender":10659,"Observa":10660,"Relações":10661,"Germânico":10662,"CH":10663,"Fro":10664,"Fale":10665,"Gio":10666,"Gene":10667,"mudar":10668,"National":10669,"árvore":10670,"1848":10671,"cm":10672,"hista":10673,"rocos":10674,"enca":10675,"noção":10676,"ficiais":10677,"expec":10678,"Antár":10679,"mínimo":10680,"levanta":10681,"prédio":10682,"mantendo":10683,"chuva":10684,"sucessão":10685,"íssimo":10686,"Hy":10687,"}}":10688,"inou":10689,"antemente":10690,"Bartolomeu":10691,"organizada":10692,"London":10693,"dedicada":10694,"urbanas":10695,"referências":10696,"mirante":10697,"grave":10698,"envolvendo":10699,"relacionado":10700,"mostram":10701,"resolução":10702,"Roosevelt":10703,"Aqui":10704,"Eins":10705,"anel":10706,"virtude":10707,"Rosário":10708,"jesuí":10709,"pianista":10710,"Fria":10711,"ndos":10712,"raiz":10713,"incên":10714,"estabilidade":10715,"poderá":10716,"Ener":10717,"lançada":10718,"processamento":10719,"FIFA":10720,"ovos":10721,"esportivo":10722,"sinte":10723,"picamente":10724,"formados":10725,"cerâmica":10726,"teses":10727,"concelhos":10728,"Correia":10729,"cionário":10730,"ordenou":10731,"professores":10732,"assassinato":10733,"Mani":10734,"alimentar":10735,"adotou":10736,"Maur":10737,"iniciais":10738,"mond":10739,"filósofos":10740,"específicas":10741,"Melhor":10742,"alternativa":10743,"gradualmente":10744,"Exemplos":10745,"Tóquio":10746,"--":10747,"Obras":10748,"ganhar":10749,"Sudeste":10750,"Andre":10751,"domínios":10752,"existiam":10753,"absoluta":10754,"Leonardo":10755,"ep":10756,"tive":10757,"tivismo":10758,"pares":10759,"ralmente":10760,"canais":10761,"Psi":10762,"Resta":10763,"fó":10764,"ptos":10765,"Pai":10766,"hipo":10767,"construiu":10768,"ambientais":10769,"estrangeiro":10770,"Integra":10771,"xadrez":10772,"FB":10773,"Minho":10774,"pur":10775,"tter":10776,"sint":10777,"fome":10778,"luna":10779,"corrupção":10780,"nsul":10781,"cissão":10782,"micamente":10783,"Governa":10784,"Domingo":10785,"planejamento":10786,"Química":10787,"Madrid":10788,"Cy":10789,"ath":10790,"meu":10791,"sai":10792,"Pais":10793,"faixas":10794,"alguém":10795,"situações":10796,"ambientes":10797,"Harol":10798,"Número":10799,"intelectual":10800,"horizo":10801,"ai":10802,"museus":10803,"Moz":10804,"140":10805,"1871":10806,"Série":10807,"restaura":10808,"contemporânea":10809,"melhorar":10810,"inteligência":10811,"moedas":10812,"gab":10813,"herança":10814,"alimento":10815,"juntos":10816,"Cated":10817,"Marques":10818,"Ander":10819,"apresentando":10820,"Isl":10821,"breve":10822,"dinâ":10823,"Filosofia":10824,"descreveu":10825,"soviéticos":10826,"piloto":10827,"escultor":10828,"Amazônia":10829,"kins":10830,"zio":10831,"depósi":10832,"encial":10833,"confun":10834,"grafos":10835,"urão":10836,"143":10837,"campon":10838,"rinhos":10839,"considerar":10840,"encontrava":10841,"Holanda":10842,"Democrática":10843,"observar":10844,"oferta":10845,"Sr":10846,"apar":10847,"eclesiás":10848,"raio":10849,"queria":10850,"proba":10851,"sax":10852,"ástica":10853,"250":10854,"rompi":10855,"candomblé":10856,"andeses":10857,"Zeus":10858,"cuidados":10859,"Phil":10860,"topónimo":10861,"podiam":10862,"prefeitura":10863,"Cori":10864,"Alco":10865,"Quei":10866,"pratos":10867,"servir":10868,"Nuno":10869,"FD":10870,"Sport":10871,"tum":10872,"vito":10873,"peões":10874,"load":10875,"conhece":10876,"pesquisadores":10877,"experiment":10878,"Meso":10879,"monumentos":10880,"Defesa":10881,"Aca":10882,"eva":10883,"ópia":10884,"gum":10885,"çado":10886,"fungos":10887,"desenvolveram":10888,"definitivamente":10889,"inúmeros":10890,"pedras":10891,"nutrientes":10892,"castelh":10893,"Afegan":10894,"Wilhelm":10895,"Bau":10896,"ativos":10897,"ôma":10898,"dona":10899,"tias":10900,"soviética":10901,"constel":10902,"aniversário":10903,"elite":10904,"divididos":10905,"proteger":10906,"ínua":10907,"legí":10908,"Afeganistão":10909,"BC":10910,"Ára":10911,"reú":10912,"conclusão":10913,"representada":10914,"Jaime":10915,"iniciado":10916,"lagoas":10917,"radical":10918,"Dinis":10919,"Agui":10920,"Hei":10921,"Sel":10922,"fres":10923,"óp":10924,"esp":10925,"coron":10926,"isl":10927,"vilas":10928,"Sancho":10929,"Administração":10930,"planície":10931,"hindu":10932,"Nicolau":10933,"Etiópia":10934,"Acor":10935,"Hum":10936,"Hans":10937,"imento":10938,"explos":10939,"térios":10940,"ércitos":10941,"legislação":10942,"Álvaro":10943,"frio":10944,"gma":10945,"andro":10946,"configu":10947,"contínua":10948,"Recor":10949,"Desportivo":10950,"sons":10951,"numeração":10952,"levado":10953,"Aragão":10954,"denses":10955,"Mano":10956,"ester":10957,"mega":10958,"giados":10959,"capitais":10960,"Bomb":10961,"estabelecimentos":10962,"1879":10963,"Contin":10964,"Tib":10965,"preservação":10966,"confiança":10967,"predominantemente":10968,"vantagem":10969,"contraste":10970,"Guerras":10971,"sali":10972,"zinha":10973,"poeira":10974,"Cardoso":10975,"iguais":10976,"vegetal":10977,"EEE":10978,"Catedral":10979,"constelação":10980,"Ven":10981,"zia":10982,"cint":10983,"ditos":10984,"podes":10985,"Paquistão":10986,"marco":10987,"famosos":10988,"princesa":10989,"pediu":10990,"Villa":10991,"Oxford":10992,"enzimas":10993,"3º":10994,"Ten":10995,"deseja":10996,"mai":10997,"conseguir":10998,"giram":10999,"gicos":11000,"abo":11001,"fauna":11002,"mortalidade":11003,"Frente":11004,"Frederico":11005,"classificado":11006,"vêm":11007,"familiar":11008,"Monumento":11009,"Af":11010,"Cá":11011,"ní":11012,"wor":11013,"»,":11014,"Úl":11015,"espí":11016,"pola":11017,"convi":11018,"conso":11019,"lav":11020,"parceria":11021,"palco":11022,"médica":11023,"Profess":11024,"assumir":11025,"solici":11026,"Azevedo":11027,"ii":11028,"Alca":11029,"tripul":11030,"provenientes":11031,"Ferra":11032,"mados":11033,"matri":11034,"abund":11035,"elevação":11036,"adotada":11037,"Albu":11038,"ideologia":11039,"1834":11040,"satélite":11041,"personalidade":11042,"tch":11043,"fili":11044,"fixa":11045,"foco":11046,"fonia":11047,"gama":11048,"voltar":11049,"pudesse":11050,"bancos":11051,"paredes":11052,"barão":11053,"localizados":11054,"exercí":11055,"necessários":11056,"Floren":11057,"autôno":11058,"cooperação":11059,"coluna":11060,"exílio":11061,"provas":11062,"estat":11063,"Paços":11064,"exempl":11065,"custos":11066,"acontecimentos":11067,"íssima":11068,"AP":11069,"Ly":11070,"Pé":11071,"nus":11072,"ossos":11073,"nami":11074,"olítico":11075,"bloque":11076,"(,":11077,"Cho":11078,"History":11079,"ON":11080,"heira":11081,"pesta":11082,"perdendo":11083,"calendários":11084,"instal":11085,"ingres":11086,"herdeiro":11087,"construídos":11088,"integrada":11089,"retirada":11090,"Mulher":11091,"cência":11092,"hões":11093,"icamente":11094,"tabul":11095,"mias":11096,"here":11097,"bater":11098,"orago":11099,"God":11100,"dedicado":11101,"componente":11102,"recuperação":11103,"Morte":11104,"Rena":11105,"ecológi":11106,"ásia":11107,"iso":11108,"quinto":11109,"quare":11110,"elor":11111,"plena":11112,"Foz":11113,"chive":11114,"ênfase":11115,"idiomas":11116,"aprendi":11117,"Cavaleiros":11118,"Constantinopla":11119,"abastecimento":11120,"propósito":11121,"tolicismo":11122,"Vou":11123,"bando":11124,"sens":11125,"estatal":11126,"clara":11127,"Constru":11128,"planalto":11129,"administrativas":11130,"controlar":11131,"Templo":11132,"diminuição":11133,"Marcelo":11134,"UNESCO":11135,"Direitos":11136,"Trindade":11137,"consagra":11138,"hierar":11139,"aponta":11140,"terais":11141,"necessa":11142,"Antiguidade":11143,"financeiro":11144,"distintos":11145,"ascendência":11146,"Caribe":11147,"abundância":11148,"Apo":11149,"Bet":11150,"Lé":11151,"jardim":11152,"sum":11153,"teo":11154,"versa":11155,"Capital":11156,"contrato":11157,"alizadas":11158,"simpli":11159,"1875":11160,"frutos":11161,"caracteriza":11162,"psicológi":11163,"ocorrência":11164,"apoiar":11165,"Galileu":11166,"download":11167,"Einstein":11168,"Fur":11169,"Nel":11170,"Rádio":11171,"gli":11172,"iras":11173,"decre":11174,"lová":11175,"Alva":11176,"origina":11177,"gnós":11178,"coloca":11179,"Duas":11180,"fraque":11181,"básico":11182,"literário":11183,"IDH":11184,"flora":11185,"Fazenda":11186,"Comitê":11187,"detalhes":11188,"acentu":11189,"necessariamente":11190,"Ham":11191,"Spe":11192,"cinas":11193,"neiro":11194,"marido":11195,"gravado":11196,"ety":11197,"socialistas":11198,"dizem":11199,"elétrico":11200,"clássicos":11201,"correspondente":11202,"conseguiram":11203,"meteor":11204,"mensagem":11205,"adultos":11206,"',":11207,"peru":11208,"1830":11209,"cargos":11210,"Conserva":11211,"Infante":11212,"hospi":11213,"King":11214,"OT":11215,"Ramos":11216,"aci":11217,"gri":11218,"yu":11219,"erros":11220,"teólogo":11221,"ruínas":11222,"cícli":11223,"Início":11224,"incluía":11225,"falantes":11226,"controvér":11227,"1876":11228,"explorador":11229,"arqueológicos":11230,"literária":11231,"ribeira":11232,"originais":11233,"isse":11234,"paco":11235,"Esp":11236,"Divisão":11237,"russos":11238,"derivados":11239,"causar":11240,"contribuições":11241,"Tomás":11242,"Mestre":11243,"Malta":11244,"Sus":11245,"Vla":11246,"hem":11247,"homo":11248,"gato":11249,"picas":11250,"cardeal":11251,"urt":11252,"dependentes":11253,"árqui":11254,"cromos":11255,"orgânica":11256,"continuaram":11257,"eficiente":11258,"festival":11259,"tle":11260,"domi":11261,"nie":11262,"Maca":11263,"sexto":11264,"relacionada":11265,"científicas":11266,"Garcia":11267,"variável":11268,"Christian":11269,"cálcio":11270,"Sacro":11271,"Atenas":11272,"Província":11273,"lenta":11274,"íodo":11275,"reque":11276,"tare":11277,"compõem":11278,"pacta":11279,"1840":11280,"sér":11281,"orgânicos":11282,"Hein":11283,"Platão":11284,"Bernard":11285,"Personalidades":11286,"Ví":11287,"Yu":11288,"mana":11289,"formes":11290,"culinária":11291,"voca":11292,"Carmo":11293,"már":11294,"Rafa":11295,"deveriam":11296,"gols":11297,"fruto":11298,"Diogo":11299,"partamentos":11300,"lováquia":11301,"110":11302,"Acredita":11303,"SC":11304,"inteiro":11305,"arquitet":11306,"contribuiu":11307,"Pública":11308,"gigantes":11309,"Gro":11310,"Gab":11311,"OR":11312,"Viseu":11313,"romeno":11314,"propostas":11315,"faziam":11316,"praça":11317,"turnê":11318,"Patrimônio":11319,"classificados":11320,"lógicos":11321,"alcançou":11322,"navegação":11323,"Capita":11324,"Globo":11325,"norueguês":11326,"Meio":11327,"Sci":11328,"ólica":11329,"cabal":11330,"quentes":11331,"seco":11332,"lazer":11333,"exces":11334,"gava":11335,"chada":11336,"Moinhos":11337,"dizendo":11338,"patrimônio":11339,"variáveis":11340,"sinteti":11341,"His":11342,"lun":11343,"vistos":11344,"desanex":11345,"Chaves":11346,"metropolitana":11347,"registrada":11348,"Samuel":11349,"Afro":11350,"Zo":11351,"depressão":11352,"elos":11353,"fixo":11354,"gravidade":11355,"embran":11356,"ideais":11357,"Sete":11358,"conhecer":11359,"actividades":11360,"defens":11361,"1872":11362,"plicação":11363,"cró":11364,"algodão":11365,"Liberdade":11366,"étnicos":11367,"proximidade":11368,"Barbosa":11369,"Of":11370,"Pis":11371,"Tinha":11372,"dô":11373,"esportes":11374,"rema":11375,"set":11376,"boli":11377,"cker":11378,"álcool":11379,"organizar":11380,"baixos":11381,"1877":11382,"wid":11383,"Geográfico":11384,"Renascimento":11385,"Crí":11386,"PT":11387,"hí":11388,"infor":11389,"difun":11390,"calcul":11391,"Daí":11392,"iniciada":11393,"remonta":11394,"deputados":11395,"Net":11396,"vie":11397,"exércitos":11398,"Freud":11399,"apropria":11400,"equipes":11401,"escolar":11402,"taneamente":11403,"Ina":11404,"hn":11405,"pamento":11406,"eite":11407,"templos":11408,"boas":11409,"Arcos":11410,"Frances":11411,"franco":11412,"Então":11413,"ocupado":11414,"tecnologias":11415,"Polícia":11416,"bloco":11417,"negociações":11418,"mecanismo":11419,"Atra":11420,"departamento":11421,"umas":11422,"estina":11423,"ioru":11424,"têx":11425,"ocorreram":11426,"senso":11427,"Rui":11428,"1849":11429,"Hugo":11430,"ground":11431,"diplomáticas":11432,"entender":11433,"abrange":11434,"Golfo":11435,"profundidade":11436,"recomenda":11437,"Supremo":11438,"Lag":11439,"portas":11440,"unhas":11441,"certeza":11442,"vasta":11443,"servidor":11444,"monumento":11445,"Equador":11446,"Cre":11447,"Shi":11448,"acerca":11449,"êmios":11450,"eni":11451,"priori":11452,"presos":11453,"neto":11454,"favo":11455,"Republi":11456,"discussão":11457,"urânio":11458,"vessem":11459,"intera":11460,"Ray":11461,"terapia":11462,"eleitores":11463,"Municípios":11464,"Prata":11465,"conquistar":11466,"manipul":11467,"Vatica":11468,"neutra":11469,"Flamengo":11470,"Testa":11471,"gindo":11472,"propria":11473,"Esto":11474,"núncia":11475,"indicam":11476,"baseados":11477,"classificada":11478,"NASA":11479,"Aliança":11480,"Mauri":11481,"volumes":11482,"ster":11483,"²,":11484,"sea":11485,"prota":11486,"Prote":11487,"volunt":11488,"hábi":11489,"funcional":11490,"referendo":11491,"isótopos":11492,"Jung":11493,"agi":11494,"puni":11495,"çal":11496,"comida":11497,"mentares":11498,"nasce":11499,"bricas":11500,"Pom":11501,"aprovada":11502,"governante":11503,"Biografia":11504,"Equi":11505,"lites":11506,"une":11507,"votação":11508,"voltas":11509,"jurista":11510,"nomeou":11511,"km2":11512,"circular":11513,"quadra":11514,"produzida":11515,"mediante":11516,"cobertura":11517,"Caracter":11518,"Pale":11519,"sh":11520,"raça":11521,"caba":11522,"manhã":11523,"Chan":11524,"temporada":11525,"falado":11526,"245":11527,"Feriado":11528,"Colle":11529,"revolucionário":11530,"Margarida":11531,"iam":11532,"zim":11533,"poema":11534,"meridi":11535,"feria":11536,"cerco":11537,"tógrafo":11538,"ixão":11539,"Execu":11540,"Amaro":11541,"causou":11542,"substituição":11543,"resolver":11544,"designar":11545,"batata":11546,"Cláudio":11547,"eman":11548,"iana":11549,"dições":11550,"sinto":11551,"tradu":11552,"preferi":11553,"favore":11554,"Imperial":11555,"músicos":11556,"biblioteca":11557,"Bush":11558,"Society":11559,"OC":11560,"gmun":11561,"pente":11562,"totali":11563,"pop":11564,"eil":11565,"amá":11566,"embar":11567,"ocupar":11568,"istir":11569,"atravessa":11570,"propaganda":11571,"ensinamentos":11572,"kha":11573,"dióxido":11574,"Confederação":11575,"incluir":11576,"pertencem":11577,"instalado":11578,"científicos":11579,"artesanato":11580,"recusou":11581,"Aérea":11582,"Membros":11583,"Otomano":11584,"bíbli":11585,"tipicamente":11586,"momentos":11587,"tempor":11588,"impossível":11589,"discos":11590,"beu":11591,"determinação":11592,"Britânico":11593,"afirmam":11594,"associadas":11595,"quinze":11596,"familiares":11597,"aerona":11598,"Royal":11599,"Rafael":11600,"ding":11601,"dava":11602,"rente":11603,"entar":11604,"quart":11605,"post":11606,"perigos":11607,"mús":11608,"vulc":11609,"ocorrido":11610,"PSD":11611,"coberta":11612,"bruto":11613,"influenciado":11614,"cônsul":11615,"nazista":11616,"Moderna":11617,"fle":11618,"».":11619,"óleo":11620,"reduz":11621,"maestro":11622,"tebrados":11623,"parques":11624,"placas":11625,"britânicas":11626,"Grandes":11627,"artificial":11628,"continuam":11629,"Atlético":11630,"atmosfé":11631,"linear":11632,"receitas":11633,"frágio":11634,"International":11635,"adesão":11636,"Bab":11637,"Mana":11638,"Pio":11639,"repu":11640,"tila":11641,"comissão":11642,"natal":11643,"sito":11644,"haja":11645,"motiva":11646,"tratar":11647,"terço":11648,"leve":11649,"cere":11650,"nciado":11651,"Pay":11652,"Marie":11653,"boca":11654,"perante":11655,"editor":11656,"Curitiba":11657,"identificar":11658,"Barcelona":11659,"mecanismos":11660,"sários":11661,"wis":11662,"íne":11663,"demia":11664,"archive":11665,"Armadas":11666,"acusa":11667,"representante":11668,"únior":11669,"1869":11670,"derivado":11671,"dirigido":11672,"Prémio":11673,"antropo":11674,"Seleção":11675,"tarefa":11676,"Aqu":11677,"acidente":11678,"pina":11679,"enterra":11680,"vitórias":11681,"exposições":11682,"legais":11683,"mural":11684,"assistência":11685,"claramente":11686,"Teo":11687,"turístico":11688,"caracteres":11689,"gerações":11690,"mandou":11691,"quiló":11692,"Democra":11693,"Álvares":11694,"Serviço":11695,"FC":11696,"Már":11697,"vé":11698,"traços":11699,"presi":11700,"conhecimentos":11701,"Baía":11702,"evidência":11703,"preciso":11704,"cruza":11705,"equato":11706,"explicação":11707,"asteroides":11708,"Agu":11709,"BSD":11710,"Et":11711,"Má":11712,"cter":11713,"cré":11714,"lho":11715,"orbita":11716,"pau":11717,"Alf":11718,"campanhas":11719,"ofen":11720,"céle":11721,"forçado":11722,"ystem":11723,"sugere":11724,"heim":11725,"armazenamento":11726,"gna":11727,"amino":11728,"bron":11729,"sítios":11730,"apresentado":11731,"1874":11732,"458":11733,"instalada":11734,"recusa":11735,"Saudita":11736,"episódio":11737,"width":11738,"Tour":11739,"span":11740,"catal":11741,"Alb":11742,"Marrocos":11743,"antiguidade":11744,"Roque":11745,"inspiração":11746,"deputado":11747,"relevante":11748,"Maomé":11749,"Capitania":11750,"Fou":11751,"Lula":11752,"ib":11753,"nção":11754,"psico":11755,"daquela":11756,"tografia":11757,"pronu":11758,"ranja":11759,"cultores":11760,"inidade":11761,"Roger":11762,"táculos":11763,"esperança":11764,"drogas":11765,"cke":11766,"Proto":11767,"rouca":11768,"anuais":11769,"aumentando":11770,"euros":11771,"designado":11772,"Constitucional":11773,"referida":11774,"dalena":11775,"Steph":11776,"planícies":11777,"horizont":11778,"Apolo":11779,"bons":11780,"culmin":11781,"percent":11782,"adotado":11783,"cília":11784,"actualmente":11785,"Cascais":11786,"compet":11787,"gros":11788,"oita":11789,"pista":11790,"íso":11791,"reper":11792,"havendo":11793,"mesa":11794,"geografia":11795,"Victor":11796,"apresentador":11797,"missa":11798,"burgues":11799,"térmica":11800,"litúrgico":11801,"Cinco":11802,"PD":11803,"bí":11804,"Nogueira":11805,"crimes":11806,"melo":11807,"máticos":11808,"sexta":11809,"978":11810,"económicas":11811,"ilustres":11812,"restauração":11813,"Aba":11814,"Tais":11815,"reposi":11816,"ficava":11817,"cionamento":11818,"cére":11819,"escreve":11820,"Souto":11821,"associações":11822,"adaptação":11823,"Ty":11824,"profe":11825,"1821":11826,"mino":11827,"médias":11828,"geni":11829,"diocese":11830,"Chur":11831,"Caminho":11832,"Banda":11833,"lógicas":11834,"extração":11835,"Guiana":11836,"Russo":11837,"similares":11838,"divindade":11839,"01":11840,"kan":11841,"pções":11842,"osci":11843,"quina":11844,"pagar":11845,"vocal":11846,"mineral":11847,"ciados":11848,"Paró":11849,"edições":11850,"falada":11851,"parede":11852,"Souza":11853,"Edifício":11854,"Página":11855,"Projeto":11856,"desemprego":11857,"motor":11858,"formadas":11859,"dissem":11860,"integrar":11861,"1857":11862,"wig":11863,"Luzia":11864,"plataforma":11865,"dd":11866,"recurso":11867,"sujeito":11868,"terno":11869,"zade":11870,"torres":11871,"Mateus":11872,"Novas":11873,"assassinado":11874,"Formos":11875,"vour":11876,"bispos":11877,"tropicais":11878,"numerosos":11879,"Manoel":11880,"She":11881,"cob":11882,"noma":11883,"vide":11884,"laços":11885,"perdido":11886,"irão":11887,"centrais":11888,"dispõe":11889,"cópias":11890,"Piauí":11891,".),":11892,"02":11893,"Ax":11894,"OL":11895,"nela":11896,"nascente":11897,"Software":11898,"andra":11899,"resultante":11900,"barro":11901,"Johns":11902,"mostrar":11903,"distante":11904,"desigual":11905,"Iu":11906,"Son":11907,"retornou":11908,"rechal":11909,"tira":11910,"naquela":11911,"priva":11912,"lua":11913,"fego":11914,"Maci":11915,"fama":11916,"Lud":11917,"Nik":11918,"largo":11919,"básicos":11920,"intensidade":11921,"ritmos":11922,"guerri":11923,"ticismo":11924,"PCP":11925,"ajudou":11926,"intelectuais":11927,"Sérgio":11928,"Hus":11929,"ctivo":11930,"nan":11931,"sedia":11932,"causando":11933,"Pessoas":11934,"field":11935,"recorde":11936,"aquecimento":11937,"Aliados":11938,"gária":11939,"sy":11940,"aná":11941,"lix":11942,"latitude":11943,"Coelho":11944,"adoles":11945,"consciente":11946,"pena":11947,"manes":11948,"obtido":11949,"poní":11950,"possuíam":11951,"vindos":11952,"Beja":11953,"Bruno":11954,"profundamente":11955,"protestos":11956,"lateral":11957,"Base":11958,"idê":11959,"pê":11960,"esperma":11961,"orgi":11962,"totalidade":11963,"hau":11964,"exões":11965,"let":11966,"May":11967,"círculo":11968,"mosteiro":11969,"Américas":11970,"básica":11971,"Obs":11972,"sustenta":11973,"mensagens":11974,"Florença":11975,"idênti":11976,"Ari":11977,"Meta":11978,"hemisfério":11979,"Águas":11980,"coca":11981,"rições":11982,"torado":11983,"onze":11984,"conquistas":11985,"unas":11986,"colspan":11987,"finalidade":11988,"1863":11989,"integral":11990,"ferroviária":11991,"páginas":11992,"efetu":11993,"apareceu":11994,"Brux":11995,"contemporâneos":11996,"protocolo":11997,"implementação":11998,"Nelson":11999,"Testamento":12000,"Bour":12001,"cór":12002,"rama":12003,"fiéis":12004,"contos":12005,"marcas":12006,"Carol":12007,"Moinho":12008,"vendas":12009,"Baixa":12010,"transformou":12011,"breu":12012,"tornado":12013,"1861":12014,"1866":12015,"proteína":12016,"Wilson":12017,"temala":12018,"aplicada":12019,"cerimônia":12020,"notícias":12021,"Floresta":12022,"Indonésia":12023,"abundante":12024,"Vaticano":12025,"3C":12026,"Sistemas":12027,"rocha":12028,"Outeiro":12029,"enfrenta":12030,"Secretário":12031,"Pouco":12032,"brilhante":12033,"Baptista":12034,"Giovan":12035,"965":12036,"Bem":12037,"Jim":12038,"crus":12039,"idades":12040,"nce":12041,"deca":12042,"devas":12043,"raramente":12044,"invo":12045,"enário":12046,"ponta":12047,"milí":12048,"conter":12049,"Paredes":12050,"manus":12051,"basicamente":12052,"sólido":12053,"árze":12054,"1835":12055,"quadrado":12056,"identificação":12057,"American":12058,"satélites":12059,"Guatemala":12060,"Taiwan":12061,"Características":12062,"Otto":12063,"delo":12064,"Revolta":12065,"consenso":12066,"juiz":12067,"Arque":12068,"transportes":12069,"povoações":12070,"1852":12071,"empreen":12072,"participantes":12073,"Simon":12074,"sexualidade":12075,"Macedo":12076,"ficheiro":12077,"landeses":12078,"israelense":12079,"dões":12080,"issem":12081,"inteiramente":12082,"assembleia":12083,"vales":12084,"Negra":12085,"cionismo":12086,"eventualmente":12087,"continuar":12088,"precisão":12089,"caracterizada":12090,"holandeses":12091,"Heroísmo":12092,"636":12093,"Cis":12094,"Gl":12095,"Grão":12096,"Let":12097,"Pás":12098,"dum":12099,"tulos":12100,"tiv":12101,"teísmo":12102,"confor":12103,"1822":12104,"cortes":12105,"Data":12106,"Situ":12107,"Fundo":12108,"partícula":12109,"Público":12110,"implantação":12111,"Código":12112,"Assunção":12113,"estúdio":12114,"Restau":12115,"Apenas":12116,"Evolução":12117,"Ota":12118,"dável":12119,"fado":12120,"nó":12121,"lidades":12122,"prolon":12123,"Estê":12124,"predominante":12125,"elevadas":12126,"agente":12127,"conheceu":12128,"placa":12129,"romanas":12130,"receberam":12131,"inauguração":12132,"cinemato":12133,"expressões":12134,"dívida":12135,"acompanh":12136,"otecas":12137,"Normandia":12138,"Júnior":12139,"RNA":12140,"tsu":12141,"tistas":12142,"coinci":12143,"coordena":12144,"quo":12145,"sector":12146,"log":12147,"Fernão":12148,"Perten":12149,"Período":12150,"exibi":12151,"governamentais":12152,"clore":12153,"IBM":12154,"determinadas":12155,"ficheiros":12156,"dúvida":12157,"cíclicos":12158,"Estêvão":12159,"jó":12160,"mera":12161,"saiu":12162,"presas":12163,"tempesta":12164,"Desportiva":12165,"Pires":12166,"derivada":12167,"teiras":12168,"Hidro":12169,"inimigos":12170,"reivindi":12171,"Operação":12172,"coronel":12173,"FF":12174,"Hong":12175,"areia":12176,"id":12177,"pseu":12178,"rum":12179,"égios":12180,"requis":12181,"parou":12182,"pig":12183,"cargas":12184,"triun":12185,"Joana":12186,"Trata":12187,"cristal":12188,"insetos":12189,"Fátima":12190,"ivo":12191,"armó":12192,"biografia":12193,"gregação":12194,"significativas":12195,"cliente":12196,"1862":12197,"cadastro":12198,"457":12199,"extensa":12200,"Línguas":12201,"Inicialmente":12202,"ginasta":12203,"Galeria":12204,"simultaneamente":12205,"06":12206,"Gri":12207,"íg":12208,"eslo":12209,"els":12210,"privil":12211,"prejudi":12212,"juí":12213,"produtora":12214,"téis":12215,"Camões":12216,"Fai":12217,"sociologia":12218,"historicamente":12219,"relacionamento":12220,"lizações":12221,"Amo":12222,"Gö":12223,"Nunes":12224,"Polo":12225,"difusão":12226,"nados":12227,"poemas":12228,"constituir":12229,"quaisquer":12230,"navegador":12231,"essenciais":12232,"Green":12233,"Singa":12234,"Pesquisa":12235,"Fonseca":12236,"Bei":12237,"Fora":12238,"Holo":12239,"punha":12240,"relógi":12241,"palácio":12242,"1271":12243,"Park":12244,"Saturno":12245,"Cient":12246,"Universal":12247,"sentimento":12248,"aparecem":12249,"fábrica":12250,"Freire":12251,"Colombo":12252,"Bruxelas":12253,"Clar":12254,"VA":12255,"vemente":12256,"rapper":12257,"doras":12258,"nidades":12259,"Caxias":12260,"Decla":12261,"finlandês":12262,"destacar":12263,"Barão":12264,"cionista":12265,"cristãs":12266,"NE":12267,"Pér":12268,"cte":12269,"vô":12270,"recolh":12271,"maci":12272,"citado":12273,"garam":12274,"mec":12275,"teste":12276,"proprietários":12277,"morreram":12278,"Monteiro":12279,"julgamento":12280,"Bulgária":12281,"Abel":12282,"IM":12283,"avent":12284,"sell":12285,"rival":12286,"Escu":12287,"perder":12288,"obtenção":12289,"internas":12290,"Quatro":12291,"1839":12292,"linguagens":12293,"estrangeiras":12294,"percepção":12295,"Infant":12296,"Fundações":12297,"Tibério":12298,"testes":12299,"cep":12300,"bico":12301,"presidentes":12302,"abu":12303,"Conta":12304,"pula":12305,"começam":12306,"governantes":12307,"1859":12308,"sandu":12309,"realizam":12310,"tráfego":12311,"enviado":12312,"santos":12313,"inventor":12314,"DD":12315,"Der":12316,"Ré":12317,"Várias":12318,"pse":12319,"anha":12320,"online":12321,"umbo":12322,"pereg":12323,"Cai":12324,"fundos":12325,"positiva":12326,"Santuário":12327,"típica":12328,"baseadas":12329,"parentes":12330,"localizadas":12331,"necessárias":12332,"vencedor":12333,"Energia":12334,"cérebro":12335,"Acre":12336,"IGP":12337,"Jul":12338,"Xang":12339,"bam":12340,"dulo":12341,"efica":12342,"ciou":12343,"fice":12344,"pedia":12345,"sacra":12346,"vítimas":12347,"únicos":12348,"inadora":12349,"Canal":12350,"Contra":12351,"afirmação":12352,"Harry":12353,"Passa":12354,"\":":12355,"yd":12356,"detalha":12357,"verdes":12358,"lutas":12359,"tivais":12360,"Guia":12361,"estágio":12362,"tígio":12363,"escritas":12364,"frequentes":12365,"executado":12366,"azeite":12367,"página":12368,"caracterizado":12369,"argumento":12370,"entendimento":12371,"topônimos":12372,"comerciantes":12373,"colombiano":12374,"116":12375,"Nan":12376,"idas":12377,"assi":12378,"renas":12379,"ond":12380,"foro":12381,"minha":12382,"constant":12383,"panhias":12384,"parecem":12385,"refas":12386,"Filmes":12387,"soluções":12388,"kov":12389,"descrita":12390,"teórico":12391,"oportunidade":12392,"Bona":12393,"Dur":12394,"bula":12395,"kg":12396,"coti":12397,"canta":12398,"roda":12399,"trô":12400,"preta":12401,"preocupação":12402,"maneiras":12403,"Artur":12404,"aproxima":12405,"observado":12406,"telefon":12407,"vizinha":12408,"Mercado":12409,"assinatura":12410,"Clemente":12411,"dificuldade":12412,"alteração":12413,"Filipinas":12414,"Vouga":12415,"hospitais":12416,"Tí":12417,"fina":12418,"mano":12419,"heu":12420,"Alber":12421,"crimina":12422,"fuga":12423,"interface":12424,"sementes":12425,"recebem":12426,"básicas":12427,"aparentemente":12428,"Grupos":12429,"oceanos":12430,"zuel":12431,"Couto":12432,"shows":12433,"Church":12434,"05":12435,"Das":12436,"Oeiras":12437,"Tel":12438,"teologia":12439,"eias":12440,"viera":12441,"privi":12442,"esteja":12443,"cenas":12444,"considerava":12445,"aquelas":12446,"libertação":12447,"promoção":12448,"buns":12449,"684":12450,"estimativas":12451,"nêu":12452,"Silveira":12453,"Agricultura":12454,"exatamente":12455,">{{":12456,"Interior":12457,"Jr":12458,"ídu":12459,"útil":12460,"catolicismo":12461,"questra":12462,"somb":12463,"cedo":12464,"Estrutura":12465,"Allen":12466,"Diário":12467,"alemãs":12468,"Cortes":12469,"crescer":12470,"cleo":12471,"ataca":12472,"denominações":12473,"lávia":12474,"Helena":12475,"dialetos":12476,"Gregório":12477,"Inaugu":12478,"Giu":12479,"Kh":12480,"Tru":12481,"dney":12482,"igno":12483,"ning":12484,"ácia":12485,"ray":12486,"consegue":12487,"lojas":12488,"cordas":12489,"Raul":12490,"determinados":12491,"eleitoral":12492,"sugerem":12493,"vilhão":12494,"}}</":12495,"Dor":12496,"FM":12497,"Galiza":12498,"Rem":12499,"zen":12500,"quint":12501,"desmembra":12502,"legado":12503,"embarca":12504,"correu":12505,"construídas":12506,"ordenação":12507,"restrições":12508,"rodovias":12509,"faleceu":12510,"anarquistas":12511,"Texas":12512,"Téc":12513,"Bir":12514,"Dentro":12515,"Star":12516,"Wei":12517,"his":12518,"nthi":12519,"recru":12520,"orçamento":12521,"ulada":12522,"desper":12523,"forti":12524,"zadores":12525,"crime":12526,"pédia":12527,"vencer":12528,"hospe":12529,"Divino":12530,"destacando":12531,"derrotado":12532,"holandês":12533,"circunst":12534,"gabinete":12535,"Aguiar":12536,"aderi":12537,"vana":12538,"ese":12539,"fitas":12540,"mira":12541,"lutador":12542,"adoção":12543,"Portela":12544,"tendem":12545,"orial":12546,"ardins":12547,"abriu":12548,"únicas":12549,"Reich":12550,"substituir":12551,"moviment":12552,"cavalo":12553,"igualdade":12554,"fórmula":12555,"Macedônia":12556,"desembar":12557,"Adolf":12558,"Bob":12559,"cama":12560,"patina":12561,"gun":12562,"desas":12563,"entrevista":12564,"centista":12565,"cionadas":12566,"Franz":12567,"herói":12568,"Difere":12569,"danças":12570,"continuidade":12571,"acessodata":12572,"avanços":12573,"reduzido":12574,"gravitacional":12575,".;":12576,"Hil":12577,"apreci":12578,"sindi":12579,"teor":12580,"estaria":12581,"chá":12582,"chão":12583,"constantes":12584,"segundos":12585,"envolvidos":12586,"Litu":12587,"tás":12588,"inflação":12589,"deixaram":12590,"Antigos":12591,"afirmando":12592,"comunismo":12593,"Assis":12594,"cauda":12595,"ADN":12596,"Recreativa":12597,"ucraniano":12598,"venezuel":12599,"Xangô":12600,"Zu":12601,"eros":12602,"mato":12603,"guação":12604,"vertical":12605,"contou":12606,"Madalena":12607,"crição":12608,"Compl":12609,"acordos":12610,"1831":12611,"separados":12612,"separadas":12613,"geográficas":12614,"Araú":12615,"provocou":12616,"INE":12617,"Fórmula":12618,"espes":12619,"mala":12620,"gueiras":12621,"1815":12622,"Red":12623,"reias":12624,"baseia":12625,"estrutural":12626,"Faj":12627,"independentemente":12628,"veia":12629,"financeiros":12630,"complexidade":12631,"nese":12632,"Geralmente":12633,"introduziu":12634,"considerando":12635,"URSS":12636,"axio":12637,"Kenne":12638,"Mendo":12639,"Nar":12640,"Tav":12641,"ffer":12642,"sistem":12643,"ermida":12644,"entu":12645,"ressal":12646,"more":12647,"procissão":12648,"saque":12649,"Referências":12650,"cerveja":12651,"ntivo":12652,"colocar":12653,"Universo":12654,"fábricas":12655,"olím":12656,"candidatos":12657,"profundo":12658,"EC":12659,"Pint":12660,"ceiras":12661,"matas":12662,"somos":12663,"medo":12664,"contando":12665,"Cacho":12666,"aparente":12667,"desenhos":12668,"coreana":12669,"quilómetros":12670,"114":12671,"Rou":12672,"ajus":12673,"buro":12674,"ômico":12675,"digos":12676,"parado":12677,"ilândia":12678,"visíveis":12679,"gastos":12680,"vincul":12681,"amarela":12682,"caminhos":12683,"visitar":12684,"ciclos":12685,"manifestação":12686,"permanentes":12687,"sacerdote":12688,"inguém":12689,"Jacob":12690,"constantemente":12691,"DA":12692,"wit":12693,"altar":12694,"arcebispo":12695,"tono":12696,"pagamento":12697,"percurso":12698,"nossos":12699,"métrica":12700,"cionando":12701,"senado":12702,"produzindo":12703,"Libertadores":12704,"Hall":12705,"Prado":12706,"ez":12707,"validade":12708,"doação":12709,"ism":12710,"ises":12711,"godos":12712,"recebendo":12713,"mália":12714,"definidas":12715,"brancas":12716,"sangu":12717,"Volta":12718,"parlamentar":12719,"Philip":12720,"circuito":12721,"Singapura":12722,"rati":12723,"toca":12724,"conse":12725,"gião":12726,"mineração":12727,"Camar":12728,"oriun":12729,"ógica":12730,"gerar":12731,"carácter":12732,"étnica":12733,"nazistas":12734,"Anteriores":12735,"depósitos":12736,"Páscoa":12737,"Lagos":12738,"zá":12739,"ítica":12740,"ridades":12741,"reu":12742,"eiri":12743,"descarrega":12744,"positivo":12745,"comediante":12746,"Muse":12747,"1873":12748,"linguística":12749,"mercadorias":12750,"adicional":12751,"evangé":12752,"propriamente":12753,"Tendo":12754,"ocul":12755,"inal":12756,"vivia":12757,"concurso":12758,"dessem":12759,"pedes":12760,"acto":12761,"pasta":12762,"Castel":12763,"fundadores":12764,"pólio":12765,"Shel":12766,"introduzido":12767,"exercício":12768,"cti":12769,"epacta":12770,"tância":12771,"vância":12772,"escultura":12773,"teorema":12774,"nita":12775,"Unidade":12776,"géria":12777,"sofrer":12778,"assinou":12779,"procurou":12780,"disponibili":12781,"hierarquia":12782,"Giovanni":12783,"115":12784,"Aos":12785,"Bang":12786,"Ló":12787,"ket":12788,"ut":12789,"ordina":12790,"sibilidade":12791,"conser":12792,"laterais":12793,"ating":12794,"sação":12795,"contêm":12796,"Petro":12797,"longos":12798,"vídeo":12799,"peridade":12800,"publicados":12801,"Palestina":12802,"1832":12803,"urlmorta":12804,"táceos":12805,"Corinthi":12806,"Araújo":12807,"Avis":12808,"Cass":12809,"Cór":12810,"Sula":12811,"enho":12812,"ary":12813,"nitro":12814,"olho":12815,"cela":12816,"passados":12817,"perigo":12818,"arquivour":12819,"Islândia":12820,"Taça":12821,"reuniões":12822,"potâ":12823,"tráfico":12824,"aviões":12825,"benefícios":12826,"átomo":12827,"republicano":12828,"arquivodata":12829,"perseguição":12830,"camponeses":12831,"Vladi":12832,"arquivourl":12833,"IR":12834,"nele":12835,"capí":12836,"rotas":12837,"hadas":12838,"ceis":12839,"Convenção":12840,"Carnaval":12841,"1837":12842,"frutas":12843,"queiros":12844,"eletrônicos":12845,"03":12846,"B0":12847,"Bil":12848,"Gên":12849,"Sir":12850,"Wat":12851,"areas":12852,"invenção":12853,"entas":12854,"conversão":12855,"Estima":12856,"corro":12857,"Secund":12858,"tende":12859,"beta":12860,"relato":12861,"aprovado":12862,"senhores":12863,"Terras":12864,"Ribeirão":12865,"produzidas":12866,"concentra":12867,"static":12868,"revelou":12869,"federais":12870,"avião":12871,"Clara":12872,"CAOP":12873,"reivindica":12874,"Plutão":12875,"Infraestrutura":12876,"Paysandu":12877,"Asi":12878,"BAD":12879,"Kong":12880,"Zé":12881,"ctores":12882,"egal":12883,"etária":12884,"estabili":12885,"merca":12886,"etz":12887,"seguiram":12888,"Free":12889,"Nigéria":12890,"1854":12891,"Contem":12892,"atribuída":12893,"compreender":12894,"benefici":12895,"ângulos":12896,"Houve":12897,"sobrevivência":12898,"intitulado":12899,"4d":12900,"Apresent":12901,"Reno":12902,"cistas":12903,"ânt":12904,"caro":12905,"foz":12906,"perde":12907,"Paula":12908,"partidas":12909,"internos":12910,"celer":12911,"essência":12912,"integrantes":12913,"equações":12914,"educacional":12915,"notícia":12916,"ocasiões":12917,"poluição":12918,"5A":12919,"BT":12920,"Sun":12921,"Vide":12922,"_b":12923,"cário":12924,"ear":12925,"glas":12926,"icas":12927,"vém":12928,"divina":12929,"teatra":12930,"onel":12931,"ongo":12932,"1500":12933,"Romênia":12934,"Anna":12935,"criaram":12936,"trabalhou":12937,"roupas":12938,"externo":12939,"técnicos":12940,"orientais":12941,"112":12942,"5E":12943,"9104":12944,"B8":12945,"Brás":12946,"H2":12947,"Tos":12948,"ite":12949,"érica":12950,"tarefas":12951,"toral":12952,"vimentos":12953,"previa":12954,"vasto":12955,"disputas":12956,"laboratório":12957,"Maurício":12958,"probabilidade":12959,"1000":12960,"9b":12961,"B3C":12962,"Kö":12963,"Stra":12964,"Xavi":12965,"yan":12966,"orna":12967,"pressões":12968,"graves":12969,"critérios":12970,"ganês":12971,"cloro":12972,"longas":12973,"fundament":12974,"possuindo":12975,"Sax":12976,"Ciclo":12977,"gerou":12978,"complexa":12979,"4946":12980,"feminina":12981,"Veneza":12982,"Mozart":12983,"9657":12984,"Corinthians":12985,"4AC":12986,"4FB":12987,"B458":12988,"C56":12989,"F684":12990,"GNU":12991,"Sex":12992,"UC":12993,"e9b":12994,"tcheco":12995,"maç":12996,"quenta":12997,"companhias":12998,"Algo":12999,"carb":13000,"irri":13001,"Conforme":13002,"bomba":13003,"acla":13004,"Senna":13005,"consideravelmente":13006,"crates":13007,"etapa":13008,"divididas":13009,"80e9b":13010,"7023":13011,"39C56":13012,"concedido":13013,"44F":13014,"43EEE":13015,"homenage":13016,"Finalmente":13017,"54fe":13018,"511271":13019,"Virgí":13020,"consequentemente":13021,"combustível":13022,"1F3":13023,"1F5":13024,"chileno":13025,"DB4AC":13026,"Espanhola":13027,"BD39C56":13028,"Falecimentos":13029,"FD1F3":13030,"Acordo":13031,"24580e9b":13032,"armónica":13033,"B0B8":13034,"BADF684":13035,"4d21":13036,"5E5A":13037,"B3C55":13038,"4FB9":13039,"43EEE1F5":13040,"511271f":13041,"DB4AC44F":13042,"BD39C56FD1F3":13043,"24580e9b7023":13044,"BADF684B3C55":13045,"Mü":13046,"ôs":13047,"roch":13048,"supe":13049,"provin":13050,"fregmun":13051,"tendências":13052,"Quad":13053,"correm":13054,"distcaop":13055,"2013120":13056,"cemi":13057,"dizia":13058,"judaísmo":13059,"90636":13060,"distribuídos":13061,"prosperidade":13062,"Visconde":13063,"mexicana":13064,"guitarra":13065,"07143":13066,"padroeiro":13067,"divindades":13068,"2013_0":13069,"2013_2":13070,"caop_download":13071,"caop_2013_0":13072,"jurisdição":13073,"repository":13074,"457_b":13075,"areasfregmun":13076,"Xavier":13077,"distcaop2013_2":13078,"201312090636":13079,"07143457_b":13080,"areasfregmundistcaop2013_2":13081,"20131209063645":13082,"07143457_b511271f":13083,"2ª":13084,"fria":13085,"vente":13086,"petro":13087,"pior":13088,"trem":13089,"fazenda":13090,"sível":13091,"solares":13092,"Traves":13093,"nicamente":13094,"circul":13095,"concedeu":13096,"Subdivisões":13097,"divulgação":13098,"confronto":13099,"1ª":13100,"Lus":13101,"Scho":13102,"kar":13103,"dono":13104,"eró":13105,"tecla":13106,"metodo":13107,"verso":13108,"privados":13109,"contar":13110,"continha":13111,"persa":13112,"uniforme":13113,"colocou":13114,"Rica":13115,"aprovou":13116,"Caldas":13117,"torneio":13118,"fronteiri":13119,"Chica":13120,"invasões":13121,"Alexandria":13122,"Brown":13123,"alfabetização":13124,"acabaram":13125,"Times":13126,"rebeldes":13127,"marítima":13128,"acelera":13129,"aparência":13130,"Apare":13131,"Fri":13132,"Tiago":13133,"otoma":13134,"macro":13135,"desportivo":13136,"Bach":13137,"dioca":13138,"estátua":13139,"salas":13140,"surgem":13141,"ânsito":13142,"índices":13143,"evide":13144,"Índias":13145,"Williams":13146,"Domini":13147,"Gastronomia":13148,"Esperança":13149,"paralelo":13150,"nacionalidade":13151,"colaboração":13152,"bombarde":13153,"Ji":13154,"TS":13155,"feli":13156,"sk":13157,"mau":13158,"sey":13159,"socio":13160,"fio":13161,"ménia":13162,"Casas":13163,"habitação":13164,"criador":13165,"ndar":13166,"publicações":13167,"Colum":13168,"especialistas":13169,"festo":13170,"Milão":13171,"territoriais":13172,"argumenta":13173,"fotografia":13174,"intervalo":13175,"113":13176,"Fas":13177,"voos":13178,"1820":13179,"1800":13180,"chefes":13181,"Baviera":13182,"típicos":13183,"....":13184,"primitiva":13185,"UNI":13186,"fragmentos":13187,"Trabalha":13188,"Desambiguação":13189,"Liberal":13190,"tabuleiro":13191,"bronze":13192,"Rita":13193,"Umb":13194,"fini":13195,"dete":13196,"reconstrução":13197,"tavam":13198,"consist":13199,"orixás":13200,"hiper":13201,"acção":13202,"álises":13203,"denominados":13204,"demográfica":13205,"experimentos":13206,"text":13207,"Britânica":13208,"geometria":13209,"industrialização":13210,"USP":13211,"câm":13212,"compromis":13213,"Panamá":13214,"abolição":13215,"Numa":13216,"dram":13217,"game":13218,"ónias":13219,"remanes":13220,"dite":13221,"sair":13222,"pião":13223,"jamento":13224,"cílios":13225,"off":13226,"áldica":13227,"Ramal":13228,"adicionais":13229,"observou":13230,"reduzida":13231,"soberano":13232,"domésticos":13233,"expectativa":13234,"Governador":13235,"Ato":13236,"Dru":13237,"agu":13238,"búl":13239,"dânia":13240,"eri":13241,"sch":13242,"radores":13243,"enxad":13244,"tuno":13245,"onista":13246,"Carneiro":13247,"querque":13248,"falha":13249,"Formação":13250,"empregados":13251,"iniciando":13252,"precisamente":13253,"adeptos":13254,"refugiados":13255,"semelhança":13256,"prisioneiros":13257,"configuração":13258,"enfer":13259,"nativa":13260,"ranking":13261,"maré":13262,"disposição":13263,"chegam":13264,"ologista":13265,"atração":13266,"apresentadora":13267,"zere":13268,"oferecer":13269,"protestante":13270,"capitania":13271,"íbano":13272,"uminense":13273,"influenciada":13274,"Felipe":13275,"sessões":13276,"árzea":13277,"Aquil":13278,"maca":13279,"1810":13280,"brado":13281,"Maxi":13282,"influente":13283,"feridos":13284,"denomin":13285,"afirmar":13286,"1858":13287,"restabele":13288,"Universitário":13289,"aliado":13290,"Delgada":13291,"ensaio":13292,"Ambos":13293,"Heinrich":13294,"AM":13295,"Abreu":13296,"Epi":13297,"Py":13298,"RJ":13299,"mapa":13300,"paga":13301,"critos":13302,"Inverno":13303,"Lucas":13304,"género":13305,"africanas":13306,"segmentos":13307,"mínima":13308,"atitude":13309,"ínio":13310,"úria":13311,"rode":13312,"comenda":13313,"concili":13314,"biológica":13315,"estética":13316,"neve":13317,"onalmente":13318,"auge":13319,"passava":13320,"pouso":13321,"belas":13322,"atualidade":13323,"adição":13324,"agricultores":13325,"manufa":13326,"concluiu":13327,"padroeira":13328,"úrbios":13329,"Núcleo":13330,"numerosas":13331,"clórico":13332,"emanjá":13333,"Ide":13334,"Líbano":13335,"Pant":13336,"Tou":13337,"Tanto":13338,"ctu":13339,"hé":13340,"orden":13341,"ligando":13342,"tral":13343,"impressão":13344,"Caça":13345,"típico":13346,"necessi":13347,"1856":13348,"pping":13349,"show":13350,"Penafiel":13351,"Pene":13352,"ede":13353,"oks":13354,"coopera":13355,"qué":13356,"quismo":13357,"ligas":13358,"vidro":13359,"Escolas":13360,"ístas":13361,"adja":13362,"subdividido":13363,"campus":13364,"éscimo":13365,"colocação":13366,"cometas":13367,"Presidência":13368,"Normal":13369,"experimental":13370,"remoto":13371,"magnética":13372,"mantido":13373,"atletas":13374,"dispositivo":13375,"avaliação":13376,"Music":13377,"Front":13378,"restaurantes":13379,"Renato":13380,"Ans":13381,"cca":13382,"redu":13383,"exista":13384,"amer":13385,"primor":13386,"subje":13387,"Compan":13388,"Dessa":13389,"Rico":13390,"edificado":13391,"tornaria":13392,"vinhos":13393,"Tailândia":13394,"tinga":13395,"1808":13396,"batalhas":13397,"Declaração":13398,"bulo":13399,"enha":13400,"suporta":13401,"gidos":13402,"home":13403,"inados":13404,"hebra":13405,"1828":13406,"Viana":13407,"genda":13408,"venções":13409,"definidos":13410,"imagin":13411,"exercer":13412,"efetivamente":13413,"favorável":13414,"absoluto":13415,"Infância":13416,"Figueiredo":13417,"LP":13418,"festi":13419,"sina":13420,"delimi":13421,"seram":13422,"ternidade":13423,"vete":13424,"1814":13425,"estel":13426,"Cova":13427,"mandioca":13428,"cípul":13429,"Nazar":13430,"book":13431,"Depu":13432,"genético":13433,"feijão":13434,"Ortodo":13435,"gadora":13436,"estrangeira":13437,"aceitar":13438,"existiu":13439,"infinito":13440,"proveniente":13441,"relevantes":13442,"Io":13443,"nór":13444,"plí":13445,"taba":13446,"eios":13447,"resídu":13448,"goras":13449,"prestígio":13450,"chumbo":13451,"carnaval":13452,"Guar":13453,"ology":13454,"Ford":13455,"desaparece":13456,"acadêmicos":13457,"Freitas":13458,"Humano":13459,"Espada":13460,"proximidades":13461,"Passos":13462,"emancipação":13463,"Ludwig":13464,"Apol":13465,"Dam":13466,"Jen":13467,"amar":13468,"eamento":13469,"ilegal":13470,"rey":13471,"alinha":13472,"entraram":13473,"tiro":13474,"queiro":13475,"usões":13476,"corda":13477,"nomeação":13478,"fluido":13479,"matemáticos":13480,"desencade":13481,"Basto":13482,"Lingu":13483,"Isaac":13484,"urbanização":13485,"civilizações":13486,"aérea":13487,"incêndio":13488,"08":13489,"Iemanjá":13490,"Jones":13491,"Mina":13492,"revesti":13493,"pato":13494,"curios":13495,"poderoso":13496,"futura":13497,"dissi":13498,"desenvolvidas":13499,"Biologia":13500,"atacar":13501,"plicações":13502,"causto":13503,"Prefeitura":13504,"blocos":13505,"Trabalho":13506,"absorção":13507,"segmento":13508,"múltiplos":13509,"Lúcio":13510,"ponímia":13511,"CC":13512,"HIV":13513,"bulos":13514,"nho":13515,"orregião":13516,"exam":13517,"teros":13518,"imó":13519,"bada":13520,"minoria":13521,"Capelas":13522,"tenente":13523,"nuvens":13524,"Monar":13525,"reconhecer":13526,"apoiado":13527,"comprome":13528,"combustíveis":13529,"aceleração":13530,"deserto":13531,"acredi":13532,"pent":13533,"maj":13534,"vaga":13535,"elevados":13536,"Vice":13537,"budistas":13538,"administrativo":13539,"estabelecendo":13540,"mínio":13541,"ând":13542,"cussões":13543,"aproximação":13544,"executar":13545,"causada":13546,"Malásia":13547,"tronco":13548,"Serviços":13549,"Sérvia":13550,"nervoso":13551,"cocaína":13552,"patinador":13553,"Agência":13554,"Cô":13555,"qü":13556,"emissão":13557,"levam":13558,"servem":13559,"Coração":13560,"certamente":13561,"pleno":13562,"populoso":13563,"Inácio":13564,"nomeados":13565,"regente":13566,"transformar":13567,"Somente":13568,"diminuir":13569,"montanha":13570,"primavera":13571,"Restauração":13572,"Chicago":13573,"Monde":13574,"Nam":13575,"ll":13576,"tris":13577,"asca":13578,"rine":13579,"recre":13580,"cair":13581,"elhos":13582,"nianos":13583,"1824":13584,"conspiração":13585,"poderos":13586,"Carlo":13587,"Lugares":13588,"Tocant":13589,"surrei":13590,"proprietário":13591,"folha":13592,"oxidação":13593,"Diego":13594,"egípcio":13595,"OTAN":13596,"Bron":13597,"sky":13598,"cogni":13599,"asa":13600,"engloba":13601,"quetebol":13602,"dest":13603,"subi":13604,"zações":13605,"1825":13606,"Novos":13607,"juventude":13608,"Concílio":13609,"visando":13610,"jogar":13611,"Explo":13612,"apresentada":13613,"Neto":13614,"publica":13615,"Meda":13616,"clientes":13617,"Nascimento":13618,"realismo":13619,"ordenado":13620,"Chico":13621,"instruções":13622,"alcance":13623,"Matem":13624,"Obje":13625,"tribunais":13626,"espectro":13627,"ancestral":13628,"junção":13629,"úmido":13630,"-,":13631,"Gem":13632,"ógrafo":13633,"combater":13634,"pam":13635,"tudes":13636,"Alan":13637,"1758":13638,"goslávia":13639,"automóveis":13640,"Colônia":13641,"Elvas":13642,"ênus":13643,"patinadora":13644,"considerou":13645,"excelente":13646,"Lança":13647,"ken":13648,"modos":13649,"paradig":13650,"gidas":13651,"Esporte":13652,"heta":13653,"fariz":13654,"visa":13655,"prés":13656,"Indi":13657,"Cambo":13658,"mouros":13659,"coleta":13660,"polê":13661,"permanecer":13662,"liderados":13663,"inferiores":13664,"Intro":13665,"bibliotecas":13666,"licença":13667,"Através":13668,"Manaus":13669,"ová":13670,"pás":13671,"encarre":13672,"tomb":13673,"istrou":13674,"Chã":13675,"fazendas":13676,"variadas":13677,"variantes":13678,"mantinha":13679,"Benedi":13680,"Claude":13681,"reconhece":13682,"Criação":13683,"fertilidade":13684,"contínuo":13685,"angai":13686,"Eva":13687,"OM":13688,"Vênus":13689,"revisão":13690,"enfraque":13691,"bit":13692,"Esportes":13693,"grada":13694,"abra":13695,"adversário":13696,"produções":13697,"avista":13698,"dezesse":13699,"parecer":13700,"ocupando":13701,"barões":13702,"Hay":13703,"popularmente":13704,"Chipre":13705,"terminal":13706,"Shelley":13707,"Avi":13708,"Gan":13709,"íons":13710,"habilidade":13711,"descar":13712,"filhas":13713,"fibras":13714,"habitat":13715,"Micro":13716,"épocas":13717,"naturalista":13718,"competições":13719,"Simão":13720,"santa":13721,"Douglas":13722,"gerencia":13723,"gnóstico":13724,"embarcações":13725,"Eixo":13726,"Hill":13727,"Xangai":13728,"repressão":13729,"laranja":13730,"postamente":13731,"casar":13732,"gravação":13733,"meso":13734,"elétron":13735,"contribuíram":13736,"aplicado":13737,"lendas":13738,"Chefe":13739,"House":13740,"soberanos":13741,"Anta":13742,"Bál":13743,"Bell":13744,"ED":13745,"aulas":13746,"vass":13747,"espont":13748,"encora":13749,"confe":13750,"despor":13751,"monta":13752,"bach":13753,"ciada":13754,"Condes":13755,"partiu":13756,"Morais":13757,"Desporto":13758,"Anthon":13759,"Lajes":13760,"Beatriz":13761,"Contro":13762,"separado":13763,"permaneceram":13764,"aparecimento":13765,"sucedida":13766,"literalmente":13767,"deverá":13768,"Haroldo":13769,"Nag":13770,"mór":13771,"almirante":13772,"despes":13773,"preda":13774,"prefere":13775,"clero":13776,"incluiu":13777,"Font":13778,"populari":13779,"Ribeiras":13780,"atinga":13781,"Filóso":13782,"1842":13783,"festivais":13784,"provoca":13785,"funcionar":13786,"suicídio":13787,"Líbia":13788,"inimigo":13789,"emeyer":13790,"Vladimir":13791,"Ando":13792,"Cando":13793,"Todo":13794,"ey":13795,"mist":13796,"ppe":13797,"astronomia":13798,"ritas":13799,"ditas":13800,"patia":13801,"destinos":13802,"monia":13803,"promes":13804,"pez":13805,"pilha":13806,"tribunal":13807,"gerando":13808,"credo":13809,"Parte":13810,"coloração":13811,"pertencer":13812,"1851":13813,"Beat":13814,"originou":13815,"1846":13816,"chuvos":13817,"atender":13818,"Sampa":13819,"irmãs":13820,"04":13821,"Dados":13822,"Spi":13823,"rano":13824,"comarca":13825,"confis":13826,"gicas":13827,"fogos":13828,"discípul":13829,"Condado":13830,"organizou":13831,"Niemeyer":13832,"variante":13833,"trópole":13834,"iniciar":13835,"ferroviário":13836,"complexas":13837,"condenado":13838,"Grego":13839,"Brun":13840,"Considera":13841,"câmbio":13842,"Ajuda":13843,"Vaz":13844,"gla":13845,"hl":13846,"mail":13847,"armada":13848,"nadas":13849,"conferência":13850,"pastor":13851,"estáveis":13852,"Juliano":13853,"sódio":13854,"naturalmente":13855,"Ern":13856,"1844":13857,"fenó":13858,"Benjam":13859,"estratégias":13860,"nauta":13861,"grãos":13862,"questiona":13863,"cinturão":13864,"aminoácidos":13865,"Lituânia":13866,"().":13867,"Sor":13868,"beira":13869,"feiras":13870,"oral":13871,"devol":13872,"coso":13873,"matérias":13874,"causado":13875,"mura":13876,"torce":13877,"populosa":13878,"colabora":13879,"álbuns":13880,"cinquenta":13881,"imamente":13882,"operacionais":13883,"Munique":13884,"integrante":13885,"cadeias":13886,"negativa":13887,"Franklin":13888,"Félix":13889,"reúne":13890,"Complexo":13891,"Anthony":13892,"Tâ":13893,"gendo":13894,"lise":13895,"esma":13896,"inando":13897,"respe":13898,"resga":13899,"moa":13900,"bitas":13901,"imposto":13902,"Redo":13903,"trong":13904,"Sepul":13905,"Deu":13906,"passos":13907,"Terri":13908,"governamental":13909,"evidente":13910,"vision":13911,"rebelião":13912,"Georges":13913,"bizantino":13914,"Fajã":13915,"Thom":13916,"Tito":13917,"imu":13918,"esquele":13919,"alum":13920,"anéis":13921,"diário":13922,"morais":13923,"cereais":13924,"jamais":13925,"tribo":13926,"viaja":13927,"transforma":13928,"estudou":13929,"Sergi":13930,"Origem":13931,"glob":13932,"politano":13933,"profundas":13934,"plural":13935,"Horta":13936,"liberalismo":13937,"traduzido":13938,"Steve":13939,"ont":13940,"rioso":13941,"talo":13942,"inista":13943,"informa":13944,"ropo":13945,"viet":13946,"sora":13947,"parcial":13948,"mburgo":13949,"Pont":13950,"rária":13951,"Bak":13952,"Vermel":13953,"encontraram":13954,"Netuno":13955,"variados":13956,"1833":13957,"umont":13958,"australiana":13959,"modalidade":13960,"Otaviano":13961,"Travessa":13962,"Mó":13963,"TI":13964,"jal":13965,"nistas":13966,"tari":13967,"orno":13968,"alfa":13969,"gie":13970,"formais":13971,"estatística":13972,"premi":13973,"jazz":13974,"quita":13975,"disto":13976,"bebidas":13977,"Life":13978,"colos":13979,"cença":13980,"importações":13981,"espaciais":13982,"opção":13983,"atua":13984,"Jeová":13985,"Prima":13986,"cênt":13987,"Indústria":13988,"acompanhado":13989,"imperadores":13990,"jesuítas":13991,"Alagoas":13992,"Cé":13993,"mismo":13994,"náu":13995,"supostamente":13996,"Almada":13997,"Conhe":13998,"hip":13999,"Frederi":14000,"turcos":14001,"cantil":14002,"violenta":14003,"suspei":14004,"Russell":14005,"atômico":14006,"René":14007,"NO":14008,"Pira":14009,"Tau":14010,"Tche":14011,"Wer":14012,"detri":14013,"rapa":14014,"dania":14015,"datada":14016,"remos":14017,"poles":14018,"1845":14019,"Paio":14020,"marro":14021,"Naz":14022,"brin":14023,"tentando":14024,"decisiva":14025,"aceitação":14026,"concluída":14027,"meteu":14028,"recuperar":14029,"ecossistemas":14030,"Tocantins":14031,"System":14032,"uncia":14033,"seção":14034,"tuber":14035,"paleo":14036,"beth":14037,"hero":14038,"Barca":14039,"etapas":14040,"antece":14041,"croata":14042,"Sicília":14043,"ânticos":14044,"empregado":14045,"descendente":14046,"medievais":14047,"Gaspar":14048,"assegurar":14049,"glând":14050,"impedir":14051,"sugeriu":14052,"degradação":14053,"ligeiramente":14054,"sintomas":14055,"Johnson":14056,"Benjamin":14057,"Amor":14058,"Eul":14059,"Emi":14060,"Igrejas":14061,"SO":14062,"Tun":14063,"Vera":14064,"Ya":14065,"pha":14066,"ppen":14067,"mali":14068,"mane":14069,"entregue":14070,"clos":14071,"habitada":14072,"colocada":14073,"avô":14074,"rendimento":14075,"definições":14076,"Havia":14077,"1838":14078,"declarado":14079,"descobertos":14080,"1847":14081,"intenso":14082,"precisam":14083,"Edgar":14084,"wski":14085,"teóricos":14086,"ancestrais":14087,"marxismo":14088,"Nazaré":14089,"Eis":14090,"Nº":14091,"ninguém":14092,"maras":14093,"dilh":14094,"bica":14095,"1823":14096,"nascidos":14097,"gosto":14098,"envolvido":14099,"Anton":14100,"Judi":14101,"biodiversidade":14102,"substituída":14103,"tomaram":14104,"internacionalmente":14105,"vizinho":14106,"tics":14107,"Azul":14108,"hall":14109,"provém":14110,"influenciou":14111,"aéreo":14112,"Honra":14113,"Gustavo":14114,"aceitou":14115,"surreição":14116,"EB":14117,"MT":14118,"rê":14119,"lada":14120,"atende":14121,"consorte":14122,"derme":14123,"haste":14124,"Lewis":14125,"Dion":14126,"escrava":14127,"estratégica":14128,"Virgem":14129,"chester":14130,"cuidado":14131,"obrigatório":14132,"Fei":14133,"oposi":14134,"recla":14135,"camentos":14136,"vião":14137,"varie":14138,"trado":14139,"Pacto":14140,"baía":14141,"Unix":14142,"táculo":14143,"estimado":14144,"décimo":14145,"começando":14146,"constituindo":14147,"angular":14148,"capitalista":14149,"fiscal":14150,"cidadania":14151,"acadêmica":14152,"obrigado":14153,"estimativa":14154,"enfrentou":14155,"Pequim":14156,"ceae":14157,"Classificação":14158,"Executivo":14159,"Democrata":14160,"Cham":14161,"Dei":14162,"eficiência":14163,"rós":14164,"zela":14165,"escla":14166,"retornar":14167,"machos":14168,"seio":14169,"pamentos":14170,"viva":14171,"vante":14172,"lat":14173,"tragem":14174,"ncipes":14175,"braço":14176,"judeu":14177,"1755":14178,"Arco":14179,"nacionalista":14180,"Mérito":14181,"respondeu":14182,"reuniu":14183,"Grêmio":14184,"registrados":14185,"Vasconcel":14186,"Urban":14187,"adquiriu":14188,"background":14189,"nêutrons":14190,"Avel":14191,"Belas":14192,"Gram":14193,"Pós":14194,"RI":14195,"Tira":14196,"fras":14197,"hélio":14198,"ign":14199,"datado":14200,"repúblicas":14201,"orbi":14202,"cares":14203,"latina":14204,"lução":14205,"torcida":14206,"Comba":14207,"nst":14208,"bolismo":14209,"ocupou":14210,"mandatos":14211,"Buda":14212,"Tempo":14213,"Reserva":14214,"radicais":14215,"cavalos":14216,"molécula":14217,"fêmeas":14218,"College":14219,"Stephen":14220,"circunstâncias":14221,"Aquiles":14222,"Arouca":14223,"Brito":14224,"Pil":14225,"racha":14226,"dobra":14227,"coberto":14228,"alco":14229,"ult":14230,"alizão":14231,"unificação":14232,"puro":14233,"Carre":14234,"ceno":14235,"Goi":14236,"Docu":14237,"Juventude":14238,"denominadas":14239,"Cristina":14240,"computa":14241,"abandonar":14242,"enviados":14243,"islâmica":14244,"Cemi":14245,"Eric":14246,"Open":14247,"VD":14248,"aquisição":14249,"gul":14250,"ló":14251,"ña":14252,"emprés":14253,"enci":14254,"segre":14255,"comé":14256,"perdas":14257,"Pad":14258,"visuais":14259,"transformações":14260,"Lugar":14261,"rence":14262,"salários":14263,"separada":14264,"revela":14265,"romancista":14266,"impulsiona":14267,"dialeto":14268,"Alcoba":14269,"Albuquerque":14270,"controvérsia":14271,"Tavares":14272,"Canu":14273,"Hino":14274,"Jour":14275,"cton":14276,"humo":14277,"dantes":14278,"eirinha":14279,"ulados":14280,"contagem":14281,"Pau":14282,"nses":14283,"Rece":14284,"riscos":14285,"Pear":14286,"indiana":14287,"interações":14288,"Muito":14289,"senho":14290,"vinos":14291,"observador":14292,"treinamento":14293,"Andr":14294,"extraordin":14295,"1789":14296,"Espaço":14297,"disciplinas":14298,"marxista":14299,"Todavia":14300,"iorubá":14301,"consecu":14302,"Cle":14303,"Kant":14304,"MG":14305,"farma":14306,"ie":14307,"erto":14308,"tocar":14309,"gaú":14310,"garia":14311,"chou":14312,"vasos":14313,"clé":14314,"treze":14315,"trabalhando":14316,"estadunidenses":14317,"Cristã":14318,"Montene":14319,"August":14320,"Livros":14321,"registrado":14322,"desempenha":14323,"negócio":14324,"Abraão":14325,"proeminente":14326,"isolamento":14327,"Afrodite":14328,"potâmia":14329,"?).":14330,"Pam":14331,"jano":14332,"arbi":14333,"comparti":14334,"conferi":14335,"suplement":14336,"Espi":14337,"Guan":14338,"apresentações":14339,"outrora":14340,"Tay":14341,"Praga":14342,"Amaral":14343,"intensi":14344,"Pensa":14345,"Montem":14346,"drelé":14347,"sueca":14348,"antropó":14349,"Albânia":14350,"900":14351,";\"|":14352,"Stre":14353,"Utili":14354,"pta":14355,"sú":14356,"vinas":14357,"zantes":14358,"ère":14359,"deposi":14360,"emisso":14361,"diária":14362,"silv":14363,"seguro":14364,"chefi":14365,"Law":14366,"Theo":14367,"barcos":14368,"cidadão":14369,"identifica":14370,"1792":14371,"emergência":14372,"marinhos":14373,"Exemplo":14374,"quarenta":14375,"Sampaio":14376,"Montenegro":14377,"Tit":14378,"ave":14379,"cci":14380,"trio":14381,"indis":14382,"quim":14383,"sie":14384,"vaco":14385,"excesso":14386,"leal":14387,"contas":14388,"performa":14389,"ders":14390,"influentes":14391,"surgir":14392,"Graciosa":14393,"captu":14394,"inspirado":14395,"gótico":14396,"patente":14397,"costumam":14398,"vantagens":14399,"hardware":14400,"auxílio":14401,"iluminação":14402,"Aves":14403,"Eliza":14404,"Lav":14405,"gali":14406,"work":14407,"óquei":14408,"delibera":14409,"rad":14410,"maia":14411,"sez":14412,"tola":14413,"vier":14414,"parasi":14415,"paraguaio":14416,"lucra":14417,"chor":14418,"bacias":14419,"tágoras":14420,"Leal":14421,"falam":14422,"Valongo":14423,"instabilidade":14424,"Atlântica":14425,"magistra":14426,"distinta":14427,"aquilo":14428,"Símb":14429,"Capitão":14430,"Shak":14431,"presidenciais":14432,"jurídica":14433,"Genebra":14434,"Mesopotâmia":14435,"sindical":14436,"Company":14437,"fação":14438,"kel":14439,"éria":14440,"deficiência":14441,"departamentos":14442,"renascimento":14443,"secos":14444,"divino":14445,"costeira":14446,"Covilh":14447,"orienta":14448,"Lie":14449,"chevi":14450,"angol":14451,"Raim":14452,"ditador":14453,"estreia":14454,"Bandas":14455,"Java":14456,"dominada":14457,"renov":14458,"Russa":14459,"noruegues":14460,"dirigente":14461,"Salazar":14462,"aeroportos":14463,"Leopoldo":14464,"furt":14465,"intuito":14466,"Holocausto":14467,"cemitério":14468,"DJ":14469,"Pei":14470,"Ras":14471,"bei":14472,"zos":14473,"eiga":14474,"conduz":14475,"pertur":14476,"precur":14477,"intimamente":14478,"Mada":14479,"Revolucion":14480,"Navar":14481,"Conquista":14482,"produtividade":14483,"Roman":14484,"Quar":14485,"dromo":14486,"representações":14487,"salário":14488,"prédios":14489,"Ernst":14490,"1843":14491,"tentaram":14492,"Pesca":14493,"organizados":14494,"oxigénio":14495,"Lenin":14496,"emigração":14497,"exemplares":14498,"célebre":14499,"ópera":14500,"ónimo":14501,"macia":14502,"granito":14503,"eley":14504,"chim":14505,"envolvem":14506,"Protesta":14507,"Center":14508,"turísticos":14509,"coletivo":14510,"ferrovia":14511,"talegre":14512,"muçulmana":14513,"relevância":14514,"procedimentos":14515,"sábado":14516,"Escritores":14517,"peregri":14518,"Mondego":14519,"(...":14520,"Blu":14521,"Elas":14522,"Las":14523,"RS":14524,"revistas":14525,"tail":14526,"tubo":14527,"desporto":14528,"lutar":14529,"servindo":14530,"fachada":14531,"dependem":14532,"danha":14533,"compositores":14534,"subsistência":14535,"datam":14536,"Leite":14537,"coloniais":14538,"proporcional":14539,"Mercúrio":14540,"secundária":14541,"Gilberto":14542,"benefi":14543,"Intel":14544,"longitude":14545,"Covilhã":14546,"Kir":14547,"White":14548,"ílica":14549,"dieta":14550,"loga":14551,"Espé":14552,"alizam":14553,"Nome":14554,"Portalegre":14555,"prêmios":14556,"gastronomia":14557,"odoro":14558,"modernismo":14559,"frequente":14560,"extremidade":14561,"comparado":14562,"Holly":14563,"Global":14564,"interessante":14565,"cirurgia":14566,"reputação":14567,"[...":14568,"sis":14569,"rot":14570,"servida":14571,"fechado":14572,"Magno":14573,"marcha":14574,"discre":14575,"acusado":14576,"rinhas":14577,"Torn":14578,"Filarmónica":14579,"Tudo":14580,"retirar":14581,"argentina":14582,"Planalto":14583,"elaboração":14584,"regularmente":14585,"singular":14586,"Filósofos":14587,"LE":14588,"Oi":14589,"Sum":14590,"análises":14591,"nominal":14592,"lian":14593,"simo":14594,"zaram":14595,"cosmo":14596,"1811":14597,"camp":14598,"etno":14599,"101":14600,"Tradi":14601,"economias":14602,"cientemente":14603,"isebol":14604,"quadros":14605,"Ministros":14606,"reconheceu":14607,"Diocese":14608,"Weber":14609,"auxiliar":14610,"peruano":14611,"informática":14612,"eficaz":14613,"sanguíne":14614,"Cemitério":14615,"Nau":14616,"PM":14617,"Tir":14618,"fú":14619,"vário":14620,"zil":14621,"rami":14622,"tomia":14623,"dioso":14624,"concreto":14625,"vaca":14626,"puseram":14627,"Guada":14628,"guaia":14629,"governar":14630,"Museus":14631,"Meca":14632,"Hotel":14633,"Gaia":14634,"democrática":14635,"mantêm":14636,"destruída":14637,"diminuiu":14638,"pescadores":14639,"Espacial":14640,"Leonor":14641,"Memória":14642,"Johannes":14643,"assentamentos":14644,"sacrifício":14645,"Borgonha":14646,"Piedade":14647,"ofensiva":14648,"crustáceos":14649,"Churchill":14650,"resíduos":14651,"Qa":14652,"gatos":14653,"rra":14654,"copia":14655,"istido":14656,"montes":14657,"palest":14658,"puri":14659,"correta":14660,"trecho":14661,"síveis":14662,"fluvial":14663,"dominação":14664,"baterista":14665,"Sabu":14666,"preparação":14667,"escolher":14668,"inscrição":14669,"Cres":14670,"Eus":14671,"Gália":14672,"Vin":14673,"bl":14674,"altitudes":14675,"pora":14676,"vilha":14677,"olas":14678,"locomo":14679,"Natureza":14680,"péis":14681,"Informação":14682,"Propri":14683,"abrir":14684,"Amarante":14685,"Herbert":14686,"atributos":14687,"contemporâneo":14688,"ferramenta":14689,"múltiplas":14690,"Ambiental":14691,"Mulheres":14692,"Bonaparte":14693,"Sergipe":14694,"Award":14695,"Ok":14696,"dul":14697,"astron":14698,"corridas":14699,"Comen":14700,"Caio":14701,"relatividade":14702,"Row":14703,"mortal":14704,"responde":14705,"Calheta":14706,"frequent":14707,"psicó":14708,"argumentos":14709,"descobrir":14710,"marítimo":14711,"Defini":14712,"alcançado":14713,"privilégios":14714,"Ved":14715,"aquando":14716,"grão":14717,"pino":14718,"daqueles":14719,"revo":14720,"cilidade":14721,"abas":14722,"consistente":14723,"Arms":14724,"Chin":14725,"xofre":14726,"oportunidades":14727,"Alcobaça":14728,"Canto":14729,"Ceu":14730,"Descri":14731,"Jon":14732,"lú":14733,"êxi":14734,"dad":14735,"sei":14736,"secular":14737,"umidade":14738,"trânsito":14739,"1826":14740,"fecun":14741,"cartes":14742,"quirições":14743,"giada":14744,"subordina":14745,"transformado":14746,"primeiramente":14747,"Luanda":14748,"Goul":14749,"composições":14750,"expandiu":14751,"nesto":14752,"amizade":14753,"favoráveis":14754,"Crow":14755,"reflete":14756,"[...]":14757,"ML":14758,"jardins":14759,"listas":14760,"sche":14761,"esculturas":14762,"tona":14763,"duro":14764,"gata":14765,"obtidos":14766,"Argé":14767,"Mila":14768,"publicamente":14769,"mons":14770,"externos":14771,"Bizant":14772,"Haiti":14773,"Valent":14774,"eleitorais":14775,"invasores":14776,"costume":14777,"imediato":14778,"Localiza":14779,"apelido":14780,"quartel":14781,"Argélia":14782,"HT":14783,"Olim":14784,"Soro":14785,"gby":14786,"remont":14787,"tax":14788,"lidar":14789,"hotel":14790,"range":14791,"braços":14792,"juízes":14793,"Marta":14794,"registrou":14795,"treia":14796,"mortais":14797,"Barroso":14798,"pertenceu":14799,"Instru":14800,"flutu":14801,"mostrando":14802,"Sítio":14803,"arredores":14804,"Sartre":14805,"destinada":14806,"assentamento":14807,"Wolf":14808,"Vermelha":14809,"Bac":14810,"Ria":14811,"Vé":14812,"mís":14813,"rego":14814,"mam":14815,"emos":14816,"convento":14817,"exame":14818,"hetero":14819,"bateria":14820,"hire":14821,"Caso":14822,"Quase":14823,"famosas":14824,"significando":14825,"financeiras":14826,"CON":14827,"béria":14828,"assinar":14829,"apoiou":14830,"Campinas":14831,"Associa":14832,"Gouveia":14833,"espermato":14834,"Glória":14835,"Ah":14836,"vinda":14837,"deco":14838,"renome":14839,"matar":14840,"compostas":14841,"porco":14842,"trazer":14843,"minério":14844,"fugir":14845,"Nave":14846,"georgi":14847,"Moniz":14848,"colunas":14849,"Barro":14850,"Teve":14851,"administrado":14852,"Polónia":14853,"elétricos":14854,"praticantes":14855,"peonatos":14856,"Milton":14857,"Vilas":14858,"demonstrar":14859,"personalidades":14860,"jurídico":14861,"Tecno":14862,"Sócrates":14863,"Borges":14864,"Ambiente":14865,"Psicologia":14866,"lunar":14867,"Pompeu":14868,"Paróquia":14869,"Nen":14870,"Várzea":14871,"icos":14872,"ésia":14873,"seve":14874,"tom":14875,"lah":14876,"zagem":14877,"Rey":14878,"1514":14879,"Paraíso":14880,"Lapa":14881,"códigos":14882,"buscar":14883,"identificado":14884,"financiamento":14885,"iniciaram":14886,"Kaf":14887,"doutrinas":14888,"dificul":14889,"Crise":14890,"enfrentar":14891,"bates":14892,"estreita":14893,"vertente":14894,"Alemão":14895,"humorista":14896,"Ceuta":14897,"Him":14898,"eco":14899,"gnos":14900,"ania":14901,"papéis":14902,"gira":14903,"1817":14904,"ciante":14905,"Unidades":14906,"clor":14907,"Radio":14908,"cionistas":14909,"substituiu":14910,"explorar":14911,"1841":14912,"morrer":14913,"Mello":14914,"cyclo":14915,"invadiu":14916,"negativo":14917,"alterado":14918,"férteis":14919,"documentário":14920,"escassez":14921,"sios":14922,"tung":14923,"concessão":14924,"vagens":14925,"uman":14926,"mim":14927,"Aldeias":14928,"marés":14929,"Análise":14930,"infla":14931,"consigo":14932,"típicas":14933,"consideração":14934,"Antão":14935,"correspondência":14936,"permitiram":14937,"coroado":14938,"dedicou":14939,"mantiveram":14940,"filosófica":14941,"vereadores":14942,"desanexados":14943,"Vasconcelos":14944,"Bela":14945,"jando":14946,"memente":14947,"ásio":14948,"óticas":14949,"decai":14950,"cadeira":14951,"compar":14952,"ussi":14953,"proposto":14954,"tosa":14955,"Reagan":14956,"métrico":14957,"nacionalistas":14958,"começar":14959,"continentes":14960,"administrativos":14961,"Canada":14962,"Element":14963,"Chafariz":14964,"proporções":14965,"Angeles":14966,"Urbano":14967,"candidatura":14968,"Christop":14969,"liderou":14970,"possibilidades":14971,"impulso":14972,"galáxias":14973,"Lobo":14974,"destinado":14975,"Camboja":14976,"Donald":14977,"Jane":14978,"más":14979,"psica":14980,"decorrer":14981,"raras":14982,"requer":14983,"retorna":14984,"alth":14985,"sofis":14986,"leão":14987,"1812":14988,"pudessem":14989,"ganhando":14990,"beisebol":14991,"Armas":14992,"mercantil":14993,"Invas":14994,"Bay":14995,"registem":14996,"mulos":14997,"parecia":14998,"acabar":14999,"demográfico":15000,"migrantes":15001,"Penha":15002,"infec":15003,"brilho":15004,"Democracia":15005,"modalidades":15006,"opiniões":15007,"plástico":15008,"catalis":15009,"Cus":15010,"Labora":15011,"Testem":15012,"nige":15013,"homi":15014,"conto":15015,"feriado":15016,"velhos":15017,"transcen":15018,"significativos":15019,"Berk":15020,"Mala":15021,"Organi":15022,"Pascal":15023,"Coutinho":15024,"Memorial":15025,"Campina":15026,"gigante":15027,"esquema":15028,"endereço":15029,"Philoso":15030,"Mame":15031,"membran":15032,"ste":15033,"ísa":15034,"cicle":15035,"argi":15036,"terciário":15037,"Conjunto":15038,"mund":15039,"ponente":15040,"nacionalismo":15041,"indicar":15042,"curva":15043,"prazer":15044,"Parana":15045,"Coronel":15046,"eleita":15047,"metano":15048,"articul":15049,"sentidos":15050,"distantes":15051,"Educa":15052,"hipóteses":15053,"Sydney":15054,"Timor":15055,"Folclórico":15056,"conselhos":15057,"fracasso":15058,"perfeiço":15059,"Árabe":15060,"Elizabeth":15061,"Abu":15062,"Gand":15063,"Lame":15064,"UD":15065,"ffe":15066,"jeira":15067,"lando":15068,"rumo":15069,"eso":15070,"reconquista":15071,"ergu":15072,"nativas":15073,"pontes":15074,"poetas":15075,"lizar":15076,"prole":15077,"vertebrados":15078,"hema":15079,"alizou":15080,"juntou":15081,"interrompi":15082,"cense":15083,"brou":15084,"Exterior":15085,"Diz":15086,"Pitágoras":15087,"estabelecidos":15088,"estabelecidas":15089,"cópia":15090,"humor":15091,"Democrático":15092,"Bissau":15093,"Disco":15094,"preservar":15095,"Celori":15096,"Africana":15097,"devoção":15098,"Bombeiros":15099,"Normalmente":15100,"Beatles":15101,"Armstrong":15102,"Fru":15103,"Rous":15104,"ting":15105,"ítico":15106,"escon":15107,"datas":15108,"osso":15109,"rir":15110,"poente":15111,"viú":15112,"haus":15113,"supri":15114,"costeiras":15115,"fago":15116,"mandade":15117,"menciona":15118,"hima":15119,"Limi":15120,"racão":15121,"cionalidade":15122,"climáticas":15123,"Calvino":15124,"forçada":15125,"substituindo":15126,"defendeu":15127,"cêu":15128,"Localidades":15129,"adequada":15130,"proibição":15131,"Principais":15132,"simboliza":15133,"relógio":15134,"%\"":15135,"Ada":15136,"Wit":15137,"fuma":15138,"riga":15139,"caixa":15140,"ties":15141,"ole":15142,"sufrágio":15143,"laia":15144,"1819":15145,"peste":15146,"veses":15147,"lharia":15148,"Nilo":15149,"Presidentes":15150,"bury":15151,"permanecem":15152,"cavaleiros":15153,"esperado":15154,"falecido":15155,"pedindo":15156,"facilitar":15157,"morfologia":15158,"Stanley":15159,"Antártida":15160,"explosão":15161,"torcedores":15162,"350":15163,"cozinha":15164,"reconhecidos":15165,"tao":15166,"alban":15167,"empí":15168,"enrique":15169,"pací":15170,"eibol":15171,"suprimi":15172,"fidal":15173,"ficá":15174,"provar":15175,"fotógrafo":15176,"ranga":15177,"castre":15178,"çadas":15179,"pero":15180,"mética":15181,"Castan":15182,"usavam":15183,"publicadas":15184,"controlo":15185,"permitido":15186,"kien":15187,"Índico":15188,"borda":15189,"fascismo":15190,"mostraram":15191,"with":15192,"organizadas":15193,"proporciona":15194,"esquerdo":15195,"idosos":15196,"eletrônico":15197,"celebração":15198,"parlamentares":15199,"disponibilidade":15200,"Professor":15201,"Secundária":15202,"Candomblé":15203,"Celorico":15204,"AT":15205,"Arena":15206,"GC":15207,"Habs":15208,"Pab":15209,"decor":15210,"desconhecido":15211,"suficientes":15212,"lava":15213,"milo":15214,"terreiro":15215,"perou":15216,"interess":15217,"métricas":15218,"bebida":15219,"platina":15220,"Extre":15221,"colocando":15222,"Doze":15223,"ofici":15224,"Granja":15225,"estruturais":15226,"Lomba":15227,"servidores":15228,"definiu":15229,"Funchal":15230,"completar":15231,"abertas":15232,"derrotou":15233,"visitou":15234,"variar":15235,"expulsão":15236,"enzima":15237,"Adriano":15238,"sujeitos":15239,"Rodovia":15240,"Espécies":15241,"Dy":15242,"Mende":15243,"O2":15244,"Ye":15245,
[...]
